{
  "version": "1.0",
  "truncation": null,
  "padding": null,
  "added_tokens": [
    {
      "id": 0,
      "content": "[UNK]",
      "single_word": false,
      "lstrip": false,
      "rstrip": false,
      "normalized": false,
      "special": true
    }
  ],
  "normalizer": {
    "type": "NFC"
  },
  "pre_tokenizer": null,
  "post_processor": null,
  "decoder": {
    "type": "ByteFallback"
  },
  "model": {
    "type": "BPE",
    "dropout": null,
    "unk_token": "[UNK]",
    "continuing_subword_prefix": null,
    "end_of_word_suffix": null,
    "fuse_unk": false,
    "byte_fallback": true,
    "ignore_merges": false,
    "vocab": {
      "[UNK]": 0,
      " ": 1,
      "!": 2,
      "\"": 3,
      "#": 4,
      "$": 5,
      "%": 6,
      "&": 7,
      "'": 8,
      "(": 9,
      ")": 10,
      "*": 11,
      "+": 12,
      ",": 13,
      "-": 14,
      ".": 15,
      "/": 16,
      "0": 17,
      "1": 18,
      "2": 19,
      "3": 20,
      "4": 21,
      "5": 22,
      "6": 23,
      "7": 24,
      "8": 25,
      "9": 26,
      ":": 27,
      ";": 28,
      "<": 29,
      "=": 30,
      ">": 31,
      "?": 32,
      "@": 33,
      "A": 34,
      "B": 35,
      "C": 36,
      "D": 37,
      "E": 38,
      "F": 39,
      "G": 40,
      "H": 41,
      "I": 42,
      "J": 43,
      "K": 44,
      "L": 45,
      "M": 46,
      "N": 47,
      "O": 48,
      "P": 49,
      "Q": 50,
      "R": 51,
      "S": 52,
      "T": 53,
      "U": 54,
      "V": 55,
      "W": 56,
      "X": 57,
      "Y": 58,
      "Z": 59,
      "[": 60,
      "\\": 61,
      "]": 62,
      "^": 63,
      "_": 64,
      "`": 65,
      "a": 66,
      "b": 67,
      "c": 68,
      "d": 69,
      "e": 70,
      "f": 71,
      "g": 72,
      "h": 73,
      "i": 74,
      "j": 75,
      "k": 76,
      "l": 77,
      "m": 78,
      "n": 79,
      "o": 80,
      "p": 81,
      "q": 82,
      "r": 83,
      "s": 84,
      "t": 85,
      "u": 86,
      "v": 87,
      "w": 88,
      "x": 89,
      "y": 90,
      "z": 91,
      "{": 92,
      "|": 93,
      "}": 94,
      "~": 95,
      "¡": 96,
      "¢": 97,
      "£": 98,
      "¥": 99,
      "¦": 100,
      "§": 101,
      "©": 102,
      "«": 103,
      "¬": 104,
      "­": 105,
      "®": 106,
      "¯": 107,
      "°": 108,
      "±": 109,
      "²": 110,
      "³": 111,
      "´": 112,
      "µ": 113,
      "·": 114,
      "¹": 115,
      "º": 116,
      "»": 117,
      "¼": 118,
      "½": 119,
      "¾": 120,
      "¿": 121,
      "À": 122,
      "Á": 123,
      "Â": 124,
      "Ä": 125,
      "Å": 126,
      "Æ": 127,
      "Ç": 128,
      "È": 129,
      "É": 130,
      "Ê": 131,
      "Ì": 132,
      "Í": 133,
      "Î": 134,
      "Ï": 135,
      "Ð": 136,
      "Ñ": 137,
      "Ò": 138,
      "Ó": 139,
      "Ô": 140,
      "Õ": 141,
      "Ö": 142,
      "×": 143,
      "Ø": 144,
      "Ù": 145,
      "Ú": 146,
      "Ü": 147,
      "Ý": 148,
      "Þ": 149,
      "ß": 150,
      "à": 151,
      "á": 152,
      "â": 153,
      "ã": 154,
      "ä": 155,
      "å": 156,
      "æ": 157,
      "ç": 158,
      "è": 159,
      "é": 160,
      "ê": 161,
      "ë": 162,
      "ì": 163,
      "í": 164,
      "î": 165,
      "ï": 166,
      "ð": 167,
      "ñ": 168,
      "ò": 169,
      "ó": 170,
      "ô": 171,
      "õ": 172,
      "ö": 173,
      "÷": 174,
      "ø": 175,
      "ù": 176,
      "ú": 177,
      "û": 178,
      "ü": 179,
      "ý": 180,
      "þ": 181,
      "ÿ": 182,
      "Ā": 183,
      "ā": 184,
      "Ă": 185,
      "ă": 186,
      "ą": 187,
      "ć": 188,
      "Ĉ": 189,
      "ĉ": 190,
      "Ċ": 191,
      "ċ": 192,
      "Č": 193,
      "č": 194,
      "ď": 195,
      "Đ": 196,
      "đ": 197,
      "Ē": 198,
      "ē": 199,
      "Ĕ": 200,
      "ĕ": 201,
      "ė": 202,
      "Ę": 203,
      "ę": 204,
      "ě": 205,
      "Ĝ": 206,
      "ĝ": 207,
      "ğ": 208,
      "Ġ": 209,
      "ġ": 210,
      "Ĥ": 211,
      "ĥ": 212,
      "Ħ": 213,
      "ħ": 214,
      "ĩ": 215,
      "Ī": 216,
      "ī": 217,
      "ĭ": 218,
      "į": 219,
      "İ": 220,
      "ı": 221,
      "Ĵ": 222,
      "ĵ": 223,
      "ĺ": 224,
      "Ļ": 225,
      "ļ": 226,
      "Ľ": 227,
      "ľ": 228,
      "Ł": 229,
      "ł": 230,
      "Ń": 231,
      "ń": 232,
      "Ņ": 233,
      "ņ": 234,
      "ň": 235,
      "Ŋ": 236,
      "ŋ": 237,
      "Ō": 238,
      "ō": 239,
      "ŏ": 240,
      "Ő": 241,
      "ő": 242,
      "Œ": 243,
      "œ": 244,
      "ŕ": 245,
      "Ŗ": 246,
      "ŗ": 247,
      "ř": 248,
      "Ś": 249,
      "ś": 250,
      "Ŝ": 251,
      "ŝ": 252,
      "Ş": 253,
      "ş": 254,
      "Š": 255,
      "š": 256,
      "ţ": 257,
      "ũ": 258,
      "Ū": 259,
      "ū": 260,
      "Ŭ": 261,
      "ŭ": 262,
      "ů": 263,
      "Ű": 264,
      "ű": 265,
      "ų": 266,
      "ŵ": 267,
      "ź": 268,
      "Ż": 269,
      "ż": 270,
      "Ž": 271,
      "ž": 272,
      "ſ": 273,
      "Ɓ": 274,
      "Ɔ": 275,
      "Ɗ": 276,
      "Ɛ": 277,
      "ƒ": 278,
      "Ƙ": 279,
      "ƙ": 280,
      "ơ": 281,
      "ƣ": 282,
      "ư": 283,
      "Ƴ": 284,
      "ƴ": 285,
      "ƿ": 286,
      "ǀ": 287,
      "ǎ": 288,
      "ǐ": 289,
      "ǒ": 290,
      "ǔ": 291,
      "ǝ": 292,
      "Ǟ": 293,
      "ǟ": 294,
      "ǣ": 295,
      "ǧ": 296,
      "ǫ": 297,
      "Ǵ": 298,
      "ǵ": 299,
      "Ƿ": 300,
      "Ǹ": 301,
      "ǹ": 302,
      "ș": 303,
      "Ț": 304,
      "ț": 305,
      "ȝ": 306,
      "Ȣ": 307,
      "Ȭ": 308,
      "ȭ": 309,
      "Ȯ": 310,
      "ȯ": 311,
      "Ȱ": 312,
      "ȱ": 313,
      "ɐ": 314,
      "ɑ": 315,
      "ɒ": 316,
      "ɓ": 317,
      "ɔ": 318,
      "ɕ": 319,
      "ɖ": 320,
      "ɗ": 321,
      "ə": 322,
      "ɛ": 323,
      "ɜ": 324,
      "ɟ": 325,
      "ɡ": 326,
      "ɣ": 327,
      "ɤ": 328,
      "ɥ": 329,
      "ɦ": 330,
      "ɧ": 331,
      "ɨ": 332,
      "ɪ": 333,
      "ɫ": 334,
      "ɯ": 335,
      "ɲ": 336,
      "ɳ": 337,
      "ɴ": 338,
      "ɵ": 339,
      "ɹ": 340,
      "ɻ": 341,
      "ɽ": 342,
      "ɾ": 343,
      "ʀ": 344,
      "ʁ": 345,
      "ʂ": 346,
      "ʃ": 347,
      "ʈ": 348,
      "ʉ": 349,
      "ʊ": 350,
      "ʋ": 351,
      "ʌ": 352,
      "ʎ": 353,
      "ʏ": 354,
      "ʑ": 355,
      "ʒ": 356,
      "ʔ": 357,
      "ʕ": 358,
      "ʰ": 359,
      "ʱ": 360,
      "ʲ": 361,
      "ʷ": 362,
      "ʹ": 363,
      "ʻ": 364,
      "ʼ": 365,
      "ʾ": 366,
      "ʿ": 367,
      "ˀ": 368,
      "ˁ": 369,
      "ˈ": 370,
      "ˌ": 371,
      "ː": 372,
      "ˑ": 373,
      "˘": 374,
      "˜": 375,
      "˝": 376,
      "˞": 377,
      "ˤ": 378,
      "̀": 379,
      "́": 380,
      "̃": 381,
      "̄": 382,
      "̅": 383,
      "̇": 384,
      "̋": 385,
      "̌": 386,
      "̍": 387,
      "̠": 388,
      "̡": 389,
      "̣": 390,
      "̥": 391,
      "̩": 392,
      "̯": 393,
      "̱": 394,
      "ͅ": 395,
      "͘": 396,
      "͟": 397,
      "͡": 398,
      "͵": 399,
      "Ά": 400,
      "Έ": 401,
      "Ή": 402,
      "Ό": 403,
      "ΐ": 404,
      "Α": 405,
      "Β": 406,
      "Γ": 407,
      "Δ": 408,
      "Ε": 409,
      "Ζ": 410,
      "Η": 411,
      "Θ": 412,
      "Ι": 413,
      "Κ": 414,
      "Λ": 415,
      "Μ": 416,
      "Ν": 417,
      "Ξ": 418,
      "Ο": 419,
      "Π": 420,
      "Ρ": 421,
      "Σ": 422,
      "Τ": 423,
      "Υ": 424,
      "Φ": 425,
      "Χ": 426,
      "Ω": 427,
      "ά": 428,
      "έ": 429,
      "ή": 430,
      "ί": 431,
      "α": 432,
      "β": 433,
      "γ": 434,
      "δ": 435,
      "ε": 436,
      "ζ": 437,
      "η": 438,
      "θ": 439,
      "ι": 440,
      "κ": 441,
      "λ": 442,
      "μ": 443,
      "ν": 444,
      "ξ": 445,
      "ο": 446,
      "π": 447,
      "ρ": 448,
      "ς": 449,
      "σ": 450,
      "τ": 451,
      "υ": 452,
      "φ": 453,
      "χ": 454,
      "ψ": 455,
      "ω": 456,
      "ϊ": 457,
      "ό": 458,
      "ύ": 459,
      "ώ": 460,
      "ϐ": 461,
      "Ϙ": 462,
      "ϙ": 463,
      "ϛ": 464,
      "Ϝ": 465,
      "ϝ": 466,
      "Ϟ": 467,
      "ϟ": 468,
      "Ϻ": 469,
      "Ё": 470,
      "Ђ": 471,
      "Ј": 472,
      "Ў": 473,
      "А": 474,
      "Б": 475,
      "В": 476,
      "Г": 477,
      "Д": 478,
      "Е": 479,
      "Ж": 480,
      "З": 481,
      "И": 482,
      "Й": 483,
      "К": 484,
      "Л": 485,
      "М": 486,
      "Н": 487,
      "О": 488,
      "П": 489,
      "Р": 490,
      "С": 491,
      "Т": 492,
      "У": 493,
      "Ф": 494,
      "Х": 495,
      "Ц": 496,
      "Ч": 497,
      "Ш": 498,
      "Щ": 499,
      "Ъ": 500,
      "Ы": 501,
      "Э": 502,
      "Ю": 503,
      "Я": 504,
      "а": 505,
      "б": 506,
      "в": 507,
      "г": 508,
      "д": 509,
      "е": 510,
      "ж": 511,
      "з": 512,
      "и": 513,
      "й": 514,
      "к": 515,
      "л": 516,
      "м": 517,
      "н": 518,
      "о": 519,
      "п": 520,
      "р": 521,
      "с": 522,
      "т": 523,
      "у": 524,
      "ф": 525,
      "х": 526,
      "ц": 527,
      "ч": 528,
      "ш": 529,
      "щ": 530,
      "ъ": 531,
      "ы": 532,
      "ь": 533,
      "э": 534,
      "ю": 535,
      "я": 536,
      "ё": 537,
      "ђ": 538,
      "і": 539,
      "ї": 540,
      "ј": 541,
      "ћ": 542,
      "ќ": 543,
      "ў": 544,
      "џ": 545,
      "ғ": 546,
      "Қ": 547,
      "қ": 548,
      "ң": 549,
      "ҧ": 550,
      "ұ": 551,
      "ҷ": 552,
      "Һ": 553,
      "һ": 554,
      "ӕ": 555,
      "ә": 556,
      "ӣ": 557,
      "Ө": 558,
      "ө": 559,
      "Գ": 560,
      "Դ": 561,
      "Ե": 562,
      "Հ": 563,
      "Ս": 564,
      "Ր": 565,
      "ա": 566,
      "բ": 567,
      "ե": 568,
      "է": 569,
      "թ": 570,
      "ի": 571,
      "լ": 572,
      "կ": 573,
      "մ": 574,
      "յ": 575,
      "ն": 576,
      "ո": 577,
      "պ": 578,
      "ս": 579,
      "վ": 580,
      "տ": 581,
      "ր": 582,
      "ց": 583,
      "ւ": 584,
      "ք": 585,
      "ֆ": 586,
      "և": 587,
      "֑": 588,
      "֛": 589,
      "֫": 590,
      "ְ": 591,
      "ֲ": 592,
      "ִ": 593,
      "ֵ": 594,
      "ֶ": 595,
      "ַ": 596,
      "ָ": 597,
      "ֹ": 598,
      "ּ": 599,
      "ׁ": 600,
      "ׂ": 601,
      "א": 602,
      "ב": 603,
      "ג": 604,
      "ד": 605,
      "ה": 606,
      "ו": 607,
      "ז": 608,
      "ח": 609,
      "ט": 610,
      "י": 611,
      "ך": 612,
      "כ": 613,
      "ל": 614,
      "ם": 615,
      "מ": 616,
      "ן": 617,
      "נ": 618,
      "ס": 619,
      "ע": 620,
      "ף": 621,
      "פ": 622,
      "ץ": 623,
      "צ": 624,
      "ק": 625,
      "ר": 626,
      "ש": 627,
      "ת": 628,
      "״": 629,
      "،": 630,
      "ء": 631,
      "آ": 632,
      "أ": 633,
      "ؤ": 634,
      "إ": 635,
      "ئ": 636,
      "ا": 637,
      "ب": 638,
      "ة": 639,
      "ت": 640,
      "ث": 641,
      "ج": 642,
      "ح": 643,
      "خ": 644,
      "د": 645,
      "ذ": 646,
      "ر": 647,
      "ز": 648,
      "س": 649,
      "ش": 650,
      "ص": 651,
      "ض": 652,
      "ط": 653,
      "ظ": 654,
      "ع": 655,
      "غ": 656,
      "ـ": 657,
      "ف": 658,
      "ق": 659,
      "ك": 660,
      "ل": 661,
      "م": 662,
      "ن": 663,
      "ه": 664,
      "و": 665,
      "ى": 666,
      "ي": 667,
      "ً": 668,
      "ٌ": 669,
      "ٍ": 670,
      "َ": 671,
      "ُ": 672,
      "ِ": 673,
      "ّ": 674,
      "ْ": 675,
      "ٓ": 676,
      "ٔ": 677,
      "٠": 678,
      "١": 679,
      "٢": 680,
      "٦": 681,
      "٧": 682,
      "٨": 683,
      "ٰ": 684,
      "ٱ": 685,
      "ٹ": 686,
      "پ": 687,
      "ځ": 688,
      "چ": 689,
      "ڈ": 690,
      "ڌ": 691,
      "ڑ": 692,
      "ړ": 693,
      "ښ": 694,
      "ک": 695,
      "ڪ": 696,
      "ڬ": 697,
      "گ": 698,
      "ں": 699,
      "ھ": 700,
      "ہ": 701,
      "ۆ": 702,
      "ۇ": 703,
      "ۋ": 704,
      "ی": 705,
      "ې": 706,
      "ە": 707,
      "ۖ": 708,
      "ۗ": 709,
      "ۘ": 710,
      "ۚ": 711,
      "۝": 712,
      "۞": 713,
      "۟": 714,
      "ۡ": 715,
      "ۢ": 716,
      "ۤ": 717,
      "ۥ": 718,
      "ۦ": 719,
      "ۧ": 720,
      "۬": 721,
      "ۭ": 722,
      "ܐ": 723,
      "ܒ": 724,
      "ܓ": 725,
      "ܕ": 726,
      "ܗ": 727,
      "ܘ": 728,
      "ܛ": 729,
      "ܝ": 730,
      "ܠ": 731,
      "ܡ": 732,
      "ܢ": 733,
      "ܣ": 734,
      "ܩ": 735,
      "ܪ": 736,
      "ܲ": 737,
      "ܵ": 738,
      "ނ": 739,
      "ބ": 740,
      "އ": 741,
      "މ": 742,
      "ދ": 743,
      "ލ": 744,
      "ގ": 745,
      "ޔ": 746,
      "ަ": 747,
      "ާ": 748,
      "ީ": 749,
      "ު": 750,
      "ޫ": 751,
      "ެ": 752,
      "ް": 753,
      "ँ": 754,
      "ं": 755,
      "ः": 756,
      "अ": 757,
      "आ": 758,
      "इ": 759,
      "ई": 760,
      "उ": 761,
      "ऊ": 762,
      "क": 763,
      "ख": 764,
      "ग": 765,
      "घ": 766,
      "च": 767,
      "छ": 768,
      "ज": 769,
      "ट": 770,
      "ड": 771,
      "ढ": 772,
      "ण": 773,
      "त": 774,
      "थ": 775,
      "द": 776,
      "ध": 777,
      "न": 778,
      "प": 779,
      "फ": 780,
      "ब": 781,
      "भ": 782,
      "म": 783,
      "य": 784,
      "र": 785,
      "ल": 786,
      "व": 787,
      "श": 788,
      "ष": 789,
      "स": 790,
      "ह": 791,
      "़": 792,
      "ा": 793,
      "ि": 794,
      "ी": 795,
      "ु": 796,
      "ू": 797,
      "े": 798,
      "्": 799,
      "।": 800,
      "ং": 801,
      "ই": 802,
      "উ": 803,
      "ও": 804,
      "ক": 805,
      "গ": 806,
      "চ": 807,
      "জ": 808,
      "ট": 809,
      "ণ": 810,
      "ত": 811,
      "দ": 812,
      "ন": 813,
      "প": 814,
      "ব": 815,
      "ম": 816,
      "য": 817,
      "র": 818,
      "ল": 819,
      "শ": 820,
      "স": 821,
      "হ": 822,
      "া": 823,
      "ি": 824,
      "ী": 825,
      "ু": 826,
      "ে": 827,
      "ো": 828,
      "্": 829,
      "৬": 830,
      "৭": 831,
      "৮": 832,
      "ਘ": 833,
      "ਜ": 834,
      "ਨ": 835,
      "ਪ": 836,
      "ਬ": 837,
      "ਮ": 838,
      "ਸ": 839,
      "ਹ": 840,
      "ਾ": 841,
      "ਿ": 842,
      "ੀ": 843,
      "ੋ": 844,
      "ੰ": 845,
      "ં": 846,
      "આ": 847,
      "ઇ": 848,
      "ઈ": 849,
      "ઉ": 850,
      "ઊ": 851,
      "ઓ": 852,
      "ખ": 853,
      "ગ": 854,
      "છ": 855,
      "જ": 856,
      "ત": 857,
      "ન": 858,
      "ફ": 859,
      "બ": 860,
      "ભ": 861,
      "મ": 862,
      "ર": 863,
      "લ": 864,
      "વ": 865,
      "શ": 866,
      "સ": 867,
      "હ": 868,
      "ા": 869,
      "ી": 870,
      "ુ": 871,
      "ે": 872,
      "ો": 873,
      "્": 874,
      "அ": 875,
      "உ": 876,
      "ஓ": 877,
      "க": 878,
      "ங": 879,
      "ச": 880,
      "ஜ": 881,
      "ட": 882,
      "ண": 883,
      "த": 884,
      "ந": 885,
      "ன": 886,
      "ப": 887,
      "ம": 888,
      "ய": 889,
      "ர": 890,
      "ல": 891,
      "ழ": 892,
      "வ": 893,
      "ஸ": 894,
      "ா": 895,
      "ி": 896,
      "ீ": 897,
      "ு": 898,
      "ூ": 899,
      "ை": 900,
      "ோ": 901,
      "்": 902,
      "క": 903,
      "గ": 904,
      "చ": 905,
      "జ": 906,
      "త": 907,
      "న": 908,
      "భ": 909,
      "మ": 910,
      "ర": 911,
      "ల": 912,
      "స": 913,
      "హ": 914,
      "ా": 915,
      "ి": 916,
      "ీ": 917,
      "ు": 918,
      "ె": 919,
      "ై": 920,
      "ొ": 921,
      "ో": 922,
      "్": 923,
      "ം": 924,
      "അ": 925,
      "ഉ": 926,
      "ക": 927,
      "ട": 928,
      "ന": 929,
      "പ": 930,
      "ബ": 931,
      "മ": 932,
      "യ": 933,
      "ര": 934,
      "റ": 935,
      "ല": 936,
      "ള": 937,
      "വ": 938,
      "ാ": 939,
      "ി": 940,
      "ു": 941,
      "ൈ": 942,
      "ൊ": 943,
      "്": 944,
      "ൽ": 945,
      "ං": 946,
      "ක": 947,
      "ග": 948,
      "ච": 949,
      "ජ": 950,
      "ට": 951,
      "ඩ": 952,
      "ණ": 953,
      "ත": 954,
      "ද": 955,
      "ධ": 956,
      "න": 957,
      "ප": 958,
      "බ": 959,
      "ම": 960,
      "ය": 961,
      "ර": 962,
      "ල": 963,
      "ව": 964,
      "ශ": 965,
      "ස": 966,
      "හ": 967,
      "්": 968,
      "ා": 969,
      "ි": 970,
      "ී": 971,
      "ු": 972,
      "ේ": 973,
      "ෝ": 974,
      "ก": 975,
      "ข": 976,
      "ค": 977,
      "ง": 978,
      "จ": 979,
      "ช": 980,
      "ณ": 981,
      "ด": 982,
      "ต": 983,
      "ท": 984,
      "น": 985,
      "บ": 986,
      "ป": 987,
      "ผ": 988,
      "พ": 989,
      "ภ": 990,
      "ม": 991,
      "ย": 992,
      "ร": 993,
      "ว": 994,
      "ศ": 995,
      "ษ": 996,
      "ส": 997,
      "ห": 998,
      "อ": 999,
      "ฯ": 1000,
      "ะ": 1001,
      "ั": 1002,
      "า": 1003,
      "ิ": 1004,
      "ี": 1005,
      "ื": 1006,
      "ุ": 1007,
      "เ": 1008,
      "แ": 1009,
      "ใ": 1010,
      "ไ": 1011,
      "็": 1012,
      "่": 1013,
      "้": 1014,
      "์": 1015,
      "་": 1016,
      "ཐ": 1017,
      "པ": 1018,
      "ཕ": 1019,
      "བ": 1020,
      "མ": 1021,
      "ལ": 1022,
      "ི": 1023,
      "ུ": 1024,
      "ླ": 1025,
      "ည": 1026,
      "တ": 1027,
      "ဓ": 1028,
      "န": 1029,
      "ယ": 1030,
      "ဝ": 1031,
      "ီ": 1032,
      "ု": 1033,
      "်": 1034,
      "ა": 1035,
      "ბ": 1036,
      "გ": 1037,
      "დ": 1038,
      "ე": 1039,
      "ვ": 1040,
      "ზ": 1041,
      "თ": 1042,
      "ი": 1043,
      "კ": 1044,
      "ლ": 1045,
      "მ": 1046,
      "ნ": 1047,
      "ო": 1048,
      "პ": 1049,
      "რ": 1050,
      "ს": 1051,
      "ტ": 1052,
      "უ": 1053,
      "ფ": 1054,
      "ქ": 1055,
      "ყ": 1056,
      "შ": 1057,
      "ჩ": 1058,
      "ც": 1059,
      "ძ": 1060,
      "ჭ": 1061,
      "ხ": 1062,
      "ჰ": 1063,
      "ᇁ": 1064,
      "ሀ": 1065,
      "ሁ": 1066,
      "ሂ": 1067,
      "ሃ": 1068,
      "ሄ": 1069,
      "ህ": 1070,
      "ሆ": 1071,
      "ሇ": 1072,
      "ለ": 1073,
      "ሉ": 1074,
      "ሊ": 1075,
      "ላ": 1076,
      "ሌ": 1077,
      "ል": 1078,
      "ሎ": 1079,
      "ሏ": 1080,
      "ሐ": 1081,
      "ሑ": 1082,
      "ሒ": 1083,
      "ሓ": 1084,
      "ሔ": 1085,
      "ሕ": 1086,
      "ሖ": 1087,
      "ሗ": 1088,
      "መ": 1089,
      "ሙ": 1090,
      "ሚ": 1091,
      "ማ": 1092,
      "ሜ": 1093,
      "ም": 1094,
      "ሞ": 1095,
      "ሟ": 1096,
      "ሠ": 1097,
      "ሡ": 1098,
      "ሢ": 1099,
      "ሣ": 1100,
      "ሤ": 1101,
      "ሥ": 1102,
      "ሦ": 1103,
      "ሧ": 1104,
      "ረ": 1105,
      "ሩ": 1106,
      "ሪ": 1107,
      "ራ": 1108,
      "ሬ": 1109,
      "ር": 1110,
      "ሮ": 1111,
      "ሯ": 1112,
      "ሰ": 1113,
      "ሱ": 1114,
      "ሲ": 1115,
      "ሳ": 1116,
      "ሴ": 1117,
      "ስ": 1118,
      "ሶ": 1119,
      "ሷ": 1120,
      "ሸ": 1121,
      "ሹ": 1122,
      "ሺ": 1123,
      "ሻ": 1124,
      "ሼ": 1125,
      "ሽ": 1126,
      "ሾ": 1127,
      "ሿ": 1128,
      "ቀ": 1129,
      "ቁ": 1130,
      "ቂ": 1131,
      "ቃ": 1132,
      "ቄ": 1133,
      "ቅ": 1134,
      "ቆ": 1135,
      "ቇ": 1136,
      "ቈ": 1137,
      "ቊ": 1138,
      "ቋ": 1139,
      "ቌ": 1140,
      "ቍ": 1141,
      "ቐ": 1142,
      "ቓ": 1143,
      "ቕ": 1144,
      "ቖ": 1145,
      "ቛ": 1146,
      "በ": 1147,
      "ቡ": 1148,
      "ቢ": 1149,
      "ባ": 1150,
      "ቤ": 1151,
      "ብ": 1152,
      "ቦ": 1153,
      "ቧ": 1154,
      "ቨ": 1155,
      "ቩ": 1156,
      "ቪ": 1157,
      "ቫ": 1158,
      "ቬ": 1159,
      "ቭ": 1160,
      "ቮ": 1161,
      "ቯ": 1162,
      "ተ": 1163,
      "ቱ": 1164,
      "ቲ": 1165,
      "ታ": 1166,
      "ቴ": 1167,
      "ት": 1168,
      "ቶ": 1169,
      "ቷ": 1170,
      "ቸ": 1171,
      "ቹ": 1172,
      "ቺ": 1173,
      "ቻ": 1174,
      "ቼ": 1175,
      "ች": 1176,
      "ቾ": 1177,
      "ቿ": 1178,
      "ኀ": 1179,
      "ኁ": 1180,
      "ኂ": 1181,
      "ኃ": 1182,
      "ኄ": 1183,
      "ኅ": 1184,
      "ኆ": 1185,
      "ኇ": 1186,
      "ኈ": 1187,
      "ኊ": 1188,
      "ኋ": 1189,
      "ኌ": 1190,
      "ኍ": 1191,
      "ነ": 1192,
      "ኑ": 1193,
      "ኒ": 1194,
      "ና": 1195,
      "ኔ": 1196,
      "ን": 1197,
      "ኖ": 1198,
      "ኗ": 1199,
      "ኘ": 1200,
      "ኙ": 1201,
      "ኚ": 1202,
      "ኛ": 1203,
      "ኜ": 1204,
      "ኝ": 1205,
      "ኞ": 1206,
      "ኟ": 1207,
      "አ": 1208,
      "ኡ": 1209,
      "ኢ": 1210,
      "ኣ": 1211,
      "ኤ": 1212,
      "እ": 1213,
      "ኦ": 1214,
      "ኧ": 1215,
      "ከ": 1216,
      "ኩ": 1217,
      "ኪ": 1218,
      "ካ": 1219,
      "ኬ": 1220,
      "ክ": 1221,
      "ኮ": 1222,
      "ኰ": 1223,
      "ኲ": 1224,
      "ኳ": 1225,
      "ኴ": 1226,
      "ኵ": 1227,
      "ኸ": 1228,
      "ኹ": 1229,
      "ኺ": 1230,
      "ኻ": 1231,
      "ኼ": 1232,
      "ኽ": 1233,
      "ኾ": 1234,
      "ዂ": 1235,
      "ዃ": 1236,
      "ዅ": 1237,
      "ወ": 1238,
      "ዉ": 1239,
      "ዊ": 1240,
      "ዋ": 1241,
      "ዌ": 1242,
      "ው": 1243,
      "ዎ": 1244,
      "ዐ": 1245,
      "ዑ": 1246,
      "ዒ": 1247,
      "ዓ": 1248,
      "ዔ": 1249,
      "ዕ": 1250,
      "ዖ": 1251,
      "ዘ": 1252,
      "ዙ": 1253,
      "ዚ": 1254,
      "ዛ": 1255,
      "ዜ": 1256,
      "ዝ": 1257,
      "ዞ": 1258,
      "ዟ": 1259,
      "ዠ": 1260,
      "ዡ": 1261,
      "ዢ": 1262,
      "ዣ": 1263,
      "ዤ": 1264,
      "ዥ": 1265,
      "ዦ": 1266,
      "ዧ": 1267,
      "የ": 1268,
      "ዩ": 1269,
      "ዪ": 1270,
      "ያ": 1271,
      "ዬ": 1272,
      "ይ": 1273,
      "ዮ": 1274,
      "ደ": 1275,
      "ዱ": 1276,
      "ዲ": 1277,
      "ዳ": 1278,
      "ዴ": 1279,
      "ድ": 1280,
      "ዶ": 1281,
      "ዷ": 1282,
      "ዸ": 1283,
      "ዺ": 1284,
      "ዻ": 1285,
      "ዼ": 1286,
      "ዽ": 1287,
      "ዾ": 1288,
      "ዿ": 1289,
      "ጀ": 1290,
      "ጁ": 1291,
      "ጂ": 1292,
      "ጃ": 1293,
      "ጄ": 1294,
      "ጅ": 1295,
      "ጆ": 1296,
      "ጇ": 1297,
      "ገ": 1298,
      "ጉ": 1299,
      "ጊ": 1300,
      "ጋ": 1301,
      "ጌ": 1302,
      "ግ": 1303,
      "ጎ": 1304,
      "ጏ": 1305,
      "ጐ": 1306,
      "ጒ": 1307,
      "ጓ": 1308,
      "ጔ": 1309,
      "ጕ": 1310,
      "ጘ": 1311,
      "ጙ": 1312,
      "ጚ": 1313,
      "ጛ": 1314,
      "ጜ": 1315,
      "ጝ": 1316,
      "ጞ": 1317,
      "ጠ": 1318,
      "ጡ": 1319,
      "ጢ": 1320,
      "ጣ": 1321,
      "ጤ": 1322,
      "ጥ": 1323,
      "ጦ": 1324,
      "ጧ": 1325,
      "ጨ": 1326,
      "ጩ": 1327,
      "ጪ": 1328,
      "ጫ": 1329,
      "ጬ": 1330,
      "ጭ": 1331,
      "ጮ": 1332,
      "ጯ": 1333,
      "ጰ": 1334,
      "ጱ": 1335,
      "ጲ": 1336,
      "ጳ": 1337,
      "ጴ": 1338,
      "ጵ": 1339,
      "ጶ": 1340,
      "ጸ": 1341,
      "ጹ": 1342,
      "ጺ": 1343,
      "ጻ": 1344,
      "ጼ": 1345,
      "ጽ": 1346,
      "ጾ": 1347,
      "ጿ": 1348,
      "ፀ": 1349,
      "ፁ": 1350,
      "ፂ": 1351,
      "ፃ": 1352,
      "ፄ": 1353,
      "ፅ": 1354,
      "ፆ": 1355,
      "ፈ": 1356,
      "ፉ": 1357,
      "ፊ": 1358,
      "ፋ": 1359,
      "ፌ": 1360,
      "ፍ": 1361,
      "ፎ": 1362,
      "ፏ": 1363,
      "ፐ": 1364,
      "ፑ": 1365,
      "ፒ": 1366,
      "ፓ": 1367,
      "ፔ": 1368,
      "ፕ": 1369,
      "ፖ": 1370,
      "ፗ": 1371,
      "ፘ": 1372,
      "፟": 1373,
      "፡": 1374,
      "።": 1375,
      "፣": 1376,
      "፤": 1377,
      "፥": 1378,
      "፦": 1379,
      "፧": 1380,
      "፨": 1381,
      "፩": 1382,
      "፪": 1383,
      "፫": 1384,
      "፬": 1385,
      "፭": 1386,
      "፮": 1387,
      "፯": 1388,
      "፰": 1389,
      "፱": 1390,
      "፲": 1391,
      "፳": 1392,
      "፴": 1393,
      "፵": 1394,
      "፶": 1395,
      "፷": 1396,
      "፸": 1397,
      "፹": 1398,
      "፺": 1399,
      "፻": 1400,
      "፼": 1401,
      "ᎆ": 1402,
      "᎗": 1403,
      "Ꭰ": 1404,
      "Ꭶ": 1405,
      "Ꭷ": 1406,
      "Ꭹ": 1407,
      "Ꭿ": 1408,
      "Ꮃ": 1409,
      "Ꮉ": 1410,
      "Ꮒ": 1411,
      "Ꮝ": 1412,
      "Ꮧ": 1413,
      "Ꮳ": 1414,
      "Ꮻ": 1415,
      "Ꮼ": 1416,
      "Ꮿ": 1417,
      "Ᏼ": 1418,
      "ᑕ": 1419,
      "ᑖ": 1420,
      "ᑭ": 1421,
      "ᓕ": 1422,
      "ᕋ": 1423,
      "ᕐ": 1424,
      "ᖅ": 1425,
      "᛫": 1426,
      "ᴀ": 1427,
      "ᴋ": 1428,
      "ᴍ": 1429,
      "ᴛ": 1430,
      "ḅ": 1431,
      "ḇ": 1432,
      "ḋ": 1433,
      "Ḍ": 1434,
      "ḍ": 1435,
      "ḏ": 1436,
      "Ḑ": 1437,
      "ḑ": 1438,
      "ḕ": 1439,
      "ḗ": 1440,
      "Ḥ": 1441,
      "ḥ": 1442,
      "Ḫ": 1443,
      "ḫ": 1444,
      "ḱ": 1445,
      "ḳ": 1446,
      "ḵ": 1447,
      "ḷ": 1448,
      "Ḿ": 1449,
      "ḿ": 1450,
      "ṁ": 1451,
      "Ṃ": 1452,
      "ṃ": 1453,
      "Ṅ": 1454,
      "ṅ": 1455,
      "ṇ": 1456,
      "ṉ": 1457,
      "ṍ": 1458,
      "ṕ": 1459,
      "ṙ": 1460,
      "ṛ": 1461,
      "ṟ": 1462,
      "ṡ": 1463,
      "Ṣ": 1464,
      "ṣ": 1465,
      "ṫ": 1466,
      "Ṭ": 1467,
      "ṭ": 1468,
      "Ṯ": 1469,
      "ṯ": 1470,
      "ṷ": 1471,
      "ẁ": 1472,
      "ẃ": 1473,
      "ẉ": 1474,
      "Ẓ": 1475,
      "ẓ": 1476,
      "Ạ": 1477,
      "ạ": 1478,
      "ả": 1479,
      "ấ": 1480,
      "ầ": 1481,
      "ẵ": 1482,
      "Ẹ": 1483,
      "ẹ": 1484,
      "ẽ": 1485,
      "ế": 1486,
      "ề": 1487,
      "ể": 1488,
      "ễ": 1489,
      "ệ": 1490,
      "Ị": 1491,
      "ị": 1492,
      "Ọ": 1493,
      "ọ": 1494,
      "ố": 1495,
      "ồ": 1496,
      "ộ": 1497,
      "ớ": 1498,
      "ờ": 1499,
      "ở": 1500,
      "Ợ": 1501,
      "ợ": 1502,
      "Ụ": 1503,
      "ụ": 1504,
      "ủ": 1505,
      "ữ": 1506,
      "ỳ": 1507,
      "ỵ": 1508,
      "ἀ": 1509,
      "ἄ": 1510,
      "ἅ": 1511,
      "Ἀ": 1512,
      "Ἁ": 1513,
      "Ἄ": 1514,
      "Ἅ": 1515,
      "ἐ": 1516,
      "ἑ": 1517,
      "ἒ": 1518,
      "ἔ": 1519,
      "ἕ": 1520,
      "Ἐ": 1521,
      "Ἔ": 1522,
      "ἠ": 1523,
      "ἡ": 1524,
      "ἥ": 1525,
      "Ἡ": 1526,
      "ἰ": 1527,
      "ἱ": 1528,
      "ἴ": 1529,
      "Ἰ": 1530,
      "Ἱ": 1531,
      "Ἴ": 1532,
      "Ἵ": 1533,
      "ὀ": 1534,
      "ὁ": 1535,
      "ὄ": 1536,
      "Ὀ": 1537,
      "ὐ": 1538,
      "ὑ": 1539,
      "Ὑ": 1540,
      "ὥ": 1541,
      "ὰ": 1542,
      "ὴ": 1543,
      "ὶ": 1544,
      "ὸ": 1545,
      "ᾱ": 1546,
      "᾽": 1547,
      "ῃ": 1548,
      "ῆ": 1549,
      "ῖ": 1550,
      "ῦ": 1551,
      "Ῥ": 1552,
      "ῶ": 1553,
      "​": 1554,
      "‌": 1555,
      "‍": 1556,
      "‎": 1557,
      "‏": 1558,
      "‐": 1559,
      "‑": 1560,
      "–": 1561,
      "—": 1562,
      "―": 1563,
      "‘": 1564,
      "’": 1565,
      "‛": 1566,
      "“": 1567,
      "”": 1568,
      "„": 1569,
      "‟": 1570,
      "†": 1571,
      "•": 1572,
      "…": 1573,
      "‧": 1574,
      "‬": 1575,
      "′": 1576,
      "″": 1577,
      "‹": 1578,
      "›": 1579,
      "‿": 1580,
      "⁄": 1581,
      "⁠": 1582,
      "ⁿ": 1583,
      "₦": 1584,
      "₨": 1585,
      "₫": 1586,
      "€": 1587,
      "⃣": 1588,
      "℅": 1589,
      "ℑ": 1590,
      "ℓ": 1591,
      "ℕ": 1592,
      "ℜ": 1593,
      "™": 1594,
      "⅓": 1595,
      "⅔": 1596,
      "←": 1597,
      "↑": 1598,
      "→": 1599,
      "↔": 1600,
      "↵": 1601,
      "⇒": 1602,
      "⇔": 1603,
      "∀": 1604,
      "∅": 1605,
      "∆": 1606,
      "∈": 1607,
      "∉": 1608,
      "−": 1609,
      "∗": 1610,
      "√": 1611,
      "∞": 1612,
      "∧": 1613,
      "∨": 1614,
      "∪": 1615,
      "∷": 1616,
      "≈": 1617,
      "≠": 1618,
      "≡": 1619,
      "≤": 1620,
      "≥": 1621,
      "⊂": 1622,
      "⊆": 1623,
      "⊇": 1624,
      "⊊": 1625,
      "⊕": 1626,
      "⋅": 1627,
      "⋔": 1628,
      "⋯": 1629,
      "▂": 1630,
      "▶": 1631,
      "◌": 1632,
      "●": 1633,
      "★": 1634,
      "☆": 1635,
      "☔": 1636,
      "☜": 1637,
      "☞": 1638,
      "☪": 1639,
      "♒": 1640,
      "♥": 1641,
      "♦": 1642,
      "✅": 1643,
      "✈": 1644,
      "✍": 1645,
      "✓": 1646,
      "✞": 1647,
      "✳": 1648,
      "❀": 1649,
      "❌": 1650,
      "❖": 1651,
      "➞": 1652,
      "⟨": 1653,
      "⟩": 1654,
      "ⲇ": 1655,
      "ⲓ": 1656,
      "ⲡ": 1657,
      "ⴰ": 1658,
      "ⴱ": 1659,
      "ⴳ": 1660,
      "ⴷ": 1661,
      "ⴻ": 1662,
      "ⴼ": 1663,
      "ⵉ": 1664,
      "ⵍ": 1665,
      "ⵎ": 1666,
      "ⵏ": 1667,
      "ⵓ": 1668,
      "ⵔ": 1669,
      "ⵖ": 1670,
      "ⵙ": 1671,
      "ⵜ": 1672,
      "ⵢ": 1673,
      "ⵣ": 1674,
      "、": 1675,
      "。": 1676,
      "「": 1677,
      "」": 1678,
      "【": 1679,
      "】": 1680,
      "あ": 1681,
      "い": 1682,
      "う": 1683,
      "え": 1684,
      "お": 1685,
      "か": 1686,
      "が": 1687,
      "き": 1688,
      "け": 1689,
      "こ": 1690,
      "ご": 1691,
      "さ": 1692,
      "し": 1693,
      "じ": 1694,
      "す": 1695,
      "せ": 1696,
      "そ": 1697,
      "た": 1698,
      "だ": 1699,
      "ち": 1700,
      "で": 1701,
      "と": 1702,
      "な": 1703,
      "に": 1704,
      "の": 1705,
      "は": 1706,
      "ひ": 1707,
      "び": 1708,
      "ふ": 1709,
      "べ": 1710,
      "ほ": 1711,
      "ま": 1712,
      "み": 1713,
      "も": 1714,
      "ょ": 1715,
      "よ": 1716,
      "ら": 1717,
      "り": 1718,
      "る": 1719,
      "れ": 1720,
      "を": 1721,
      "ん": 1722,
      "ア": 1723,
      "ィ": 1724,
      "イ": 1725,
      "ゥ": 1726,
      "ウ": 1727,
      "エ": 1728,
      "オ": 1729,
      "カ": 1730,
      "ガ": 1731,
      "キ": 1732,
      "ギ": 1733,
      "ク": 1734,
      "グ": 1735,
      "ケ": 1736,
      "コ": 1737,
      "ゴ": 1738,
      "サ": 1739,
      "ザ": 1740,
      "シ": 1741,
      "ジ": 1742,
      "ス": 1743,
      "ズ": 1744,
      "セ": 1745,
      "ゼ": 1746,
      "ソ": 1747,
      "タ": 1748,
      "ダ": 1749,
      "チ": 1750,
      "ッ": 1751,
      "ツ": 1752,
      "テ": 1753,
      "ト": 1754,
      "ド": 1755,
      "ナ": 1756,
      "ニ": 1757,
      "ネ": 1758,
      "ハ": 1759,
      "バ": 1760,
      "パ": 1761,
      "ヒ": 1762,
      "ビ": 1763,
      "ピ": 1764,
      "フ": 1765,
      "ブ": 1766,
      "プ": 1767,
      "ベ": 1768,
      "ボ": 1769,
      "ポ": 1770,
      "マ": 1771,
      "ム": 1772,
      "メ": 1773,
      "モ": 1774,
      "ヤ": 1775,
      "ョ": 1776,
      "ヨ": 1777,
      "ラ": 1778,
      "リ": 1779,
      "ル": 1780,
      "レ": 1781,
      "ロ": 1782,
      "ワ": 1783,
      "ン": 1784,
      "・": 1785,
      "ー": 1786,
      "ㄱ": 1787,
      "ㄷ": 1788,
      "ㄹ": 1789,
      "ㅂ": 1790,
      "ㅇ": 1791,
      "ㅈ": 1792,
      "一": 1793,
      "丁": 1794,
      "七": 1795,
      "万": 1796,
      "三": 1797,
      "上": 1798,
      "下": 1799,
      "不": 1800,
      "专": 1801,
      "世": 1802,
      "东": 1803,
      "严": 1804,
      "中": 1805,
      "丰": 1806,
      "丹": 1807,
      "主": 1808,
      "义": 1809,
      "乌": 1810,
      "九": 1811,
      "书": 1812,
      "争": 1813,
      "事": 1814,
      "二": 1815,
      "云": 1816,
      "五": 1817,
      "亚": 1818,
      "亜": 1819,
      "京": 1820,
      "人": 1821,
      "仁": 1822,
      "今": 1823,
      "仏": 1824,
      "仙": 1825,
      "代": 1826,
      "令": 1827,
      "仲": 1828,
      "任": 1829,
      "伊": 1830,
      "伍": 1831,
      "伏": 1832,
      "会": 1833,
      "伝": 1834,
      "伟": 1835,
      "伦": 1836,
      "伯": 1837,
      "体": 1838,
      "何": 1839,
      "作": 1840,
      "佺": 1841,
      "例": 1842,
      "供": 1843,
      "侠": 1844,
      "俊": 1845,
      "信": 1846,
      "們": 1847,
      "倫": 1848,
      "健": 1849,
      "傳": 1850,
      "儒": 1851,
      "儿": 1852,
      "兄": 1853,
      "兆": 1854,
      "光": 1855,
      "兎": 1856,
      "兒": 1857,
      "兖": 1858,
      "全": 1859,
      "八": 1860,
      "公": 1861,
      "六": 1862,
      "兰": 1863,
      "共": 1864,
      "内": 1865,
      "円": 1866,
      "写": 1867,
      "农": 1868,
      "刑": 1869,
      "列": 1870,
      "刘": 1871,
      "判": 1872,
      "利": 1873,
      "剌": 1874,
      "剑": 1875,
      "剛": 1876,
      "剣": 1877,
      "劉": 1878,
      "办": 1879,
      "加": 1880,
      "务": 1881,
      "労": 1882,
      "勉": 1883,
      "勤": 1884,
      "包": 1885,
      "化": 1886,
      "北": 1887,
      "匡": 1888,
      "十": 1889,
      "华": 1890,
      "南": 1891,
      "博": 1892,
      "印": 1893,
      "厦": 1894,
      "参": 1895,
      "友": 1896,
      "双": 1897,
      "发": 1898,
      "取": 1899,
      "口": 1900,
      "古": 1901,
      "可": 1902,
      "台": 1903,
      "史": 1904,
      "叶": 1905,
      "司": 1906,
      "各": 1907,
      "合": 1908,
      "吉": 1909,
      "同": 1910,
      "名": 1911,
      "向": 1912,
      "君": 1913,
      "吠": 1914,
      "启": 1915,
      "吳": 1916,
      "吴": 1917,
      "员": 1918,
      "周": 1919,
      "和": 1920,
      "品": 1921,
      "哈": 1922,
      "哥": 1923,
      "哲": 1924,
      "商": 1925,
      "善": 1926,
      "喋": 1927,
      "喾": 1928,
      "嚴": 1929,
      "四": 1930,
      "団": 1931,
      "国": 1932,
      "國": 1933,
      "園": 1934,
      "土": 1935,
      "在": 1936,
      "地": 1937,
      "坊": 1938,
      "坎": 1939,
      "垒": 1940,
      "城": 1941,
      "執": 1942,
      "基": 1943,
      "堂": 1944,
      "堅": 1945,
      "塔": 1946,
      "塞": 1947,
      "墨": 1948,
      "壁": 1949,
      "士": 1950,
      "壬": 1951,
      "复": 1952,
      "外": 1953,
      "夢": 1954,
      "大": 1955,
      "天": 1956,
      "太": 1957,
      "夫": 1958,
      "头": 1959,
      "奈": 1960,
      "女": 1961,
      "好": 1962,
      "如": 1963,
      "始": 1964,
      "姜": 1965,
      "威": 1966,
      "娃": 1967,
      "婉": 1968,
      "婷": 1969,
      "嫩": 1970,
      "嬴": 1971,
      "子": 1972,
      "孔": 1973,
      "字": 1974,
      "季": 1975,
      "学": 1976,
      "孫": 1977,
      "宁": 1978,
      "宇": 1979,
      "安": 1980,
      "宋": 1981,
      "宗": 1982,
      "官": 1983,
      "宜": 1984,
      "宝": 1985,
      "客": 1986,
      "宣": 1987,
      "宮": 1988,
      "家": 1989,
      "密": 1990,
      "富": 1991,
      "寒": 1992,
      "寧": 1993,
      "射": 1994,
      "尊": 1995,
      "小": 1996,
      "少": 1997,
      "尔": 1998,
      "尧": 1999,
      "尹": 2000,
      "尼": 2001,
      "居": 2002,
      "屋": 2003,
      "屬": 2004,
      "山": 2005,
      "岛": 2006,
      "岢": 2007,
      "峯": 2008,
      "峰": 2009,
      "島": 2010,
      "崎": 2011,
      "川": 2012,
      "州": 2013,
      "己": 2014,
      "巴": 2015,
      "市": 2016,
      "布": 2017,
      "师": 2018,
      "希": 2019,
      "帝": 2020,
      "帶": 2021,
      "常": 2022,
      "幌": 2023,
      "平": 2024,
      "年": 2025,
      "广": 2026,
      "庄": 2027,
      "庆": 2028,
      "庖": 2029,
      "庚": 2030,
      "庠": 2031,
      "度": 2032,
      "庭": 2033,
      "康": 2034,
      "廑": 2035,
      "延": 2036,
      "建": 2037,
      "弗": 2038,
      "张": 2039,
      "張": 2040,
      "強": 2041,
      "彩": 2042,
      "彼": 2043,
      "徐": 2044,
      "得": 2045,
      "御": 2046,
      "復": 2047,
      "徳": 2048,
      "德": 2049,
      "徽": 2050,
      "心": 2051,
      "志": 2052,
      "念": 2053,
      "性": 2054,
      "总": 2055,
      "恆": 2056,
      "恨": 2057,
      "恩": 2058,
      "您": 2059,
      "情": 2060,
      "想": 2061,
      "愈": 2062,
      "意": 2063,
      "愛": 2064,
      "感": 2065,
      "憲": 2066,
      "成": 2067,
      "我": 2068,
      "戦": 2069,
      "所": 2070,
      "扃": 2071,
      "手": 2072,
      "才": 2073,
      "托": 2074,
      "批": 2075,
      "承": 2076,
      "拳": 2077,
      "拾": 2078,
      "指": 2079,
      "挺": 2080,
      "据": 2081,
      "探": 2082,
      "摩": 2083,
      "操": 2084,
      "改": 2085,
      "政": 2086,
      "敏": 2087,
      "教": 2088,
      "敬": 2089,
      "數": 2090,
      "文": 2091,
      "斎": 2092,
      "斬": 2093,
      "斯": 2094,
      "新": 2095,
      "方": 2096,
      "旅": 2097,
      "日": 2098,
      "旧": 2099,
      "早": 2100,
      "时": 2101,
      "昆": 2102,
      "昊": 2103,
      "昌": 2104,
      "明": 2105,
      "星": 2106,
      "映": 2107,
      "春": 2108,
      "昭": 2109,
      "時": 2110,
      "晓": 2111,
      "景": 2112,
      "暂": 2113,
      "曜": 2114,
      "書": 2115,
      "曹": 2116,
      "替": 2117,
      "月": 2118,
      "望": 2119,
      "朝": 2120,
      "期": 2121,
      "木": 2122,
      "未": 2123,
      "本": 2124,
      "札": 2125,
      "朱": 2126,
      "朴": 2127,
      "李": 2128,
      "杜": 2129,
      "条": 2130,
      "杭": 2131,
      "東": 2132,
      "杵": 2133,
      "林": 2134,
      "柏": 2135,
      "柔": 2136,
      "查": 2137,
      "柳": 2138,
      "树": 2139,
      "校": 2140,
      "格": 2141,
      "桀": 2142,
      "梅": 2143,
      "检": 2144,
      "棚": 2145,
      "棠": 2146,
      "植": 2147,
      "楊": 2148,
      "楚": 2149,
      "楠": 2150,
      "極": 2151,
      "構": 2152,
      "槐": 2153,
      "樂": 2154,
      "樊": 2155,
      "横": 2156,
      "樹": 2157,
      "橋": 2158,
      "橙": 2159,
      "機": 2160,
      "欧": 2161,
      "欽": 2162,
      "歌": 2163,
      "正": 2164,
      "武": 2165,
      "歴": 2166,
      "死": 2167,
      "段": 2168,
      "殺": 2169,
      "毛": 2170,
      "民": 2171,
      "気": 2172,
      "水": 2173,
      "永": 2174,
      "汉": 2175,
      "汕": 2176,
      "江": 2177,
      "池": 2178,
      "沃": 2179,
      "沈": 2180,
      "沙": 2181,
      "沟": 2182,
      "沪": 2183,
      "河": 2184,
      "泄": 2185,
      "泉": 2186,
      "法": 2187,
      "波": 2188,
      "泥": 2189,
      "泰": 2190,
      "泽": 2191,
      "洋": 2192,
      "津": 2193,
      "洲": 2194,
      "流": 2195,
      "济": 2196,
      "浙": 2197,
      "浦": 2198,
      "浩": 2199,
      "海": 2200,
      "涿": 2201,
      "淄": 2202,
      "深": 2203,
      "添": 2204,
      "渡": 2205,
      "渤": 2206,
      "温": 2207,
      "港": 2208,
      "湖": 2209,
      "湘": 2210,
      "湛": 2211,
      "湯": 2212,
      "湾": 2213,
      "滑": 2214,
      "滨": 2215,
      "漢": 2216,
      "漪": 2217,
      "漳": 2218,
      "潮": 2219,
      "潽": 2220,
      "澎": 2221,
      "澤": 2222,
      "澳": 2223,
      "濠": 2224,
      "火": 2225,
      "灵": 2226,
      "炎": 2227,
      "為": 2228,
      "烟": 2229,
      "無": 2230,
      "然": 2231,
      "煐": 2232,
      "照": 2233,
      "熊": 2234,
      "熱": 2235,
      "燕": 2236,
      "爱": 2237,
      "爾": 2238,
      "牛": 2239,
      "牟": 2240,
      "物": 2241,
      "牺": 2242,
      "犀": 2243,
      "犬": 2244,
      "独": 2245,
      "猪": 2246,
      "猫": 2247,
      "猿": 2248,
      "玉": 2249,
      "王": 2250,
      "现": 2251,
      "玲": 2252,
      "珊": 2253,
      "珍": 2254,
      "現": 2255,
      "球": 2256,
      "琪": 2257,
      "瑟": 2258,
      "璠": 2259,
      "璧": 2260,
      "環": 2261,
      "瓔": 2262,
      "瓦": 2263,
      "甘": 2264,
      "生": 2265,
      "産": 2266,
      "用": 2267,
      "甫": 2268,
      "甬": 2269,
      "田": 2270,
      "甲": 2271,
      "男": 2272,
      "画": 2273,
      "略": 2274,
      "當": 2275,
      "疆": 2276,
      "疏": 2277,
      "登": 2278,
      "白": 2279,
      "的": 2280,
      "皇": 2281,
      "皋": 2282,
      "盆": 2283,
      "盛": 2284,
      "盧": 2285,
      "目": 2286,
      "直": 2287,
      "相": 2288,
      "真": 2289,
      "石": 2290,
      "磁": 2291,
      "礼": 2292,
      "祖": 2293,
      "神": 2294,
      "祥": 2295,
      "票": 2296,
      "福": 2297,
      "禦": 2298,
      "禮": 2299,
      "秀": 2300,
      "私": 2301,
      "科": 2302,
      "秘": 2303,
      "秦": 2304,
      "稽": 2305,
      "空": 2306,
      "立": 2307,
      "章": 2308,
      "竹": 2309,
      "第": 2310,
      "筆": 2311,
      "策": 2312,
      "節": 2313,
      "篇": 2314,
      "米": 2315,
      "粤": 2316,
      "粵": 2317,
      "精": 2318,
      "約": 2319,
      "素": 2320,
      "細": 2321,
      "統": 2322,
      "經": 2323,
      "綺": 2324,
      "綽": 2325,
      "総": 2326,
      "緑": 2327,
      "縞": 2328,
      "约": 2329,
      "纪": 2330,
      "纵": 2331,
      "线": 2332,
      "统": 2333,
      "羅": 2334,
      "羊": 2335,
      "美": 2336,
      "群": 2337,
      "義": 2338,
      "羲": 2339,
      "翊": 2340,
      "耀": 2341,
      "老": 2342,
      "考": 2343,
      "耆": 2344,
      "耳": 2345,
      "聿": 2346,
      "肃": 2347,
      "肖": 2348,
      "肥": 2349,
      "育": 2350,
      "胆": 2351,
      "胶": 2352,
      "臘": 2353,
      "自": 2354,
      "舒": 2355,
      "舜": 2356,
      "船": 2357,
      "色": 2358,
      "艸": 2359,
      "节": 2360,
      "芜": 2361,
      "芬": 2362,
      "花": 2363,
      "芳": 2364,
      "苏": 2365,
      "苓": 2366,
      "英": 2367,
      "茂": 2368,
      "茶": 2369,
      "草": 2370,
      "莆": 2371,
      "莱": 2372,
      "華": 2373,
      "菲": 2374,
      "营": 2375,
      "萧": 2376,
      "葛": 2377,
      "蒲": 2378,
      "蓝": 2379,
      "蓟": 2380,
      "蓮": 2381,
      "蔡": 2382,
      "蕭": 2383,
      "薇": 2384,
      "藏": 2385,
      "蘭": 2386,
      "虎": 2387,
      "虫": 2388,
      "蛇": 2389,
      "蝴": 2390,
      "蝶": 2391,
      "蠻": 2392,
      "血": 2393,
      "衆": 2394,
      "行": 2395,
      "術": 2396,
      "街": 2397,
      "表": 2398,
      "西": 2399,
      "覧": 2400,
      "親": 2401,
      "觀": 2402,
      "記": 2403,
      "許": 2404,
      "詩": 2405,
      "話": 2406,
      "誕": 2407,
      "語": 2408,
      "説": 2409,
      "論": 2410,
      "謎": 2411,
      "謝": 2412,
      "謹": 2413,
      "譚": 2414,
      "让": 2415,
      "议": 2416,
      "话": 2417,
      "语": 2418,
      "诸": 2419,
      "豚": 2420,
      "象": 2421,
      "豢": 2422,
      "豪": 2423,
      "貝": 2424,
      "貫": 2425,
      "買": 2426,
      "賈": 2427,
      "贵": 2428,
      "贾": 2429,
      "赣": 2430,
      "赤": 2431,
      "趙": 2432,
      "跆": 2433,
      "跡": 2434,
      "路": 2435,
      "身": 2436,
      "軍": 2437,
      "轮": 2438,
      "轼": 2439,
      "辛": 2440,
      "辣": 2441,
      "農": 2442,
      "辽": 2443,
      "达": 2444,
      "运": 2445,
      "远": 2446,
      "迦": 2447,
      "迪": 2448,
      "通": 2449,
      "連": 2450,
      "逸": 2451,
      "道": 2452,
      "達": 2453,
      "遷": 2454,
      "邦": 2455,
      "邯": 2456,
      "郎": 2457,
      "郑": 2458,
      "部": 2459,
      "郭": 2460,
      "郷": 2461,
      "都": 2462,
      "酒": 2463,
      "重": 2464,
      "野": 2465,
      "金": 2466,
      "鉉": 2467,
      "銀": 2468,
      "銘": 2469,
      "錯": 2470,
      "鐵": 2471,
      "钱": 2472,
      "铁": 2473,
      "铜": 2474,
      "锦": 2475,
      "镜": 2476,
      "長": 2477,
      "长": 2478,
      "門": 2479,
      "閔": 2480,
      "门": 2481,
      "间": 2482,
      "阪": 2483,
      "阳": 2484,
      "阵": 2485,
      "阿": 2486,
      "陀": 2487,
      "陇": 2488,
      "陈": 2489,
      "降": 2490,
      "陕": 2491,
      "陛": 2492,
      "陰": 2493,
      "陸": 2494,
      "陽": 2495,
      "隆": 2496,
      "際": 2497,
      "雄": 2498,
      "雅": 2499,
      "集": 2500,
      "雍": 2501,
      "雙": 2502,
      "雨": 2503,
      "雪": 2504,
      "雯": 2505,
      "雲": 2506,
      "雷": 2507,
      "霑": 2508,
      "露": 2509,
      "青": 2510,
      "非": 2511,
      "面": 2512,
      "韓": 2513,
      "韜": 2514,
      "韦": 2515,
      "韩": 2516,
      "韶": 2517,
      "順": 2518,
      "頊": 2519,
      "領": 2520,
      "顓": 2521,
      "顺": 2522,
      "顿": 2523,
      "風": 2524,
      "食": 2525,
      "飲": 2526,
      "飾": 2527,
      "首": 2528,
      "香": 2529,
      "馬": 2530,
      "騎": 2531,
      "騏": 2532,
      "马": 2533,
      "高": 2534,
      "魂": 2535,
      "魏": 2536,
      "魚": 2537,
      "鮮": 2538,
      "鰐": 2539,
      "鱷": 2540,
      "鳥": 2541,
      "鶏": 2542,
      "鷗": 2543,
      "鹰": 2544,
      "鹿": 2545,
      "麒": 2546,
      "麟": 2547,
      "麻": 2548,
      "黃": 2549,
      "黄": 2550,
      "黎": 2551,
      "黑": 2552,
      "黒": 2553,
      "黔": 2554,
      "黙": 2555,
      "鼠": 2556,
      "齊": 2557,
      "齐": 2558,
      "龍": 2559,
      "龙": 2560,
      "龜": 2561,
      "ꜜ": 2562,
      "Ꜹ": 2563,
      "가": 2564,
      "감": 2565,
      "강": 2566,
      "갱": 2567,
      "건": 2568,
      "게": 2569,
      "견": 2570,
      "경": 2571,
      "계": 2572,
      "고": 2573,
      "곱": 2574,
      "공": 2575,
      "교": 2576,
      "구": 2577,
      "국": 2578,
      "군": 2579,
      "글": 2580,
      "금": 2581,
      "기": 2582,
      "까": 2583,
      "깨": 2584,
      "꽃": 2585,
      "끼": 2586,
      "나": 2587,
      "남": 2588,
      "내": 2589,
      "너": 2590,
      "네": 2591,
      "넷": 2592,
      "녁": 2593,
      "년": 2594,
      "념": 2595,
      "녕": 2596,
      "노": 2597,
      "누": 2598,
      "눈": 2599,
      "뉴": 2600,
      "느": 2601,
      "는": 2602,
      "니": 2603,
      "님": 2604,
      "다": 2605,
      "닦": 2606,
      "달": 2607,
      "당": 2608,
      "대": 2609,
      "덟": 2610,
      "도": 2611,
      "독": 2612,
      "동": 2613,
      "되": 2614,
      "둘": 2615,
      "드": 2616,
      "든": 2617,
      "들": 2618,
      "디": 2619,
      "라": 2620,
      "람": 2621,
      "랑": 2622,
      "래": 2623,
      "러": 2624,
      "레": 2625,
      "로": 2626,
      "룡": 2627,
      "루": 2628,
      "르": 2629,
      "륵": 2630,
      "른": 2631,
      "를": 2632,
      "리": 2633,
      "립": 2634,
      "마": 2635,
      "만": 2636,
      "말": 2637,
      "맙": 2638,
      "망": 2639,
      "매": 2640,
      "메": 2641,
      "면": 2642,
      "모": 2643,
      "목": 2644,
      "무": 2645,
      "문": 2646,
      "물": 2647,
      "미": 2648,
      "민": 2649,
      "바": 2650,
      "박": 2651,
      "반": 2652,
      "발": 2653,
      "방": 2654,
      "백": 2655,
      "베": 2656,
      "별": 2657,
      "보": 2658,
      "본": 2659,
      "부": 2660,
      "북": 2661,
      "불": 2662,
      "비": 2663,
      "빨": 2664,
      "사": 2665,
      "삭": 2666,
      "산": 2667,
      "삼": 2668,
      "상": 2669,
      "생": 2670,
      "서": 2671,
      "석": 2672,
      "선": 2673,
      "설": 2674,
      "섯": 2675,
      "성": 2676,
      "세": 2677,
      "셋": 2678,
      "셰": 2679,
      "소": 2680,
      "송": 2681,
      "수": 2682,
      "순": 2683,
      "쉰": 2684,
      "스": 2685,
      "습": 2686,
      "시": 2687,
      "식": 2688,
      "신": 2689,
      "십": 2690,
      "쌀": 2691,
      "아": 2692,
      "안": 2693,
      "애": 2694,
      "야": 2695,
      "양": 2696,
      "어": 2697,
      "에": 2698,
      "여": 2699,
      "연": 2700,
      "열": 2701,
      "영": 2702,
      "예": 2703,
      "오": 2704,
      "온": 2705,
      "요": 2706,
      "우": 2707,
      "운": 2708,
      "울": 2709,
      "월": 2710,
      "위": 2711,
      "유": 2712,
      "육": 2713,
      "윤": 2714,
      "율": 2715,
      "은": 2716,
      "을": 2717,
      "음": 2718,
      "의": 2719,
      "이": 2720,
      "인": 2721,
      "일": 2722,
      "잉": 2723,
      "자": 2724,
      "작": 2725,
      "장": 2726,
      "재": 2727,
      "저": 2728,
      "적": 2729,
      "전": 2730,
      "점": 2731,
      "제": 2732,
      "조": 2733,
      "존": 2734,
      "죄": 2735,
      "죠": 2736,
      "주": 2737,
      "죽": 2738,
      "중": 2739,
      "즈": 2740,
      "즘": 2741,
      "지": 2742,
      "직": 2743,
      "징": 2744,
      "차": 2745,
      "참": 2746,
      "천": 2747,
      "철": 2748,
      "청": 2749,
      "체": 2750,
      "축": 2751,
      "치": 2752,
      "친": 2753,
      "칠": 2754,
      "카": 2755,
      "칸": 2756,
      "코": 2757,
      "쿄": 2758,
      "크": 2759,
      "키": 2760,
      "탄": 2761,
      "탕": 2762,
      "터": 2763,
      "토": 2764,
      "투": 2765,
      "트": 2766,
      "특": 2767,
      "티": 2768,
      "파": 2769,
      "팔": 2770,
      "페": 2771,
      "평": 2772,
      "폐": 2773,
      "포": 2774,
      "프": 2775,
      "피": 2776,
      "하": 2777,
      "한": 2778,
      "할": 2779,
      "합": 2780,
      "해": 2781,
      "향": 2782,
      "헌": 2783,
      "현": 2784,
      "형": 2785,
      "호": 2786,
      "혼": 2787,
      "홉": 2788,
      "화": 2789,
      "활": 2790,
      "흔": 2791,
      "희": 2792,
      "히": 2793,
      "": 2794,
      "": 2795,
      "": 2796,
      "": 2797,
      "ﷲ": 2798,
      "ﷺ": 2799,
      "︎": 2800,
      "️": 2801,
      "ﺀ": 2802,
      "ﺍ": 2803,
      "ﺎ": 2804,
      "ﺏ": 2805,
      "ﺐ": 2806,
      "ﺑ": 2807,
      "ﺞ": 2808,
      "ﺡ": 2809,
      "ﺩ": 2810,
      "ﺮ": 2811,
      "ﺯ": 2812,
      "ﺷ": 2813,
      "ﺼ": 2814,
      "ﺽ": 2815,
      "ﻄ": 2816,
      "ﻋ": 2817,
      "ﻓ": 2818,
      "ﻗ": 2819,
      "ﻟ": 2820,
      "ﻠ": 2821,
      "ﻤ": 2822,
      "ﻥ": 2823,
      "ﻧ": 2824,
      "ﻬ": 2825,
      "ﻲ": 2826,
      "ﻳ": 2827,
      "ﻴ": 2828,
      "﻿": 2829,
      "（": 2830,
      "）": 2831,
      "，": 2832,
      "／": 2833,
      "：": 2834,
      "；": 2835,
      "？": 2836,
      "Ｚ": 2837,
      "～": 2838,
      "￼": 2839,
      "�": 2840,
      "𐌌": 2841,
      "𐌐": 2842,
      "𐌑": 2843,
      "𐌚": 2844,
      "𐌠": 2845,
      "𐌡": 2846,
      "𐌢": 2847,
      "𐎢": 2848,
      "𐎤": 2849,
      "𐎽": 2850,
      "𐏁": 2851,
      "𐤀": 2852,
      "𐤁": 2853,
      "𐤃": 2854,
      "𐤊": 2855,
      "𐤋": 2856,
      "𐤌": 2857,
      "𐤍": 2858,
      "𐤏": 2859,
      "𐤔": 2860,
      "𒄀": 2861,
      "𒅗": 2862,
      "𒈾": 2863,
      "𒌷": 2864,
      "𓅖": 2865,
      "𓇌": 2866,
      "𓎡": 2867,
      "𓏏": 2868,
      "𓏛": 2869,
      "𞤢": 2870,
      "𞤣": 2871,
      "𞤤": 2872,
      "𞤦": 2873,
      "𞤪": 2874,
      "𞤫": 2875,
      "𞤭": 2876,
      "𞤴": 2877,
      "𞤵": 2878,
      "𞤷": 2879,
      "𞤼": 2880,
      "𞥅": 2881,
      "🌼": 2882,
      "🌿": 2883,
      "🍁": 2884,
      "🍃": 2885,
      "🏿": 2886,
      "💐": 2887,
      "💟": 2888,
      "💥": 2889,
      "💫": 2890,
      "📌": 2891,
      "📚": 2892,
      "📝": 2893,
      "🔸": 2894,
      "🔹": 2895,
      "😨": 2896,
      "🙏": 2897,
      "a ": 2898,
      "e ": 2899,
      "n ": 2900,
      "i ": 2901,
      "an": 2902,
      "ar": 2903,
      "s ": 2904,
      ", ": 2905,
      "in": 2906,
      "er": 2907,
      "at": 2908,
      "al": 2909,
      "t ": 2910,
      "o ": 2911,
      "en": 2912,
      "on": 2913,
      "th": 2914,
      "in ": 2915,
      "or": 2916,
      "u ": 2917,
      "am": 2918,
      "d ": 2919,
      "as": 2920,
      "is": 2921,
      "wa ": 2922,
      "es ": 2923,
      " የ": 2924,
      "il": 2925,
      "an ": 2926,
      "ya ": 2927,
      "ak": 2928,
      "ur": 2929,
      "da ": 2930,
      "it": 2931,
      "es": 2932,
      "ar ": 2933,
      " በ": 2934,
      "un": 2935,
      "ik": 2936,
      "on ": 2937,
      "ት ": 2938,
      "í ": 2939,
      "de ": 2940,
      "ir": 2941,
      "ch": 2942,
      "el": 2943,
      "om": 2944,
      "y ": 2945,
      "the ": 2946,
      "ን ": 2947,
      "ab": 2948,
      "ku": 2949,
      "of": 2950,
      "ol": 2951,
      "19": 2952,
      "na ": 2953,
      " አ": 2954,
      "em": 2955,
      "ic": 2956,
      ". ": 2957,
      "im": 2958,
      "ta ": 2959,
      "ag": 2960,
      "sh": 2961,
      "of ": 2962,
      "ay": 2963,
      "ad": 2964,
      "tr": 2965,
      ") ": 2966,
      "qu": 2967,
      "us": 2968,
      "ed ": 2969,
      "le ": 2970,
      "er ": 2971,
      "la ": 2972,
      "ing": 2973,
      "en ": 2974,
      " እ": 2975,
      "à ": 2976,
      "ẹ̀": 2977,
      "é ": 2978,
      "ul": 2979,
      "pr": 2980,
      "20": 2981,
      "un ": 2982,
      "gb": 2983,
      "ac": 2984,
      "wọ": 2985,
      "ati": 2986,
      "ti": 2987,
      "ni ": 2988,
      "and ": 2989,
      "is ": 2990,
      "ẹ́": 2991,
      "re": 2992,
      "iy": 2993,
      "um": 2994,
      "e, ": 2995,
      "to": 2996,
      "ti ": 2997,
      "ም ": 2998,
      "a, ": 2999,
      "ው ": 3000,
      "ia ": 3001,
      "to ": 3002,
      "ap": 3003,
      "ent ": 3004,
      "ig": 3005,
      "id": 3006,
      "ር ": 3007,
      "et ": 3008,
      "ou": 3009,
      "af": 3010,
      "os": 3011,
      "ec": 3012,
      "a m": 3013,
      " (": 3014,
      " ነ": 3015,
      "al ": 3016,
      "wa": 3017,
      "ọ́": 3018,
      "if": 3019,
      "ek": 3020,
      "wọn ": 3021,
      "a k": 3022,
      "op": 3023,
      "e d": 3024,
      "ut": 3025,
      " መ": 3026,
      "ib": 3027,
      "wan": 3028,
      "aj": 3029,
      "ó ": 3030,
      "ent": 3031,
      "ing ": 3032,
      "uk": 3033,
      "ali": 3034,
      ": ": 3035,
      "ና ": 3036,
      "et": 3037,
      "a.": 3038,
      "ha": 3039,
      "ce ": 3040,
      "les ": 3041,
      "iv": 3042,
      "ọ̀": 3043,
      "ው።": 3044,
      "pl": 3045,
      "ma": 3046,
      "he ": 3047,
      " s": 3048,
      " ከ": 3049,
      "og": 3050,
      "ní ": 3051,
      "con": 3052,
      "e.": 3053,
      "- ": 3054,
      "tí ": 3055,
      "aw": 3056,
      "aka ": 3057,
      "all": 3058,
      "ẹ̀ ": 3059,
      "kum": 3060,
      "ish": 3061,
      "ang": 3062,
      "ok": 3063,
      "for": 3064,
      "au": 3065,
      "l'": 3066,
      "i ya ": 3067,
      "ur ": 3068,
      "fr": 3069,
      "od": 3070,
      "ba ": 3071,
      "az": 3072,
      "ara ": 3073,
      "st": 3074,
      "ah": 3075,
      "ot": 3076,
      "ẹ́ ": 3077,
      "ne ": 3078,
      "á ": 3079,
      "Al": 3080,
      "18": 3081,
      "ip": 3082,
      "est ": 3083,
      "ú ": 3084,
      "ún ": 3085,
      "and": 3086,
      "kas": 3087,
      "av": 3088,
      "ች ": 3089,
      "com": 3090,
      "i, ": 3091,
      "ow": 3092,
      "0 ": 3093,
      "as ": 3094,
      "ana ": 3095,
      "ል ": 3096,
      "ex": 3097,
      "ስ ": 3098,
      "ob": 3099,
      " እን": 3100,
      "ed": 3101,
      "ist": 3102,
      " ም": 3103,
      "ọ ": 3104,
      "ter": 3105,
      "oc": 3106,
      "ub": 3107,
      "le": 3108,
      "par": 3109,
      "at ": 3110,
      "ov": 3111,
      " የሚ": 3112,
      "ug": 3113,
      "i wa ": 3114,
      "200": 3115,
      "ant": 3116,
      "ation ": 3117,
      "ል።": 3118,
      "ér": 3119,
      "it ": 3120,
      "us ": 3121,
      "s, ": 3122,
      "za ": 3123,
      " ተ": 3124,
      "i k": 3125,
      "è ": 3126,
      "ሳሌ": 3127,
      "th ": 3128,
      "que ": 3129,
      "ika ": 3130,
      " ይ": 3131,
      "201": 3132,
      "des ": 3133,
      "au ": 3134,
      "ation": 3135,
      "shek": 3136,
      "uwa ": 3137,
      " የአ": 3138,
      "ij": 3139,
      "The ": 3140,
      " ነው።": 3141,
      "ain": 3142,
      "ud": 3143,
      "kuma ": 3144,
      "), ": 3145,
      "ì ": 3146,
      "iya ": 3147,
      "i.": 3148,
      "anc": 3149,
      "oj": 3150,
      "of the ": 3151,
      "፣ ": 3152,
      "ev": 3153,
      "e de ": 3154,
      " ዓ": 3155,
      "ung": 3156,
      "ake ": 3157,
      "ep": 3158,
      "Ch": 3159,
      "ንድ": 3160,
      "ih": 3161,
      "ani ": 3162,
      "ikin ": 3163,
      "ai ": 3164,
      "amb": 3165,
      "ant ": 3166,
      "ans ": 3167,
      "ò ": 3168,
      "e s": 3169,
      "ion": 3170,
      "ያ ": 3171,
      "Am": 3172,
      "du ": 3173,
      "el ": 3174,
      "ní": 3175,
      "àwọn ": 3176,
      "ement ": 3177,
      "wat": 3178,
      "ati ": 3179,
      "iz": 3180,
      "ind": 3181,
      "ama ": 3182,
      "Mar": 3183,
      "A ": 3184,
      "are ": 3185,
      "ré": 3186,
      "ላይ": 3187,
      "ash": 3188,
      "po": 3189,
      " ወ": 3190,
      " የተ": 3191,
      "d'": 3192,
      "An": 3193,
      "ew": 3194,
      "ንግ": 3195,
      "ion ": 3196,
      "ann": 3197,
      "uc": 3198,
      "ch ": 3199,
      "In": 3200,
      "x ": 3201,
      "ans": 3202,
      "mw": 3203,
      "ọ́ ": 3204,
      "end": 3205,
      "or ": 3206,
      "ic ": 3207,
      "oy": 3208,
      "a c": 3209,
      "ill": 3210,
      "ers": 3211,
      "dé": 3212,
      "1 ": 3213,
      "je ": 3214,
      "hi": 3215,
      "une ": 3216,
      "up": 3217,
      "; ": 3218,
      "Àwọn ": 3219,
      "ka ": 3220,
      "was ": 3221,
      "ẹ ": 3222,
      "es, ": 3223,
      "air": 3224,
      "ass": 3225,
      "ess": 3226,
      "re ": 3227,
      "199": 3228,
      "2 ": 3229,
      "5 ": 3230,
      "i m": 3231,
      "ማር": 3232,
      "lá": 3233,
      "our": 3234,
      "me ": 3235,
      ").": 3236,
      "gr": 3237,
      "rí": 3238,
      "Ar": 3239,
      "e-": 3240,
      "om ": 3241,
      "iki ": 3242,
      "ን በ": 3243,
      " ምሳሌ": 3244,
      "jẹ́ ": 3245,
      "ts": 3246,
      "il ": 3247,
      "a s": 3248,
      "ell": 3249,
      "o, ": 3250,
      "eg": 3251,
      "by ": 3252,
      "wi": 3253,
      "ù ": 3254,
      "ዘመ": 3255,
      "tion ": 3256,
      "oh": 3257,
      "par ": 3258,
      "o ya ": 3259,
      "àti ": 3260,
      "ef": 3261,
      "ọd": 3262,
      "ong": 3263,
      "i na ": 3264,
      " ያ": 3265,
      "bí ": 3266,
      "ta": 3267,
      "br": 3268,
      "ọ̀ ": 3269,
      "3 ": 3270,
      "ine ": 3271,
      " ስ": 3272,
      "4 ": 3273,
      "6 ": 3274,
      "und": 3275,
      "ark": 3276,
      "a ya ": 3277,
      "cl": 3278,
      "anz": 3279,
      "7 ": 3280,
      " ለ": 3281,
      " ት": 3282,
      "dag": 3283,
      "was": 3284,
      "shekar": 3285,
      "ት በ": 3286,
      "198": 3287,
      "wọ́": 3288,
      "eu": 3289,
      "est": 3290,
      "tí ó ": 3291,
      "de la ": 3292,
      "ቸው": 3293,
      "ont ": 3294,
      "ini ": 3295,
      "amm": 3296,
      "kat": 3297,
      "ers ": 3298,
      "for ": 3299,
      "00": 3300,
      "àn ": 3301,
      "በር": 3302,
      "lẹ̀ ": 3303,
      "uz": 3304,
      "a na ": 3305,
      "s.": 3306,
      "a b": 3307,
      "ie ": 3308,
      "ere ": 3309,
      "da ya ": 3310,
      "iwa ": 3311,
      "iyar ": 3312,
      "ph": 3313,
      "kan ": 3314,
      "ብ ": 3315,
      "ዎች": 3316,
      "197": 3317,
      "Sh": 3318,
      "ን አ": 3319,
      "cr": 3320,
      "ነት ": 3321,
      "mat": 3322,
      "eng": 3323,
      "ዚህ": 3324,
      "kuto": 3325,
      "ትዮ": 3326,
      "ማርኛ": 3327,
      "196": 3328,
      "mwaka ": 3329,
      "እን": 3330,
      "'s ": 3331,
      "por": 3332,
      "wak": 3333,
      "Wali": 3334,
      "ኢትዮ": 3335,
      "ej": 3336,
      "si ": 3337,
      "ance ": 3338,
      "hu": 3339,
      "ank": 3340,
      "ir ": 3341,
      "Ab": 3342,
      "ari ": 3343,
      "ly ": 3344,
      "Th": 3345,
      "iqu": 3346,
      "da k": 3347,
      "ez": 3348,
      "a cikin ": 3349,
      " እንደ": 3350,
      "– ": 3351,
      "se": 3352,
      "ኢትዮጵ": 3353,
      "eny": 3354,
      "Pr": 3355,
      "y, ": 3356,
      "Afr": 3357,
      "awa ": 3358,
      "\" ": 3359,
      "tion": 3360,
      "a. ": 3361,
      "ét": 3362,
      "ga ": 3363,
      "tur": 3364,
      "emb": 3365,
      "with ": 3366,
      "ስጥ": 3367,
      "in the ": 3368,
      "aya ": 3369,
      "ile ": 3370,
      " የአማርኛ": 3371,
      "ina ": 3372,
      "uw": 3373,
      "Un": 3374,
      "ọdún ": 3375,
      "di": 3376,
      "iss": 3377,
      "qui ": 3378,
      " ምሳሌ ነው።": 3379,
      " የአማርኛ ምሳሌ ነው።": 3380,
      "eur": 3381,
      "Fr": 3382,
      "ዊ ": 3383,
      "Il": 3384,
      "kwa ": 3385,
      "es.": 3386,
      "ም በ": 3387,
      "lú ": 3388,
      "9 ": 3389,
      "man": 3390,
      "ት አ": 3391,
      "St": 3392,
      "8 ": 3393,
      "ouv": 3394,
      "ajer": 3395,
      "that ": 3396,
      "shi ": 3397,
      "te ": 3398,
      "ሆነ": 3399,
      "Br": 3400,
      "inc": 3401,
      "from ": 3402,
      "rẹ̀ ": 3403,
      "ity ": 3404,
      "èd": 3405,
      "ens": 3406,
      "oz": 3407,
      "pos": 3408,
      "per": 3409,
      "be": 3410,
      "wh": 3411,
      "a da ": 3412,
      "dans ": 3413,
      "k ": 3414,
      "ard": 3415,
      "Mat": 3416,
      "enc": 3417,
      "form": 3418,
      "ት የ": 3419,
      "17": 3420,
      "ín": 3421,
      "ar da ": 3422,
      "ìj": 3423,
      " ሲ": 3424,
      "ṣe ": 3425,
      "ach": 3426,
      "ń ": 3427,
      "Ito": 3428,
      "fir": 3429,
      "Najer": 3430,
      "wọ́n ": 3431,
      "Itokas": 3432,
      "ani": 3433,
      "arr": 3434,
      "shekara ": 3435,
      "nch": 3436,
      "sam": 3437,
      " ማ": 3438,
      "ou ": 3439,
      "shekarar ": 3440,
      "a'": 3441,
      "oun": 3442,
      "a d": 3443,
      "ውስጥ": 3444,
      "ikuwa ": 3445,
      "ut ": 3446,
      "ስተ": 3447,
      "él": 3448,
      "su": 3449,
      "pour ": 3450,
      "asar ": 3451,
      "kar": 3452,
      "ris": 3453,
      "kutoka ": 3454,
      "Ad": 3455,
      "olog": 3456,
      "er, ": 3457,
      "ve ": 3458,
      "ርጉ": 3459,
      "ée ": 3460,
      "èdè ": 3461,
      "ቸው ": 3462,
      "yi ": 3463,
      "his ": 3464,
      "ond": 3465,
      "comm": 3466,
      "ats": 3467,
      "èr": 3468,
      "tar": 3469,
      "ን የ": 3470,
      "ጊዜ": 3471,
      "tre ": 3472,
      "eb": 3473,
      "ayin ": 3474,
      "16": 3475,
      "uh": 3476,
      "ord": 3477,
      "195": 3478,
      "ais": 3479,
      "o.": 3480,
      "፡፡": 3481,
      "part": 3482,
      "mas": 3483,
      "ate ": 3484,
      "una ": 3485,
      "h ": 3486,
      "ala ": 3487,
      " ሰ": 3488,
      "As": 3489,
      "io ": 3490,
      "ect": 3491,
      "II": 3492,
      "ከተ": 3493,
      "ትና ": 3494,
      "u, ": 3495,
      "aur": 3496,
      "ear": 3497,
      "ique ": 3498,
      "ንጉ": 3499,
      "a f": 3500,
      "abb": 3501,
      "ná": 3502,
      "15": 3503,
      "u ya ": 3504,
      "yì": 3505,
      "kuwa ": 3506,
      "ùn ": 3507,
      "nín": 3508,
      "ari": 3509,
      "asa ": 3510,
      "ምሳሌ": 3511,
      "oll": 3512,
      "ርስ": 3513,
      "da s": 3514,
      " በአ": 3515,
      "Man": 3516,
      "haif": 3517,
      " እስ": 3518,
      "és ": 3519,
      " ቀ": 3520,
      "ክል": 3521,
      "m ": 3522,
      "ins": 3523,
      " በመ": 3524,
      "rin ": 3525,
      "so ": 3526,
      "uf": 3527,
      "ign": 3528,
      "age ": 3529,
      "oth": 3530,
      "tó ": 3531,
      "ich": 3532,
      "att": 3533,
      "arin ": 3534,
      "fún ": 3535,
      "ነበ": 3536,
      "ian ": 3537,
      "ern": 3538,
      "10": 3539,
      "ihar ": 3540,
      "ሪክ": 3541,
      "ተረ": 3542,
      "ien": 3543,
      "shekara ta ": 3544,
      " ብ": 3545,
      "ita ": 3546,
      "Itokasi ": 3547,
      "En": 3548,
      "194": 3549,
      "aus": 3550,
      "art": 3551,
      "íl": 3552,
      "ያን ": 3553,
      "ለት ": 3554,
      "the": 3555,
      "a l": 3556,
      "son ": 3557,
      " ግ": 3558,
      "plus ": 3559,
      "igh": 3560,
      "am ": 3561,
      "ọm": 3562,
      "ary ": 3563,
      "wam": 3564,
      "ወደ": 3565,
      "eo ": 3566,
      "cons": 3567,
      "። ": 3568,
      "Ol": 3569,
      " ትርጉ": 3570,
      "Nob": 3571,
      "Jam": 3572,
      "Or": 3573,
      "ewa ": 3574,
      "). ": 3575,
      "a n": 3576,
      "ya": 3577,
      "enye ": 3578,
      "ali ": 3579,
      "de l'": 3580,
      "bi ": 3581,
      "ies ": 3582,
      "ነው።": 3583,
      "ው የ": 3584,
      "tak": 3585,
      "a r": 3586,
      "gbà ": 3587,
      "bay": 3588,
      "har": 3589,
      "any": 3590,
      "ed to ": 3591,
      "« ": 3592,
      "iṣ": 3593,
      "a g": 3594,
      "ter ": 3595,
      " አይ": 3596,
      "ኋላ": 3597,
      "e des ": 3598,
      "ዎች ": 3599,
      "ace ": 3600,
      "ogr": 3601,
      "pré": 3602,
      "Nobel ": 3603,
      "aa": 3604,
      "| ": 3605,
      "ue ": 3606,
      "ና የ": 3607,
      "ሳይ": 3608,
      "a ta ": 3609,
      "te": 3610,
      "ባለ": 3611,
      "Mak": 3612,
      "aliwa ": 3613,
      ", m": 3614,
      "o wa ": 3615,
      "ot ": 3616,
      "ድረ": 3617,
      "gba ": 3618,
      "e du ": 3619,
      "be ": 3620,
      " ትርጉሙ": 3621,
      "ደረ": 3622,
      "u wa ": 3623,
      "ọj": 3624,
      "Le ": 3625,
      "pe": 3626,
      "ical ": 3627,
      "zuwa ": 3628,
      "se ": 3629,
      "ale ": 3630,
      "ገር ": 3631,
      "anin ": 3632,
      "st ": 3633,
      "nínú ": 3634,
      "nd": 3635,
      "jam": 3636,
      "ts ": 3637,
      "ait ": 3638,
      "írí": 3639,
      "istor": 3640,
      "e. ": 3641,
      "Kar": 3642,
      " የአማርኛ ምሳሌ ነው። ትርጉሙ": 3643,
      "ed by ": 3644,
      "mon": 3645,
      "én": 3646,
      "mai ": 3647,
      "ité ": 3648,
      "fin": 3649,
      "ንግሥ": 3650,
      "ents ": 3651,
      "alis": 3652,
      "ath": 3653,
      "In ": 3654,
      "kọ́ ": 3655,
      "arg": 3656,
      "ጀመ": 3657,
      "ec ": 3658,
      "ኛ ": 3659,
      "imb": 3660,
      "u.": 3661,
      "ሪካ": 3662,
      "won ": 3663,
      "ili ": 3664,
      "14": 3665,
      "láti ": 3666,
      "àk": 3667,
      " እና ": 3668,
      "a y": 3669,
      "ሪያ": 3670,
      "ci ": 3671,
      "dr": 3672,
      "awon ": 3673,
      "eré ": 3674,
      "org": 3675,
      "aux ": 3676,
      "193": 3677,
      "acin ": 3678,
      "aada ya ": 3679,
      "its ": 3680,
      "በት ": 3681,
      "an k": 3682,
      "Amer": 3683,
      "በር።": 3684,
      "ubl": 3685,
      "ደግ": 3686,
      "ser": 3687,
      "fic": 3688,
      "ous ": 3689,
      "war": 3690,
      "a h": 3691,
      "ées ": 3692,
      "im ": 3693,
      "ሆን ": 3694,
      "int": 3695,
      "elle ": 3696,
      "nam": 3697,
      "um ": 3698,
      "ny": 3699,
      "gl": 3700,
      "fil": 3701,
      "whi": 3702,
      "ai": 3703,
      "ትና ምሳሌ": 3704,
      "Is": 3705,
      "res": 3706,
      "oci": 3707,
      "ኛው ": 3708,
      "ክፍ": 3709,
      "Nà": 3710,
      "ና በ": 3711,
      "Ó ": 3712,
      "e d'": 3713,
      "ló": 3714,
      "oul": 3715,
      "ም የ": 3716,
      " ዓ.": 3717,
      "ès ": 3718,
      "ko ": 3719,
      "ra ": 3720,
      "ia": 3721,
      "e (": 3722,
      "anar ": 3723,
      "ውን ": 3724,
      "eur ": 3725,
      "fl": 3726,
      "Nàìj": 3727,
      "watan ": 3728,
      "ence ": 3729,
      "ier ": 3730,
      "wall": 3731,
      "avec ": 3732,
      "ew ": 3733,
      "lang": 3734,
      "rí ": 3735,
      "ivers": 3736,
      " እንዲ": 3737,
      "Nàìjírí": 3738,
      "ations ": 3739,
      "min": 3740,
      "mar": 3741,
      "Ma": 3742,
      "katika ": 3743,
      "ኢትዮጵያ ": 3744,
      "da y": 3745,
      "An ": 3746,
      "ìy": 3747,
      "which ": 3748,
      "ey": 3749,
      "ég": 3750,
      "ድ ": 3751,
      "itu": 3752,
      "e of ": 3753,
      "ugh": 3754,
      "dis": 3755,
      " sí ": 3756,
      "umb": 3757,
      "tern": 3758,
      "rel": 3759,
      "mut": 3760,
      "to the ": 3761,
      "fi ": 3762,
      "ìn": 3763,
      "onn": 3764,
      "àn": 3765,
      "Walioz": 3766,
      " አን": 3767,
      "sì ": 3768,
      ", and ": 3769,
      "usu ": 3770,
      "apa ": 3771,
      "ọmọ ": 3772,
      "mak": 3773,
      "12": 3774,
      "ata ": 3775,
      "iè": 3776,
      "act": 3777,
      "os ": 3778,
      "amar ": 3779,
      "ቶች": 3780,
      "ibi ": 3781,
      "gu": 3782,
      "daga ": 3783,
      "agb": 3784,
      "aut": 3785,
      "ìd": 3786,
      "ea ": 3787,
      "Najeriya ": 3788,
      "ofar": 3789,
      "atur": 3790,
      "ane ": 3791,
      "Nig": 3792,
      "cha ": 3793,
      "za": 3794,
      "ድር": 3795,
      "ci": 3796,
      " ታ": 3797,
      "ire ": 3798,
      "an, ": 3799,
      "wor": 3800,
      "ert": 3801,
      "nom": 3802,
      "Waliofar": 3803,
      "uzo ya ": 3804,
      "ais ": 3805,
      "atsayin ": 3806,
      " ከተ": 3807,
      "ነ ": 3808,
      " በተ": 3809,
      "oug": 3810,
      "acc": 3811,
      "aye ": 3812,
      "13": 3813,
      "Com": 3814,
      "Tuzo ya ": 3815,
      "sy": 3816,
      "atika ": 3817,
      "ልተ": 3818,
      "ሆኑ": 3819,
      "ለ ": 3820,
      "an s": 3821,
      "vya ": 3822,
      "Rom": 3823,
      "rit": 3824,
      "ally ": 3825,
      "náà ": 3826,
      " እስከ": 3827,
      "ana na ": 3828,
      "El": 3829,
      "ቱ ": 3830,
      "a wa ": 3831,
      "Marek": 3832,
      "ወይ": 3833,
      "o-": 3834,
      "azar": 3835,
      "ous": 3836,
      "we": 3837,
      "sí ": 3838,
      "Kan": 3839,
      "Les ": 3840,
      "s of ": 3841,
      "ት መ": 3842,
      "fun ": 3843,
      "Gr": 3844,
      "sp": 3845,
      "ለመ": 3846,
      "ois ": 3847,
      "abu ": 3848,
      "di ": 3849,
      "ልጅ": 3850,
      "eux ": 3851,
      "wal": 3852,
      "ed the ": 3853,
      "a-": 3854,
      "I ": 3855,
      "shind": 3856,
      "y.": 3857,
      "ṣù ": 3858,
      "ም አ": 3859,
      "hal": 3860,
      "ayy": 3861,
      "ẹ̀-": 3862,
      "amu ": 3863,
      "da kuma ": 3864,
      "ugab": 3865,
      "bir": 3866,
      "ንድ ": 3867,
      "pín": 3868,
      "ational ": 3869,
      "ታወ": 3870,
      "ደግሞ": 3871,
      "esh": 3872,
      " ዓ.ም": 3873,
      "f ": 3874,
      "qu'": 3875,
      "wali": 3876,
      "a kwa ": 3877,
      "amp": 3878,
      "192": 3879,
      "a matsayin ": 3880,
      "Niger": 3881,
      "oup": 3882,
      "ƙasar ": 3883,
      "Ag": 3884,
      "rec": 3885,
      "እንደ": 3886,
      "had": 3887,
      "port": 3888,
      "ish ": 3889,
      "on, ": 3890,
      "ለው ": 3891,
      "án": 3892,
      "ይህ": 3893,
      "ors ": 3894,
      "tí wọ́n ": 3895,
      "ኢትዮጵያ": 3896,
      "sur ": 3897,
      "Tuzo ya Nobel ": 3898,
      "Con": 3899,
      "ing the ": 3900,
      "bá ": 3901,
      "Tr": 3902,
      "ìlú ": 3903,
      "à la ": 3904,
      "i (": 3905,
      "Tuzo ya Nobel ya ": 3906,
      "ia, ": 3907,
      "ite ": 3908,
      " የመ": 3909,
      "Manazar": 3910,
      "su ": 3911,
      "ican ": 3912,
      "ክልበ": 3913,
      "ém": 3914,
      "ede ": 3915,
      "sont ": 3916,
      "..": 3917,
      "ìt": 3918,
      "yp": 3919,
      "o ni ": 3920,
      "ne ya ": 3921,
      "uj": 3922,
      "ክርስ": 3923,
      "shir": 3924,
      "Mus": 3925,
      "lọ́": 3926,
      "Ac": 3927,
      "comp": 3928,
      "na": 3929,
      "lọ": 3930,
      "waka ": 3931,
      "àr": 3932,
      "tare ": 3933,
      "wanda ": 3934,
      "ated ": 3935,
      "eurs ": 3936,
      "Waliozaliwa ": 3937,
      "gab": 3938,
      "o m": 3939,
      "es de ": 3940,
      "da ke ": 3941,
      "l’": 3942,
      "C ": 3943,
      "entr": 3944,
      "ustr": 3945,
      "in, ": 3946,
      "vi": 3947,
      "ili": 3948,
      "= ": 3949,
      "eh": 3950,
      "ለማ": 3951,
      "፣ በ": 3952,
      "Ki": 3953,
      "shindi wa ": 3954,
      "bi": 3955,
      "ሉ።": 3956,
      "amf": 3957,
      "o na ": 3958,
      "ition ": 3959,
      "awọn ": 3960,
      "hii ": 3961,
      "tem": 3962,
      "ilim": 3963,
      "fark": 3964,
      "one ": 3965,
      "Ak": 3966,
      "o k": 3967,
      "Yor": 3968,
      "da": 3969,
      "li": 3970,
      "èn": 3971,
      "ande ": 3972,
      "me": 3973,
      "wenye ": 3974,
      "ẹ̀-èdè ": 3975,
      "wani ": 3976,
      "ገኝ": 3977,
      "wà ": 3978,
      "inu ": 3979,
      "፣ የ": 3980,
      "pé ": 3981,
      "ika m": 3982,
      "ሉ ": 3983,
      "pínlẹ̀ ": 3984,
      "ራ ": 3985,
      "pia ": 3986,
      "itt": 3987,
      "pol": 3988,
      "yana ": 3989,
      "a (": 3990,
      "Baada ya ": 3991,
      "kub": 3992,
      "cor": 3993,
      "ania ": 3994,
      "a shekara ta ": 3995,
      "ise ": 3996,
      "sab": 3997,
      "bas": 3998,
      "ess ": 3999,
      "ላል።": 4000,
      "ame ": 4001,
      "Joh": 4002,
      "ንቋ": 4003,
      "ard ": 4004,
      "jihar ": 4005,
      "bo": 4006,
      "Gu": 4007,
      "La ": 4008,
      "yí ": 4009,
      "ará ": 4010,
      "mor": 4011,
      "Papa ": 4012,
      "nan ": 4013,
      "Wak": 4014,
      "shindi wa Tuzo ya Nobel ya ": 4015,
      "bí": 4016,
      "ition": 4017,
      "were ": 4018,
      "ንጉሥ": 4019,
      "oríl": 4020,
      "pa ": 4021,
      "It": 4022,
      "cul": 4023,
      "mé": 4024,
      "ቋንቋ": 4025,
      "publ": 4026,
      "Waliofariki ": 4027,
      "ile-": 4028,
      "190": 4029,
      "yan ": 4030,
      "Par": 4031,
      "mwan": 4032,
      ",00": 4033,
      "sí": 4034,
      "ብረ": 4035,
      "erg": 4036,
      "nin ": 4037,
      "እስ": 4038,
      "ለው": 4039,
      "ቤተ": 4040,
      "mus": 4041,
      "Ok": 4042,
      "1.": 4043,
      "in k": 4044,
      "i. ": 4045,
      "also ": 4046,
      "òṣ": 4047,
      "Nij": 4048,
      "cikin ": 4049,
      " ነገ": 4050,
      "maj": 4051,
      "1, ": 4052,
      "biy": 4053,
      "Tar": 4054,
      "kus": 4055,
      "kọ ": 4056,
      "risto": 4057,
      "ed in ": 4058,
      "Tanz": 4059,
      "à l'": 4060,
      "mb": 4061,
      "a kar": 4062,
      " ወደ": 4063,
      "enn": 4064,
      "ote ": 4065,
      "but ": 4066,
      "y of ": 4067,
      "ast": 4068,
      "ah ": 4069,
      "ፍ ": 4070,
      "ial ": 4071,
      "don ": 4072,
      "wa na ": 4073,
      "abban ": 4074,
      "iṣẹ́ ": 4075,
      "mp": 4076,
      "u na ": 4077,
      " ነበር።": 4078,
      "far": 4079,
      "es et ": 4080,
      "lin": 4081,
      "mi": 4082,
      "all ": 4083,
      "En ": 4084,
      "alikuwa ": 4085,
      "189": 4086,
      "ስት ": 4087,
      "ment ": 4088,
      "ement": 4089,
      "prem": 4090,
      " ገ": 4091,
      "other ": 4092,
      "eza ": 4093,
      "ilẹ̀ ": 4094,
      " መንግሥ": 4095,
      "ንዳ": 4096,
      "and the ": 4097,
      "wo ": 4098,
      "ነገ": 4099,
      "fer": 4100,
      "é-": 4101,
      "ìgb": 4102,
      "tiv": 4103,
      "own ": 4104,
      "lat": 4105,
      "O ": 4106,
      "ተረጎ": 4107,
      "ún": 4108,
      "Matuk": 4109,
      "zam": 4110,
      "Il ": 4111,
      "uka ": 4112,
      "ን መ": 4113,
      "» ": 4114,
      "dun": 4115,
      "tel": 4116,
      "Ib": 4117,
      "col": 4118,
      "cour": 4119,
      "mod": 4120,
      "tà": 4121,
      "ባቢ": 4122,
      "iya.": 4123,
      "aul": 4124,
      "ail": 4125,
      "tim": 4126,
      "lati ": 4127,
      "tare da ": 4128,
      "ልክ": 4129,
      "፲፱": 4130,
      " ላይ": 4131,
      "i ni ": 4132,
      "e) ": 4133,
      "ቸው።": 4134,
      "reg": 4135,
      "ro": 4136,
      " ነበ": 4137,
      "wasan ": 4138,
      "in s": 4139,
      "ia ya ": 4140,
      "Univers": 4141,
      " በኋላ": 4142,
      "ri": 4143,
      "ሊዝ": 4144,
      " ያልተ": 4145,
      "haife ": 4146,
      "ንም ": 4147,
      "cont": 4148,
      "od ": 4149,
      "lẹ́": 4150,
      "i da ": 4151,
      "oló": 4152,
      "0.": 4153,
      "okacin ": 4154,
      "ስለ": 4155,
      "Jan": 4156,
      "ነበረ": 4157,
      "inger": 4158,
      "able ": 4159,
      "cho": 4160,
      "0, ": 4161,
      "elop": 4162,
      "ር የ": 4163,
      "ba": 4164,
      " ተረ": 4165,
      "wallon ": 4166,
      "str": 4167,
      "òr": 4168,
      "cent": 4169,
      "not ": 4170,
      "out ": 4171,
      "ከተማ": 4172,
      "ን ከ": 4173,
      "Afrika ": 4174,
      "\".": 4175,
      "ሮች": 4176,
      "dev": 4177,
      " የሚያ": 4178,
      "had ": 4179,
      "ju": 4180,
      "comme ": 4181,
      "man ": 4182,
      "jer": 4183,
      "fi": 4184,
      "first ": 4185,
      "prés": 4186,
      "à.": 4187,
      "ው በ": 4188,
      "prod": 4189,
      "ọ́n ": 4190,
      "ተረጎመ": 4191,
      "de": 4192,
      "ìm": 4193,
      "ùn": 4194,
      "annan ": 4195,
      "ia.": 4196,
      "mag": 4197,
      "abil": 4198,
      "vis": 4199,
      "wé ": 4200,
      "car": 4201,
      "inter": 4202,
      "uwar ": 4203,
      "፲፱፻": 4204,
      "ደር": 4205,
      "ask": 4206,
      "langu": 4207,
      "ain ": 4208,
      " አገ": 4209,
      "afi ": 4210,
      "tana ": 4211,
      "Itokasi Àwọn ": 4212,
      " እስከ ": 4213,
      "dom": 4214,
      "afin ": 4215,
      "app": 4216,
      "kó": 4217,
      "anda ": 4218,
      ", the ": 4219,
      "ተረጎመ ምሳሌ": 4220,
      "kẹ": 4221,
      "orílẹ̀-èdè ": 4222,
      " ያልተተረጎመ ምሳሌ": 4223,
      "ember ": 4224,
      "yar ": 4225,
      "ungiyar ": 4226,
      "land": 4227,
      "kut": 4228,
      "ost ": 4229,
      "ምህ": 4230,
      "sun ": 4231,
      "yake ": 4232,
      "atif": 4233,
      "ay ": 4234,
      "inah": 4235,
      "hak": 4236,
      "vol": 4237,
      "way": 4238,
      " of ": 4239,
      "ቀን ": 4240,
      "እንግ": 4241,
      " የአማርኛ ምሳሌ ነው። ትርጉሙ ያልተተረጎመ ምሳሌ": 4242,
      "Jul": 4243,
      "ebr": 4244,
      "àj": 4245,
      "ይ ": 4246,
      "ዚህ ": 4247,
      "àgb": 4248,
      "ian": 4249,
      "u k": 4250,
      "ey ": 4251,
      " አለ": 4252,
      "s (": 4253,
      "awa": 4254,
      "ጥን": 4255,
      "mo": 4256,
      "ese ": 4257,
      "isha ": 4258,
      " ወይ": 4259,
      "o (": 4260,
      "a shekarar ": 4261,
      " ዓክልበ": 4262,
      "At": 4263,
      "i'": 4264,
      "istr": 4265,
      "aif": 4266,
      "iw": 4267,
      "ten": 4268,
      "ad ": 4269,
      " ተረትና ምሳሌ": 4270,
      "add": 4271,
      "ት ከ": 4272,
      "rẹ̀": 4273,
      " ይህ": 4274,
      "ìyàn ": 4275,
      "ምሮ": 4276,
      "ስት": 4277,
      "ስ አ": 4278,
      "anta ": 4279,
      "iya, ": 4280,
      "Col": 4281,
      "ዋል።": 4282,
      "All": 4283,
      "ት ይ": 4284,
      "ast ": 4285,
      "contr": 4286,
      "enti": 4287,
      "e de la ": 4288,
      "ong ": 4289,
      "Makala ": 4290,
      "oṣù ": 4291,
      "ya k": 4292,
      "ette ": 4293,
      "awan ": 4294,
      "00 ": 4295,
      "ዓመ": 4296,
      "mwaka wa ": 4297,
      "ori ": 4298,
      "L'": 4299,
      "a) ": 4300,
      "mil": 4301,
      "Manazarta ": 4302,
      "lugh": 4303,
      "azi ": 4304,
      "is, ": 4305,
      "tions ": 4306,
      "sa ": 4307,
      "ቶች ": 4308,
      "ma ": 4309,
      "hem": 4310,
      "2, ": 4311,
      "alif": 4312,
      "lé ": 4313,
      "ow ": 4314,
      "inahusu ": 4315,
      "Afir": 4316,
      "Nijer": 4317,
      "uat": 4318,
      "nchi ": 4319,
      "abl": 4320,
      "ett": 4321,
      "ፈረ": 4322,
      "tún ": 4323,
      "été ": 4324,
      "des": 4325,
      "ogb": 4326,
      "trans": 4327,
      "é, ": 4328,
      "sì": 4329,
      "yan": 4330,
      "Ap": 4331,
      "san": 4332,
      "Makala hii ": 4333,
      " ዓ/": 4334,
      "ograp": 4335,
      "éri": 4336,
      "Makala hii inahusu ": 4337,
      "Makala hii inahusu mwaka ": 4338,
      "Kristo": 4339,
      "ቅ ": 4340,
      "ክ ": 4341,
      "ẹ̀kọ́ ": 4342,
      "New ": 4343,
      "amil": 4344,
      "pro": 4345,
      "i-": 4346,
      "ተኛ": 4347,
      "éd": 4348,
      "ሁሉ": 4349,
      "% ": 4350,
      "Ní ": 4351,
      "ces ": 4352,
      "iri ": 4353,
      "2.": 4354,
      "Vi": 4355,
      "ርያ": 4356,
      "ካከ": 4357,
      "bec": 4358,
      "lim": 4359,
      "aji ": 4360,
      "i kwa ": 4361,
      "). Matuk": 4362,
      "ust": 4363,
      "mj": 4364,
      "ile-ede ": 4365,
      "Wa": 4366,
      "sun": 4367,
      "wá": 4368,
      "id ": 4369,
      "1-": 4370,
      "pọ̀ ": 4371,
      "ys": 4372,
      "ẹ́g": 4373,
      " M": 4374,
      "ትን ": 4375,
      "ited ": 4376,
      "Ge": 4377,
      "ንያ": 4378,
      "kò ": 4379,
      "ìl": 4380,
      "ብዙ": 4381,
      "an.": 4382,
      "ር በ": 4383,
      "on the ": 4384,
      "wad": 4385,
      "have ": 4386,
      "5, ": 4387,
      "Kristo). Matuk": 4388,
      "alement ": 4389,
      "ሜሪካ": 4390,
      "ọba ": 4391,
      " (Baada ya ": 4392,
      "ome ": 4393,
      " (Baada ya Kristo). Matuk": 4394,
      "alá": 4395,
      "ብሔ": 4396,
      "ግብ": 4397,
      "eneo ": 4398,
      "ola ": 4399,
      "ድረስ": 4400,
      "tun ": 4401,
      "ሌላ": 4402,
      "ice ": 4403,
      "has ": 4404,
      "ምን": 4405,
      "ታሪክ": 4406,
      " እና": 4407,
      "weng": 4408,
      ".አ": 4409,
      "yìn ": 4410,
      "pop": 4411,
      "መስ": 4412,
      "bu": 4413,
      "es (": 4414,
      "kul": 4415,
      "6, ": 4416,
      "s and ": 4417,
      "eth": 4418,
      "ቁጥ": 4419,
      "ilis": 4420,
      "Nor": 4421,
      "dif": 4422,
      "7, ": 4423,
      "lak": 4424,
      "anç": 4425,
      "መን": 4426,
      "Ind": 4427,
      "ሁለ": 4428,
      "Mal": 4429,
      "ዚያ": 4430,
      "20 ": 4431,
      "ት እ": 4432,
      "Ph": 4433,
      "ማይ": 4434,
      "gbe ": 4435,
      "ር አ": 4436,
      "oph": 4437,
      "aki ": 4438,
      "Jihar ": 4439,
      "waj": 4440,
      "Cl": 4441,
      "gen": 4442,
      "má": 4443,
      "ም ከ": 4444,
      "aire ": 4445,
      "pẹ̀": 4446,
      "Le": 4447,
      "--": 4448,
      "kí ": 4449,
      "err": 4450,
      "abi ": 4451,
      "ert ": 4452,
      "pres": 4453,
      "Ed": 4454,
      "pas ": 4455,
      "pam": 4456,
      "ènìyàn ": 4457,
      "ም።": 4458,
      "፤ ": 4459,
      "ga watan ": 4460,
      "à, ": 4461,
      "Austr": 4462,
      "orn": 4463,
      "Af": 4464,
      "jẹ ": 4465,
      "our ": 4466,
      "፦ ": 4467,
      "ilikuwa ": 4468,
      "wọ̀": 4469,
      "kasance ": 4470,
      "Sp": 4471,
      "tiqu": 4472,
      "incl": 4473,
      "t of ": 4474,
      "ማሪ": 4475,
      "a M": 4476,
      "ely ": 4477,
      "farko ": 4478,
      "bá": 4479,
      "kubwa ": 4480,
      "dá": 4481,
      "ሥራ": 4482,
      "kn": 4483,
      "' ": 4484,
      "4, ": 4485,
      "zin": 4486,
      "an haife ": 4487,
      "ጨረ": 4488,
      "ው አ": 4489,
      "shugab": 4490,
      "occ": 4491,
      "yìí ": 4492,
      "yin ": 4493,
      "ayan ": 4494,
      "ive ": 4495,
      "from the ": 4496,
      "ankin ": 4497,
      "ሆኖ": 4498,
      "ectr": 4499,
      "ሰው ": 4500,
      "ስታ": 4501,
      " (Baada ya Kristo). Matukio ": 4502,
      "ìṣ": 4503,
      "ዘመን ": 4504,
      "ninu ": 4505,
      "ult": 4506,
      "ound ": 4507,
      "aik": 4508,
      "emba ": 4509,
      "N ": 4510,
      "ori": 4511,
      "ት ተ": 4512,
      " ከተማ": 4513,
      "orile-ede ": 4514,
      "ol ": 4515,
      "arant": 4516,
      "Gre": 4517,
      "Tur": 4518,
      "Ìpínlẹ̀ ": 4519,
      "Jap": 4520,
      "ada ": 4521,
      "19 ": 4522,
      "ባል": 4523,
      "this ": 4524,
      "እንግሊዝ": 4525,
      "he": 4526,
      "o la ": 4527,
      "er.": 4528,
      "onc": 4529,
      "chn": 4530,
      "Eur": 4531,
      "ient ": 4532,
      "sur": 4533,
      "entre ": 4534,
      "ike ": 4535,
      "ko": 4536,
      "rég": 4537,
      "bayan ": 4538,
      "Apr": 4539,
      "ገኘ": 4540,
      "ní ọdún ": 4541,
      "Bl": 4542,
      "hur": 4543,
      "histor": 4544,
      "ould ": 4545,
      "e dans ": 4546,
      "inda ": 4547,
      "BK": 4548,
      "mais ": 4549,
      "ላይ ": 4550,
      "pe ": 4551,
      " የአማርኛ ምሳሌ ነው። ትርጉሙ ያልተተረጎመ ምሳሌ ተረትና ምሳሌ": 4552,
      "He ": 4553,
      " ዓመ": 4554,
      "arch": 4555,
      "uss": 4556,
      "co": 4557,
      "s de ": 4558,
      "thr": 4559,
      "ጠቀ": 4560,
      "ht": 4561,
      "ayi ": 4562,
      "anis": 4563,
      "ira ": 4564,
      "Ing": 4565,
      "ound": 4566,
      "ለም ": 4567,
      "ቅዱ": 4568,
      "3, ": 4569,
      "uni ": 4570,
      "Har": 4571,
      "ነት": 4572,
      "tì ": 4573,
      "igb": 4574,
      "serv": 4575,
      "ƙwallon ": 4576,
      "ilé ": 4577,
      "ehe ": 4578,
      "their ": 4579,
      "5.": 4580,
      " ነው": 4581,
      "bẹ̀": 4582,
      ") je ": 4583,
      "not": 4584,
      "prov": 4585,
      "ọjọ́ ": 4586,
      "መለ": 4587,
      "Karne ya ": 4588,
      "oja na ": 4589,
      "la": 4590,
      "rem": 4591,
      "pers": 4592,
      "fér": 4593,
      "uis ": 4594,
      "Histor": 4595,
      "ደብ ": 4596,
      "ort": 4597,
      "3.": 4598,
      "ept": 4599,
      "kó ": 4600,
      "iki": 4601,
      "ack": 4602,
      "10 ": 4603,
      "4.": 4604,
      "ashar": 4605,
      "Nàìjíríà ": 4606,
      "lọ ": 4607,
      "fin ": 4608,
      "ሕዝ": 4609,
      "ቅር": 4610,
      "bur": 4611,
      "ሌሎ": 4612,
      "tit": 4613,
      "alme ": 4614,
      "icul": 4615,
      "ዘመነ ": 4616,
      "188": 4617,
      "soci": 4618,
      "commun": 4619,
      "Marekani ": 4620,
      "ne, ": 4621,
      " ል": 4622,
      "ar, ": 4623,
      "iliy": 4624,
      "irg": 4625,
      "peu": 4626,
      "ishi ": 4627,
      "cap": 4628,
      "vo": 4629,
      "been ": 4630,
      "ን ያ": 4631,
      "daga cikin ": 4632,
      "University ": 4633,
      "Ben": 4634,
      "arab": 4635,
      "em ": 4636,
      "Nov": 4637,
      "eral ": 4638,
      "\", ": 4639,
      "ne": 4640,
      "ses ": 4641,
      "ን እ": 4642,
      "Qu": 4643,
      "uku": 4644,
      "adh": 4645,
      "ti o ": 4646,
      "Janu": 4647,
      "ne d": 4648,
      "ẹ́gẹ́ ": 4649,
      "Wat": 4650,
      "ida ": 4651,
      "yl": 4652,
      "Car": 4653,
      "ሆን": 4654,
      "ates ": 4655,
      "ታት ": 4656,
      "alin ": 4657,
      "ière ": 4658,
      "ባህ": 4659,
      "kà": 4660,
      "6.": 4661,
      "ራዊ": 4662,
      " የሚገኝ": 4663,
      "ough ": 4664,
      "orí": 4665,
      "ሪያ ": 4666,
      "omo ": 4667,
      "ምህር": 4668,
      "aiki ": 4669,
      "kup": 4670,
      "et de ": 4671,
      "7.": 4672,
      "mul": 4673,
      "yak": 4674,
      "zama ": 4675,
      "aliy": 4676,
      "Franc": 4677,
      "sel": 4678,
      "ክርስቲ": 4679,
      "in.": 4680,
      "Ọ̀": 4681,
      "omb": 4682,
      "oko ": 4683,
      "ደቡ": 4684,
      "conc": 4685,
      "'est ": 4686,
      "ivy": 4687,
      "Engl": 4688,
      "ብዛ": 4689,
      "John ": 4690,
      "ዋና ": 4691,
      "já": 4692,
      "eau ": 4693,
      "kuf": 4694,
      "popul": 4695,
      "at the ": 4696,
      "ide ": 4697,
      "ሩ ": 4698,
      "oma ": 4699,
      "ta k": 4700,
      "group": 4701,
      "hukum": 4702,
      "gir": 4703,
      "orin ": 4704,
      "8, ": 4705,
      "parti": 4706,
      "tor": 4707,
      "ላል": 4708,
      "centur": 4709,
      "ẹ́r": 4710,
      "ወደ ": 4711,
      "for the ": 4712,
      "ther": 4713,
      "2018": 4714,
      "ra": 4715,
      "pà": 4716,
      "an-": 4717,
      "orig": 4718,
      "gbé ": 4719,
      "ብር": 4720,
      "wa k": 4721,
      "Afric": 4722,
      "who ": 4723,
      ".ኤ": 4724,
      "Far": 4725,
      "uch": 4726,
      "ative ": 4727,
      "sik": 4728,
      "o vya ": 4729,
      "tres ": 4730,
      "dan ": 4731,
      "rew": 4732,
      "dar": 4733,
      "mi ": 4734,
      "ọjọ́": 4735,
      "produc": 4736,
      "ጋር ": 4737,
      "isa ": 4738,
      "chin": 4739,
      "Gh": 4740,
      "ano ": 4741,
      "econ": 4742,
      "ight ": 4743,
      "Bar": 4744,
      "Dun": 4745,
      "ahar": 4746,
      "Mon": 4747,
      "Wor": 4748,
      "ሞች": 4749,
      "d’": 4750,
      "èt": 4751,
      "ure ": 4752,
      " አካ": 4753,
      "Mas": 4754,
      "/ ": 4755,
      "ገኛ": 4756,
      "leg": 4757,
      "kọ̀": 4758,
      "ƙaf": 4759,
      "ẹ́rí": 4760,
      " ጥ": 4761,
      "jọ ": 4762,
      "éc": 4763,
      "oni ": 4764,
      "Ingil": 4765,
      "erv": 4766,
      "iko ": 4767,
      ") በ": 4768,
      "Mwaka ": 4769,
      "ras": 4770,
      "Intern": 4771,
      "esp": 4772,
      " ዓ.ም.": 4773,
      "bre": 4774,
      " አስ": 4775,
      "Na": 4776,
      "bí ní ": 4777,
      "pẹ̀lú ": 4778,
      "9, ": 4779,
      "inta ": 4780,
      "ረዳ": 4781,
      "ጀምሮ": 4782,
      "jo": 4783,
      "ush": 4784,
      "ẹgb": 4785,
      " አል": 4786,
      "tsak": 4787,
      "ተረትና ምሳሌ": 4788,
      "Amẹ́rí": 4789,
      "Europ": 4790,
      "ለያ": 4791,
      "ilu ": 4792,
      "Brit": 4793,
      "ን ይ": 4794,
      " ዘ": 4795,
      "ጣጠ": 4796,
      "kà ": 4797,
      "ww": 4798,
      "us, ": 4799,
      "emp": 4800,
      "with the ": 4801,
      "እንዲ": 4802,
      "American ": 4803,
      " S": 4804,
      "wa.": 4805,
      "ማለት ": 4806,
      "nor": 4807,
      "al, ": 4808,
      " አባ": 4809,
      "ƙwallon ƙaf": 4810,
      "dur": 4811,
      "yẹ ": 4812,
      "ày": 4813,
      "ንስ": 4814,
      " ስለ": 4815,
      "ír": 4816,
      "ions ": 4817,
      "moj": 4818,
      "ታ ": 4819,
      "ins ": 4820,
      "ገባ": 4821,
      "da d": 4822,
      "aji wa ": 4823,
      "ẹr": 4824,
      "United ": 4825,
      "a ranar ": 4826,
      "isto": 4827,
      "eu ": 4828,
      "ants ": 4829,
      "lab": 4830,
      "bl": 4831,
      "mê": 4832,
      ",000 ": 4833,
      "ች።": 4834,
      "ዕለ": 4835,
      "prop": 4836,
      "ture ": 4837,
      "jú ": 4838,
      "wake ": 4839,
      "ናቸው።": 4840,
      "franç": 4841,
      "ት ያ": 4842,
      "Ìt": 4843,
      "ብራ": 4844,
      "vil": 4845,
      "kasar ": 4846,
      ".ኤ.አ": 4847,
      "ግን": 4848,
      "t, ": 4849,
      "Alex": 4850,
      "oir": 4851,
      "utilis": 4852,
      "birnin ": 4853,
      "idi ": 4854,
      "ወይም ": 4855,
      "sup": 4856,
      "ወለ": 4857,
      "ት።": 4858,
      "cel": 4859,
      "ሚያ": 4860,
      "ilé-": 4861,
      "pay": 4862,
      "amba ": 4863,
      "For": 4864,
      "we ": 4865,
      "aba ": 4866,
      "ons ": 4867,
      "wah": 4868,
      "iques ": 4869,
      "ግር ": 4870,
      "11": 4871,
      "Muh": 4872,
      " እንዳ": 4873,
      "wamn": 4874,
      "Aug": 4875,
      "wannan ": 4876,
      "ection ": 4877,
      "ell ": 4878,
      "gén": 4879,
      "Ger": 4880,
      "ጽሐ": 4881,
      "e de l'": 4882,
      " አመ": 4883,
      "Tanzania ": 4884,
      " (Baada ya Kristo). Matukio Waliozaliwa ": 4885,
      "most ": 4886,
      "፡ ": 4887,
      "masu ": 4888,
      "tàbí ": 4889,
      "pamoja na ": 4890,
      "Ur": 4891,
      "ose ": 4892,
      " ዓ.ም. ": 4893,
      "ድን": 4894,
      "y (": 4895,
      "Febr": 4896,
      "bal": 4897,
      "ልጣ": 4898,
      "atifu ": 4899,
      "aim": 4900,
      "mshindi wa Tuzo ya Nobel ya ": 4901,
      " ዓ/ም ": 4902,
      "Kis": 4903,
      "lokacin ": 4904,
      "ሠረ": 4905,
      "as the ": 4906,
      "fit": 4907,
      "ብሎ": 4908,
      "yar": 4909,
      "can ": 4910,
      "ray": 4911,
      "uwan": 4912,
      "anan ": 4913,
      "irin ": 4914,
      "ood ": 4915,
      "hadi ": 4916,
      "Pe": 4917,
      "aussi ": 4918,
      "pin": 4919,
      "shig": 4920,
      "uv": 4921,
      "anti": 4922,
      "end ": 4923,
      ") ni ": 4924,
      "anci ": 4925,
      "kin ": 4926,
      "sign": 4927,
      "úr": 4928,
      "oto": 4929,
      "ua ": 4930,
      "Bur": 4931,
      "cewa ": 4932,
      "ère ": 4933,
      "a katika ": 4934,
      "uwan ": 4935,
      "ule ": 4936,
      "ገኙ": 4937,
      " የኢትዮጵያ ": 4938,
      "ìr": 4939,
      "ርሱ": 4940,
      "ọ́kas": 4941,
      "Bo": 4942,
      "ሃይ": 4943,
      "ውያን ": 4944,
      "ጦር": 4945,
      "da aka ": 4946,
      "Char": 4947,
      "Aw": 4948,
      " መደብ ": 4949,
      "Ay": 4950,
      "vari": 4951,
      "Pol": 4952,
      "ade ": 4953,
      "s'": 4954,
      "ስራ": 4955,
      "chang": 4956,
      "sehem": 4957,
      "sc": 4958,
      "éta": 4959,
      "ọ̀r": 4960,
      "ki ": 4961,
      "alit": 4962,
      "deux ": 4963,
      "ativ": 4964,
      "atik": 4965,
      "ore ": 4966,
      "ed.": 4967,
      " እንደ ": 4968,
      "Febru": 4969,
      "ቢያ": 4970,
      "ashin ": 4971,
      "fara ": 4972,
      "gẹ́gẹ́ ": 4973,
      "illi": 4974,
      "babban ": 4975,
      "en, ": 4976,
      "akin ": 4977,
      "ሪ ": 4978,
      "anj": 4979,
      "ee ": 4980,
      "àm": 4981,
      "ele ": 4982,
      " አስተ": 4983,
      "187": 4984,
      "polit": 4985,
      "ይወ": 4986,
      "186": 4987,
      "Ray": 4988,
      "ait": 4989,
      "dir": 4990,
      "nying": 4991,
      "It ": 4992,
      "hum": 4993,
      "ék": 4994,
      "ation of ": 4995,
      "መል": 4996,
      "da suk": 4997,
      "Georg": 4998,
      "ages ": 4999,
      "tun": 5000,
      "sol": 5001,
      "prot": 5002,
      "9.": 5003,
      "Sou": 5004,
      "vit": 5005,
      "unc": 5006,
      "Wh": 5007,
      "ext": 5008,
      "Ku": 5009,
      "ld ": 5010,
      "tp": 5011,
      ") የ": 5012,
      "gbogb": 5013,
      "án ": 5014,
      "ቆጣጠ": 5015,
      "Pl": 5016,
      "ƙar": 5017,
      "uis": 5018,
      "er (": 5019,
      "Ir": 5020,
      "ነው": 5021,
      "al-": 5022,
      "ancin ": 5023,
      "jina ": 5024,
      "lè ": 5025,
      "12 ": 5026,
      "ሽ ": 5027,
      "ements ": 5028,
      "ack ": 5029,
      "ius ": 5030,
      "ver": 5031,
      "àd": 5032,
      "ለም": 5033,
      "ል በ": 5034,
      "Bir": 5035,
      "ታል።": 5036,
      "Sal": 5037,
      "wanza ": 5038,
      "ጀር": 5039,
      "anen ": 5040,
      "RD": 5041,
      "incip": 5042,
      "biyu ": 5043,
      "arm": 5044,
      "angu ": 5045,
      "ui ": 5046,
      "ባይ": 5047,
      "ains ": 5048,
      "15 ": 5049,
      "ሮች ": 5050,
      "inst": 5051,
      "ẹl": 5052,
      "ques ": 5053,
      "n.": 5054,
      "olù": 5055,
      "const": 5056,
      "é.": 5057,
      "ትን": 5058,
      "idan ": 5059,
      "5) ": 5060,
      "uko ": 5061,
      "endel": 5062,
      "oit ": 5063,
      "ucc": 5064,
      "oyin ": 5065,
      "ijir": 5066,
      "o. ": 5067,
      "ific": 5068,
      "gud": 5069,
      "ውሮ": 5070,
      "ihi ": 5071,
      "ohun ": 5072,
      "Re": 5073,
      "dig": 5074,
      "wá ": 5075,
      "é par ": 5076,
      "ና መ": 5077,
      "ince ": 5078,
      "jama'": 5079,
      "ful": 5080,
      "offic": 5081,
      "S ": 5082,
      "hab": 5083,
      "iti": 5084,
      "elu ": 5085,
      "dans le ": 5086,
      "ተ ": 5087,
      "a: ": 5088,
      "ith": 5089,
      " አንድ": 5090,
      "ሥር": 5091,
      " ሲሆን ": 5092,
      "sak": 5093,
      "ilip": 5094,
      "ፈረን": 5095,
      "jerum": 5096,
      " ውስጥ": 5097,
      "famil": 5098,
      "kej": 5099,
      "ar.": 5100,
      "agn": 5101,
      "conn": 5102,
      "Cr": 5103,
      "year": 5104,
      "ሰብ": 5105,
      "Afirka ": 5106,
      "hany": 5107,
      "lá ": 5108,
      "mu": 5109,
      "oir ": 5110,
      "ግድ": 5111,
      "30 ": 5112,
      "compl": 5113,
      "resp": 5114,
      " ዓክልበ. ": 5115,
      "Mut": 5116,
      "vers": 5117,
      "lo ": 5118,
      "écr": 5119,
      "ungo vya ": 5120,
      "kutok": 5121,
      " ካ": 5122,
      "Im": 5123,
      "ግራ": 5124,
      "ect ": 5125,
      "ri ": 5126,
      "truc": 5127,
      "Me": 5128,
      "men": 5129,
      "kuu wa ": 5130,
      "Min": 5131,
      "ቤት ": 5132,
      "pass": 5133,
      "uta ": 5134,
      "ani.": 5135,
      "ences ": 5136,
      "ao ": 5137,
      "akan ": 5138,
      ") (": 5139,
      "wanda ya ": 5140,
      "Alb": 5141,
      "ation, ": 5142,
      "wasu ": 5143,
      "Okto": 5144,
      "uk ": 5145,
      "watu ": 5146,
      "syst": 5147,
      "lakini ": 5148,
      "they ": 5149,
      "ine": 5150,
      "after ": 5151,
      "Viungo vya ": 5152,
      "Des": 5153,
      " አም": 5154,
      "This ": 5155,
      "vir": 5156,
      "8.": 5157,
      "Kus": 5158,
      "ዎቹ": 5159,
      "présent": 5160,
      "har ": 5161,
      "land ": 5162,
      "ፈር": 5163,
      "asu ": 5164,
      "proc": 5165,
      " ከአ": 5166,
      "Ul": 5167,
      "ke ": 5168,
      "fait ": 5169,
      "loc": 5170,
      "ን ተ": 5171,
      "wasan ƙwallon ƙaf": 5172,
      "ላንድ": 5173,
      "akwa": 5174,
      "Di": 5175,
      "ገድ": 5176,
      "alia ": 5177,
      "ande wa ": 5178,
      "ièr": 5179,
      "nchini ": 5180,
      "nj": 5181,
      "Ang": 5182,
      "ነበር።": 5183,
      "adi ": 5184,
      "Lag": 5185,
      "ጨረሻ": 5186,
      "hy": 5187,
      "suk": 5188,
      "ton ": 5189,
      ": ተረትና ምሳሌ": 5190,
      "such ": 5191,
      "Ni ": 5192,
      "annin ": 5193,
      "only ": 5194,
      "ikia ": 5195,
      " እ.ኤ.አ": 5196,
      "ingereza ": 5197,
      "ory ": 5198,
      "trav": 5199,
      "known ": 5200,
      "ier": 5201,
      "près ": 5202,
      "ሁለት ": 5203,
      "ጣል": 5204,
      "bin": 5205,
      "old": 5206,
      "(200": 5207,
      "Fas": 5208,
      "mọ̀ ": 5209,
      "ዝር": 5210,
      "on.": 5211,
      "//": 5212,
      "bet": 5213,
      "ix ": 5214,
      "iyo ": 5215,
      "mf": 5216,
      "ven": 5217,
      "a t": 5218,
      "ship": 5219,
      "IS": 5220,
      "i'ar ": 5221,
      "i ya k": 5222,
      "bor": 5223,
      "eff": 5224,
      "gbaj": 5225,
      "ien ": 5226,
      "rub": 5227,
      "ማስ": 5228,
      "eas": 5229,
      "ንዱ": 5230,
      "ግዚ": 5231,
      "consid": 5232,
      "et le ": 5233,
      "àrùn ": 5234,
      "gar": 5235,
      "Itali": 5236,
      "yr": 5237,
      "ist ": 5238,
      "ean ": 5239,
      "Ét": 5240,
      "Sain": 5241,
      "yn": 5242,
      "two ": 5243,
      "chi ": 5244,
      "Scho": 5245,
      "iyan ": 5246,
      "መር": 5247,
      "odh": 5248,
      "Oc": 5249,
      "trad": 5250,
      "a kan ": 5251,
      "ለይ": 5252,
      "ics ": 5253,
      "amfani ": 5254,
      "d'un ": 5255,
      "katika m": 5256,
      "port ": 5257,
      "http": 5258,
      "Ujerum": 5259,
      "Fl": 5260,
      "ood": 5261,
      "a a ": 5262,
      " ምን": 5263,
      "dont ": 5264,
      "ment": 5265,
      "sim": 5266,
      "ilaya ": 5267,
      "Ex": 5268,
      "2019": 5269,
      "ree ": 5270,
      "ill ": 5271,
      "4) ": 5272,
      "Maj": 5273,
      "awala ": 5274,
      "Sc": 5275,
      "cin ": 5276,
      "fac": 5277,
      "ገለ": 5278,
      "poss": 5279,
      "temp": 5280,
      "://": 5281,
      "oní": 5282,
      "arantar ": 5283,
      "7) ": 5284,
      "ጥቅ": 5285,
      "ony": 5286,
      "ni ó ": 5287,
      "bar": 5288,
      "Wọ́n ": 5289,
      "ቦታ": 5290,
      "int ": 5291,
      "techn": 5292,
      "àkọ́": 5293,
      " ወይም ": 5294,
      "wò ": 5295,
      "l ": 5296,
      ", mshindi wa Tuzo ya Nobel ya ": 5297,
      "ጀመሪያ": 5298,
      "Amur": 5299,
      "ọdun ": 5300,
      "din ": 5301,
      "fur": 5302,
      "out": 5303,
      "kir": 5304,
      "larg": 5305,
      "ode ": 5306,
      "ሰራ": 5307,
      "ati ya ": 5308,
      "elles ": 5309,
      "a kas": 5310,
      "plac": 5311,
      "kuma m": 5312,
      "25": 5313,
      "V ": 5314,
      "ክንያ": 5315,
      " እየ": 5316,
      "overn": 5317,
      "ashen ": 5318,
      "omin": 5319,
      "prof": 5320,
      "azin": 5321,
      "14 ": 5322,
      "pat": 5323,
      "ɗan ": 5324,
      "1) ": 5325,
      "2-": 5326,
      "gh": 5327,
      "Be": 5328,
      "On ": 5329,
      "ቦች": 5330,
      "et la ": 5331,
      "iste ": 5332,
      "kil": 5333,
      "être ": 5334,
      "ታቸው": 5335,
      "ጠራ": 5336,
      "els ": 5337,
      "- M": 5338,
      "dab": 5339,
      "ole ": 5340,
      "dá ": 5341,
      "ት (": 5342,
      "i katika ": 5343,
      "ነበሩ": 5344,
      "የአ": 5345,
      "litt": 5346,
      "atun ": 5347,
      "u (": 5348,
      "princip": 5349,
      "re, ": 5350,
      "utar ": 5351,
      "] ": 5352,
      "zil": 5353,
      "aux": 5354,
      "epend": 5355,
      "Mag": 5356,
      "shi ne ": 5357,
      "er of ": 5358,
      "ጠቅ": 5359,
      "div": 5360,
      "tan": 5361,
      "ን (": 5362,
      "import": 5363,
      "ogo ": 5364,
      "odun ": 5365,
      "Naijir": 5366,
      "17 ": 5367,
      "nígbà ": 5368,
      "mal": 5369,
      "suna ": 5370,
      "shine ": 5371,
      "lam": 5372,
      "ዳን": 5373,
      "iye ": 5374,
      " ነበር": 5375,
      "ween ": 5376,
      "እንግሊዝኛ": 5377,
      "génér": 5378,
      "ግዚአ": 5379,
      "gun ": 5380,
      "al'": 5381,
      "Willi": 5382,
      "ọk": 5383,
      "origin": 5384,
      "ayo ": 5385,
      "Yorù": 5386,
      "Jos": 5387,
      "War": 5388,
      "kama ": 5389,
      "mẹ́": 5390,
      "tal": 5391,
      "èyí ": 5392,
      "ed, ": 5393,
      "3) ": 5394,
      "dí": 5395,
      "| RD": 5396,
      "Waliofariki Karne ya ": 5397,
      " ደ": 5398,
      "\" (": 5399,
      "t-": 5400,
      " መን": 5401,
      "ያን": 5402,
      "202": 5403,
      "Shugab": 5404,
      "a za ": 5405,
      "urr": 5406,
      "usi": 5407,
      "och": 5408,
      "òk": 5409,
      "ህዝ": 5410,
      "ራሱ": 5411,
      "በባ": 5412,
      "unan ": 5413,
      "ofin ": 5414,
      "ust ": 5415,
      " እና የ": 5416,
      "ible ": 5417,
      "11 ": 5418,
      "atin ": 5419,
      "imm": 5420,
      "leur ": 5421,
      "press": 5422,
      "ም ተ": 5423,
      "gbogbo ": 5424,
      "sub": 5425,
      "And": 5426,
      "progr": 5427,
      "say": 5428,
      "za k": 5429,
      "imu ": 5430,
      "dún ": 5431,
      "ƙas": 5432,
      "ወጣ": 5433,
      "6) ": 5434,
      " ው": 5435,
      "with": 5436,
      "flu": 5437,
      "Agb": 5438,
      "rom": 5439,
      "ከታ": 5440,
      "ገል": 5441,
      ", le ": 5442,
      "contin": 5443,
      "tí": 5444,
      "ens ": 5445,
      "perm": 5446,
      "ọjọ́ì": 5447,
      "za m": 5448,
      "a K": 5449,
      "185": 5450,
      "16 ": 5451,
      "ናቸው": 5452,
      "cette ": 5453,
      "ወን": 5454,
      "ር (": 5455,
      "wasan ƙwallon ƙafa ta ": 5456,
      "Paul": 5457,
      "yst": 5458,
      "ዕራ": 5459,
      "ዘንድ": 5460,
      "iwa na ": 5461,
      "Us": 5462,
      "o ch": 5463,
      "Itokasi": 5464,
      "typ": 5465,
      "class": 5466,
      "ìwé ": 5467,
      "alisar ": 5468,
      "Nigeria ": 5469,
      "II ": 5470,
      "autres ": 5471,
      "ki": 5472,
      "ric": 5473,
      "ረ።": 5474,
      "as, ": 5475,
      "ታዊ": 5476,
      "ግባ": 5477,
      "atika m": 5478,
      "Mad": 5479,
      "part ": 5480,
      "ough": 5481,
      "ምና": 5482,
      "ጎር": 5483,
      "ግዚአብሔ": 5484,
      "13 ": 5485,
      "ár": 5486,
      "ማ ": 5487,
      "ስ በ": 5488,
      "World ": 5489,
      "kuj": 5490,
      "Lib": 5491,
      "ax": 5492,
      "oto ": 5493,
      "és": 5494,
      "ም፡": 5495,
      "፣ ከ": 5496,
      "wasan ƙwallon ƙafa ta ƙasar ": 5497,
      "mes ": 5498,
      "ጠቃ": 5499,
      "nom ": 5500,
      "ኃይ": 5501,
      "ገራ": 5502,
      "nje ": 5503,
      "ብቻ": 5504,
      "ፍራ": 5505,
      "ok ": 5506,
      "ation.": 5507,
      "2) ": 5508,
      "Kik": 5509,
      "ልደ": 5510,
      "dake ": 5511,
      "rap": 5512,
      "includ": 5513,
      " መደብ : ተረትና ምሳሌ": 5514,
      " «": 5515,
      "asi ": 5516,
      ". Itokasi ": 5517,
      "ውን": 5518,
      "samu ": 5519,
      "stat": 5520,
      "18 ": 5521,
      "tarehe ": 5522,
      "kaf": 5523,
      "ni": 5524,
      "ሆን በ": 5525,
      "iya": 5526,
      "awo ": 5527,
      "leur": 5528,
      "ied ": 5529,
      "pad": 5530,
      "es of ": 5531,
      "unt": 5532,
      "Alexand": 5533,
      "ló ": 5534,
      "ution ": 5535,
      "Mor": 5536,
      "በአ": 5537,
      "apo ": 5538,
      "when ": 5539,
      "Em": 5540,
      "atu ": 5541,
      "Fil": 5542,
      "Her": 5543,
      "ìs": 5544,
      "cré": 5545,
      "between ": 5546,
      " እንዲሁ": 5547,
      " ነገሥ": 5548,
      "Ta ": 5549,
      "coun": 5550,
      "natur": 5551,
      "writ": 5552,
      "ìk": 5553,
      "n, ": 5554,
      "jọ́ ": 5555,
      "ashe ": 5556,
      "ayé ": 5557,
      "ref": 5558,
      "over": 5559,
      "zab": 5560,
      "haɗ": 5561,
      "shekarar 201": 5562,
      "Marekani": 5563,
      "Ah": 5564,
      "National ": 5565,
      "A cikin ": 5566,
      "work": 5567,
      "asi": 5568,
      "expl": 5569,
      "peut ": 5570,
      "Bab": 5571,
      "Hu": 5572,
      "Lond": 5573,
      "red": 5574,
      "Wan": 5575,
      "jin": 5576,
      "ወቅ": 5577,
      "era ": 5578,
      "Tanzani": 5579,
      "máa ": 5580,
      "an haife shi ": 5581,
      "aid": 5582,
      "በረ": 5583,
      "ila ": 5584,
      " ለመ": 5585,
      "ል አ": 5586,
      "ገደ": 5587,
      "Comm": 5588,
      " ወደ ": 5589,
      "፣ አ": 5590,
      " መስ": 5591,
      "over ": 5592,
      "eux": 5593,
      "lo": 5594,
      "eri": 5595,
      "prim": 5596,
      "jour": 5597,
      "da ta ": 5598,
      "ople ": 5599,
      "owo ": 5600,
      "ed by the ": 5601,
      "shen ": 5602,
      " በሚ": 5603,
      "kati ya ": 5604,
      "élé": 5605,
      "Haus": 5606,
      "def": 5607,
      "nouv": 5608,
      "inn": 5609,
      "adar": 5610,
      "nchi ya ": 5611,
      "fa": 5612,
      "Cor": 5613,
      "anya ": 5614,
      "isp": 5615,
      "25 ": 5616,
      "M ": 5617,
      "ati wa ": 5618,
      "Atl": 5619,
      "ሰረ": 5620,
      "ili ya ": 5621,
      "iji ": 5622,
      "wọ́ ": 5623,
      "ique, ": 5624,
      "ንጉሥ ": 5625,
      "ሊያ": 5626,
      "tern ": 5627,
      "ል የ": 5628,
      "ቀድ": 5629,
      "èré ": 5630,
      "aṣ": 5631,
      "ègb": 5632,
      "New Yor": 5633,
      "Oktoba ": 5634,
      "ani, ": 5635,
      "into ": 5636,
      "lórí ": 5637,
      "more ": 5638,
      "équ": 5639,
      "ed as ": 5640,
      "Was": 5641,
      "ምር": 5642,
      "ኖች": 5643,
      "0 ዓ": 5644,
      "úkọ ": 5645,
      "aga ": 5646,
      "ainsi ": 5647,
      "ነዚህ": 5648,
      "ጥረ": 5649,
      "ìnrin ": 5650,
      "ቶ ": 5651,
      "ishwa ": 5652,
      "ደረገ": 5653,
      "may ": 5654,
      "val": 5655,
      "i kar": 5656,
      "ላት ": 5657,
      "eat": 5658,
      "e: ": 5659,
      " ቀን ": 5660,
      "ham": 5661,
      "acce ": 5662,
      "inat": 5663,
      "upande wa ": 5664,
      "1,": 5665,
      "ji ": 5666,
      "àw": 5667,
      "ቱን ": 5668,
      "omin ": 5669,
      "shugaban ": 5670,
      "ẹgbẹ́ ": 5671,
      "jù": 5672,
      "oro ": 5673,
      "akar ": 5674,
      "ost": 5675,
      "30": 5676,
      "iop": 5677,
      "atom": 5678,
      "ten ": 5679,
      "trib": 5680,
      "ing, ": 5681,
      "184": 5682,
      "risto ": 5683,
      "ቁጥር ": 5684,
      "odha ya ": 5685,
      "Te": 5686,
      "aun": 5687,
      " እና በ": 5688,
      "AS": 5689,
      "ism": 5690,
      "ographi": 5691,
      "dec": 5692,
      "velop": 5693,
      "ማኖ": 5694,
      ". Àwọn ": 5695,
      "lẹ̀ èdè ": 5696,
      "ላ ": 5697,
      "iti ": 5698,
      "ée par ": 5699,
      "Kam": 5700,
      "na m": 5701,
      "compos": 5702,
      "Chin": 5703,
      "ንደ": 5704,
      "than ": 5705,
      "ukan ": 5706,
      "ተኛ ": 5707,
      "ident ": 5708,
      "ና ከ": 5709,
      "ናት ": 5710,
      "ana k": 5711,
      "ón ": 5712,
      " ጊዜ": 5713,
      "ers, ": 5714,
      "e dé": 5715,
      "gẹ́gẹ́ bí ": 5716,
      "cas": 5717,
      "rad": 5718,
      "uba ": 5719,
      "èlú ": 5720,
      "alors ": 5721,
      "inay": 5722,
      " በማ": 5723,
      "is the ": 5724,
      "aff": 5725,
      "aikin ": 5726,
      "atol": 5727,
      "Rob": 5728,
      "eo ya ": 5729,
      "km": 5730,
      "ላለ": 5731,
      "call": 5732,
      "n'": 5733,
      ", s": 5734,
      "ward ": 5735,
      "May": 5736,
      "arar ": 5737,
      "kun ": 5738,
      " ነው ": 5739,
      " መካከ": 5740,
      "ren": 5741,
      "ute ": 5742,
      "African ": 5743,
      "ìdì": 5744,
      "http://": 5745,
      "emi ": 5746,
      " እያ": 5747,
      "mad ": 5748,
      "ois": 5749,
      "pọ̀": 5750,
      "anch": 5751,
      "ales ": 5752,
      "ilit": 5753,
      "également ": 5754,
      "ingerez": 5755,
      "ድር ": 5756,
      "ilos": 5757,
      "hada ": 5758,
      "ቅዱስ ": 5759,
      "ስፋ": 5760,
      "dans la ": 5761,
      " ቢ": 5762,
      "መረ": 5763,
      "ume ": 5764,
      "Arab": 5765,
      "ል፡፡": 5766,
      "ወሰ": 5767,
      "tour": 5768,
      "if ": 5769,
      "Kwa ": 5770,
      "tob": 5771,
      "azama ": 5772,
      "ards ": 5773,
      "& ": 5774,
      "kal": 5775,
      "nas": 5776,
      "ወረ": 5777,
      "use ": 5778,
      "ግዛ": 5779,
      "Az": 5780,
      "coll": 5781,
      "daya ": 5782,
      "pend": 5783,
      "ና አ": 5784,
      "any ": 5785,
      " ታሪክ": 5786,
      "ለያዩ": 5787,
      "ọjọ́ìbí ní ": 5788,
      "21 ": 5789,
      "d'une ": 5790,
      "ችን ": 5791,
      "ን፡": 5792,
      ", mwan": 5793,
      "weny": 5794,
      "would ": 5795,
      "she ": 5796,
      "ocr": 5797,
      "shekaru ": 5798,
      "wakazi ": 5799,
      "Jami'ar ": 5800,
      "ètò ": 5801,
      "Dav": 5802,
      "ranar ": 5803,
      "trouv": 5804,
      " ብዙ": 5805,
      "Dr": 5806,
      "fí": 5807,
      "pap": 5808,
      "al.": 5809,
      "déc": 5810,
      "farans": 5811,
      "bẹ̀rẹ̀ ": 5812,
      "ሲያ": 5813,
      "ወር": 5814,
      "umm": 5815,
      "ivyo ": 5816,
      "Dec": 5817,
      "bug": 5818,
      "kọ́": 5819,
      "ጋር": 5820,
      "about ": 5821,
      "a S": 5822,
      "ami ": 5823,
      "wà ní ": 5824,
      "gin": 5825,
      "Ann": 5826,
      "aires ": 5827,
      "many ": 5828,
      "0) ": 5829,
      "sal": 5830,
      "ìjọba ": 5831,
      "ng": 5832,
      "aren ": 5833,
      "le-": 5834,
      "kuanz": 5835,
      "crip": 5836,
      "- የ": 5837,
      "kam": 5838,
      "ቀበ": 5839,
      "tive ": 5840,
      "a mwaka ": 5841,
      "ogun ": 5842,
      "maso ": 5843,
      "ደቡብ": 5844,
      "Bal": 5845,
      "Leg": 5846,
      "kash": 5847,
      "ìmọ̀ ": 5848,
      "nà ": 5849,
      "ቀመ": 5850,
      "ẹlẹ́": 5851,
      "auk": 5852,
      "cit": 5853,
      "est un ": 5854,
      "territ": 5855,
      "particul": 5856,
      "zaid": 5857,
      "ታት": 5858,
      "Abd": 5859,
      "BC": 5860,
      "sou": 5861,
      "wur": 5862,
      "ጠረ": 5863,
      "intern": 5864,
      "a mak": 5865,
      "Er": 5866,
      "King": 5867,
      "ነገር ": 5868,
      "umia ": 5869,
      "ው ከ": 5870,
      "lugha ya ": 5871,
      "ègbè ": 5872,
      "old ": 5873,
      "tif": 5874,
      "ipa ": 5875,
      "rẹ ": 5876,
      "anza ": 5877,
      "ix": 5878,
      "adu ": 5879,
      "tout ": 5880,
      "cond": 5881,
      "départ": 5882,
      "même ": 5883,
      "ዮሐ": 5884,
      "th centur": 5885,
      "Med": 5886,
      "kék": 5887,
      "ትምህር": 5888,
      "da t": 5889,
      "àt": 5890,
      "imat": 5891,
      "ር ይ": 5892,
      "hanyar ": 5893,
      "E ": 5894,
      "gwamn": 5895,
      "ስ የ": 5896,
      "iyas": 5897,
      "22 ": 5898,
      "oba ": 5899,
      "kuma ta ": 5900,
      "ollow": 5901,
      "Orodha ya ": 5902,
      "tsakanin ": 5903,
      "9) ": 5904,
      "Tib": 5905,
      "wacce ": 5906,
      "i ya K": 5907,
      "Eb": 5908,
      "Gab": 5909,
      "uu ": 5910,
      "ላቸው": 5911,
      "enz": 5912,
      "et, ": 5913,
      "BK (Baada ya Kristo). Matukio Waliozaliwa ": 5914,
      "était ": 5915,
      "23": 5916,
      "liv": 5917,
      "Can": 5918,
      "Od": 5919,
      "Om": 5920,
      "Part": 5921,
      "bẹ́": 5922,
      "hom": 5923,
      "ìpínlẹ̀ ": 5924,
      "ም መ": 5925,
      "ዲስ አ": 5926,
      "gbọ́n ": 5927,
      "osh": 5928,
      "ues ": 5929,
      "Ní ọdún ": 5930,
      "24 ": 5931,
      "P ": 5932,
      "Pop": 5933,
      "hel": 5934,
      "ox": 5935,
      "0-": 5936,
      "fim ": 5937,
      "ክፍለ ": 5938,
      "her ": 5939,
      "áy": 5940,
      "Musul": 5941,
      "sit": 5942,
      "wí": 5943,
      "epuis ": 5944,
      "International ": 5945,
      "succ": 5946,
      "mutane ": 5947,
      "nípa ": 5948,
      "ge ": 5949,
      "Ẹ̀": 5950,
      "Mis": 5951,
      "amment ": 5952,
      "bíi ": 5953,
      "ንስ ": 5954,
      "dans les ": 5955,
      "òṣèré ": 5956,
      "-d": 5957,
      "Ts": 5958,
      "met": 5959,
      "ርክ": 5960,
      " መንግሥት ": 5961,
      "econd ": 5962,
      "mill": 5963,
      "ልጆ": 5964,
      "ime": 5965,
      "unge ": 5966,
      "amfanin ": 5967,
      "ውሮፓ": 5968,
      "Ber": 5969,
      "If": 5970,
      "sin": 5971,
      "oda ": 5972,
      "eji ": 5973,
      "où ": 5974,
      "በት": 5975,
      "ክት": 5976,
      "by the ": 5977,
      "24": 5978,
      "He": 5979,
      "beg": 5980,
      "Nijeriya ": 5981,
      "D ": 5982,
      "De": 5983,
      "bel": 5984,
      "io": 5985,
      "lik": 5986,
      "war ": 5987,
      "ቻይ": 5988,
      "inv": 5989,
      "isiwa ": 5990,
      "dat": 5991,
      "ie, ": 5992,
      "ናል።": 5993,
      "le de ": 5994,
      "-አ": 5995,
      "Babban ": 5996,
      "mọ́ ": 5997,
      "ìgbà ": 5998,
      "ምት": 5999,
      " የሆነ": 6000,
      "é en ": 6001,
      "On": 6002,
      "laf": 6003,
      "Dans ": 6004,
      "Kem": 6005,
      "Mich": 6006,
      "numb": 6007,
      "ግን ": 6008,
      "empl": 6009,
      "Farans": 6010,
      "South ": 6011,
      "long": 6012,
      "méj": 6013,
      "jag": 6014,
      "kò": 6015,
      "pè ": 6016,
      "Jamhur": 6017,
      "ፕሬ": 6018,
      "als": 6019,
      "sai ": 6020,
      "ሰው": 6021,
      "ቀጥ": 6022,
      "elek": 6023,
      "très ": 6024,
      "ደግሞ ": 6025,
      "3-": 6026,
      "Eth": 6027,
      "Ufarans": 6028,
      "early ": 6029,
      "jáde ": 6030,
      "ach ": 6031,
      "après ": 6032,
      "alb": 6033,
      "ia (": 6034,
      "exp": 6035,
      "wasan ƙwallon ƙafa ta ƙasar Ingil": 6036,
      "S.": 6037,
      "ክለ": 6038,
      "erc": 6039,
      "ya K": 6040,
      "ia na ": 6041,
      "udu ": 6042,
      "premier ": 6043,
      "als ": 6044,
      "on-": 6045,
      "adem": 6046,
      "University of ": 6047,
      "baada ya ": 6048,
      "ልባ": 6049,
      "arta ": 6050,
      "ተመ": 6051,
      "ዝ ": 6052,
      "ዋና ከተማ": 6053,
      "kékeré ": 6054,
      "ር መ": 6055,
      "okac": 6056,
      "istan ": 6057,
      "let": 6058,
      "tó": 6059,
      "anim": 6060,
      "shiry": 6061,
      "dh": 6062,
      "uit ": 6063,
      "ድረስ ": 6064,
      "français": 6065,
      "Sept": 6066,
      "yí": 6067,
      "ሩ።": 6068,
      "ision ": 6069,
      "takatifu ": 6070,
      "23 ": 6071,
      "gún ": 6072,
      "ታዊ ": 6073,
      "ita ce ": 6074,
      "Amerika ": 6075,
      "koa wa ": 6076,
      "ቀድሞ": 6077,
      "cert": 6078,
      "dé ": 6079,
      "ils ": 6080,
      "et les ": 6081,
      "where ": 6082,
      "Kir": 6083,
      "óm": 6084,
      "ቴዎ": 6085,
      "risti": 6086,
      "Ob": 6087,
      "oit": 6088,
      "yad": 6089,
      "ማዕ": 6090,
      "ነበር": 6091,
      "ውጭ": 6092,
      "ẹs": 6093,
      ", ó ": 6094,
      "ina": 6095,
      "ọ́kasí ": 6096,
      "ፈረንሳይ": 6097,
      "ሠራ": 6098,
      "é de ": 6099,
      "ojo": 6100,
      "tsoh": 6101,
      "i) ": 6102,
      "tique ": 6103,
      " አንዱ": 6104,
      "Colleg": 6105,
      "Kas": 6106,
      "k.": 6107,
      "in da ": 6108,
      "isi ": 6109,
      "iyyar ": 6110,
      "a ma": 6111,
      "uku ": 6112,
      "anzu ": 6113,
      "100": 6114,
      "prob": 6115,
      " መል": 6116,
      "28 ": 6117,
      "jus": 6118,
      "i la ": 6119,
      "y and ": 6120,
      "années ": 6121,
      "Ik": 6122,
      "ቲካ": 6123,
      "2020": 6124,
      "Nàìjíríà.": 6125,
      "ዲስ አበባ": 6126,
      "29 ": 6127,
      "Coun": 6128,
      "Ipin": 6129,
      "ìn ": 6130,
      "ግ ": 6131,
      "ጨማሪ": 6132,
      "ba da ": 6133,
      "ል ይ": 6134,
      "alif ": 6135,
      "mji m": 6136,
      "Dis": 6137,
      "ást": 6138,
      "ort ": 6139,
      "Najeriya.": 6140,
      "uhur": 6141,
      "aient ": 6142,
      "ograph": 6143,
      "ẹ́rọ́": 6144,
      "ጀርመ": 6145,
      "AN": 6146,
      "cin": 6147,
      "ing to ": 6148,
      "usieurs ": 6149,
      "ástẹ́rọ́": 6150,
      "Mach": 6151,
      "dem": 6152,
      "lif": 6153,
      "À ": 6154,
      "imp": 6155,
      "obj": 6156,
      " እንግ": 6157,
      "28": 6158,
      "ፍሪካ": 6159,
      "aka m": 6160,
      "un, ": 6161,
      "ni wọ́n ": 6162,
      "27": 6163,
      "bùn ": 6164,
      "din": 6165,
      "ቀር": 6166,
      "envir": 6167,
      "owev": 6168,
      "France ": 6169,
      "i: ": 6170,
      "yank": 6171,
      "ናዊ": 6172,
      "u za ": 6173,
      "British ": 6174,
      "ual ": 6175,
      "pris": 6176,
      "BC ": 6177,
      "Igb": 6178,
      "ታላ": 6179,
      "ani ya ": 6180,
      "iya. ": 6181,
      "183": 6182,
      "Agos": 6183,
      "pays ": 6184,
      "Hen": 6185,
      "play": 6186,
      "t.": 6187,
      "omi ": 6188,
      "ው መ": 6189,
      "che ": 6190,
      "ni na ": 6191,
      "ek ": 6192,
      ". S": 6193,
      "okin ": 6194,
      "Afrik": 6195,
      "27 ": 6196,
      "fus": 6197,
      "ሬ ": 6198,
      "ick": 6199,
      "ci gab": 6200,
      "nombre": 6201,
      "Bayan ": 6202,
      "lamb": 6203,
      "A.": 6204,
      "Aj": 6205,
      "Op": 6206,
      "u ni ": 6207,
      "s in ": 6208,
      "oṣù kẹ": 6209,
      "ግር ኳ": 6210,
      "8) ": 6211,
      "cal": 6212,
      "tab": 6213,
      "ግሪክ": 6214,
      "Fir": 6215,
      "centr": 6216,
      "ራት ": 6217,
      "ታቸው ": 6218,
      "ኤል": 6219,
      "ገበ": 6220,
      "inform": 6221,
      "ní ibi ": 6222,
      "lára ": 6223,
      "such as ": 6224,
      " - ": 6225,
      "ym": 6226,
      "» (": 6227,
      "፤ በ": 6228,
      "ṣẹ́ ": 6229,
      "filamu ": 6230,
      " ባ": 6231,
      "iev": 6232,
      "ድም": 6233,
      "igiz": 6234,
      "Co": 6235,
      "tẹ́": 6236,
      "ኖር": 6237,
      "astr": 6238,
      "awa, ": 6239,
      "ደረጃ": 6240,
      "chini ya ": 6241,
      "New": 6242,
      "som": 6243,
      "lev": 6244,
      "tionn": 6245,
      "tele. ": 6246,
      "àkó": 6247,
      "became ": 6248,
      "ástẹ́rọ́ìdì": 6249,
      "game ": 6250,
      "her": 6251,
      "kur": 6252,
      "mark": 6253,
      "በተ": 6254,
      "ojú ": 6255,
      " የተባለ": 6256,
      "harib": 6257,
      "Lou": 6258,
      "Mac": 6259,
      "Yun": 6260,
      "መጣ": 6261,
      "ici": 6262,
      "name ": 6263,
      "Bel": 6264,
      "Gl": 6265,
      "fois ": 6266,
      "ማዊ ": 6267,
      "ation de ": 6268,
      "Lugh": 6269,
      "Oṣù ": 6270,
      "Pet": 6271,
      "ተር": 6272,
      "eno ": 6273,
      "appl": 6274,
      "ia. ": 6275,
      "jih": 6276,
      "ለአ": 6277,
      "ት የሚ": 6278,
      "lọ sí ": 6279,
      " ዓክልበ.": 6280,
      "asharik": 6281,
      "Lá": 6282,
      "ii ": 6283,
      "», ": 6284,
      "Manazarta": 6285,
      "duniya ": 6286,
      "jina la ": 6287,
      "Gen": 6288,
      "ሲሆን ": 6289,
      "aa ": 6290,
      "lib": 6291,
      "wò": 6292,
      ". T": 6293,
      "da yawan ": 6294,
      "26 ": 6295,
      "yawan ": 6296,
      "ማን": 6297,
      "ት፡": 6298,
      "ulik": 6299,
      "appar": 6300,
      "iong": 6301,
      "that the ": 6302,
      "develop": 6303,
      "cre": 6304,
      "ልድ": 6305,
      "dévelop": 6306,
      "Kad": 6307,
      "follow": 6308,
      "ሁን ": 6309,
      "ት፣ ": 6310,
      "iyya ": 6311,
      "s, and ": 6312,
      "Ipinle ": 6313,
      "Fiz": 6314,
      "Id": 6315,
      "iers ": 6316,
      "log": 6317,
      "ፈል": 6318,
      "kuh": 6319,
      "ስ ተ": 6320,
      "Agosti ": 6321,
      "egbe ": 6322,
      "kamar ": 6323,
      "ude ": 6324,
      "ሎች": 6325,
      "ul ": 6326,
      "wajen ": 6327,
      "ojoibi ": 6328,
      "Kal": 6329,
      "sec": 6330,
      "ሉት ": 6331,
      "ናይ": 6332,
      "ንቲ": 6333,
      "ፓር": 6334,
      "enda ": 6335,
      "grand": 6336,
      "Awọn ": 6337,
      "Emp": 6338,
      "ሞች ": 6339,
      "ነቱ": 6340,
      "ull": 6341,
      "oss": 6342,
      "Mil": 6343,
      "mall": 6344,
      "no ": 6345,
      "a mat": 6346,
      "kuma ya ": 6347,
      "ministr": 6348,
      "sannan ": 6349,
      "ton": 6350,
      "ሙዚ": 6351,
      "ẹ́tì ": 6352,
      "B ": 6353,
      "Se": 6354,
      "day": 6355,
      "jú": 6356,
      "kan": 6357,
      "lui ": 6358,
      "scor": 6359,
      "ars": 6360,
      "wana": 6361,
      "ሃይማኖ": 6362,
      "ህ ": 6363,
      "fore ": 6364,
      "ock": 6365,
      "iens ": 6366,
      "26": 6367,
      "has": 6368,
      "atar da ": 6369,
      " ከፍ": 6370,
      "under ": 6371,
      "àjá ": 6372,
      "jirg": 6373,
      "ገር": 6374,
      "influ": 6375,
      "en.": 6376,
      "olu": 6377,
      "imo ": 6378,
      "to be ": 6379,
      "plán": 6380,
      "orílẹ̀ èdè ": 6381,
      "e), ": 6382,
      "mah": 6383,
      "e sur ": 6384,
      "Fren": 6385,
      "fon": 6386,
      "ሜት": 6387,
      "ity, ": 6388,
      "atiqu": 6389,
      "ìgbàjá ": 6390,
      "eneo la ": 6391,
      "ሴት ": 6392,
      "ገን": 6393,
      " ነገር ": 6394,
      "angl": 6395,
      "wasan k": 6396,
      "rest": 6397,
      "ኖሩ": 6398,
      "electr": 6399,
      "exist": 6400,
      "ግብጽ": 6401,
      "ẹ́tì kékeré ": 6402,
      "ta, ": 6403,
      "wa, ": 6404,
      "ál": 6405,
      "iter": 6406,
      "a baya ": 6407,
      "Pres": 6408,
      "ief": 6409,
      "mọ̀": 6410,
      "ident": 6411,
      "up ": 6412,
      "ez ": 6413,
      "ታወቃ": 6414,
      "notamment ": 6415,
      "fas": 6416,
      "garin ": 6417,
      "ika k": 6418,
      "ibl": 6419,
      "plánẹ́tì kékeré ": 6420,
      "8-": 6421,
      "Sch": 6422,
      "መራ": 6423,
      "ሚኒ": 6424,
      "ሮ ": 6425,
      "ther ": 6426,
      "une s": 6427,
      "180": 6428,
      "ní ibi ìgbàjá ": 6429,
      "ear ": 6430,
      "pek": 6431,
      "w.": 6432,
      "ẹn": 6433,
      "alim": 6434,
      "ት እንደ": 6435,
      "ọ̀kan ": 6436,
      "kutoka Marekani": 6437,
      "ium ": 6438,
      "úgb": 6439,
      "ልቅ": 6440,
      "ammad ": 6441,
      "Nigerian ": 6442,
      "ement, ": 6443,
      "Eg": 6444,
      "mú ": 6445,
      "ነሳ": 6446,
      "ም ይ": 6447,
      "ign ": 6448,
      "ma'": 6449,
      "ott": 6450,
      "Dem": 6451,
      "tabi ": 6452,
      "ሉቃ": 6453,
      "ayar ": 6454,
      "ት በኋላ": 6455,
      "cultur": 6456,
      "anb": 6457,
      "ashi ": 6458,
      "plánẹ́tì kékeré ní ibi ìgbàjá ": 6459,
      "Of": 6460,
      "rang": 6461,
      "plusieurs ": 6462,
      "jẹ́ plánẹ́tì kékeré ní ibi ìgbàjá ": 6463,
      "English ": 6464,
      "rik": 6465,
      "በር ": 6466,
      "amin": 6467,
      " ሊ": 6468,
      "Os": 6469,
      "hasa ": 6470,
      "yankin ": 6471,
      "o ta ": 6472,
      "ẹ̀yẹ ": 6473,
      "uel ": 6474,
      "».": 6475,
      "ዘር": 6476,
      "Julai ": 6477,
      "Del": 6478,
      "Pal": 6479,
      "med": 6480,
      "ኞች": 6481,
      "ደራ": 6482,
      "tow": 6483,
      "ን በመ": 6484,
      "ክርስቶ": 6485,
      "Dag": 6486,
      "Ser": 6487,
      "ላክ": 6488,
      "ስብ": 6489,
      "ውድ": 6490,
      "atic ": 6491,
      "na k": 6492,
      "ክርስቲያ": 6493,
      "Amẹ́ríkà": 6494,
      "jẹ́ plánẹ́tì kékeré ní ibi ìgbàjá ástẹ́rọ́ìdì": 6495,
      "'yan ": 6496,
      "àṣ": 6497,
      "ፖር": 6498,
      "kópa ": 6499,
      " አካባቢ": 6500,
      "constitu": 6501,
      "Sep": 6502,
      "ኒያ": 6503,
      "ፈለ": 6504,
      "adin ": 6505,
      "acr": 6506,
      "afa ": 6507,
      "da suka ": 6508,
      "United St": 6509,
      "Rep": 6510,
      "d. ": 6511,
      "ሥነ ": 6512,
      "ረብ": 6513,
      "Yorùbá ": 6514,
      "Bi": 6515,
      "እግዚአብሔ": 6516,
      "ፊደ": 6517,
      "ale, ": 6518,
      "ል። ": 6519,
      "philos": 6520,
      "ሌሎች": 6521,
      "ጦርነት ": 6522,
      "lav": 6523,
      "yà ": 6524,
      "itz": 6525,
      " ነው። የ": 6526,
      "tain ": 6527,
      "ልጅ ": 6528,
      "kusin": 6529,
      "2,": 6530,
      "Ug": 6531,
      "tangu ": 6532,
      "an (": 6533,
      "Fin": 6534,
      "fẹ́ ": 6535,
      "ors": 6536,
      "later ": 6537,
      "ኛ፦ ": 6538,
      "ፖለ": 6539,
      "used ": 6540,
      " ለማ": 6541,
      "ologie ": 6542,
      "wamba ": 6543,
      "William ": 6544,
      "Riv": 6545,
      "govern": 6546,
      "ካባቢ": 6547,
      "el, ": 6548,
      " ወን": 6549,
      "ais wa ": 6550,
      "Ghana ": 6551,
      "Duniya ": 6552,
      "Pat": 6553,
      "p ": 6554,
      "yw": 6555,
      "though ": 6556,
      "char": 6557,
      "oso ": 6558,
      "brah": 6559,
      "www.": 6560,
      "Bay": 6561,
      "ሰማ": 6562,
      "ኑ ": 6563,
      "Januari ": 6564,
      "kuanzia ": 6565,
      "ger": 6566,
      "àá": 6567,
      "ኔ ": 6568,
      "ኛው": 6569,
      "ገብ": 6570,
      "kud": 6571,
      "thern ": 6572,
      "berg": 6573,
      "akọ": 6574,
      "première ": 6575,
      "milit": 6576,
      "ጉዳ": 6577,
      "ጽሑ": 6578,
      "a mai ": 6579,
      "ewe ": 6580,
      "ማለት ነው።": 6581,
      "August ": 6582,
      "Ba": 6583,
      "okuwa ": 6584,
      "orí ": 6585,
      "orúkọ ": 6586,
      "wa ni ": 6587,
      "es and ": 6588,
      "4-": 6589,
      "ìb": 6590,
      "ዓለም ": 6591,
      "ing of ": 6592,
      "Mart": 6593,
      "was the ": 6594,
      "wakil": 6595,
      "sababu ": 6596,
      "ዋቂ": 6597,
      ". Itokasi Àwọn ": 6598,
      "activ": 6599,
      "made ": 6600,
      "stud": 6601,
      "samun ": 6602,
      "Gir": 6603,
      "Og": 6604,
      "Su": 6605,
      "anal": 6606,
      ". K": 6607,
      "Wal": 6608,
      "yab": 6609,
      "ልማ": 6610,
      "Indi": 6611,
      "50 ": 6612,
      "ነው ": 6613,
      " እጅ": 6614,
      "conom": 6615,
      "ity of ": 6616,
      "différ": 6617,
      "Charles ": 6618,
      "épo": 6619,
      "ት የተ": 6620,
      "ẹni ": 6621,
      "ild": 6622,
      "on (": 6623,
      ". H": 6624,
      "ta yi ": 6625,
      "tok": 6626,
      " ግዛ": 6627,
      "'Y": 6628,
      "him ": 6629,
      "ላቸው ": 6630,
      "i - ": 6631,
      "ons": 6632,
      "onom": 6633,
      "níbi ": 6634,
      "akwai ": 6635,
      "Sar": 6636,
      "vid": 6637,
      "ዋል": 6638,
      " st": 6639,
      "Christi": 6640,
      "Per": 6641,
      "bat": 6642,
      "ually ": 6643,
      "íṣ": 6644,
      "que le ": 6645,
      "film": 6646,
      "ምዕራ": 6647,
      "ቅድ": 6648,
      "ዘጋ": 6649,
      "Ath": 6650,
      "vers ": 6651,
      "ል መ": 6652,
      "awar ": 6653,
      "grap": 6654,
      "6-": 6655,
      "oke ": 6656,
      "aine ": 6657,
      "ege ": 6658,
      "Mwaka wa ": 6659,
      "Sam": 6660,
      "ባሕ": 6661,
      "ባላል።": 6662,
      "ኢየ": 6663,
      "es) ": 6664,
      "icip": 6665,
      "In the ": 6666,
      "Americ": 6667,
      "ክርስቲያን ": 6668,
      "anan hukum": 6669,
      "owever, ": 6670,
      "waf": 6671,
      "ሎ ": 6672,
      "ርግ": 6673,
      "atar ": 6674,
      "alg": 6675,
      "uma ": 6676,
      " እንደሚ": 6677,
      "III ": 6678,
      "100 ": 6679,
      "sìn ": 6680,
      "siku ": 6681,
      "lé": 6682,
      "ያለ": 6683,
      "፤ የ": 6684,
      " ነው። ": 6685,
      "gbajú": 6686,
      "ቀረ": 6687,
      "ewar ": 6688,
      "mwigiz": 6689,
      "a bir": 6690,
      "qu'il ": 6691,
      "Dur": 6692,
      "usi ": 6693,
      "identi": 6694,
      "juu ya ": 6695,
      "kit": 6696,
      "nation": 6697,
      "wid": 6698,
      "asil": 6699,
      "oyè ": 6700,
      "capit": 6701,
      "leurs ": 6702,
      "Soci": 6703,
      "ፈጥ": 6704,
      "። በ": 6705,
      "an wasan ƙwallon ƙafa ta ƙasar Ingil": 6706,
      "...": 6707,
      "Viungo vya nje ": 6708,
      "Desemba ": 6709,
      " እ.ኤ.አ.": 6710,
      "Are": 6711,
      "Awon ": 6712,
      "De ": 6713,
      "ling": 6714,
      "sous ": 6715,
      "viv": 6716,
      "ደን": 6717,
      "pour": 6718,
      "Octob": 6719,
      "(201": 6720,
      "eta ": 6721,
      "yo": 6722,
      "ስም ": 6723,
      "auran ": 6724,
      "ienn": 6725,
      "lokac": 6726,
      "a jihar ": 6727,
      "enya ": 6728,
      "abor": 6729,
      "ion, ": 6730,
      "ዘመነ": 6731,
      "Comp": 6732,
      "Ethiop": 6733,
      "Port": 6734,
      "ateur ": 6735,
      "alib": 6736,
      "u da ": 6737,
      "ት በመ": 6738,
      "Najeriya, ": 6739,
      "Kusin": 6740,
      "R ": 6741,
      "dist": 6742,
      " si ": 6743,
      "ሌሎች ": 6744,
      "ፖለቲካ": 6745,
      "T ": 6746,
      "ሽታ": 6747,
      ": The ": 6748,
      "James ": 6749,
      "appel": 6750,
      "George ": 6751,
      "Aare ": 6752,
      "miss": 6753,
      "የተ": 6754,
      "tre": 6755,
      "ር ከ": 6756,
      "ellement ": 6757,
      "jama'a ": 6758,
      "kutokana na ": 6759,
      "L ": 6760,
      "tu ": 6761,
      "èm": 6762,
      "na ku": 6763,
      "er and ": 6764,
      "amman ": 6765,
      "balimb": 6766,
      "him": 6767,
      "ጥ ": 6768,
      "requ": 6769,
      "ihin ": 6770,
      "ant la ": 6771,
      "ank ": 6772,
      "San": 6773,
      "i za ": 6774,
      "onne ": 6775,
      "amuz": 6776,
      "associ": 6777,
      "January ": 6778,
      "ISB": 6779,
      "wípé ": 6780,
      "5-": 6781,
      "Uk": 6782,
      "tw": 6783,
      "ye ": 6784,
      "ዋቢ": 6785,
      "arwa ": 6786,
      "op ": 6787,
      "State ": 6788,
      "temba ": 6789,
      "jùlọ ": 6790,
      "mam": 6791,
      "ቦች ": 6792,
      "agu": 6793,
      "pri": 6794,
      "kutoka Marekani ": 6795,
      "relig": 6796,
      "School": 6797,
      "score": 6798,
      " ይገኛ": 6799,
      " የአሜሪካ": 6800,
      "mwand": 6801,
      "personn": 6802,
      "Josep": 6803,
      "ንና ": 6804,
      "ደጋ": 6805,
      "a sh": 6806,
      "waɗ": 6807,
      "፡፡ ": 6808,
      "organis": 6809,
      "ድርጅ": 6810,
      "sílẹ̀ ": 6811,
      "jẹ́ plánẹ́tì kékeré ní ibi ìgbàjá ástẹ́rọ́ìdì. Itokasi ": 6812,
      "rib": 6813,
      "” ": 6814,
      "de s": 6815,
      ". M": 6816,
      "trois ": 6817,
      "représent": 6818,
      "waik": 6819,
      "tí ó sì ": 6820,
      "an haife shi a shekara ta ": 6821,
      "37": 6822,
      "Es": 6823,
      "sọ ": 6824,
      "ሙሉ": 6825,
      "ዶች": 6826,
      "is.": 6827,
      "e, le ": 6828,
      "serik": 6829,
      "visiwa ": 6830,
      "Russ": 6831,
      "kẹ́": 6832,
      "áb": 6833,
      "ሁኔ": 6834,
      "e, and ": 6835,
      "ongo ": 6836,
      "Kib": 6837,
      "cha": 6838,
      "uli": 6839,
      "ets ": 6840,
      "indi ": 6841,
      "miaka ": 6842,
      "ali ya ": 6843,
      "ont": 6844,
      "ology ": 6845,
      "waikway": 6846,
      "lake ": 6847,
      "ple ": 6848,
      "ሥልጣ": 6849,
      "aliz": 6850,
      "ever": 6851,
      "Aprili ": 6852,
      "Air": 6853,
      "Sw": 6854,
      "gí": 6855,
      "ማለ": 6856,
      "uses ": 6857,
      "ret": 6858,
      " se ": 6859,
      "ante ": 6860,
      "donn": 6861,
      "ተው ": 6862,
      "ትራ": 6863,
      "ኮን": 6864,
      "ፈላ": 6865,
      "et l'": 6866,
      "guda ": 6867,
      "ውቅ": 6868,
      " አር": 6869,
      "ainst ": 6870,
      "wato ": 6871,
      "Elle ": 6872,
      "hut": 6873,
      "hiyo ": 6874,
      "jar": 6875,
      "ed in the ": 6876,
      "tí àwọn ": 6877,
      "Inst": 6878,
      "ai, ": 6879,
      "ትና": 6880,
      "then ": 6881,
      "ቤተ ": 6882,
      "Roy": 6883,
      "kọ": 6884,
      "Ìj": 6885,
      "ɗaya ": 6886,
      "cher": 6887,
      "maz": 6888,
      "peri": 6889,
      "agbègbè ": 6890,
      "29": 6891,
      "àgbà ": 6892,
      "ገና": 6893,
      " ያለ": 6894,
      "dauk": 6895,
      "present": 6896,
      "40": 6897,
      "jum": 6898,
      "yó": 6899,
      "ሰሜ": 6900,
      "araut": 6901,
      "wa kwa ": 6902,
      "and, ": 6903,
      "lead": 6904,
      "a dun": 6905,
      "Roman ": 6906,
      "iwe ": 6907,
      "Juni ": 6908,
      "Kim": 6909,
      "yenye ": 6910,
      "ፊት ": 6911,
      "a ni ": 6912,
      "agr": 6913,
      "Ujerumani ": 6914,
      "36": 6915,
      "Um": 6916,
      "ኢን": 6917,
      "ፍል": 6918,
      "adil": 6919,
      "reas": 6920,
      "ibu ": 6921,
      "kask": 6922,
      "amma ": 6923,
      "ed to the ": 6924,
      "Septemba ": 6925,
      "mí": 6926,
      "yth": 6927,
      "ስ (": 6928,
      "ዲያ": 6929,
      "atta": 6930,
      "Arg": 6931,
      "phys": 6932,
      "May ": 6933,
      "called ": 6934,
      "Yar": 6935,
      "haka ": 6936,
      "da ake ": 6937,
      "abar": 6938,
      "ISBN ": 6939,
      "taf": 6940,
      "position ": 6941,
      "ience ": 6942,
      "hiz": 6943,
      "lẹ̀": 6944,
      "ታይ": 6945,
      "eni ": 6946,
      "e, the ": 6947,
      "ause ": 6948,
      "ዘመነ ሉቃ": 6949,
      "21": 6950,
      "oot": 6951,
      "ron": 6952,
      "wilaya ": 6953,
      "ሰጠ": 6954,
      "ዚሁ": 6955,
      "ጥበ": 6956,
      "ict": 6957,
      "adi ya ": 6958,
      "ishi wa ": 6959,
      "par le ": 6960,
      "Academ": 6961,
      "Muhammad ": 6962,
      "| RD1-": 6963,
      "fonc": 6964,
      "ሊዮ": 6965,
      "s of the ": 6966,
      "thé": 6967,
      "ungu ": 6968,
      "ጀመርያ": 6969,
      "Ulaya ": 6970,
      "የር ": 6971,
      "aka k": 6972,
      "ectiv": 6973,
      "time ": 6974,
      "Cap": 6975,
      "d, ": 6976,
      "àp": 6977,
      "there ": 6978,
      "ibiyar ": 6979,
      "hav": 6980,
      "par les ": 6981,
      "ቸውን ": 6982,
      "sami ": 6983,
      "àrẹ ": 6984,
      "wọ̀ ": 6985,
      "ómìn": 6986,
      "35": 6987,
      "ime ": 6988,
      "ní Ìpínlẹ̀ ": 6989,
      "ight": 6990,
      "ymp": 6991,
      "ሴ ": 6992,
      "intr": 6993,
      "ya M": 6994,
      "una": 6995,
      "le of ": 6996,
      " ከመ": 6997,
      "auc": 6998,
      "ovi": 6999,
      "a lokacin ": 7000,
      "people ": 7001,
      "Novemba ": 7002,
      "September ": 7003,
      "CO": 7004,
      "mit": 7005,
      "mọ ": 7006,
      "ta na ": 7007,
      "ed on ": 7008,
      "stand": 7009,
      "hat": 7010,
      "ላማ": 7011,
      "ication ": 7012,
      "ta kasance ": 7013,
      "auti ": 7014,
      "ል ተ": 7015,
      "Thom": 7016,
      "Wakristo ": 7017,
      "développ": 7018,
      "fe": 7019,
      "lil": 7020,
      "puis ": 7021,
      "roy": 7022,
      "ን የሚ": 7023,
      "o si ": 7024,
      "oper": 7025,
      "ungu": 7026,
      "rés": 7027,
      "pour la ": 7028,
      " አይነት ": 7029,
      "máa ń ": 7030,
      "Kit": 7031,
      "ቀዳ": 7032,
      "sehemu ya ": 7033,
      "Februari ": 7034,
      "Ear": 7035,
      "mis": 7036,
      "ዛሬ": 7037,
      "in g": 7038,
      ". (": 7039,
      " sì ": 7040,
      "rín ": 7041,
      "íràn ": 7042,
      "AD": 7043,
      "e).": 7044,
      "fond": 7045,
      "በላ": 7046,
      "ንጋ": 7047,
      "ent, ": 7048,
      "bien ": 7049,
      "région ": 7050,
      "ọ̀rọ̀ ": 7051,
      "Bah": 7052,
      "Sik": 7053,
      "Sud": 7054,
      "souv": 7055,
      "univers": 7056,
      "aw ": 7057,
      "ayyar ": 7058,
      "- Mtakatifu ": 7059,
      "asiasa ": 7060,
      "falme ": 7061,
      "ka": 7062,
      "ገዛ": 7063,
      "way ": 7064,
      "a gasar ": 7065,
      "burg": 7066,
      "ered ": 7067,
      "us.": 7068,
      "re.": 7069,
      "ature ": 7070,
      "Orí": 7071,
      "sch": 7072,
      "zai ": 7073,
      "ማረ": 7074,
      "ት ነው።": 7075,
      "ing.": 7076,
      "ኢትዮጵያ አ": 7077,
      "padà ": 7078,
      "àwon ": 7079,
      "èré": 7080,
      "ደብ": 7081,
      "ane": 7082,
      "o da ": 7083,
      "ashara ": 7084,
      "5 - ": 7085,
      "caract": 7086,
      "àkọ́kọ́ ": 7087,
      "ሙዚቃ": 7088,
      "ju ": 7089,
      "map": 7090,
      "well ": 7091,
      "ôt": 7092,
      "እና": 7093,
      "ፕሮ": 7094,
      "art ": 7095,
      "éric": 7096,
      "ማርቆ": 7097,
      "gener": 7098,
      "ዝርዝ": 7099,
      "Atlant": 7100,
      "mot": 7101,
      "non ": 7102,
      "these ": 7103,
      "ungiy": 7104,
      "ers.": 7105,
      "Nàìjíríà": 7106,
      "dang": 7107,
      "hor": 7108,
      "rè": 7109,
      "ልዩ": 7110,
      "ክብ": 7111,
      "amad": 7112,
      "( ": 7113,
      "Sel": 7114,
      "mafi ": 7115,
      "yayin ": 7116,
      "ሰባ": 7117,
      "ካል": 7118,
      "ዚያ ": 7119,
      " እነ": 7120,
      "ወንድ": 7121,
      "kuz": 7122,
      "un ni ": 7123,
      "aliwa": 7124,
      "tí ó ti ": 7125,
      "ique.": 7126,
      "bẹ́ẹ̀ ": 7127,
      "a birnin ": 7128,
      "Nchi ": 7129,
      "c.": 7130,
      "fà ": 7131,
      "ال": 7132,
      "against ": 7133,
      "igu": 7134,
      "place ": 7135,
      " ትምህር": 7136,
      "bayyana ": 7137,
      "walej": 7138,
      "hukumar ": 7139,
      "December ": 7140,
      "Au ": 7141,
      "Mp": 7142,
      "Nd": 7143,
      "ka, ": 7144,
      "lori ": 7145,
      "new": 7146,
      "yc": 7147,
      "ሕይወ": 7148,
      "oduc": 7149,
      "ላይ የ": 7150,
      " የአማርኛ ምሳሌ ነው። ": 7151,
      "a-fin": 7152,
      "ታወቀ": 7153,
      "Lagos ": 7154,
      "Je": 7155,
      "Ro": 7156,
      "pal": 7157,
      "pelu ": 7158,
      "ወዳ": 7159,
      "es du ": 7160,
      " አገር ": 7161,
      " መጠ": 7162,
      "alip": 7163,
      "i mwa ": 7164,
      "The": 7165,
      "French ": 7166,
      "War ": 7167,
      "àl": 7168,
      "ዋና": 7169,
      "ern ": 7170,
      "ta hanyar ": 7171,
      "ወለደ": 7172,
      "Jina ": 7173,
      "Kil": 7174,
      "Lat": 7175,
      "Uingereza ": 7176,
      "age, ": 7177,
      "ité de ": 7178,
      "work ": 7179,
      "Naijiria ": 7180,
      "fu": 7181,
      "ከ ": 7182,
      "ፊል": 7183,
      "ifuat": 7184,
      " መጽሐ": 7185,
      "ant, ": 7186,
      "ezi ": 7187,
      "FI": 7188,
      "Lang": 7189,
      "ምክንያ": 7190,
      "ቀላ": 7191,
      "ባል ": 7192,
      "ገመ": 7193,
      "ጥና": 7194,
      "or, ": 7195,
      "ille ": 7196,
      "akoso ": 7197,
      "ት ስ": 7198,
      " sí": 7199,
      "i kama ": 7200,
      "amfani da ": 7201,
      "Sab": 7202,
      "||": 7203,
      "enne ": 7204,
      "even ": 7205,
      "tion, ": 7206,
      "ሥርወ": 7207,
      "Cal": 7208,
      "pir": 7209,
      "r ": 7210,
      "ኖች ": 7211,
      "age": 7212,
      "ní ìlú ": 7213,
      "jagor": 7214,
      "les": 7215,
      "ረጃ": 7216,
      "que les ": 7217,
      "industr": 7218,
      "ge": 7219,
      "pow": 7220,
      "«የ": 7221,
      "ሰዎች": 7222,
      "charg": 7223,
      "እንዳ": 7224,
      "being ": 7225,
      "iṣẹ ": 7226,
      "ième ": 7227,
      "F ": 7228,
      "Pas": 7229,
      "gre": 7230,
      "take ": 7231,
      "uce ": 7232,
      "anni ": 7233,
      "ubwa ": 7234,
      "Alexander ": 7235,
      "fut ": 7236,
      "ዋ ": 7237,
      "a été ": 7238,
      "isl": 7239,
      "ẹ̀r": 7240,
      "utt": 7241,
      "ce qui ": 7242,
      "Arm": 7243,
      "il est ": 7244,
      "film ": 7245,
      "occup": 7246,
      "31 ": 7247,
      "Pers": 7248,
      "ውን የ": 7249,
      "። የ": 7250,
      "gbọ̀": 7251,
      "que la ": 7252,
      "iwa kuwa ": 7253,
      "Ré": 7254,
      "s to ": 7255,
      "kí ó ": 7256,
      "ፈርዖ": 7257,
      "ሁኔታ": 7258,
      "are": 7259,
      "angaz": 7260,
      "ጀመሪያ ": 7261,
      "rew ": 7262,
      "Lov": 7263,
      "Uch": 7264,
      "ba, ": 7265,
      "ሀገ": 7266,
      "kasuwan": 7267,
      "par la ": 7268,
      "spec": 7269,
      "an haife ta ": 7270,
      "offici": 7271,
      "ce, ": 7272,
      "ká": 7273,
      "ስሳ": 7274,
      "a la ": 7275,
      "ic, ": 7276,
      "quat": 7277,
      "au, ": 7278,
      "ilé-ẹ̀kọ́ ": 7279,
      "wasan kwaikway": 7280,
      "Oy": 7281,
      "lem": 7282,
      "ako ": 7283,
      "ን እንደ": 7284,
      "waz": 7285,
      "Marej": 7286,
      "179": 7287,
      "ክፍላ": 7288,
      "fiel": 7289,
      "Ní": 7290,
      "péri": 7291,
      "ine, ": 7292,
      "ités ": 7293,
      "ipo ": 7294,
      "ungan": 7295,
      "wakati wa ": 7296,
      "tradition": 7297,
      "Shugaban ": 7298,
      "Cette ": 7299,
      "kwenye ": 7300,
      "ክሉ ": 7301,
      "et des ": 7302,
      "countr": 7303,
      "mov": 7304,
      "pẹl": 7305,
      "ከፍ": 7306,
      "er les ": 7307,
      "ጊዜ ": 7308,
      "ìmù ": 7309,
      "through ": 7310,
      " አስተዳ": 7311,
      "vu": 7312,
      "àg": 7313,
      "év": 7314,
      "ቃል": 7315,
      "ትም ": 7316,
      "a ƙasar ": 7317,
      "i ne ": 7318,
      "s the ": 7319,
      " አንድ ": 7320,
      "wọ ": 7321,
      "umba ": 7322,
      "ው ይ": 7323,
      "aines ": 7324,
      "manyan ": 7325,
      "ehem": 7326,
      "ብርሃ": 7327,
      "October ": 7328,
      "Katika ": 7329,
      "Ng": 7330,
      "s) ": 7331,
      "ጻፈ": 7332,
      "oni": 7333,
      "opo ": 7334,
      "ubu ": 7335,
      "ae ": 7336,
      "res ": 7337,
      "ux ": 7338,
      "ሆን የ": 7339,
      "ራዊ ": 7340,
      "ታደ": 7341,
      "opol": 7342,
      "tí a ": 7343,
      "nínu ": 7344,
      "1892": 7345,
      "February ": 7346,
      "45": 7347,
      "pur": 7348,
      "uit": 7349,
      "ያስ": 7350,
      "okea ": 7351,
      "Angl": 7352,
      "attalin ": 7353,
      "Kiswah": 7354,
      "born ": 7355,
      "West ": 7356,
      "un.": 7357,
      "Il est ": 7358,
      "Ibad": 7359,
      "80": 7360,
      "Av": 7361,
      "mọ́": 7362,
      "muh": 7363,
      "nem": 7364,
      "pouv": 7365,
      "ክራ": 7366,
      "የመ": 7367,
      "anar da ": 7368,
      " የነበረ": 7369,
      "1 - ": 7370,
      " ቀን በ": 7371,
      "cours ": 7372,
      "3,": 7373,
      "King ": 7374,
      "Mu": 7375,
      "Vol": 7376,
      "i’": 7377,
      "ሪዎች": 7378,
      "ቡድ": 7379,
      "ውቀ": 7380,
      "ን ለ": 7381,
      "Waliofariki": 7382,
      "zinaz": 7383,
      "ግር ኳስ ": 7384,
      "AT": 7385,
      "Rh": 7386,
      "ce d": 7387,
      "s. ": 7388,
      "ára ": 7389,
      "er's ": 7390,
      "isc": 7391,
      "ayya ": 7392,
      "ር ተ": 7393,
      " (200": 7394,
      "ang ": 7395,
      "ave ": 7396,
      "crib": 7397,
      "Abub": 7398,
      "français ": 7399,
      "hydr": 7400,
      "http://www.": 7401,
      "ẹlẹ́bùn ": 7402,
      "Rich": 7403,
      "oor": 7404,
      "u. ": 7405,
      "three ": 7406,
      "he was ": 7407,
      "direct": 7408,
      "Hisp": 7409,
      "Wah": 7410,
      "a; ": 7411,
      "found": 7412,
      "ሱ ": 7413,
      "exc": 7414,
      " ሰው ": 7415,
      "AM": 7416,
      "Wom": 7417,
      "ኝ ": 7418,
      "arz": 7419,
      "ari wa ": 7420,
      "kudu ": 7421,
      "ular ": 7422,
      "action ": 7423,
      "own": 7424,
      "taim": 7425,
      "tion.": 7426,
      "partir ": 7427,
      "Roma, ": 7428,
      "kejì ": 7429,
      "jusqu'": 7430,
      "u-": 7431,
      "uo ": 7432,
      "y-": 7433,
      "ùgbọ́n ": 7434,
      "a watan ": 7435,
      "apt": 7436,
      "a kama ": 7437,
      "ማርያ": 7438,
      " ማለት ": 7439,
      "Republ": 7440,
      "Haif": 7441,
      "oire ": 7442,
      "olos": 7443,
      "mahaif": 7444,
      "auth": 7445,
      "Al-": 7446,
      "ion.": 7447,
      "embl": 7448,
      "before ": 7449,
      "Waliozaliwa": 7450,
      "November ": 7451,
      "ville ": 7452,
      "9-": 7453,
      "riv": 7454,
      "ux": 7455,
      "êt": 7456,
      "ìf": 7457,
      "ሙ ": 7458,
      "ana, ": 7459,
      "amin ": 7460,
      "abr": 7461,
      "could ": 7462,
      "dou": 7463,
      "ès": 7464,
      "ቱ በ": 7465,
      "ከረ": 7466,
      "a maj": 7467,
      "avant ": 7468,
      " ዓም ": 7469,
      "sur le ": 7470,
      "Hous": 7471,
      "Ne": 7472,
      "US": 7473,
      "kwanza ": 7474,
      "né": 7475,
      "Ìgb": 7476,
      "ምስ": 7477,
      "ኤል ": 7478,
      "ዮር": 7479,
      "igne ": 7480,
      "sunan ": 7481,
      "process": 7482,
      "including ": 7483,
      "a mwaka wa ": 7484,
      "kuhusu ": 7485,
      "'y": 7486,
      "C.": 7487,
      "Dola ": 7488,
      "civ": 7489,
      "q ": 7490,
      "ሸነ": 7491,
      " አው": 7492,
      "er le ": 7493,
      "préc": 7494,
      "Amerik": 7495,
      "7-": 7496,
      "cat": 7497,
      "do ": 7498,
      "ታች": 7499,
      "ንሳ": 7500,
      "ን፣ ": 7501,
      "ዳ ": 7502,
      "uri ": 7503,
      " (በ": 7504,
      "udi ": 7505,
      "ollyw": 7506,
      "aji wa filamu ": 7507,
      "kilom": 7508,
      "ziliz": 7509,
      "FA ": 7510,
      "sing": 7511,
      "ውሃ": 7512,
      "ዲስ ": 7513,
      "akon ": 7514,
      "shaw": 7515,
      "while ": 7516,
      "until ": 7517,
      "Sen": 7518,
      "depuis ": 7519,
      "ie": 7520,
      "enez": 7521,
      "utawala ": 7522,
      "extr": 7523,
      "March ": 7524,
      "électr": 7525,
      "pour les ": 7526,
      ",000": 7527,
      "wengi ": 7528,
      "Kats": 7529,
      "Ny": 7530,
      "ne.": 7531,
      "ry ": 7532,
      "erre ": 7533,
      "igh ": 7534,
      "David ": 7535,
      "34": 7536,
      "VI": 7537,
      "Waz": 7538,
      "huko ": 7539,
      "jà ": 7540,
      "Ìb": 7541,
      "u K": 7542,
      "ammacin ": 7543,
      "ንጉሠ": 7544,
      "mulkin ": 7545,
      "K ": 7546,
      "found ": 7547,
      "étr": 7548,
      "ሳብ": 7549,
      "sur la ": 7550,
      "tana da ": 7551,
      "July ": 7552,
      "Ha": 7553,
      "fath": 7554,
      "maf": 7555,
      "ርካ": 7556,
      "ቷል።": 7557,
      "arc": 7558,
      "es the ": 7559,
      "ings ": 7560,
      "proj": 7561,
      "tsarin ": 7562,
      "wakati ": 7563,
      "langue ": 7564,
      " በተለይ": 7565,
      "April ": 7566,
      "Ita ": 7567,
      "arkon ": 7568,
      "construc": 7569,
      "walejin ": 7570,
      "tà ": 7571,
      "wón ": 7572,
      "yàn ": 7573,
      "ሮማ": 7574,
      "ሰላ": 7575,
      "የር": 7576,
      "ọr": 7577,
      "ex ": 7578,
      "nínú àwọn ": 7579,
      "ኛው ክፍለ ": 7580,
      "azama pia ": 7581,
      "ፓርቲ": 7582,
      "Portug": 7583,
      "Lẹ́": 7584,
      "UN": 7585,
      "der ": 7586,
      "lò ": 7587,
      "mab": 7588,
      "ልብ": 7589,
      "መር ": 7590,
      "ነት በ": 7591,
      " በእ": 7592,
      "Chur": 7593,
      "establ": 7594,
      "ነት አ": 7595,
      "babban birnin ": 7596,
      "Ahm": 7597,
      "New York ": 7598,
      "game da ": 7599,
      "Ek": 7600,
      "Lak": 7601,
      "tara ": 7602,
      "ልግ": 7603,
      "ሎች ": 7604,
      "ንተ": 7605,
      "akatifu ": 7606,
      "ikan ": 7607,
      "icr": 7608,
      "quel": 7609,
      "é à ": 7610,
      "conna": 7611,
      " ይታ": 7612,
      "ept ": 7613,
      "ourn": 7614,
      "Ilim": 7615,
      "Allah ": 7616,
      "propos": 7617,
      "bit": 7618,
      "gid": 7619,
      "histo": 7620,
      "mto ": 7621,
      "nau": 7622,
      "rais": 7623,
      "si": 7624,
      "ús": 7625,
      "ወገ": 7626,
      "alum": 7627,
      "ation des ": 7628,
      "everal ": 7629,
      "birni ": 7630,
      "département ": 7631,
      "His ": 7632,
      "mem": 7633,
      "ée, ": 7634,
      "ፍሬ": 7635,
      "ona ": 7636,
      "affun ": 7637,
      "both ": 7638,
      "pẹlu ": 7639,
      "Reg": 7640,
      "Uingerez": 7641,
      "cir": 7642,
      "equ": 7643,
      "yé ": 7644,
      " አረ": 7645,
      "la da ": 7646,
      " ተቀ": 7647,
      "tí ó jẹ́ ": 7648,
      "samar da ": 7649,
      "one of the ": 7650,
      "continu": 7651,
      "Dar": 7652,
      "Kh": 7653,
      "yanzu ": 7654,
      "ዩኒ": 7655,
      "ism ": 7656,
      "unci ": 7657,
      "us (": 7658,
      "– The ": 7659,
      "tsohon ": 7660,
      "- በ": 7661,
      "ium": 7662,
      "àb": 7663,
      "ምባ": 7664,
      "améric": 7665,
      "es. ": 7666,
      " ከሚ": 7667,
      "ley ": 7668,
      "ውስጥ ": 7669,
      "siku ya ": 7670,
      " ምንጮ": 7671,
      "kashin ": 7672,
      "ba.": 7673,
      "doc": 7674,
      "tic": 7675,
      "vy": 7676,
      "ምና ": 7677,
      " ምክንያ": 7678,
      "ሆነ።": 7679,
      "language ": 7680,
      "dok": 7681,
      "ብሊ": 7682,
      "፡አ": 7683,
      "iny": 7684,
      "estern ": 7685,
      "ingine ": 7686,
      "A watan ": 7687,
      "nínú eré ": 7688,
      "namo ": 7689,
      "Robert ": 7690,
      "lambar ": 7691,
      "50": 7692,
      "Kor": 7693,
      "ወች": 7694,
      "alph": 7695,
      " አሉ": 7696,
      " አፈ": 7697,
      "point ": 7698,
      "9 - ": 7699,
      "ard, ": 7700,
      "mfalme ": 7701,
      "97": 7702,
      "Mw": 7703,
      "high": 7704,
      "jim": 7705,
      "Ààrẹ ": 7706,
      "ም እ": 7707,
      "ርያ ": 7708,
      "ፓን": 7709,
      "aniz": 7710,
      "ን ስ": 7711,
      "aguz": 7712,
      "2007 ": 7713,
      "ት አይ": 7714,
      "comput": 7715,
      "ship ": 7716,
      "Amurka ": 7717,
      "pọ̀lọ": 7718,
      "Haifaffun ": 7719,
      "Up": 7720,
      "መድ": 7721,
      "inú ": 7722,
      "aud": 7723,
      "da kar": 7724,
      "considér": 7725,
      "profess": 7726,
      "Hukum": 7727,
      "Sark": 7728,
      "low": 7729,
      "uwa": 7730,
      "in-": 7731,
      "apon": 7732,
      "Àwọn ìt": 7733,
      "europ": 7734,
      "da yake ": 7735,
      "a shekarar 201": 7736,
      "anan hukumomin ": 7737,
      "der": 7738,
      "mo ": 7739,
      "ብሪ": 7740,
      "ከአ": 7741,
      "ካር": 7742,
      "ት ሲ": 7743,
      "ijoba ": 7744,
      "emble ": 7745,
      "ọmọ": 7746,
      "athol": 7747,
      " ከተሞች": 7748,
      "tele. Itokasi Àwọn ": 7749,
      "Adé": 7750,
      "Bell": 7751,
      "Kenya ": 7752,
      "Mkoa wa ": 7753,
      "ያዘ": 7754,
      "ድሮ": 7755,
      "ጠፋ": 7756,
      "wanz": 7757,
      "àti àwọn ": 7758,
      "crit": 7759,
      "wararr": 7760,
      "nombr": 7761,
      "ùnrin ": 7762,
      "moins ": 7763,
      "Australi": 7764,
      "endelea ": 7765,
      "kill": 7766,
      "kafin ": 7767,
      "new ": 7768,
      "ለች": 7769,
      "በዚህ": 7770,
      "ከላ": 7771,
      "ord ": 7772,
      "dans l'": 7773,
      "oup ": 7774,
      "struc": 7775,
      "ሕዝብ": 7776,
      "ቴዎስ": 7777,
      "Joseph ": 7778,
      "Den": 7779,
      "For ": 7780,
      "o: ": 7781,
      "second ": 7782,
      "e and ": 7783,
      "itwa ": 7784,
      "oloj": 7785,
      "ed and ": 7786,
      "ስተዳ": 7787,
      "hada da ": 7788,
      "Tana ": 7789,
      "web": 7790,
      "ép": 7791,
      "ባሉ": 7792,
      "chem": 7793,
      "adaye ": 7794,
      "er la ": 7795,
      "appro": 7796,
      "os, ": 7797,
      "issance ": 7798,
      "náà.": 7799,
      " ብቻ": 7800,
      "ሪካዊ ": 7801,
      "disc": 7802,
      "musul": 7803,
      "òṣèré": 7804,
      "langues ": 7805,
      "ought ": 7806,
      "gbajúmọ̀ ": 7807,
      "C'est ": 7808,
      "Sol": 7809,
      "Wilaya ": 7810,
      "some ": 7811,
      "tas": 7812,
      "ሥላ": 7813,
      "arabu ": 7814,
      "ically ": 7815,
      "a mas": 7816,
      "Adam": 7817,
      "abbar ": 7818,
      "wanda aka ": 7819,
      "atoliki ": 7820,
      "pè ní ": 7821,
      "Mah": 7822,
      "ሰር": 7823,
      "ከራ": 7824,
      "ampl": 7825,
      "ት ለ": 7826,
      "sehemu ": 7827,
      "ህዝብ ": 7828,
      "June ": 7829,
      "no": 7830,
      "a B": 7831,
      "ating ": 7832,
      "alik": 7833,
      "ak ": 7834,
      "esab": 7835,
      "is (": 7836,
      "ambayo ": 7837,
      "tion of ": 7838,
      "Braz": 7839,
      "form ": 7840,
      "yautar ": 7841,
      "òrùn ": 7842,
      "Turk": 7843,
      "isa ga ": 7844,
      "City ": 7845,
      "Wam": 7846,
      "mì": 7847,
      "ycl": 7848,
      "ቱ የ": 7849,
      "ነጋ": 7850,
      "isi": 7851,
      "acter": 7852,
      "ugu ": 7853,
      "III": 7854,
      "John": 7855,
      "ọ́kasí": 7856,
      "can": 7857,
      "mara ": 7858,
      "ነት የ": 7859,
      "፡በ": 7860,
      "ን ለመ": 7861,
      "ው ተ": 7862,
      "term": 7863,
      "engine ": 7864,
      "Amẹ́ríkà ": 7865,
      "iongoz": 7866,
      "etr": 7867,
      "so": 7868,
      "a map": 7869,
      "forme ": 7870,
      "ama da ": 7871,
      " የተመ": 7872,
      "kutoka nchi ya ": 7873,
      "commer": 7874,
      "Greek ": 7875,
      "onc ": 7876,
      "kọ̀ọ́ ": 7877,
      "habit": 7878,
      "Tang": 7879,
      "ana'": 7880,
      " በጣ": 7881,
      "Tiba mwaka wa ": 7882,
      "Map": 7883,
      "ú-": 7884,
      "alil": 7885,
      "as a ": 7886,
      "177": 7887,
      "fún àwọn ": 7888,
      "ጥንታዊ": 7889,
      "Som": 7890,
      "bod": 7891,
      "du": 7892,
      "ከዚህ": 7893,
      "ats ": 7894,
      "imá ": 7895,
      "tour ": 7896,
      "ንግስት ": 7897,
      "ንግሥት ": 7898,
      "lẹ́yìn ": 7899,
      "Tim": 7900,
      "like ": 7901,
      "ስሜ": 7902,
      "ስም በ": 7903,
      "ቹ ": 7904,
      "inf": 7905,
      "kumb": 7906,
      "differ": 7907,
      "torí ": 7908,
      "ኢየሱ": 7909,
      "bin ": 7910,
      "bab": 7911,
      "ውል": 7912,
      "ya kasance ": 7913,
      "urg": 7914,
      "haz": 7915,
      "A ranar ": 7916,
      "Tarehe ": 7917,
      "addin": 7918,
      "moja wa ": 7919,
      "ድንጋ": 7920,
      "europé": 7921,
      "Sak": 7922,
      "e\" ": 7923,
      "situ": 7924,
      "vic": 7925,
      "ኤሌ": 7926,
      "ti won ": 7927,
      "waƙ": 7928,
      "shi ne d": 7929,
      "178": 7930,
      "ínló": 7931,
      "yìí": 7932,
      "saboda ": 7933,
      "ፕሬዚ": 7934,
      "Jac": 7935,
      "kí": 7936,
      "lors ": 7937,
      "ń s": 7938,
      "ሚካ": 7939,
      ", la ": 7940,
      "off": 7941,
      "oloni ": 7942,
      "ayans": 7943,
      "osp": 7944,
      "ional ": 7945,
      "àwọn ọjọ́ìbí ní ": 7946,
      "mutu ": 7947,
      "ayyun ": 7948,
      "Jum": 7949,
      "Ut": 7950,
      "Ya ": 7951,
      "awan": 7952,
      "ban ": 7953,
      "nit": 7954,
      "ለምሳሌ": 7955,
      "ተው": 7956,
      "ቱ መ": 7957,
      "ዩ ": 7958,
      " የማ": 7959,
      "omon ": 7960,
      "a kasar ": 7961,
      "ዘመን አ": 7962,
      "ammal": 7963,
      "hukuma ": 7964,
      "suf": 7965,
      "ienne ": 7966,
      "Saint-": 7967,
      "Paul ": 7968,
      "Ebun ": 7969,
      "ንጉሠ ነገሥ": 7970,
      "''": 7971,
      "1. ": 7972,
      "Bas": 7973,
      "a\" ": 7974,
      "ሳሰ": 7975,
      "ጥር ": 7976,
      "olon": 7977,
      "idayar ": 7978,
      "ani da ": 7979,
      "Union ": 7980,
      " አይደ": 7981,
      "Philip": 7982,
      "kaskazin": 7983,
      "-s": 7984,
      "Mex": 7985,
      "aum": 7986,
      "lég": 7987,
      "son": 7988,
      "ሆና": 7989,
      "— ": 7990,
      "ere": 7991,
      "es in ": 7992,
      "abin ": 7993,
      "kuu ": 7994,
      "en (": 7995,
      "avoir ": 7996,
      "Stud": 7997,
      "same ": 7998,
      "eshi ": 7999,
      "Majalisar ": 8000,
      "Fizikia ": 8001,
      "mwigizaji wa filamu ": 8002,
      "Instit": 8003,
      "ẹlẹ́bùn Nobel ": 8004,
      "ael ": 8005,
      "kif": 8006,
      "inz": 8007,
      "ic s": 8008,
      "2 - ": 8009,
      "Associ": 8010,
      "a yankin ": 8011,
      "Apoll": 8012,
      "ዘመነ ማ": 8013,
      "souvent ": 8014,
      "ምት ": 8015,
      "ኖረ": 8016,
      "ዮች": 8017,
      "ọn ": 8018,
      "administr": 8019,
      "refer": 8020,
      "it is ": 8021,
      "phon": 8022,
      " እንዲህ": 8023,
      "aláì": 8024,
      "North ": 8025,
      "Muhamm": 8026,
      "School ": 8027,
      "lashe ": 8028,
      "àf": 8029,
      "ጋራ": 8030,
      "often ": 8031,
      "ẹ̀yà ": 8032,
      "ali.": 8033,
      "ivid": 8034,
      "worl": 8035,
      "ዘመነ ዮሐ": 8036,
      "dam": 8037,
      "giv": 8038,
      "je": 8039,
      "jir": 8040,
      "lẹ̀-èdè ": 8041,
      "ts.": 8042,
      "ouvern": 8043,
      "eye ": 8044,
      "have been ": 8045,
      "Rayayyun ": 8046,
      "., ": 8047,
      "Born": 8048,
      "duk": 8049,
      "hivyo ": 8050,
      "kim": 8051,
      "le, ": 8052,
      "vent ": 8053,
      "ለች።": 8054,
      "ዝማ": 8055,
      "ም ለ": 8056,
      "grande ": 8057,
      "itions ": 8058,
      "60": 8059,
      "gùn ": 8060,
      "lù": 8061,
      "ሌ ": 8062,
      "ጠላ": 8063,
      "thod": 8064,
      "il s": 8065,
      "ugg": 8066,
      "Saint ": 8067,
      "yóò ": 8068,
      "Ibrah": 8069,
      "bang": 8070,
      "kú": 8071,
      "i ko ": 8072,
      "undi ": 8073,
      "mutanen ": 8074,
      "ìtàn ": 8075,
      "version ": 8076,
      "fíìmù ": 8077,
      "establish": 8078,
      "duk ": 8079,
      "òyìn ": 8080,
      "ary": 8081,
      "es-": 8082,
      "eli ": 8083,
      "Ó jẹ́ ": 8084,
      "e d'un ": 8085,
      "ará Amẹ́ríkà": 8086,
      "ashariki ": 8087,
      "BK (Baada ya Kristo). Matukio Waliozaliwa Waliofariki Karne ya ": 8088,
      "Egyp": 8089,
      "2. ": 8090,
      "Ot": 8091,
      "Rais wa ": 8092,
      "Wil": 8093,
      "a’": 8094,
      "caus": 8095,
      "do": 8096,
      "fig": 8097,
      "nuna ": 8098,
      "ቀራ": 8099,
      "ቃ ": 8100,
      "ተኛው ": 8101,
      "a C": 8102,
      "ana.": 8103,
      "impl": 8104,
      "ac ": 8105,
      "sanya ": 8106,
      "ọjọ́ kẹ": 8107,
      "har zuwa ": 8108,
      "Mit": 8109,
      "mu ": 8110,
      "ገነ": 8111,
      "around ": 8112,
      "in (": 8113,
      "agbe": 8114,
      "adha": 8115,
      "tout": 8116,
      "est le ": 8117,
      " እንጂ": 8118,
      "bad": 8119,
      "pet": 8120,
      "z ": 8121,
      "estiv": 8122,
      " እር": 8123,
      "e, la ": 8124,
      "iya ta ": 8125,
      "7 - ": 8126,
      "wamnan ": 8127,
      "Dola la ": 8128,
      "ዘመነ ማቴዎስ": 8129,
      "91": 8130,
      "Rev": 8131,
      "ious ": 8132,
      "ንቀ": 8133,
      "iri na ": 8134,
      "umi ": 8135,
      "ali, ": 8136,
      "ọdún 201": 8137,
      "ኤሌክት": 8138,
      "Mo": 8139,
      "k, ": 8140,
      "kawa": 8141,
      "wer": 8142,
      "ውያ": 8143,
      "ጽ ": 8144,
      "ond ": 8145,
      "esi ": 8146,
      "wakaz": 8147,
      "aid ": 8148,
      "darí ": 8149,
      "እንዲሁ": 8150,
      "ሠረተ": 8151,
      "Litt": 8152,
      "cer": 8153,
      "pí": 8154,
      "በመ": 8155,
      "e da ": 8156,
      "ẹ̀ẹ́": 8157,
      "igr": 8158,
      "augh": 8159,
      "bílẹ̀ ": 8160,
      "ómìnà ": 8161,
      "kì": 8162,
      "ም የተ": 8163,
      "ama m": 8164,
      "ọ́ọ̀": 8165,
      "référ": 8166,
      "air ": 8167,
      "awa da ": 8168,
      "ብዙ ": 8169,
      "population ": 8170,
      "Waf": 8171,
      "Wash": 8172,
      "àày": 8173,
      "òun ": 8174,
      "ባር": 8175,
      "ṣèlú ": 8176,
      "ity": 8177,
      ") እ": 8178,
      "ifá": 8179,
      "e d’": 8180,
      "oye ": 8181,
      "ማስታወ": 8182,
      "Res": 8183,
      "Sha": 8184,
      "gouvern": 8185,
      "hiv": 8186,
      "ke": 8187,
      "ቆየ": 8188,
      "ተር ": 8189,
      "ẹ, ": 8190,
      "enti ": 8191,
      "act ": 8192,
      "ani (": 8193,
      "Arch": 8194,
      "ም በአ": 8195,
      "pọ̀lọpọ̀ ": 8196,
      "'yar ": 8197,
      "AP": 8198,
      "Lim": 8199,
      "fa ": 8200,
      "ሻ ": 8201,
      "ችላል።": 8202,
      "ናዊ ": 8203,
      "them": 8204,
      "usin": 8205,
      "Shir": 8206,
      " ግን ": 8207,
      " የመጀመሪያ": 8208,
      "century ": 8209,
      "imataif": 8210,
      "ọ́kasí Àwọn ": 8211,
      "Tun": 8212,
      "gé": 8213,
      "num": 8214,
      "per ": 8215,
      "ît ": 8216,
      "rayuwa ": 8217,
      "a kasance ": 8218,
      "Fizikia mwaka wa ": 8219,
      "Str": 8220,
      "U.": 8221,
      "ን ለማ": 8222,
      "aya, ": 8223,
      "ée en ": 8224,
      "a fannin ": 8225,
      "jirgin ": 8226,
      "oloselu ": 8227,
      "Ter": 8228,
      "binc": 8229,
      "japon": 8230,
      "pá": 8231,
      "ስማ": 8232,
      "ታል": 8233,
      "ዳግ": 8234,
      "ṣiṣẹ́ ": 8235,
      "th-": 8236,
      "iran ": 8237,
      "Oló": 8238,
      "during the ": 8239,
      "success": 8240,
      "Rec": 8241,
      "vill": 8242,
      "àbá ": 8243,
      "alist": 8244,
      "ilar ": 8245,
      "la ya ": 8246,
      " እም": 8247,
      "ifi": 8248,
      " የአማርኛ ምሳሌ ነው። ትርጉሙ መደብ : ተረትና ምሳሌ": 8249,
      "can be ": 8250,
      "years ": 8251,
      "Bak": 8252,
      "Fed": 8253,
      "Yoh": 8254,
      "aï": 8255,
      "e's ": 8256,
      "sans ": 8257,
      "ሲሆን": 8258,
      "ንጫ": 8259,
      "ያል": 8260,
      "idd": 8261,
      "waje ": 8262,
      "wang": 8263,
      "Alakoso ": 8264,
      "que l'": 8265,
      "ense ": 8266,
      "suit": 8267,
      "haifi ": 8268,
      "takrib": 8269,
      " ነበረ።": 8270,
      "After ": 8271,
      "cell": 8272,
      "sk": 8273,
      "sor": 8274,
      "vile ": 8275,
      "ሉ። ": 8276,
      "መልክ": 8277,
      "ራስ ": 8278,
      "ት፣": 8279,
      "tous ": 8280,
      "idi ya ": 8281,
      "ent.": 8282,
      "ford ": 8283,
      "láà": 8284,
      "6 - ": 8285,
      "élém": 8286,
      "domin ": 8287,
      "ጥንታዊ ": 8288,
      "ahari ya ": 8289,
      "3. ": 8290,
      "Ev": 8291,
      "Gar": 8292,
      "Luc": 8293,
      "hil": 8294,
      "agba ": 8295,
      "contre ": 8296,
      "anzib": 8297,
      "They ": 8298,
      "wadan": 8299,
      "inta na ": 8300,
      "Kemia ": 8301,
      "Democr": 8302,
      "United States ": 8303,
      "40 ": 8304,
      "6. ": 8305,
      "Moh": 8306,
      "Val": 8307,
      "face ": 8308,
      "mij": 8309,
      "owa ": 8310,
      "ène ": 8311,
      "ሞት ": 8312,
      "ሬት ": 8313,
      "ሰዎች ": 8314,
      "ብላ": 8315,
      "ene ": 8316,
      "atib": 8317,
      "ipò ": 8318,
      "suiv": 8319,
      "hemat": 8320,
      "ጨረሻ ": 8321,
      "Centr": 8322,
      "Jer": 8323,
      "Une ": 8324,
      "kik": 8325,
      "tẹ̀": 8326,
      "ረጋ": 8327,
      "ony ": 8328,
      "ani na ": 8329,
      "has been ": 8330,
      "Tanzania": 8331,
      "arautar ": 8332,
      "ai.": 8333,
      "mí ": 8334,
      "wote ": 8335,
      "ፖሊ": 8336,
      "adr": 8337,
      "prom": 8338,
      "kuma k": 8339,
      "ionn": 8340,
      "8 - ": 8341,
      "Kanisa ": 8342,
      "Trans": 8343,
      "ዘመነ ማርቆ": 8344,
      "Pak": 8345,
      "Sat": 8346,
      "Ver": 8347,
      "lov": 8348,
      "ሀብ": 8349,
      "ህይወ": 8350,
      "ኩል": 8351,
      "chil": 8352,
      "kuk": 8353,
      "ne a ": 8354,
      "ize ": 8355,
      "ንግ ": 8356,
      " ለአ": 8357,
      "(199": 8358,
      "Zanzib": 8359,
      "nov": 8360,
      "ስላ": 8361,
      "ንት ": 8362,
      "ikip": 8363,
      "abub": 8364,
      "eter": 8365,
      "ne na ": 8366,
      "kasa ": 8367,
      "or of ": 8368,
      "ected ": 8369,
      "harshen ": 8370,
      "Acc": 8371,
      "ement.": 8372,
      "àgbélé": 8373,
      "Louis ": 8374,
      "ES": 8375,
      "eo": 8376,
      "jọ": 8377,
      "ቱም ": 8378,
      "inj": 8379,
      "er des ": 8380,
      "et en ": 8381,
      "cienc": 8382,
      "fix": 8383,
      "AC": 8384,
      "Umoja wa ": 8385,
      "Wannan ": 8386,
      "ሁኑ": 8387,
      "ቃል ": 8388,
      "ተዋል።": 8389,
      "ale.": 8390,
      "them ": 8391,
      " የእ": 8392,
      "ant le ": 8393,
      "publish": 8394,
      "ባቢሎ": 8395,
      "askazin": 8396,
      "Africa ": 8397,
      "nyingi ": 8398,
      "Ce ": 8399,
      "Dam": 8400,
      "band": 8401,
      "camp": 8402,
      "unn": 8403,
      "abinc": 8404,
      " አድር": 8405,
      "ob ": 8406,
      "ai na ": 8407,
      "ères ": 8408,
      "ወለዱ": 8409,
      "Arewa ": 8410,
      "score0": 8411,
      "Royal ": 8412,
      "); ": 8413,
      "Hak": 8414,
      "However, ": 8415,
      "ies, ": 8416,
      "sa": 8417,
      "tof": 8418,
      "agne ": 8419,
      "est la ": 8420,
      "réalis": 8421,
      "a garin ": 8422,
      "important ": 8423,
      "Thomas ": 8424,
      "70": 8425,
      "Ash": 8426,
      "Un ": 8427,
      "c ": 8428,
      "each ": 8429,
      "ርድ": 8430,
      "ዶ ": 8431,
      "o cha ": 8432,
      " በላይ": 8433,
      "ikish": 8434,
      "ick ": 8435,
      "is a ": 8436,
      "idadi ya ": 8437,
      "et du ": 8438,
      "et d'": 8439,
      "antar ": 8440,
      " ተብሎ": 8441,
      "àwọn ènìyàn ": 8442,
      "yaani ": 8443,
      "ድረግ": 8444,
      "philosoph": 8445,
      "East ": 8446,
      "We": 8447,
      "ber": 8448,
      "iel": 8449,
      "jul": 8450,
      "ka.": 8451,
      "ም፣ ": 8452,
      "ima ": 8453,
      "lórí": 8454,
      "itude ": 8455,
      "ሕዝብ ": 8456,
      "ières ": 8457,
      "Best ": 8458,
      "igba ": 8459,
      "tom": 8460,
      "|- ": 8461,
      "ምራ": 8462,
      "ጭ ": 8463,
      "ase ": 8464,
      "ingu": 8465,
      "afu ": 8466,
      "Alá": 8467,
      " ሰዎች": 8468,
      "ነገሥ": 8469,
      "39": 8470,
      "mad": 8471,
      "ናገ": 8472,
      "abis": 8473,
      "to gba ": 8474,
      "ና ተ": 8475,
      "ትምህርት ": 8476,
      "Dev": 8477,
      "Keny": 8478,
      "hol": 8479,
      "jou": 8480,
      "jì ": 8481,
      "nun": 8482,
      "pil": 8483,
      "ans, ": 8484,
      "ently ": 8485,
      "ioni ": 8486,
      "3 - ": 8487,
      "ientif": 8488,
      " አንዳ": 8489,
      "pàt": 8490,
      "ጀምሮ እስከ ": 8491,
      "Ele": 8492,
      "Jon": 8493,
      "Ky": 8494,
      "nì": 8495,
      "nord": 8496,
      "Áfr": 8497,
      "ሀገር ": 8498,
      "ችሁ": 8499,
      "ንዲ": 8500,
      "alm": 8501,
      "er to ": 8502,
      "priv": 8503,
      "ን በአ": 8504,
      "avec le ": 8505,
      "Award ": 8506,
      "Batt": 8507,
      "ሥነ": 8508,
      "ሰጥ": 8509,
      "ቀደ": 8510,
      "ẹyẹ ": 8511,
      "itin ": 8512,
      "ole": 8513,
      ") na ": 8514,
      "prend ": 8515,
      "ectur": 8516,
      "state ": 8517,
      "tí ó ń ": 8518,
      "ọmọ orílẹ̀-èdè ": 8519,
      "amar hukuma ": 8520,
      "shirin ": 8521,
      "olórin ": 8522,
      "August": 8523,
      "Kur": 8524,
      "Sec": 8525,
      "bour": 8526,
      "mass": 8527,
      "nip": 8528,
      "ም የሚ": 8529,
      "ዳር ": 8530,
      "ጅ ": 8531,
      "iref": 8532,
      "ste": 8533,
      "ን አይ": 8534,
      "peu ": 8535,
      "rẹ̀.": 8536,
      "fito ": 8537,
      " እንግሊዝ": 8538,
      "pekee ": 8539,
      "Offic": 8540,
      "cop": 8541,
      "dog": 8542,
      "n'est ": 8543,
      "ቨር": 8544,
      "ዶች ": 8545,
      "ጌታ": 8546,
      "arans": 8547,
      "atique ": 8548,
      "iyy": 8549,
      " ሲሆን በ": 8550,
      "shi ne dan wasan ƙwallon ƙafa ta ƙasar Ingil": 8551,
      "38": 8552,
      "e; ": 8553,
      "hank": 8554,
      "ula ": 8555,
      "òfin ": 8556,
      "ራሳ": 8557,
      "ከነ": 8558,
      "alité ": 8559,
      "ities ": 8560,
      "qu’": 8561,
      "ental ": 8562,
      "kumbu": 8563,
      "A shekarar ": 8564,
      "temps ": 8565,
      "attalin arz": 8566,
      "Áfrí": 8567,
      "(C": 8568,
      "eto ": 8569,
      "eyi ": 8570,
      "zo ": 8571,
      "ሄድ": 8572,
      "ስር": 8573,
      "ደብረ": 8574,
      "ገቡ": 8575,
      "de l’": 8576,
      "ela ": 8577,
      "ices ": 8578,
      "termin": 8579,
      "ant les ": 8580,
      "2 – ": 8581,
      "grand ": 8582,
      "fina-fin": 8583,
      "Commun": 8584,
      "daya daga cikin ": 8585,
      ".ም": 8586,
      "Gwamn": 8587,
      "Sah": 8588,
      "gam": 8589,
      "memb": 8590,
      "pu": 8591,
      "sour": 8592,
      "économ": 8593,
      "ɗin ": 8594,
      "ጣቀ": 8595,
      "asalin ": 8596,
      "iki.": 8597,
      "el.": 8598,
      " (አ": 8599,
      "ní orílẹ̀-èdè ": 8600,
      "okeo ya ": 8601,
      "yana da ": 8602,
      "labar": 8603,
      "àmì ": 8604,
      "agbegbe ": 8605,
      "Kemia mwaka wa ": 8606,
      "Not": 8607,
      "cas ": 8608,
      "line ": 8609,
      "ሶች": 8610,
      "ካሌ": 8611,
      "ደር ": 8612,
      "Ọjọ́ ": 8613,
      "alam": 8614,
      ". B": 8615,
      "ọ́r": 8616,
      "ext ": 8617,
      "term ": 8618,
      "4 - ": 8619,
      "ት በአ": 8620,
      "Italia ": 8621,
      "aliye": 8622,
      "amuziki ": 8623,
      "Po": 8624,
      "niv": 8625,
      "ሄደ": 8626,
      "ውስ": 8627,
      "ዝና": 8628,
      "Ọdún ": 8629,
      "ines ": 8630,
      "ing and ": 8631,
      "Anti": 8632,
      "ograf": 8633,
      "ኢትዮጵያ ውስጥ": 8634,
      "Albert ": 8635,
      "gbọ̀n ": 8636,
      "Dut": 8637,
      "Mos": 8638,
      "Nuw": 8639,
      "Tangu ": 8640,
      "ቅደ": 8641,
      "ውም ": 8642,
      "ṣí": 8643,
      "inda ya ": 8644,
      "ches ": 8645,
      "ained ": 8646,
      "Open ": 8647,
      "Argent": 8648,
      "Pier": 8649,
      "») ": 8650,
      "ì-": 8651,
      "ም) ": 8652,
      "ባላ": 8653,
      "ኞች ": 8654,
      "ወላ": 8655,
      "autr": 8656,
      "exemp": 8657,
      "ub ": 8658,
      "antes ": 8659,
      "ai da ": 8660,
      "tsar": 8661,
      " ስራ": 8662,
      "est, ": 8663,
      "Abuj": 8664,
      "joba ": 8665,
      "Go": 8666,
      "mun": 8667,
      "moy": 8668,
      "mita ": 8669,
      "nù ": 8670,
      "«አ": 8671,
      "ምረ": 8672,
      "ር፡": 8673,
      "ግል": 8674,
      "ibu na ": 8675,
      "oju ": 8676,
      "ደረጉ": 8677,
      "amar hukumar ": 8678,
      "lọ́dún ": 8679,
      "sìkò ": 8680,
      "Que": 8681,
      "ጎርጎር": 8682,
      "0 ዓክልበ": 8683,
      "\") ": 8684,
      "Hon": 8685,
      "mét": 8686,
      "rig": 8687,
      "taka ": 8688,
      "zote ": 8689,
      "ዲዮ": 8690,
      "• M": 8691,
      "o l": 8692,
      "ections ": 8693,
      "forc": 8694,
      "autre ": 8695,
      "awa na ": 8696,
      "archit": 8697,
      "London ": 8698,
      "Oṣù K": 8699,
      "Nas": 8700,
      "Tanb": 8701,
      "bìnrin ": 8702,
      "eti ": 8703,
      "suka ": 8704,
      "ሳ ": 8705,
      "a Jihar ": 8706,
      "aka": 8707,
      "de son ": 8708,
      "ications ": 8709,
      "ingia ": 8710,
      "2019 ": 8711,
      "ọ̀d": 8712,
      "ል። የ": 8713,
      "yao ": 8714,
      "ይህ ": 8715,
      "mji wa ": 8716,
      "ographie ": 8717,
      "-Un": 8718,
      "Dan ": 8719,
      "Ful": 8720,
      "Lab": 8721,
      "Rad": 8722,
      "U ": 8723,
      "bish": 8724,
      "egb": 8725,
      "à-": 8726,
      "ée de ": 8727,
      "ፈራ": 8728,
      "ig ": 8729,
      "entomon ": 8730,
      "ived ": 8731,
      "awal": 8732,
      "i kwenye ": 8733,
      "esse ": 8734,
      "láb": 8735,
      "An haife ": 8736,
      "appear": 8737,
      "adhim": 8738,
      "It is ": 8739,
      "First ": 8740,
      "ገንዘ": 8741,
      "pàtàk": 8742,
      "Pap": 8743,
      "Son ": 8744,
      "só": 8745,
      "ንን ": 8746,
      "ከት": 8747,
      "ክስ": 8748,
      "ዕድ": 8749,
      "eniyan ": 8750,
      " አብ": 8751,
      "uliwa ": 8752,
      "0 - ": 8753,
      "terr": 8754,
      "s, the ": 8755,
      " የተክሉ ": 8756,
      "ባለው ": 8757,
      "ጀመረ": 8758,
      "ሥርዓ": 8759,
      "lára àwọn ": 8760,
      "Au": 8761,
      "marr": 8762,
      "ግር": 8763,
      "፲፰": 8764,
      "a ko ": 8765,
      "est une ": 8766,
      "express": 8767,
      "ouvr": 8768,
      "Najeriya": 8769,
      "Olymp": 8770,
      "corresp": 8771,
      "• Mto ": 8772,
      "dì": 8773,
      "pec": 8774,
      "voy": 8775,
      "በሩ": 8776,
      "ደሴ": 8777,
      "ṣùgbọ́n ": 8778,
      "eria ": 8779,
      " ነጻ": 8780,
      "a kwenye ": 8781,
      "it was ": 8782,
      "pour le ": 8783,
      "because ": 8784,
      " ሲሆን ይህ": 8785,
      "kumbukumb": 8786,
      "ji m": 8787,
      "ted ": 8788,
      "ለን": 8789,
      "ላዊ": 8790,
      "ዕለት ": 8791,
      "ጠበ": 8792,
      "ጠብ": 8793,
      " አሜሪካ": 8794,
      "ogn": 8795,
      "obìnrin ": 8796,
      " ነበረ": 8797,
      "Janair": 8798,
      "aliforn": 8799,
      "Techn": 8800,
      "neman ": 8801,
      "ሠራዊ": 8802,
      "imin": 8803,
      "oss ": 8804,
      "ife ": 8805,
      "mach": 8806,
      " የተሰ": 8807,
      "ansu ": 8808,
      "ን በማ": 8809,
      "daga baya ": 8810,
      "Kananan hukumomin ": 8811,
      "limit": 8812,
      "German ": 8813,
      "Kusini ": 8814,
      "États": 8815,
      "As ": 8816,
      "Gom": 8817,
      "bila ": 8818,
      "carr": 8819,
      "d.": 8820,
      "gur": 8821,
      "sake ": 8822,
      "ጠና": 8823,
      "ine.": 8824,
      "isha m": 8825,
      "auy": 8826,
      "azini ": 8827,
      "ክፍል": 8828,
      "ደቡብ ": 8829,
      "hann": 8830,
      "jimb": 8831,
      "tu": 8832,
      "éch": 8833,
      "œuv": 8834,
      "ሚ ": 8835,
      "ቁ ": 8836,
      "ዕብራ": 8837,
      "ayen ": 8838,
      "aweza ": 8839,
      "Ilé-": 8840,
      "Ayy": 8841,
      "=\"": 8842,
      "Hel": 8843,
      "Nam": 8844,
      "ስለ ": 8845,
      "i ta ": 8846,
      ", M": 8847,
      ", S": 8848,
      "ath ": 8849,
      "ito ": 8850,
      " አማ": 8851,
      "les plus ": 8852,
      "2000 ": 8853,
      "individ": 8854,
      "ንግስ": 8855,
      "turn": 8856,
      "karne ya ": 8857,
      "mondi": 8858,
      "Const": 8859,
      "Paris ": 8860,
      "Jean-": 8861,
      "47": 8862,
      "Ana ": 8863,
      "B.": 8864,
      "ota ": 8865,
      "oid": 8866,
      "Èkó ": 8867,
      "ዋጋ": 8868,
      "iyasa ": 8869,
      " ተራ": 8870,
      "production ": 8871,
      "90": 8872,
      "Had": 8873,
      "Sil": 8874,
      "ሕፍ": 8875,
      "ር-": 8876,
      "ana": 8877,
      "ague ": 8878,
      "é le ": 8879,
      "ation of the ": 8880,
      "ambao ": 8881,
      " የአማርኛ ምሳሌ ነው። የ": 8882,
      "èrè ": 8883,
      "ክፍል ": 8884,
      "e d'une ": 8885,
      "public ": 8886,
      "jerin ": 8887,
      "Award": 8888,
      "ዘመነ ሉቃስ ": 8889,
      "fuata ": 8890,
      "; (": 8891,
      "rashin ": 8892,
      "tant ": 8893,
      "yam": 8894,
      "yau ": 8895,
      "ህል": 8896,
      "ርቶ": 8897,
      "ፈን": 8898,
      "ik ": 8899,
      "adv": 8900,
      "top": 8901,
      "ipin": 8902,
      "plus de ": 8903,
      "taken ": 8904,
      "ቋንቋዎች": 8905,
      "ùn-": 8906,
      "ma ń ": 8907,
      "inda ta ": 8908,
      "ẹrẹ ": 8909,
      "n.k.": 8910,
      "gíga ": 8911,
      "États-Un": 8912,
      "Hot": 8913,
      "Mb": 8914,
      "wap": 8915,
      "ወስ": 8916,
      "o ti ": 8917,
      "ict ": 8918,
      "adop": 8919,
      "Maria ": 8920,
      "encore ": 8921,
      "náà, ": 8922,
      "Island": 8923,
      "system": 8924,
      "Agbegbe ": 8925,
      "BBC ": 8926,
      "Nic": 8927,
      "city ": 8928,
      "mt": 8929,
      "ኦሮ": 8930,
      "a L": 8931,
      "es d'": 8932,
      " አት": 8933,
      "plat": 8934,
      "China ": 8935,
      "i mak": 8936,
      "ological ": 8937,
      " ብሔ": 8938,
      "zaɓ": 8939,
      "mbol": 8940,
      "ment of ": 8941,
      "design": 8942,
      "Abubakar ": 8943,
      "22": 8944,
      "4,": 8945,
      "Govern": 8946,
      "Kud": 8947,
      "car ": 8948,
      "site ": 8949,
      "yote ": 8950,
      "és, ": 8951,
      "ìp": 8952,
      "ግለ": 8953,
      "alàày": 8954,
      "y of the ": 8955,
      "abab": 8956,
      "ed with ": 8957,
      "ing in ": 8958,
      "auch": 8959,
      "ation du ": 8960,
      "ambr": 8961,
      "point": 8962,
      " ወቅ": 8963,
      "mats": 8964,
      "girma ": 8965,
      "Cour": 8966,
      "J.": 8967,
      "Sup": 8968,
      "TV ": 8969,
      "ae": 8970,
      "ከብ": 8971,
      "ፈጠ": 8972,
      "atun": 8973,
      "an Najeriya ": 8974,
      "ity.": 8975,
      "ም (": 8976,
      "au s": 8977,
      "ojoj": 8978,
      "Prem": 8979,
      "a ny": 8980,
      "érieur": 8981,
      "Henry ": 8982,
      "Sikuku": 8983,
      "aláìsí ": 8984,
      "Bern": 8985,
      "aƙ": 8986,
      "iaka m": 8987,
      "tall": 8988,
      "ቻቸው": 8989,
      "ውያን": 8990,
      "2003": 8991,
      "tsawon ": 8992,
      "48": 8993,
      "AR": 8994,
      "Kong": 8995,
      "mur": 8996,
      "ruwa ": 8997,
      "tar ": 8998,
      "y's ": 8999,
      "ì, ": 9000,
      "ፍሪ": 9001,
      "itace ": 9002,
      "une d": 9003,
      "ifo ch": 9004,
      "ce ta ": 9005,
      "mwish": 9006,
      "Empire ": 9007,
      "Bon": 9008,
      "Kun": 9009,
      "Wais": 9010,
      "donc ": 9011,
      "huk": 9012,
      "non-": 9013,
      "vita ": 9014,
      "ለሁ": 9015,
      "ናት": 9016,
      "ደበ": 9017,
      "ጥያ": 9018,
      "ፎች": 9019,
      "ፕላ": 9020,
      "t (": 9021,
      "à partir ": 9022,
      "nítorí ": 9023,
      "walikuwa ": 9024,
      "musamman ": 9025,
      "፲፱፻፶": 9026,
      "uatana na ": 9027,
      "multi": 9028,
      "very ": 9029,
      "ful ": 9030,
      "Angel": 9031,
      "Annabi ": 9032,
      "Pope ": 9033,
      "began ": 9034,
      "certains ": 9035,
      "Hukumar ": 9036,
      "4. ": 9037,
      "Tel": 9038,
      "gasar ": 9039,
      "ሕግ": 9040,
      "ማዊ": 9041,
      "በት የ": 9042,
      "ድራ": 9043,
      "anna ": 9044,
      "eneo ya ": 9045,
      "Alim": 9046,
      "Champ": 9047,
      "ሳይንሳ": 9048,
      "àn.": 9049,
      "lọ́wọ́ ": 9050,
      "òṣeré ": 9051,
      "ንዳንዱ": 9052,
      "programm": 9053,
      "Ìbàd": 9054,
      "ማስታወሻ": 9055,
      "ጎርጎርያን ": 9056,
      "Mand": 9057,
      "cin k": 9058,
      "gidan ": 9059,
      "long ": 9060,
      "mol": 9061,
      "Èkó": 9062,
      "ሐይ": 9063,
      "ስቴ": 9064,
      "ታዋቂ": 9065,
      "ትል": 9066,
      "ዋዕ": 9067,
      "ጻሕፍ": 9068,
      "፣ ይህ": 9069,
      " በፊ": 9070,
      "ን ማ": 9071,
      "ance, ": 9072,
      "monde ": 9073,
      "sur les ": 9074,
      "link": 9075,
      "rubut": 9076,
      "zaben ": 9077,
      "méjì ": 9078,
      "i’ar ": 9079,
      "ካሌንዳ": 9080,
      "Bank": 9081,
      "Ijoba ": 9082,
      "sens": 9083,
      "ምድር ": 9084,
      "al (": 9085,
      "onek": 9086,
      "tific": 9087,
      "osere ": 9088,
      "ል ያ": 9089,
      " ምድር": 9090,
      " የተለያዩ": 9091,
      "ታወቅ": 9092,
      "Lẹ́yìn ": 9093,
      "(S": 9094,
      "46": 9095,
      "57": 9096,
      "Mt": 9097,
      "mes": 9098,
      "mù ": 9099,
      "wag": 9100,
      "ƙungiyar ": 9101,
      "ስና ": 9102,
      "ed that ": 9103,
      "compar": 9104,
      "par l'": 9105,
      "zaidi ": 9106,
      "syn": 9107,
      "shirya ": 9108,
      "Nijeriya. ": 9109,
      "describ": 9110,
      "Ibrahim ": 9111,
      "Arew": 9112,
      "Dan": 9113,
      "Ij": 9114,
      "Mod": 9115,
      "iaka ": 9116,
      "oi ": 9117,
      "ሥጋ": 9118,
      "ባ ": 9119,
      "a G": 9120,
      "ina, ": 9121,
      "ó sì ": 9122,
      "selon ": 9123,
      "littér": 9124,
      "mji mkuu wa ": 9125,
      "Marejeo ": 9126,
      "33": 9127,
      "Gómìnà ": 9128,
      "Maur": 9129,
      "Vic": 9130,
      "jù ": 9131,
      "national ": 9132,
      "now ": 9133,
      "ጊዮር": 9134,
      "alth ": 9135,
      "aire, ": 9136,
      "egem": 9137,
      "Stat": 9138,
      "deven": 9139,
      "interpr": 9140,
      "Nijeriya.": 9141,
      "throp": 9142,
      "ìsàn ": 9143,
      "ollywood ": 9144,
      "commerci": 9145,
      "ጊዮርጊ": 9146,
      "99": 9147,
      "At ": 9148,
      "Agba ": 9149,
      "Hung": 9150,
      "fun": 9151,
      "list": 9152,
      "lù ": 9153,
      "ton, ": 9154,
      "ème ": 9155,
      "ከዚህ ": 9156,
      "th, ": 9157,
      "as.": 9158,
      "er of the ": 9159,
      "ent de ": 9160,
      "com/": 9161,
      "2006 ": 9162,
      "2015 ": 9163,
      " እየተ": 9164,
      "km²": 9165,
      "ጀርመን ": 9166,
      "nombreux ": 9167,
      "mwandishi ": 9168,
      "* ": 9169,
      "AF": 9170,
      "Sim": 9171,
      "kw": 9172,
      "ስ መ": 9173,
      "ሸን": 9174,
      "ት) ": 9175,
      "ዳር": 9176,
      "፡የ": 9177,
      "ars ": 9178,
      "at, ": 9179,
      "isme ": 9180,
      "icle ": 9181,
      "wanda ke ": 9182,
      "ung ": 9183,
      "ambaz": 9184,
      "yawan": 9185,
      "word ": 9186,
      "alikuwa mshindi wa Tuzo ya Nobel ya ": 9187,
      "Apple ": 9188,
      "William": 9189,
      "ጎርጎርያን ካሌንዳ": 9190,
      "Plat": 9191,
      "Pour ": 9192,
      "Yul": 9193,
      "ée.": 9194,
      "ለየ": 9195,
      "ገዳ": 9196,
      " የበ": 9197,
      " ከዚያ": 9198,
      "jam'": 9199,
      "eur de ": 9200,
      "view": 9201,
      "rubuta ": 9202,
      "période ": 9203,
      "fam": 9204,
      "gún": 9205,
      "zur": 9206,
      "ጽሕ": 9207,
      " አላ": 9208,
      "2091": 9209,
      "ople": 9210,
      "avait ": 9211,
      "2014 ": 9212,
      "common ": 9213,
      "ights ": 9214,
      "autom": 9215,
      "hadi k": 9216,
      "Congr": 9217,
      "Tarayyar ": 9218,
      "፲፱፻፷": 9219,
      "daban ": 9220,
      "Duk": 9221,
      "cik": 9222,
      "jé ": 9223,
      "saur": 9224,
      "soit ": 9225,
      "ስፍ": 9226,
      "aman ": 9227,
      " በዚህ": 9228,
      "ed his ": 9229,
      "ẹ̀lẹ̀ ": 9230,
      "ever ": 9231,
      "ari tara ": 9232,
      "There ": 9233,
      "ndani ya ": 9234,
      "mbal": 9235,
      "modern ": 9236,
      "ènìyàn alàày": 9237,
      "Awards ": 9238,
      "ዋቢ ምንጮ": 9239,
      "Tanbihi ": 9240,
      "\"The ": 9241,
      "Dar ": 9242,
      "Oṣ": 9243,
      "One ": 9244,
      "Visiwa ": 9245,
      "ne. ": 9246,
      "o) ": 9247,
      "ቴክ": 9248,
      "ቶቹ": 9249,
      "a p": 9250,
      " (የ": 9251,
      " sur ": 9252,
      "kasa da ": 9253,
      "2011 ": 9254,
      "uck": 9255,
      "5 – ": 9256,
      "ínú ": 9257,
      " ግን": 9258,
      "avec la ": 9259,
      "gabatar da ": 9260,
      "e dans le ": 9261,
      "Peter ": 9262,
      "Mur": 9263,
      "fem": 9264,
      "ረግ": 9265,
      "ስኮ": 9266,
      "ዙሪያ": 9267,
      "ዴ ": 9268,
      "ateurs ": 9269,
      ". À": 9270,
      "200 ": 9271,
      "ides ": 9272,
      "afr": 9273,
      "ances ": 9274,
      "ambay": 9275,
      "ports ": 9276,
      " እንደ ተ": 9277,
      "Ass": 9278,
      "jami'": 9279,
      "ር (ከ": 9280,
      "uhuru ": 9281,
      "? ": 9282,
      "Est": 9283,
      "Hol": 9284,
      "Kig": 9285,
      "biyar ": 9286,
      "nu ": 9287,
      "ለ።": 9288,
      "ሦስት ": 9289,
      "‎‎": 9290,
      "arci ": 9291,
      "ink": 9292,
      "en-": 9293,
      "iku ": 9294,
      "um, ": 9295,
      " ከዚህ": 9296,
      "huadhim": 9297,
      "theor": 9298,
      "ደረሰ": 9299,
      "wallon kaf": 9300,
      "ኢትዮጵያ አቆጣጠ": 9301,
      "Californ": 9302,
      "Ká": 9303,
      "Wab": 9304,
      "Wad": 9305,
      "curr": 9306,
      "eaux ": 9307,
      "put": 9308,
      "pia": 9309,
      "tain": 9310,
      "ሳል": 9311,
      "ጫ ": 9312,
      "ital ": 9313,
      "abla ya ": 9314,
      "ubuc": 9315,
      "Andr": 9316,
      "défin": 9317,
      "katika k": 9318,
      "Makarantar ": 9319,
      "ìdí ": 9320,
      "wengi, ": 9321,
      "---": 9322,
      "nord ": 9323,
      "Ces ": 9324,
      "Dir": 9325,
      "Fre": 9326,
      "Jo": 9327,
      "dai ": 9328,
      "tir": 9329,
      "yaliy": 9330,
      "ለኛ": 9331,
      "ሳሳይ": 9332,
      "ቆይ": 9333,
      "forces ": 9334,
      "2006": 9335,
      "ours ": 9336,
      "ዘመናዊ": 9337,
      "day ": 9338,
      "Afirka ta ": 9339,
      "defin": 9340,
      "FIFA ": 9341,
      "CM": 9342,
      "Publ": 9343,
      "a), ": 9344,
      "celle ": 9345,
      "dak": 9346,
      "hand": 9347,
      "ta.": 9348,
      "uti ": 9349,
      "ነሣ": 9350,
      "ክሲ": 9351,
      "ara, ": 9352,
      "ት ላይ": 9353,
      "de L": 9354,
      "ch, ": 9355,
      "2012 ": 9356,
      "iya da ": 9357,
      "Franç": 9358,
      "Isra": 9359,
      "Islam": 9360,
      "mutum ": 9361,
      "lé rẹ̀ ": 9362,
      "Michael ": 9363,
      "dic": 9364,
      "dom ": 9365,
      "sos": 9366,
      "xim": 9367,
      "ìbílẹ̀ ": 9368,
      "ሳተ": 9369,
      "በ ": 9370,
      "ery ": 9371,
      "ird ": 9372,
      "que, ": 9373,
      "haih": 9374,
      "Ali ": 9375,
      " ወረዳ": 9376,
      "arkokin ": 9377,
      "Paris, ": 9378,
      " ነበሩ።": 9379,
      "ne, da ke ": 9380,
      "German": 9381,
      "ሥላሴ": 9382,
      "Yohane ": 9383,
      "+ ": 9384,
      "1)": 9385,
      "A) ": 9386,
      "Gb": 9387,
      "Lis": 9388,
      "Ros": 9389,
      "Sing": 9390,
      "hon": 9391,
      "pò ": 9392,
      "rac": 9393,
      "saf": 9394,
      "udes ": 9395,
      "|| ": 9396,
      "ክሮ": 9397,
      "ዲህ": 9398,
      "a Najeriya ": 9399,
      "initi": 9400,
      " በ ": 9401,
      "abaki ": 9402,
      "re-": 9403,
      "tot": 9404,
      " መሆኑ": 9405,
      "ete ": 9406,
      "oke": 9407,
      "ipp": 9408,
      " ይባላል።": 9409,
      "Asia ": 9410,
      "a gab": 9411,
      " ታላ": 9412,
      " በኋላ ": 9413,
      "Yorùbá": 9414,
      "ief ": 9415,
      "Iṣẹ́ ": 9416,
      "Kif": 9417,
      "aiz": 9418,
      "kungiyar ": 9419,
      "oad": 9420,
      "rul": 9421,
      "sil": 9422,
      "ቢያ ": 9423,
      "ወጡ": 9424,
      "ero ": 9425,
      "abij": 9426,
      "le plus ": 9427,
      "à un ": 9428,
      "read": 9429,
      "apá ": 9430,
      " ምር": 9431,
      "ission ": 9432,
      "ሆነ ": 9433,
      "Kano ": 9434,
      "ne dag": 9435,
      " ዓ.ም. ጀምሮ እስከ ": 9436,
      "nje": 9437,
      "Mpaka ": 9438,
      "Richard ": 9439,
      "ስም በእንግሊዝኛ": 9440,
      "Washing": 9441,
      "ጎርጎርያን ካሌንዳር የ": 9442,
      "1), ": 9443,
      "hous": 9444,
      "lu": 9445,
      "mer ": 9446,
      "yọ": 9447,
      "ሀይ": 9448,
      "ሽን ": 9449,
      "ባቸው ": 9450,
      "ያያ": 9451,
      "ግን በ": 9452,
      "estr": 9453,
      "ably ": 9454,
      "tient ": 9455,
      "ument": 9456,
      "ajili ya ": 9457,
      "amba": 9458,
      "yaut": 9459,
      "rece": 9460,
      "yanay": 9461,
      "European ": 9462,
      "possible ": 9463,
      ", mwand": 9464,
      "lor": 9465,
      "law": 9466,
      "ሆን አ": 9467,
      "ርስ ": 9468,
      "ስቃ": 9469,
      "ones": 9470,
      "age.": 9471,
      "rev": 9472,
      "ipe ": 9473,
      "ations, ": 9474,
      "oyi ": 9475,
      "Grand ": 9476,
      " የሚያስ": 9477,
      "ቀን ስም በእንግሊዝኛ": 9478,
      "ìròyìn ": 9479,
      "gwamnatin ": 9480,
      "ልጆች": 9481,
      " ከፍተኛ": 9482,
      "1892 ዓ.ም. ጀምሮ እስከ ": 9483,
      " ቀን በኢትዮጵያ አቆጣጠ": 9484,
      "àgbéléwò ": 9485,
      "ር (ከ1892 ዓ.ም. ጀምሮ እስከ ": 9486,
      " ቀን በኢትዮጵያ አቆጣጠር (ከ1892 ዓ.ም. ጀምሮ እስከ ": 9487,
      " ቀን በኢትዮጵያ አቆጣጠር (ከ1892 ዓ.ም. ጀምሮ እስከ 2091": 9488,
      "mot ": 9489,
      "sar": 9490,
      "ue": 9491,
      "ለው።": 9492,
      "ሪኮ": 9493,
      "ቡ ": 9494,
      "እነ": 9495,
      "ዳዊ": 9496,
      "ọp": 9497,
      "a ti ": 9498,
      "arsa ": 9499,
      "ily ": 9500,
      "ẹ̀.": 9501,
      "idg": 9502,
      "owó ": 9503,
      "mata ": 9504,
      "úrò ": 9505,
      "endele": 9506,
      "ሥርወ መንግሥ": 9507,
      " ሲሆን ይህ ቀን በኢትዮጵያ አቆጣጠር (ከ1892 ዓ.ም. ጀምሮ እስከ 2091": 9508,
      "ጎርጎርያን ካሌንዳር የቀን ስም በእንግሊዝኛ": 9509,
      "ጎርጎርያን ካሌንዳር የቀን ስም በእንግሊዝኛ ሲሆን ይህ ቀን በኢትዮጵያ አቆጣጠር (ከ1892 ዓ.ም. ጀምሮ እስከ 2091": 9510,
      "(N": 9511,
      "Ast": 9512,
      "Kais": 9513,
      "Mass": 9514,
      "X ": 9515,
      "bil": 9516,
      "del": 9517,
      "ith ": 9518,
      "yara ": 9519,
      "úús": 9520,
      "ሳያ": 9521,
      "ስም": 9522,
      "ትርጉ": 9523,
      "ንጥረ": 9524,
      "s are ": 9525,
      "into the ": 9526,
      "à une ": 9527,
      "2020 ": 9528,
      "toc": 9529,
      " መር": 9530,
      "ibli": 9531,
      "début ": 9532,
      "Armen": 9533,
      "160": 9534,
      "argaj": 9535,
      "Europe ": 9536,
      "journ": 9537,
      "ootb": 9538,
      "introduc": 9539,
      "kudu maso ": 9540,
      "ead ": 9541,
      "kin": 9542,
      "mer": 9543,
      "tabb": 9544,
      "ሁሉ ": 9545,
      "ዋል ": 9546,
      "ami": 9547,
      "akaf": 9548,
      "ures ": 9549,
      "elez": 9550,
      "okan ": 9551,
      "ba ta ": 9552,
      "ijer": 9553,
      "e-shiry": 9554,
      "1980": 9555,
      "su.": 9556,
      " ግብ": 9557,
      "mai suna ": 9558,
      "Japan": 9559,
      "mêm": 9560,
      "ግድም ": 9561,
      "God": 9562,
      "Mc": 9563,
      "Western ": 9564,
      "bar ": 9565,
      "fẹ́": 9566,
      "ም እን": 9567,
      "ራል": 9568,
      "ግዕ": 9569,
      "iki wa ": 9570,
      "gbá ": 9571,
      "indé": 9572,
      "increas": 9573,
      "150": 9574,
      "ነው። ": 9575,
      "actu": 9576,
      "ìdí": 9577,
      "tiques ": 9578,
      "étaient ": 9579,
      "aguzi wa ": 9580,
      "ኤሌክትሪክ": 9581,
      "Kol": 9582,
      "Mij": 9583,
      "due ": 9584,
      "kad": 9585,
      "kì ": 9586,
      "rah": 9587,
      "well": 9588,
      "àá ": 9589,
      "è-": 9590,
      "ልጋ": 9591,
      "ስቶ": 9592,
      "ከሰ": 9593,
      ". L": 9594,
      "educ": 9595,
      "éré ": 9596,
      "2010 ": 9597,
      "175": 9598,
      "particip": 9599,
      "ílé ": 9600,
      " አገልግ": 9601,
      "BK (Baada ya Kristo). Matukio ": 9602,
      " (Baada ya Kristo). Matukio Waliozaliwa Waliofariki Karne ya ": 9603,
      "Film ": 9604,
      "yadda ": 9605,
      "Way": 9606,
      "less ": 9607,
      "vik": 9608,
      "~ ": 9609,
      "ኤር": 9610,
      "ያኖ": 9611,
      "ጥቂ": 9612,
      "amia ": 9613,
      "ọ̀pọ̀lọpọ̀ ": 9614,
      "evision ": 9615,
      "166": 9616,
      "insu ": 9617,
      "viol": 9618,
      "transl": 9619,
      "kubwa ya ": 9620,
      "during ": 9621,
      "Sala": 9622,
      "Legas ": 9623,
      "azama pia Orodha ya ": 9624,
      "to gba Ebun ": 9625,
      "pàtàkì ": 9626,
      "Kin": 9627,
      "c'est ": 9628,
      "kú ": 9629,
      "oṣ": 9630,
      "sé": 9631,
      "ቴሌ": 9632,
      "ነጻ": 9633,
      "a was": 9634,
      "arn": 9635,
      "u M": 9636,
      "Chr": 9637,
      "former ": 9638,
      " ሰዎች ": 9639,
      "team": 9640,
      "wájú ": 9641,
      "ሌላ ": 9642,
      "ጽሑፍ": 9643,
      "Societ": 9644,
      "cutar ": 9645,
      "eti": 9646,
      "mú": 9647,
      "ቅጣ": 9648,
      "ከል": 9649,
      "ጸሐ": 9650,
      "e na ": 9651,
      "in a ": 9652,
      "emper": 9653,
      ". Ì": 9654,
      "ed for ": 9655,
      "tig": 9656,
      " ምዕራ": 9657,
      "éris": 9658,
      " ነው። በ": 9659,
      "askof": 9660,
      "celui ": 9661,
      "ሚኒስት": 9662,
      "ጽሕፈ": 9663,
      "ijerum": 9664,
      "Bibl": 9665,
      "Hat": 9666,
      "bak": 9667,
      "cend": 9668,
      "deux": 9669,
      "hiy": 9670,
      "mkuu wa ": 9671,
      "óp": 9672,
      "ƙidayar ": 9673,
      "ውጤ": 9674,
      "cheo ": 9675,
      "imes ": 9676,
      "umo ": 9677,
      "ouest ": 9678,
      "oppos": 9679,
      "obi ": 9680,
      "ain, ": 9681,
      "e sont ": 9682,
      "ile ni ": 9683,
      "post": 9684,
      " ማለ": 9685,
      "ufu ": 9686,
      "devient ": 9687,
      "Afgh": 9688,
      "aiki a matsayin ": 9689,
      "nyingine ": 9690,
      "ጣልያን ": 9691,
      "Italia": 9692,
      ". Àwọn ìt": 9693,
      "lambar yab": 9694,
      "500 ": 9695,
      "Fer": 9696,
      "Greg": 9697,
      "Iy": 9698,
      "Nair": 9699,
      "P.": 9700,
      "ምስራ": 9701,
      "ይሁ": 9702,
      "to s": 9703,
      "terme ": 9704,
      "i kan ": 9705,
      "1999 ": 9706,
      "wakifuat": 9707,
      "ies of ": 9708,
      "aliwa na ": 9709,
      "médi": 9710,
      "major": 9711,
      "Viungo vya nje": 9712,
      "da yawan jama'a ": 9713,
      "Ju": 9714,
      "Sok": 9715,
      "Ta": 9716,
      "Tal": 9717,
      "iograf": 9718,
      "ማህ": 9719,
      "ከዚያ": 9720,
      "ana kwa ": 9721,
      "é au ": 9722,
      "ion of ": 9723,
      "ector": 9724,
      "olóṣèlú ": 9725,
      "magharib": 9726,
      "English": 9727,
      "Ní ọdún 201": 9728,
      "Agosti - ": 9729,
      "ናይት": 9730,
      "Julai - ": 9731,
      "Christian ": 9732,
      "membr": 9733,
      "e)": 9734,
      "lilikuwa ": 9735,
      "ኪዳ": 9736,
      "ፍቅ": 9737,
      "enant ": 9738,
      "illa ": 9739,
      "chur": 9740,
      "allem": 9741,
      "auta ": 9742,
      "oja ": 9743,
      "3 – ": 9744,
      "ን የመ": 9745,
      "kuwa na ": 9746,
      "tempor": 9747,
      "ቋንቋዎች ": 9748,
      "volution ": 9749,
      "ሁለተኛ": 9750,
      "include ": 9751,
      "dára ": 9752,
      "character": 9753,
      "pour s": 9754,
      "ዝርዝር ": 9755,
      "Ig": 9756,
      "Ref": 9757,
      "hi ": 9758,
      "kun": 9759,
      "lú": 9760,
      "pot": 9761,
      "wan ": 9762,
      "yo ": 9763,
      "ለቀ": 9764,
      "ላሉ።": 9765,
      "ሜ ": 9766,
      "ትር": 9767,
      "ፈጠረ": 9768,
      "Ọba ": 9769,
      "inap": 9770,
      "ake.": 9771,
      "itan ": 9772,
      "kush": 9773,
      " አያ": 9774,
      "ago ": 9775,
      "gboyè ": 9776,
      "ans.": 9777,
      "èrent ": 9778,
      "Ibile ": 9779,
      "bẹ̀rẹ̀": 9780,
      "million ": 9781,
      "environ ": 9782,
      "ሪካዊ ማስታወሻ": 9783,
      "aláìsí ní ": 9784,
      "4), ": 9785,
      "Cam": 9786,
      "Lu": 9787,
      "Mik": 9788,
      "dern": 9789,
      "faf": 9790,
      "télé": 9791,
      "tattalin arz": 9792,
      "yg": 9793,
      "year ": 9794,
      "ሚሊዮ": 9795,
      "ስሙ": 9796,
      "ክን": 9797,
      "shair": 9798,
      " እግር ኳስ ": 9799,
      "watakatifu ": 9800,
      "ensemble ": 9801,
      "self ": 9802,
      "Rayuwar ": 9803,
      "Oktoba - ": 9804,
      "ci gaba da ": 9805,
      "développement ": 9806,
      "lábẹ́ ": 9807,
      "! ": 9808,
      "1–": 9809,
      "5. ": 9810,
      "Dou": 9811,
      "Ze": 9812,
      "bon": 9813,
      "wr": 9814,
      "ምር ": 9815,
      "ወረዳ": 9816,
      "e et ": 9817,
      "ya yi ": 9818,
      "akam": 9819,
      "agen ": 9820,
      "ẹ̀, ": 9821,
      "eko ": 9822,
      "ists ": 9823,
      "Àwọn Ìt": 9824,
      "a ya k": 9825,
      "Prof": 9826,
      "àn, ": 9827,
      "had been ": 9828,
      "All ": 9829,
      "ዕለተ ": 9830,
      "known as ": 9831,
      "al'umm": 9832,
      "employ": 9833,
      "ikiped": 9834,
      "49": 9835,
      "Kih": 9836,
      "Maz": 9837,
      "Mov": 9838,
      "Oba ": 9839,
      "San ": 9840,
      "be s": 9841,
      "eth ": 9842,
      "kabil": 9843,
      "ì.": 9844,
      "ón": 9845,
      "ôle ": 9846,
      "ƙir": 9847,
      "ይስጥ": 9848,
      "ዶሮ": 9849,
      "thes": 9850,
      "ista ": 9851,
      "ab ": 9852,
      "taur": 9853,
      "Ilé ": 9854,
      "named ": 9855,
      "ilimin ": 9856,
      "2018 ": 9857,
      "pàá ": 9858,
      "politique ": 9859,
      "CN": 9860,
      "Hor": 9861,
      "Kum": 9862,
      "mouv": 9863,
      "uits ": 9864,
      "imanin ": 9865,
      "trop": 9866,
      "le nom ": 9867,
      "et.": 9868,
      "ters ": 9869,
      "2009": 9870,
      "independ": 9871,
      " ወገ": 9872,
      "iques, ": 9873,
      "dio ": 9874,
      "ነበር ": 9875,
      "da yawa ": 9876,
      "publique ": 9877,
      "majalisar ": 9878,
      "zamani ": 9879,
      "Ibn ": 9880,
      "buil": 9881,
      "internation": 9882,
      "ክርስቶስ ": 9883,
      "takriban ": 9884,
      "Civ": 9885,
      "Hab": 9886,
      "Mai ": 9887,
      "Ox": 9888,
      "Sur": 9889,
      "aic": 9890,
      "grec": 9891,
      "hap": 9892,
      "wó ": 9893,
      "ርጎ": 9894,
      "ስያ": 9895,
      "ደገ": 9896,
      "ጋቢ": 9897,
      "ጫወ": 9898,
      "e en ": 9899,
      "aya.": 9900,
      "took ": 9901,
      "ia ni ": 9902,
      " መሠረ": 9903,
      ": le ": 9904,
      "ní ìpínlẹ̀ ": 9905,
      "établ": 9906,
      "perform": 9907,
      "Mata ": 9908,
      " ቀና": 9909,
      "nada ": 9910,
      "እስከ ": 9911,
      "alikuwa mwan": 9912,
      "ilé-iṣẹ́ ": 9913,
      "Church ": 9914,
      "irefu": 9915,
      " ال": 9916,
      "dess": 9917,
      "ly": 9918,
      "will ": 9919,
      "yayi ": 9920,
      "ልጁ": 9921,
      "ሲቲ": 9922,
      "er-": 9923,
      "ator": 9924,
      "alog": 9925,
      "ison ": 9926,
      "osi ": 9927,
      " ከነ": 9928,
      " የሚለው ": 9929,
      "2005 ": 9930,
      "2010": 9931,
      "watum": 9932,
      "Abu ": 9933,
      "Progr": 9934,
      "8 – ": 9935,
      "ence, ": 9936,
      "auri ": 9937,
      ", and the ": 9938,
      "Roma ": 9939,
      "Ital": 9940,
      "peuvent ": 9941,
      "hadi kifo ch": 9942,
      "Cent": 9943,
      "Ly": 9944,
      "Virg": 9945,
      "Yes": 9946,
      "fed": 9947,
      "ies.": 9948,
      "kè ": 9949,
      "mọ": 9950,
      "oa ": 9951,
      "zo ya ": 9952,
      "Ìlú ": 9953,
      "ɗauk": 9954,
      "ናቸው ": 9955,
      "à l’": 9956,
      "al of ": 9957,
      "azarin ": 9958,
      "ock ": 9959,
      "ንጉስ ": 9960,
      "fi s": 9961,
      "katika miaka m": 9962,
      "Empir": 9963,
      "Martin ": 9964,
      "a mapokeo ya ": 9965,
      "indépend": 9966,
      "68": 9967,
      "PD": 9968,
      "Por": 9969,
      "dó": 9970,
      "func": 9971,
      "ji wa ": 9972,
      "tẹl": 9973,
      "ሰን": 9974,
      "ሽን": 9975,
      "ቁር": 9976,
      "enf": 9977,
      "ense": 9978,
      "ya mutu ": 9979,
      "kula da ": 9980,
      "gbá": 9981,
      "etic ": 9982,
      "plu": 9983,
      " እንስሳ": 9984,
      "i katika m": 9985,
      "izi ": 9986,
      "tí ó wà ní ": 9987,
      "nouveau ": 9988,
      "nombreuses ": 9989,
      "ehemu ": 9990,
      "quelques ": 9991,
      "ammala kar": 9992,
      "Alakoso Agba ": 9993,
      "Ijoba Ibile ": 9994,
      "Dar es ": 9995,
      "abaki siku ": 9996,
      "Bad": 9997,
      "Dani": 9998,
      "ech": 9999
    },
    "merges": [
      [
        "a",
        " "
      ],
      [
        "e",
        " "
      ],
      [
        "n",
        " "
      ],
      [
        "i",
        " "
      ],
      [
        "a",
        "n"
      ],
      [
        "a",
        "r"
      ],
      [
        "s",
        " "
      ],
      [
        ",",
        " "
      ],
      [
        "i",
        "n"
      ],
      [
        "e",
        "r"
      ],
      [
        "a",
        "t"
      ],
      [
        "a",
        "l"
      ],
      [
        "t",
        " "
      ],
      [
        "o",
        " "
      ],
      [
        "e",
        "n"
      ],
      [
        "o",
        "n"
      ],
      [
        "t",
        "h"
      ],
      [
        "i",
        "n "
      ],
      [
        "o",
        "r"
      ],
      [
        "u",
        " "
      ],
      [
        "a",
        "m"
      ],
      [
        "d",
        " "
      ],
      [
        "a",
        "s"
      ],
      [
        "i",
        "s"
      ],
      [
        "w",
        "a "
      ],
      [
        "e",
        "s "
      ],
      [
        " ",
        "የ"
      ],
      [
        "i",
        "l"
      ],
      [
        "a",
        "n "
      ],
      [
        "y",
        "a "
      ],
      [
        "a",
        "k"
      ],
      [
        "u",
        "r"
      ],
      [
        "d",
        "a "
      ],
      [
        "i",
        "t"
      ],
      [
        "e",
        "s"
      ],
      [
        "ar",
        " "
      ],
      [
        " ",
        "በ"
      ],
      [
        "u",
        "n"
      ],
      [
        "i",
        "k"
      ],
      [
        "o",
        "n "
      ],
      [
        "ት",
        " "
      ],
      [
        "í",
        " "
      ],
      [
        "d",
        "e "
      ],
      [
        "i",
        "r"
      ],
      [
        "c",
        "h"
      ],
      [
        "e",
        "l"
      ],
      [
        "o",
        "m"
      ],
      [
        "y",
        " "
      ],
      [
        "th",
        "e "
      ],
      [
        "ን",
        " "
      ],
      [
        "a",
        "b"
      ],
      [
        "k",
        "u"
      ],
      [
        "o",
        "f"
      ],
      [
        "o",
        "l"
      ],
      [
        "1",
        "9"
      ],
      [
        "n",
        "a "
      ],
      [
        " ",
        "አ"
      ],
      [
        "e",
        "m"
      ],
      [
        "i",
        "c"
      ],
      [
        ".",
        " "
      ],
      [
        "i",
        "m"
      ],
      [
        "t",
        "a "
      ],
      [
        "a",
        "g"
      ],
      [
        "s",
        "h"
      ],
      [
        "of",
        " "
      ],
      [
        "a",
        "y"
      ],
      [
        "a",
        "d"
      ],
      [
        "t",
        "r"
      ],
      [
        ")",
        " "
      ],
      [
        "q",
        "u"
      ],
      [
        "u",
        "s"
      ],
      [
        "e",
        "d "
      ],
      [
        "l",
        "e "
      ],
      [
        "er",
        " "
      ],
      [
        "l",
        "a "
      ],
      [
        "in",
        "g"
      ],
      [
        "e",
        "n "
      ],
      [
        " ",
        "እ"
      ],
      [
        "à",
        " "
      ],
      [
        "ẹ",
        "̀"
      ],
      [
        "é",
        " "
      ],
      [
        "u",
        "l"
      ],
      [
        "p",
        "r"
      ],
      [
        "2",
        "0"
      ],
      [
        "u",
        "n "
      ],
      [
        "g",
        "b"
      ],
      [
        "a",
        "c"
      ],
      [
        "w",
        "ọ"
      ],
      [
        "at",
        "i"
      ],
      [
        "t",
        "i"
      ],
      [
        "n",
        "i "
      ],
      [
        "an",
        "d "
      ],
      [
        "i",
        "s "
      ],
      [
        "ẹ",
        "́"
      ],
      [
        "r",
        "e"
      ],
      [
        "i",
        "y"
      ],
      [
        "u",
        "m"
      ],
      [
        "e",
        ", "
      ],
      [
        "t",
        "o"
      ],
      [
        "t",
        "i "
      ],
      [
        "ም",
        " "
      ],
      [
        "a",
        ", "
      ],
      [
        "ው",
        " "
      ],
      [
        "i",
        "a "
      ],
      [
        "t",
        "o "
      ],
      [
        "a",
        "p"
      ],
      [
        "en",
        "t "
      ],
      [
        "i",
        "g"
      ],
      [
        "i",
        "d"
      ],
      [
        "ር",
        " "
      ],
      [
        "e",
        "t "
      ],
      [
        "o",
        "u"
      ],
      [
        "a",
        "f"
      ],
      [
        "o",
        "s"
      ],
      [
        "e",
        "c"
      ],
      [
        "a ",
        "m"
      ],
      [
        " ",
        "("
      ],
      [
        " ",
        "ነ"
      ],
      [
        "al",
        " "
      ],
      [
        "w",
        "a"
      ],
      [
        "ọ",
        "́"
      ],
      [
        "i",
        "f"
      ],
      [
        "e",
        "k"
      ],
      [
        "wọ",
        "n "
      ],
      [
        "a ",
        "k"
      ],
      [
        "o",
        "p"
      ],
      [
        "e ",
        "d"
      ],
      [
        "u",
        "t"
      ],
      [
        " ",
        "መ"
      ],
      [
        "i",
        "b"
      ],
      [
        "w",
        "an"
      ],
      [
        "a",
        "j"
      ],
      [
        "ó",
        " "
      ],
      [
        "en",
        "t"
      ],
      [
        "ing",
        " "
      ],
      [
        "u",
        "k"
      ],
      [
        "al",
        "i"
      ],
      [
        ":",
        " "
      ],
      [
        "ና",
        " "
      ],
      [
        "e",
        "t"
      ],
      [
        "a",
        "."
      ],
      [
        "h",
        "a"
      ],
      [
        "c",
        "e "
      ],
      [
        "l",
        "es "
      ],
      [
        "i",
        "v"
      ],
      [
        "ọ",
        "̀"
      ],
      [
        "ው",
        "።"
      ],
      [
        "p",
        "l"
      ],
      [
        "m",
        "a"
      ],
      [
        "h",
        "e "
      ],
      [
        " ",
        "s"
      ],
      [
        " ",
        "ከ"
      ],
      [
        "o",
        "g"
      ],
      [
        "n",
        "í "
      ],
      [
        "c",
        "on"
      ],
      [
        "e",
        "."
      ],
      [
        "-",
        " "
      ],
      [
        "t",
        "í "
      ],
      [
        "a",
        "w"
      ],
      [
        "ak",
        "a "
      ],
      [
        "al",
        "l"
      ],
      [
        "ẹ̀",
        " "
      ],
      [
        "ku",
        "m"
      ],
      [
        "is",
        "h"
      ],
      [
        "an",
        "g"
      ],
      [
        "o",
        "k"
      ],
      [
        "f",
        "or"
      ],
      [
        "a",
        "u"
      ],
      [
[...]
