{
  "version": "1.0",
  "truncation": null,
  "padding": null,
  "added_tokens": [
    {
      "id": 0,
      "content": "[UNK]",
      "single_word": false,
      "lstrip": false,
      "rstrip": false,
      "normalized": false,
      "special": true
    },
    {
      "id": 1,
      "content": "[CLS]",
      "single_word": false,
      "lstrip": false,
      "rstrip": false,
      "normalized": false,
      "special": true
    },
    {
      "id": 2,
      "content": "[SEP]",
      "single_word": false,
      "lstrip": false,
      "rstrip": false,
      "normalized": false,
      "special": true
    },
    {
      "id": 3,
      "content": "[PAD]",
      "single_word": false,
      "lstrip": false,
      "rstrip": false,
      "normalized": false,
      "special": true
    },
    {
      "id": 4,
      "content": "[MASK]",
      "single_word": false,
      "lstrip": false,
      "rstrip": false,
      "normalized": false,
      "special": true
    }
  ],
  "normalizer": {
    "type": "Sequence",
    "normalizers": [
      {
        "type": "NFC"
      }
    ]
  },
  "pre_tokenizer": {
    "type": "ByteLevel",
    "add_prefix_space": false,
    "trim_offsets": true,
    "use_regex": true
  },
  "post_processor": {
    "type": "TemplateProcessing",
    "single": [
      {
        "SpecialToken": {
          "id": "[CLS]",
          "type_id": 0
        }
      },
      {
        "Sequence": {
          "id": "A",
          "type_id": 0
        }
      },
      {
        "SpecialToken": {
          "id": "[SEP]",
          "type_id": 0
        }
      }
    ],
    "pair": [
      {
        "SpecialToken": {
          "id": "[CLS]",
          "type_id": 0
        }
      },
      {
        "Sequence": {
          "id": "A",
          "type_id": 0
        }
      },
      {
        "SpecialToken": {
          "id": "[SEP]",
          "type_id": 0
        }
      },
      {
        "Sequence": {
          "id": "B",
          "type_id": 1
        }
      },
      {
        "SpecialToken": {
          "id": "[SEP]",
          "type_id": 1
        }
      }
    ],
    "special_tokens": {
      "[CLS]": {
        "id": "[CLS]",
        "ids": [
          1
        ],
        "tokens": [
          "[CLS]"
        ]
      },
      "[SEP]": {
        "id": "[SEP]",
        "ids": [
          2
        ],
        "tokens": [
          "[SEP]"
        ]
      }
    }
  },
  "decoder": {
    "type": "ByteLevel",
    "add_prefix_space": true,
    "trim_offsets": true,
    "use_regex": true
  },
  "model": {
    "type": "BPE",
    "dropout": null,
    "unk_token": "[UNK]",
    "continuing_subword_prefix": null,
    "end_of_word_suffix": null,
    "fuse_unk": false,
    "byte_fallback": false,
    "ignore_merges": false,
    "vocab": {
      "[UNK]": 0,
      "[CLS]": 1,
      "[SEP]": 2,
      "[PAD]": 3,
      "[MASK]": 4,
      "!": 5,
      "\"": 6,
      "#": 7,
      "$": 8,
      "%": 9,
      "&": 10,
      "'": 11,
      "(": 12,
      ")": 13,
      "*": 14,
      "+": 15,
      ",": 16,
      "-": 17,
      ".": 18,
      "/": 19,
      "0": 20,
      "1": 21,
      "2": 22,
      "3": 23,
      "4": 24,
      "5": 25,
      "6": 26,
      "7": 27,
      "8": 28,
      "9": 29,
      ":": 30,
      ";": 31,
      "<": 32,
      "=": 33,
      ">": 34,
      "?": 35,
      "@": 36,
      "A": 37,
      "B": 38,
      "C": 39,
      "D": 40,
      "E": 41,
      "F": 42,
      "G": 43,
      "H": 44,
      "I": 45,
      "J": 46,
      "K": 47,
      "L": 48,
      "M": 49,
      "N": 50,
      "O": 51,
      "P": 52,
      "Q": 53,
      "R": 54,
      "S": 55,
      "T": 56,
      "U": 57,
      "V": 58,
      "W": 59,
      "X": 60,
      "Y": 61,
      "Z": 62,
      "[": 63,
      "\\": 64,
      "]": 65,
      "^": 66,
      "_": 67,
      "`": 68,
      "a": 69,
      "b": 70,
      "c": 71,
      "d": 72,
      "e": 73,
      "f": 74,
      "g": 75,
      "h": 76,
      "i": 77,
      "j": 78,
      "k": 79,
      "l": 80,
      "m": 81,
      "n": 82,
      "o": 83,
      "p": 84,
      "q": 85,
      "r": 86,
      "s": 87,
      "t": 88,
      "u": 89,
      "v": 90,
      "w": 91,
      "x": 92,
      "y": 93,
      "z": 94,
      "{": 95,
      "|": 96,
      "}": 97,
      "~": 98,
      "¡": 99,
      "¢": 100,
      "£": 101,
      "¤": 102,
      "¥": 103,
      "¦": 104,
      "§": 105,
      "¨": 106,
      "©": 107,
      "ª": 108,
      "«": 109,
      "¬": 110,
      "®": 111,
      "¯": 112,
      "°": 113,
      "±": 114,
      "²": 115,
      "³": 116,
      "´": 117,
      "µ": 118,
      "¶": 119,
      "·": 120,
      "¸": 121,
      "¹": 122,
      "º": 123,
      "»": 124,
      "¼": 125,
      "½": 126,
      "¾": 127,
      "¿": 128,
      "Â": 129,
      "Ã": 130,
      "Ä": 131,
      "Å": 132,
      "Æ": 133,
      "Ç": 134,
      "È": 135,
      "É": 136,
      "Ê": 137,
      "Ë": 138,
      "Ì": 139,
      "Í": 140,
      "Î": 141,
      "Ï": 142,
      "Ð": 143,
      "Ñ": 144,
      "Ò": 145,
      "Ó": 146,
      "Ô": 147,
      "Õ": 148,
      "Ö": 149,
      "×": 150,
      "Ø": 151,
      "Ù": 152,
      "Ú": 153,
      "Û": 154,
      "Ü": 155,
      "Þ": 156,
      "à": 157,
      "á": 158,
      "â": 159,
      "ã": 160,
      "ä": 161,
      "å": 162,
      "æ": 163,
      "ç": 164,
      "è": 165,
      "é": 166,
      "ê": 167,
      "ë": 168,
      "ì": 169,
      "í": 170,
      "ï": 171,
      "ð": 172,
      "Ġ": 173,
      "Ģ": 174,
      "ģ": 175,
      "Ĥ": 176,
      "ĥ": 177,
      "Ħ": 178,
      "ħ": 179,
      "Ĩ": 180,
      "ĩ": 181,
      "Ī": 182,
      "ī": 183,
      "Ĭ": 184,
      "ĭ": 185,
      "Į": 186,
      "į": 187,
      "İ": 188,
      "ı": 189,
      "Ĳ": 190,
      "ĳ": 191,
      "Ĵ": 192,
      "ĵ": 193,
      "Ķ": 194,
      "ķ": 195,
      "ĸ": 196,
      "Ĺ": 197,
      "ĺ": 198,
      "Ļ": 199,
      "ļ": 200,
      "Ľ": 201,
      "ľ": 202,
      "Ŀ": 203,
      "ŀ": 204,
      "Ł": 205,
      "ł": 206,
      "Ń": 207,
      "áĪ": 208,
      "Ġá": 209,
      "áī": 210,
      "áĬ": 211,
      "áĭ": 212,
      "an": 213,
      "in": 214,
      "ar": 215,
      "Ġd": 216,
      "Ġt": 217,
      "Ġa": 218,
      "on": 219,
      "es": 220,
      "Ġs": 221,
      "en": 222,
      "áĮ": 223,
      "Ġáĭ": 224,
      "er": 225,
      "ĠáĬ": 226,
      "Ġn": 227,
      "wa": 228,
      "Ġl": 229,
      "Ġk": 230,
      "ĠáĪ": 231,
      "Ġm": 232,
      "áį": 233,
      "Ã©": 234,
      "áĬķ": 235,
      "ti": 236,
      "Ġáī": 237,
      "is": 238,
      "he": 239,
      "al": 240,
      "ĠÃ": 241,
      "Ġp": 242,
      "Ġc": 243,
      "ya": 244,
      "»į": 245,
      "or": 246,
      "ÃŃ": 247,
      "un": 248,
      "áīµ": 249,
      "á»į": 250,
      "áĪŃ": 251,
      "as": 252,
      "Ġo": 253,
      "it": 254,
      "re": 255,
      "Ġb": 256,
      "º¹": 257,
      "il": 258,
      "ĠA": 259,
      "at": 260,
      "am": 261,
      "Ġf": 262,
      "áº¹": 263,
      "Ġáĭ¨": 264,
      "áĭį": 265,
      "ur": 266,
      "Ġ(": 267,
      "Ġwa": 268,
      "Ġya": 269,
      "Ġda": 270,
      "Ġ1": 271,
      "Ġthe": 272,
      "łáĪ": 273,
      "ka": 274,
      "ĠM": 275,
      "Ġde": 276,
      "Ġh": 277,
      "áĪĿ": 278,
      "áĪį": 279,
      "le": 280,
      "us": 281,
      "áĪµ": 282,
      "om": 283,
      "and": 284,
      "Ġw": 285,
      "Ìģ": 286,
      "ent": 287,
      "Ãł": 288,
      "ÌĢ": 289,
      "Ġg": 290,
      "ed": 291,
      "Ã¡": 292,
      "ir": 293,
      "ic": 294,
      "ĠS": 295,
      "et": 296,
      "ati": 297,
      "Ġin": 298,
      "Ġof": 299,
      "Ġna": 300,
      "ut": 301,
      "el": 302,
      "ik": 303,
      "Ġr": 304,
      "ab": 305,
      "áį¢": 306,
      "qu": 307,
      "ĠÃł": 308,
      "ad": 309,
      "um": 310,
      "ĠK": 311,
      "áĬĵ": 312,
      "Ġáīł": 313,
      "áī°": 314,
      "im": 315,
      "áĭ«": 316,
      "áĪĪ": 317,
      "ol": 318,
      "Ġla": 319,
      "Ãº": 320,
      "ĠB": 321,
      "ia": 322,
      "ĠáĮ": 323,
      "Ã¨": 324,
      "Ġj": 325,
      "ĠC": 326,
      "áĭŃ": 327,
      "áĪĺ": 328,
      "ĠN": 329,
      "Ã¬": 330,
      "ĠáĬ¥": 331,
      "ing": 332,
      "áī½": 333,
      "ĠI": 334,
      "ul": 335,
      "em": 336,
      "ro": 337,
      "ĠT": 338,
      "Ġta": 339,
      "Ġ19": 340,
      "ch": 341,
      "Ġ2": 342,
      "id": 343,
      "ĠáĬł": 344,
      "áĭ°": 345,
      "ĠP": 346,
      "áĬĲ": 347,
      "ay": 348,
      "áī¥": 349,
      "áĪ¨": 350,
      "áĮĪ": 351,
      "ai": 352,
      "áĭµ": 353,
      "Ġand": 354,
      "ak": 355,
      "Ġto": 356,
      "ce": 357,
      "ig": 358,
      "áĪĭ": 359,
      "ĠáĬĲ": 360,
      "áĮį": 361,
      "Ġni": 362,
      "ĠL": 363,
      "ta": 364,
      "âĢ": 365,
      "os": 366,
      "ĠáĪĺ": 367,
      "ag": 368,
      "ĠG": 369,
      "áīł": 370,
      "ĠW": 371,
      "Ġy": 372,
      "¹£": 373,
      "Ã³": 374,
      "áĪ«": 375,
      "Ġle": 376,
      "Ġz": 377,
      "ation": 378,
      "áī³": 379,
      "ĠD": 380,
      "ĠáĬ¨": 381,
      "Ġv": 382,
      "gb": 383,
      "ĠF": 384,
      "est": 385,
      "ana": 386,
      "ĠJ": 387,
      "Ġal": 388,
      "Ġet": 389,
      "ĠR": 390,
      "ara": 391,
      "áĬŃ": 392,
      "ha": 393,
      "ri": 394,
      "ĠnÃŃ": 395,
      "á»įn": 396,
      "Ġ20": 397,
      "ant": 398,
      "hi": 399,
      "ĠH": 400,
      "ĠO": 401,
      "ot": 402,
      "áĪĽ": 403,
      "ba": 404,
      "áĪ³": 405,
      "Ġen": 406,
      "ani": 407,
      "áī£": 408,
      "ci": 409,
      "Ġun": 410,
      "Ġáį": 411,
      "ĠÃ¬": 412,
      "ĠE": 413,
      "Ã¹": 414,
      "ist": 415,
      "ans": 416,
      "Ġe": 417,
      "wá»įn": 418,
      "Ġre": 419,
      "ra": 420,
      "ali": 421,
      "áĬĽ": 422,
      "Ġáī°": 423,
      "uk": 424,
      "Ġá»į": 425,
      "áĪª": 426,
      "Ġma": 427,
      "ĠáĭŃ": 428,
      "tion": 429,
      "Ã²": 430,
      "ĠáīłáĪ": 431,
      "Ġáĭ¨áĪ": 432,
      "que": 433,
      "op": 434,
      "ers": 435,
      "ec": 436,
      "á¹£": 437,
      "ok": 438,
      "ĠáĬłáĪ": 439,
      "Ġdes": 440,
      "ud": 441,
      "Ġil": 442,
      "áĪħ": 443,
      "are": 444,
      "iy": 445,
      "áĮ¥": 446,
      "áĬ¨": 447,
      "ari": 448,
      "áį£": 449,
      "ĠU": 450,
      "ĠáĪĿ": 451,
      "Ġ-": 452,
      "ang": 453,
      "Ġáĭ¨áĬ": 454,
      "iya": 455,
      "iv": 456,
      "uwa": 457,
      "Ġcon": 458,
      "Ġor": 459,
      "our": 460,
      "ĠáĭĪ": 461,
      "áį¡": 462,
      "ug": 463,
      "Ãºn": 464,
      "Ġpar": 465,
      "st": 466,
      "la": 467,
      "ĠtÃŃ": 468,
      "áįį": 469,
      "od": 470,
      "Ġth": 471,
      "áĭ³": 472,
      "ĠáĬĲáĭį": 473,
      "ap": 474,
      "áīĢ": 475,
      "og": 476,
      "ub": 477,
      "áĭ¨": 478,
      "ĠáĬ¥áĬķ": 479,
      "uma": 480,
      "Ġles": 481,
      "Ġan": 482,
      "ion": 483,
      "áĭĪ": 484,
      "ie": 485,
      "00": 486,
      "Ġwas": 487,
      "if": 488,
      "Ġdu": 489,
      "te": 490,
      "Ġas": 491,
      "th": 492,
      "ib": 493,
      "áĪ°": 494,
      "áīħ": 495,
      "me": 496,
      "ter": 497,
      "Ġcom": 498,
      "áĪĮ": 499,
      "ama": 500,
      "áĬ«": 501,
      "up": 502,
      "Ġti": 503,
      "Ġne": 504,
      "ÆĻ": 505,
      "ĠáĪĪ": 506,
      "ne": 507,
      "19": 508,
      "ine": 509,
      "Ġfor": 510,
      "ke": 511,
      "Ġon": 512,
      "Ġis": 513,
      "áĬł": 514,
      "ly": 515,
      "ow": 516,
      "ji": 517,
      "ini": 518,
      "ga": 519,
      "Ġ\"": 520,
      "ĠáĪµ": 521,
      "áī¸": 522,
      "ĠÃ©": 523,
      "Ġáĭ«": 524,
      "res": 525,
      "ĠÂ": 526,
      "Ġqu": 527,
      "rÃ©": 528,
      "ĠÃ³": 529,
      "áĪī": 530,
      "),": 531,
      "af": 532,
      "Ġpro": 533,
      "Ġáĭĵ": 534,
      "Ġkuma": 535,
      "Ġkwa": 536,
      "Ġshe": 537,
      ").": 538,
      "iki": 539,
      "ac": 540,
      "ve": 541,
      "áīłáĪ": 542,
      "li": 543,
      "Ġest": 544,
      "áĭĬ": 545,
      "áĭĭ": 546,
      "ere": 547,
      "láº¹": 548,
      "ou": 549,
      "áĪ®": 550,
      "áī±": 551,
      "İáī½": 552,
      "end": 553,
      "Ġau": 554,
      "Ġshek": 555,
      "áī¸áĭį": 556,
      "áįĪ": 557,
      "ob": 558,
      "Ġáĭ¨áĪļ": 559,
      "ement": 560,
      "Ġsu": 561,
      "áĭĿ": 562,
      "ĠâĢ": 563,
      "ĠÆĻ": 564,
      "áĮ£": 565,
      "ĠY": 566,
      "za": 567,
      "áĪĨ": 568,
      "ĠáĪĽ": 569,
      "ikin": 570,
      "Ġse": 571,
      "har": 572,
      "rÃŃ": 573,
      "ĠdÃ©": 574,
      "Ġ201": 575,
      "ata": 576,
      "áĭļ": 577,
      "áī¶": 578,
      "di": 579,
      "ina": 580,
      "au": 581,
      "áĪ³áĪĮ": 582,
      "ct": 583,
      "áĮł": 584,
      "ann": 585,
      "Ġar": 586,
      "áĮī": 587,
      "ĠÃĢ": 588,
      "âĢĻ": 589,
      "ĠV": 590,
      "Ġza": 591,
      "ment": 592,
      "áĮĭ": 593,
      "ip": 594,
      "Ġsh": 595,
      "ĠáīłáĬ": 596,
      "áĭ®": 597,
      "ye": 598,
      "aj": 599,
      "ith": 600,
      "Ãłn": 601,
      "Ġpl": 602,
      "ge": 603,
      "Ġam": 604,
      "ĠáĪĿáĪ³áĪĮ": 605,
      "ĠÃłwá»įn": 606,
      "se": 607,
      "ká»į": 608,
      "ate": 609,
      "les": 610,
      "Ġ:": 611,
      "zi": 612,
      "wan": 613,
      "ure": 614,
      "ĠAl": 615,
      "Ġkas": 616,
      "ov": 617,
      "ont": 618,
      "Ġkati": 619,
      "ĠáĪ²": 620,
      "de": 621,
      "war": 622,
      "Ġba": 623,
      "áĭ²": 624,
      "asi": 625,
      "ance": 626,
      "Ġwh": 627,
      "Ġce": 628,
      "áĬķáĭµ": 629,
      "Ġfr": 630,
      "Ġáº¹": 631,
      "ĠáĮį": 632,
      "ĠAm": 633,
      "ins": 634,
      "Ġáīµ": 635,
      "Ġku": 636,
      "Ġbe": 637,
      "The": 638,
      "ung": 639,
      "áĭİáī½": 640,
      "oka": 641,
      "Ġch": 642,
      "Ġáĭĺ": 643,
      "Ġ18": 644,
      "oc": 645,
      "ort": 646,
      "Ã©e": 647,
      "anda": 648,
      "Ġit": 649,
      "ĠAn": 650,
      "áĪ¥": 651,
      "áīĥ": 652,
      "Ġ200": 653,
      "Ġst": 654,
      "Ġjáº¹": 655,
      "já»į": 656,
      "ili": 657,
      "áĬĸ": 658,
      "áĪŀ": 659,
      "Ġcikin": 660,
      "áĭĺ": 661,
      "Ġby": 662,
      "Ġex": 663,
      "ĠIn": 664,
      "hin": 665,
      "Ġá¹£": 666,
      "waka": 667,
      "Ġáĭ¨áī°": 668,
      "Ã©r": 669,
      "ĠAf": 670,
      "ĠáĬ¥áĬĵ": 671,
      "Ġat": 672,
      "of": 673,
      "áĬĲáīµ": 674,
      "ĠáĪ°": 675,
      "Ġáī¥": 676,
      "áĬ¥": 677,
      "rin": 678,
      "we": 679,
      "Ġdans": 680,
      "áĪĬ": 681,
      "ĠÂ«": 682,
      "ire": 683,
      "una": 684,
      "áĪ©": 685,
      "ark": 686,
      "oj": 687,
      "ens": 688,
      "und": 689,
      "Ġ.": 690,
      "bo": 691,
      "Ġdaga": 692,
      "Ġáĭį": 693,
      "ah": 694,
      "áĪĻ": 695,
      "Ġwith": 696,
      "ile": 697,
      "Ġmat": 698,
      "má»į": 699,
      "ity": 700,
      "to": 701,
      "Ã©s": 702,
      "ĠÃ¨": 703,
      "ong": 704,
      "tic": 705,
      "ale": 706,
      "áĬķáĮį": 707,
      "Ġune": 708,
      "Ġkatika": 709,
      "ĠÃłti": 710,
      "ada": 711,
      "ish": 712,
      "ĠáīĢ": 713,
      "ue": 714,
      "ass": 715,
      "Ġ3": 716,
      "asa": 717,
      "'s": 718,
      "ces": 719,
      "ais": 720,
      "áīłáĪŃ": 721,
      "Ġkut": 722,
      "ĭáĭŃ": 723,
      "Ġáĭ°": 724,
      "ver": 725,
      "ous": 726,
      "ĠÃĮ": 727,
      "ĠáĬ¥áĬķáĭ°": 728,
      "Ġha": 729,
      "Ġráº¹": 730,
      "dÃºn": 731,
      "áĭĽ": 732,
      "eriya": 733,
      "Ġáĭ¨áĬłáĪ": 734,
      "da": 735,
      "bi": 736,
      "ts": 737,
      "ĠCh": 738,
      "áĪļ": 739,
      "ord": 740,
      "Ġap": 741,
      "Ã¬n": 742,
      "lÃ©": 743,
      "lÃº": 744,
      "ĠÃĢwá»įn": 745,
      "Ġmwaka": 746,
      "ÉĹ": 747,
      "ber": 748,
      "ĠIt": 749,
      "Ġga": 750,
      "ich": 751,
      "ĠáĬŃ": 752,
      "ÅĦ": 753,
      "ĠsÃŃ": 754,
      "20": 755,
      "Ġkan": 756,
      "Ġje": 757,
      "so": 758,
      "áĪİ": 759,
      "ni": 760,
      "Ġsa": 761,
      "oy": 762,
      "ij": 763,
      "ma": 764,
      "ĠlÃ¡": 765,
      "ond": 766,
      "zo": 767,
      "Ġqui": 768,
      "Ġkar": 769,
      "áĮħ": 770,
      "áī²": 771,
      "Ġshekar": 772,
      "áī¢": 773,
      "fi": 774,
      "Ġpe": 775,
      "Ġ199": 776,
      "ĠÃ²": 777,
      "Ġthat": 778,
      "art": 779,
      "uc": 780,
      "áĬĳ": 781,
      "Ã¹n": 782,
      "ĠrÃ©": 783,
      "ĠâĢĵ": 784,
      "ux": 785,
      "iyar": 786,
      "pe": 787,
      "áįĭ": 788,
      "ĠáĪį": 789,
      "Ġpour": 790,
      "Ġav": 791,
      "mi": 792,
      "age": 793,
      "ric": 794,
      "Ġhe": 795,
      "Ġsur": 796,
      "ĠAr": 797,
      "iwa": 798,
      "Ġol": 799,
      "adi": 800,
      "áĬĿ": 801,
      "Ġfrom": 802,
      "tr": 803,
      "áĪ±": 804,
      "Ġshi": 805,
      "ph": 806,
      "Ġcomp": 807,
      "áį¤": 808,
      "ard": 809,
      "je": 810,
      "áĪĨáĬķ": 811,
      "Ġmas": 812,
      "áĪ½": 813,
      "ence": 814,
      "Ġwá»į": 815,
      "chi": 816,
      "ÃŃn": 817,
      "sa": 818,
      "Ġu": 819,
      "ita": 820,
      "áĮİ": 821,
      "any": 822,
      "cin": 823,
      "ĠáĪĭáĭŃ": 824,
      "ĠThe": 825,
      "ank": 826,
      "áĭ«áĬķ": 827,
      "anz": 828,
      "ĠÅĦ": 829,
      "ore": 830,
      "ary": 831,
      "áĪĪáĭį": 832,
      "ika": 833,
      "Ġáī³": 834,
      "Ġáĭµ": 835,
      "ala": 836,
      "elle": 837,
      "Ġke": 838,
      "18": 839,
      "aba": 840,
      "ila": 841,
      "áĪŃáĬĽ": 842,
      "ite": 843,
      "Ġá»įdÃºn": 844,
      "á¹£áº¹": 845,
      "áĭ±": 846,
      "áĪģ": 847,
      "Ġáī£": 848,
      "Ġare": 849,
      "amu": 850,
      "all": 851,
      "fu": 852,
      "Ġad": 853,
      "Ġsi": 854,
      "ques": 855,
      "Ġim": 856,
      "Ġwat": 857,
      "Ġplus": 858,
      "Ġhis": 859,
      "áĭļáĪħ": 860,
      "¢áīµ": 861,
      "dÃ¨": 862,
      "won": 863,
      "iti": 864,
      "ell": 865,
      "Ġati": 866,
      "wo": 867,
      "ĽáĪŃáĬĽ": 868,
      "¢áīµáĭ®": 869,
      "Ġso": 870,
      "Ġ198": 871,
      "áĮµ": 872,
      "ame": 873,
      "urs": 874,
      "Ġque": 875,
      "áĬĴ": 876,
      "áĭķ": 877,
      "ill": 878,
      "ane": 879,
      "áīĨ": 880,
      "Ġyi": 881,
      "áĮĢ": 882,
      "Ġac": 883,
      "olog": 884,
      "ĠáīłáĪĺ": 885,
      "oma": 886,
      "gbÃł": 887,
      "¢áīµáĭ®áĮµ": 888,
      "Ã¨re": 889,
      "pa": 890,
      "Ġcha": 891,
      "Ġshekara": 892,
      "aif": 893,
      "Ġab": 894,
      "In": 895,
      "Ġtr": 896,
      "áĪĪáīµ": 897,
      "uu": 898,
      "Ġshekarar": 899,
      "ami": 900,
      "áĮ½": 901,
      "Ġmai": 902,
      "áĮĪáĪŃ": 903,
      "áĪ¬": 904,
      "okasi": 905,
      "ern": 906,
      "ĠNaj": 907,
      "Ġ197": 908,
      "ori": 909,
      "ĠSt": 910,
      "asar": 911,
      "ĠbÃŃ": 912,
      "áī¡": 913,
      "An": 914,
      "ele": 915,
      "áĪµáĮ¥": 916,
      "ĠWali": 917,
      "ep": 918,
      "Ġ4": 919,
      "erm": 920,
      "¢áīµáĭ®áĮµáĭ«": 921,
      "bÃŃ": 922,
      "Ġáĭ¨áĬłáĪĽáĪŃáĬĽ": 923,
      "ĠZ": 924,
      "emp": 925,
      "ban": 926,
      "ĠNajeriya": 927,
      "áĪ¨áīµ": 928,
      "ign": 929,
      "Ġou": 930,
      "Ġ,": 931,
      "ations": 932,
      "ll": 933,
      "Ġ196": 934,
      "igh": 935,
      "áīłáīµ": 936,
      "une": 937,
      "ĠáĬĲáīłáĪŃ": 938,
      "áĭľ": 939,
      "ĠáĮ¥": 940,
      "Ġus": 941,
      "enye": 942,
      "Ã¡Ãł": 943,
      "rit": 944,
      "ff": 945,
      "int": 946,
      "oni": 947,
      "kan": 948,
      "áĪĺáĬķ": 949,
      "iss": 950,
      "ars": 951,
      "Ġaka": 952,
      "av": 953,
      "itÃ©": 954,
      "Ġ|": 955,
      "Ġkutoka": 956,
      "eng": 957,
      "áĪ»": 958,
      "oh": 959,
      "ĠFr": 960,
      "awa": 961,
      "ĠáĭĪáĭ°": 962,
      "ano": 963,
      "ĠLe": 964,
      "ĠáĪĨ": 965,
      "ĠItokasi": 966,
      "ors": 967,
      "ĠáĮĪ": 968,
      "áĪµáīµ": 969,
      "ĠáĬ¨áī°": 970,
      "ess": 971,
      "Ã¨s": 972,
      "ikuwa": 973,
      "ĠUn": 974,
      "»Į": 975,
      "áī»": 976,
      "arin": 977,
      "ĠÂ»": 978,
      "Ġbi": 979,
      "Ġ5": 980,
      "Ġi": 981,
      "Ġcomm": 982,
      "ĠáĬķ": 983,
      "Ġson": 984,
      "Ġdon": 985,
      "bu": 986,
      "Ġ'": 987,
      "áĭ©": 988,
      "Ġts": 989,
      "Ġfi": 990,
      "anar": 991,
      "amm": 992,
      "amar": 993,
      "ihar": 994,
      "ĠfÃºn": 995,
      "tÃ©": 996,
      "Ġá¹£e": 997,
      "Ãª": 998,
      "áĭĵ": 999,
      "áįĬ": 1000,
      "Ã¡n": 1001,
      "ated": 1002,
      "aire": 1003,
      "Â»": 1004,
      "áĭįáĬķ": 1005,
      "iri": 1006,
      "áī¶áī½": 1007,
      "Ġwanda": 1008,
      "ĠtÃ³": 1009,
      "ise": 1010,
      "si": 1011,
      "ĠnÃŃn": 1012,
      "ÃĢ": 1013,
      "Ã©es": 1014,
      "ast": 1015,
      "ĠáĬ¥áĪµ": 1016,
      "Le": 1017,
      "be": 1018,
      "cl": 1019,
      "ĠorÃŃ": 1020,
      "eri": 1021,
      "ath": 1022,
      "Ġcons": 1023,
      "ĠáĭįáĪµáĮ¥": 1024,
      "fin": 1025,
      "ĠáĬłáĭŃ": 1026,
      "ayin": 1027,
      "áĪŃáĮī": 1028,
      "ult": 1029,
      "Ġnot": 1030,
      "ille": 1031,
      "ayan": 1032,
      "Ĭáĭľ": 1033,
      "port": 1034,
      "che": 1035,
      "áĮłáĪ": 1036,
      "ek": 1037,
      "áĪªáĭ«": 1038,
      "áĬĶ": 1039,
      "ome": 1040,
      "áīĭ": 1041,
      "Ġko": 1042,
      "ĠáĪģ": 1043,
      "áĭ¶": 1044,
      "io": 1045,
      "ons": 1046,
      "amb": 1047,
      "az": 1048,
      "Ġpre": 1049,
      "áĪ²": 1050,
      "ait": 1051,
      "angu": 1052,
      "áĬĽáĭį": 1053,
      "200": 1054,
      "áĬłáĪ": 1055,
      "ugh": 1056,
      "ĠnÃ¡Ãł": 1057,
      "ical": 1058,
      "tions": 1059,
      "áī¦": 1060,
      "Ġ;": 1061,
      "Ġavec": 1062,
      "Ġ6": 1063,
      "áĭŃáĪĿ": 1064,
      "ko": 1065,
      "Ġsont": 1066,
      "ivers": 1067,
      "Ġmw": 1068,
      "isha": 1069,
      "Ġlá»į": 1070,
      "ide": 1071,
      "ois": 1072,
      "ect": 1073,
      "áĪŃáĪµ": 1074,
      "Ġdi": 1075,
      "aliwa": 1076,
      "annan": 1077,
      "vel": 1078,
      "áĬ¤": 1079,
      "out": 1080,
      "Ġgb": 1081,
      "áĪľ": 1082,
      "ania": 1083,
      "orm": 1084,
      "oz": 1085,
      "Ġáīłáī°": 1086,
      "isto": 1087,
      "tern": 1088,
      "Ġsun": 1089,
      "áĪĲ": 1090,
      "áĭĻ": 1091,
      "áĬ®": 1092,
      "Ġnom": 1093,
      "land": 1094,
      "ĠAs": 1095,
      "Ġmats": 1096,
      "tre": 1097,
      "oja": 1098,
      "pr": 1099,
      "ex": 1100,
      "Ġwhich": 1101,
      "áī¤": 1102,
      "yo": 1103,
      "obel": 1104,
      "Ġáīħ": 1105,
      "idi": 1106,
      "ida": 1107,
      "ĠnÃŃnÃº": 1108,
      "yar": 1109,
      "erÃ©": 1110,
      "áĪĭáĪį": 1111,
      "ash": 1112,
      "ĠáĬłáĪµ": 1113,
      "Ġzuwa": 1114,
      "ĠáĪ¥": 1115,
      "ry": 1116,
      "jÃŃ": 1117,
      "ress": 1118,
      "afa": 1119,
      "Ġpr": 1120,
      "ust": 1121,
      "Ġáī¤": 1122,
      "anin": 1123,
      "ĠáĬ«": 1124,
      "Ġ195": 1125,
      "ĠAd": 1126,
      "Ã©n": 1127,
      "ĠNobel": 1128,
      "Ġ17": 1129,
      "ĠáīµáĪŃáĮī": 1130,
      "ew": 1131,
      "Ġáĭ¨áĪĺ": 1132,
      "oun": 1133,
      "áĬ©": 1134,
      "tit": 1135,
      "Ġtare": 1136,
      "ene": 1137,
      "fic": 1138,
      "ost": 1139,
      "wá»į": 1140,
      "uh": 1141,
      "ĠáĮįáĬķ": 1142,
      "áĪªáĬŃ": 1143,
      "Ġkama": 1144,
      "usu": 1145,
      "ational": 1146,
      "Ġmak": 1147,
      "Ġá»įmá»į": 1148,
      "ĠáĬ¥áĬķáĭ²": 1149,
      "Ġmut": 1150,
      "Al": 1151,
      "fa": 1152,
      "ĠSh": 1153,
      "ru": 1154,
      "ĠáĮĭ": 1155,
      "ĠMa": 1156,
      "Ġapp": 1157,
      "du": 1158,
      "Ġáĭ¨áĬł": 1159,
      "ira": 1160,
      "ĠEn": 1161,
      "Ġá»Į": 1162,
      "áīģ": 1163,
      "enti": 1164,
      "áĮ¨": 1165,
      "ĠlÃ¡ti": 1166,
      "emb": 1167,
      "ĠAb": 1168,
      "uri": 1169,
      "abu": 1170,
      "Ġib": 1171,
      "áī¹": 1172,
      "ráº¹": 1173,
      "rÃŃÃł": 1174,
      "lá»į": 1175,
      "áīłáĪ¨": 1176,
      "ki": 1177,
      "ĠáĪ²áĪĨáĬķ": 1178,
      "lic": 1179,
      "Ġhi": 1180,
      "áį¡áį¡": 1181,
      "ĭáĪĭ": 1182,
      "ÃłÃ¬": 1183,
      "alis": 1184,
      "jÃº": 1185,
      "ĠprÃ©": 1186,
      "uni": 1187,
      "áĮĥ": 1188,
      "ose": 1189,
      "ĠlÃ³": 1190,
      "ĠMar": 1191,
      "áĬŃáĪį": 1192,
      "Ġ9": 1193,
      "ory": 1194,
      "áĪĥ": 1195,
      "»áį": 1196,
      "âĢĵ": 1197,
      "Ġsy": 1198,
      "ĠÉĹ": 1199,
      "Ã§": 1200,
      "able": 1201,
      "ound": 1202,
      "ĠáīµáĪŃáĮīáĪĻ": 1203,
      "ua": 1204,
      "Ġform": 1205,
      "Ġgba": 1206,
      "ĠáīłáĬł": 1207,
      "Ġ7": 1208,
      "ĠáĬłáĬķ": 1209,
      "Ã¬ÃŃ": 1210,
      "áĪ´": 1211,
      "ĠMat": 1212,
      "ade": 1213,
      "amp": 1214,
      "ĠAmer": 1215,
      "hem": 1216,
      "Ġnchi": 1217,
      "der": 1218,
      "Ġkuwa": 1219,
      "Ġbir": 1220,
      "ĠsÃ¬": 1221,
      "Ġmatsayin": 1222,
      "jÃŃrÃŃÃł": 1223,
      "ĠNÃłÃ¬": 1224,
      "ĠáĪ³": 1225,
      "²áį": 1226,
      "kati": 1227,
      "áī´": 1228,
      "Il": 1229,
      "ese": 1230,
      "eb": 1231,
      "ork": 1232,
      "Ġph": 1233,
      "áĮŃ": 1234,
      "ĠáĪĺáĬķáĮį": 1235,
      "ole": 1236,
      "arta": 1237,
      "Ġdis": 1238,
      "Ġwatan": 1239,
      "ĠNÃłÃ¬jÃŃrÃŃÃł": 1240,
      "ima": 1241,
      "ĠáĮĬáĭľ": 1242,
      "Ġgr": 1243,
      "Ġms": 1244,
      "inu": 1245,
      "Ġak": 1246,
      "ĠáīĢáĬķ": 1247,
      "ally": 1248,
      "pá»į": 1249,
      "ĠáĭĪáĭŃáĪĿ": 1250,
      "Ġáĭĭ": 1251,
      "Ġ8": 1252,
      "lu": 1253,
      "ÌĢ-": 1254,
      "Ġyake": 1255,
      "Ġsuka": 1256,
      "Ġá»įjá»į": 1257,
      "áī³áīµ": 1258,
      "Ġwere": 1259,
      "ote": 1260,
      "Ġagb": 1261,
      "Ġ194": 1262,
      "ther": 1263,
      "Ġcl": 1264,
      "En": 1265,
      "rika": 1266,
      "ĠmÃ©": 1267,
      "ola": 1268,
      "uis": 1269,
      "apa": 1270,
      "Ã©ri": 1271,
      "ake": 1272,
      "áĪªáĬ«": 1273,
      "oll": 1274,
      "Ġaut": 1275,
      "16": 1276,
      "ĠMare": 1277,
      "uli": 1278,
      "Ġmil": 1279,
      "Ġ15": 1280,
      "La": 1281,
      "per": 1282,
      "000": 1283,
      "Ġ16": 1284,
      "erv": 1285,
      "Ġfil": 1286,
      "ĠáĪµáĪĪ": 1287,
      "anc": 1288,
      "15": 1289,
      "sh": 1290,
      "ĠáĬĵ": 1291,
      "ĠáĬłáĪĪ": 1292,
      "aye": 1293,
      "Ġfir": 1294,
      "anu": 1295,
      "one": 1296,
      "áĪ¨áīµáĬĵ": 1297,
      "ĠáĪĬ": 1298,
      "ede": 1299,
      "ofar": 1300,
      "áĮ»": 1301,
      "oul": 1302,
      "kÃł": 1303,
      "Ġáī¢": 1304,
      "Ġhad": 1305,
      "ĠáįĪ": 1306,
      "ats": 1307,
      "aban": 1308,
      "Ġhuk": 1309,
      "ĠáĬ¥áĪµáĬ¨": 1310,
      "á¹£Ã¹": 1311,
      "Ã¨dÃ¨": 1312,
      "17": 1313,
      "áĪĪáĪĿ": 1314,
      "ozaliwa": 1315,
      "ĠáĬķáĮī": 1316,
      "kani": 1317,
      "ĠáīłáĬĭáĪĭ": 1318,
      "Ġmar": 1319,
      "ĠorÃŃláº¹": 1320,
      "ique": 1321,
      "ĠÆĻasar": 1322,
      "Ġvya": 1323,
      "po": 1324,
      "Ġawon": 1325,
      "ja": 1326,
      "til": 1327,
      "Ġent": 1328,
      "áĪ¥áīµ": 1329,
      "yi": 1330,
      "ĠTu": 1331,
      "onn": 1332,
      "áį»áį": 1333,
      "cc": 1334,
      "Ġfun": 1335,
      "ĠáĭŃáĪħ": 1336,
      "..": 1337,
      "ime": 1338,
      "hindi": 1339,
      "Ġwasan": 1340,
      "rá»į": 1341,
      "Ġparti": 1342,
      "ĠáĭĺáĪĺáĬķ": 1343,
      "ice": 1344,
      "áĪ¨áĪµ": 1345,
      "omin": 1346,
      "ind": 1347,
      "áĬķáĪĿ": 1348,
      "Ġfark": 1349,
      "Ġay": 1350,
      "á¹£Ã¨": 1351,
      "Ãĵ": 1352,
      "eria": 1353,
      "oth": 1354,
      "ande": 1355,
      "ĠIs": 1356,
      "Ba": 1357,
      "ĠKar": 1358,
      "ĠilÃ©": 1359,
      "yÃłn": 1360,
      "lÃ¡": 1361,
      "Ġkw": 1362,
      "ouv": 1363,
      "risto": 1364,
      "ĠáĬŃáįį": 1365,
      "mo": 1366,
      "pÃŃn": 1367,
      "áĪ®áī½": 1368,
      "áĭĭáĪį": 1369,
      "Ġáī°áĪ¨áīµáĬĵ": 1370,
      "tá»į": 1371,
      "áĪķ": 1372,
      "ofariki": 1373,
      "ĠNig": 1374,
      "áĮ«": 1375,
      "Ġwá»įn": 1376,
      "ld": 1377,
      "ĠáĬ¨áī°áĪĽ": 1378,
      "ogra": 1379,
      "ette": 1380,
      "Ġid": 1381,
      "ight": 1382,
      "iz": 1383,
      "anaz": 1384,
      "bÃ¡": 1385,
      "Ġsha": 1386,
      "wam": 1387,
      "Ġcomme": 1388,
      "ansa": 1389,
      "Th": 1390,
      "enn": 1391,
      "ĠTuzo": 1392,
      "Ġ10": 1393,
      "ents": 1394,
      "jÃ¬": 1395,
      "jo": 1396,
      "fer": 1397,
      "Ġup": 1398,
      "Ġhaif": 1399,
      "áĮĪáĬ": 1400,
      "ates": 1401,
      "áĭİ": 1402,
      "omm": 1403,
      "Ġme": 1404,
      "anci": 1405,
      "pos": 1406,
      "Ġalso": 1407,
      "Ġjihar": 1408,
      "ishi": 1409,
      "ĠáĭĵáĪĺ": 1410,
      "Ġres": 1411,
      "aus": 1412,
      "anazarta": 1413,
      "ĠÃ¬lÃº": 1414,
      "ants": 1415,
      "ea": 1416,
      "ugha": 1417,
      "ember": 1418,
      "orn": 1419,
      "aki": 1420,
      "duc": 1421,
      "ĠMarekani": 1422,
      "Ġloka": 1423,
      "Ġmon": 1424,
      "Ġcont": 1425,
      "ines": 1426,
      "áĪŃáĭ«": 1427,
      "10": 1428,
      "ĠAfrika": 1429,
      "ĠáĪĪáĪĺ": 1430,
      "uniya": 1431,
      "Ġtra": 1432,
      "áįĵ": 1433,
      "Ġáĭķ": 1434,
      "áĮĢáĪĺ": 1435,
      "Ġmus": 1436,
      "pt": 1437,
      "14": 1438,
      "ven": 1439,
      "Ġcent": 1440,
      "Ġhii": 1441,
      "ĠII": 1442,
      "Ġob": 1443,
      "ui": 1444,
      "jáº¹": 1445,
      "áī°áĬĽ": 1446,
      "ĠWaliozaliwa": 1447,
      "Ġkasance": 1448,
      "kin": 1449,
      "ubwa": 1450,
      "Ġkus": 1451,
      "kÃ³": 1452,
      "áĭ´": 1453,
      "ction": 1454,
      "Les": 1455,
      "ions": 1456,
      "own": 1457,
      "Ġmod": 1458,
      "ope": 1459,
      "Ġ193": 1460,
      "ron": 1461,
      "Ġsp": 1462,
      "ĠWaliofariki": 1463,
      "Ġawá»įn": 1464,
      "áĮįáĪŀ": 1465,
      "isa": 1466,
      "gun": 1467,
      "Ġpia": 1468,
      "pÃŃnláº¹": 1469,
      "dun": 1470,
      "aya": 1471,
      "nÃ¬": 1472,
      "yan": 1473,
      "sÃŃ": 1474,
      "aut": 1475,
      "ĠAg": 1476,
      "abi": 1477,
      "\".": 1478,
      "áį¦": 1479,
      "Ġip": 1480,
      "Ġfirst": 1481,
      "Ġhu": 1482,
      "Ġáĭ«áĪį": 1483,
      "Ġmk": 1484,
      "ĠMus": 1485,
      "Ġki": 1486,
      "Ġpol": 1487,
      "iko": 1488,
      "ys": 1489,
      "Ġkáº¹": 1490,
      "att": 1491,
      "Ta": 1492,
      "wÃ©": 1493,
      "Ġits": 1494,
      "anya": 1495,
      "ward": 1496,
      "áĭµáĪŃ": 1497,
      "Ã´": 1498,
      "ited": 1499,
      "ĠarÃ¡": 1500,
      "Ġlati": 1501,
      "nin": 1502,
      "ires": 1503,
      "isi": 1504,
      "uta": 1505,
      "ĠáĮĢ": 1506,
      "Ġpremi": 1507,
      "áĪ¶": 1508,
      "Ġmag": 1509,
      "man": 1510,
      "ĠáĬĲáĮĪ": 1511,
      "Ġáįį": 1512,
      "abban": 1513,
      "ule": 1514,
      "ĠáĬ¢": 1515,
      "anan": 1516,
      "áī³áĭĪ": 1517,
      "Ġdif": 1518,
      "12": 1519,
      "yÃŃ": 1520,
      "áī£áĪį": 1521,
      "Ġáīģ": 1522,
      "ase": 1523,
      "Ġfarko": 1524,
      "Ġpáº¹": 1525,
      "ĠSa": 1526,
      "áīµáĬķ": 1527,
      "ĠáĪķ": 1528,
      "Ġbut": 1529,
      "anta": 1530,
      "ĠáĮĭáĪŃ": 1531,
      "ĠáīłáĪĽ": 1532,
      "mp": 1533,
      "emba": 1534,
      "na": 1535,
      "Ġwani": 1536,
      "uv": 1537,
      "Ġ14": 1538,
      "Ġara": 1539,
      "Ġáį¡": 1540,
      "ĠNew": 1541,
      "Ġtro": 1542,
      "Ġrel": 1543,
      "áĬŃáĪįáīł": 1544,
      "Ġbiy": 1545,
      "lex": 1546,
      "Ġrec": 1547,
      "Ġaux": 1548,
      "Ġiláº¹": 1549,
      "áīĤ": 1550,
      "Ġmata": 1551,
      "form": 1552,
      "uka": 1553,
      "Ġyana": 1554,
      "ĠáĭĵáĬŃáĪįáīł": 1555,
      "ĠLa": 1556,
      "áĪİáī½": 1557,
      "Ġter": 1558,
      "áĮ¡": 1559,
      "iste": 1560,
      "áĭ°áĪ¨": 1561,
      "lo": 1562,
      "Ġ/": 1563,
      "Ġwali": 1564,
      "velop": 1565,
      "rÃ¹n": 1566,
      "ures": 1567,
      "Ġpas": 1568,
      "Ġhave": 1569,
      "Ġaf": 1570,
      "Ġsab": 1571,
      "ĠNij": 1572,
      "alement": 1573,
      "udi": 1574,
      "Ġmaj": 1575,
      "ĠáĪļ": 1576,
      "ton": 1577,
      "¦áĪŃ": 1578,
      "Ġhas": 1579,
      "els": 1580,
      "Ġáĭ°áĮįáĪŀ": 1581,
      "13": 1582,
      "ĠerÃ©": 1583,
      "Ġbayan": 1584,
      "Ġranar": 1585,
      "atu": 1586,
      "Ġká»į": 1587,
      "ĠáĬłáĬķáĭµ": 1588,
      "ĠwÃł": 1589,
      "ÃĮ": 1590,
      "Ġile": 1591,
      "cess": 1592,
      "ays": 1593,
      "Ġny": 1594,
      "áĭ°áĪŃ": 1595,
      "Ġ=": 1596,
      "Ġpos": 1597,
      "ĠManazarta": 1598,
      "Baada": 1599,
      "era": 1600,
      "Ġall": 1601,
      "ĠáĬłáĪį": 1602,
      "áī°áĪ¨": 1603,
      "gbo": 1604,
      "Ġ12": 1605,
      "Ġdan": 1606,
      "lect": 1607,
      "llon": 1608,
      "als": 1609,
      "áĪĺáĬĲ": 1610,
      "Ġexp": 1611,
      "aux": 1612,
      "anzania": 1613,
      "ĠRe": 1614,
      "yin": 1615,
      "alia": 1616,
      "gbáº¹": 1617,
      "áĮĪáĬĿ": 1618,
      "ĠGu": 1619,
      "ive": 1620,
      "bre": 1621,
      "iga": 1622,
      "Ġka": 1623,
      "áĪŃáīµ": 1624,
      "ĠOl": 1625,
      "uwar": 1626,
      "yÃ¬n": 1627,
      "ĠTh": 1628,
      "vi": 1629,
      "gbe": 1630,
      "Ġmo": 1631,
      "irin": 1632,
      "ike": 1633,
      "cho": 1634,
      "Ġmshindi": 1635,
      "cip": 1636,
      "Ġtana": 1637,
      "ĠPar": 1638,
      "áĬķáīµ": 1639,
      "uwan": 1640,
      "Ġgro": 1641,
      "ungiyar": 1642,
      "Ã©t": 1643,
      "ukio": 1644,
      "Ġáĭ¨áĬ¢áīµáĭ®áĮµáĭ«": 1645,
      "Ġann": 1646,
      "ĠáĪĺáĬķáĮįáĪ¥áīµ": 1647,
      "Ġsec": 1648,
      "Ġpo": 1649,
      "áĬķáĪµ": 1650,
      "áĪĶ": 1651,
      "Ġtun": 1652,
      "tique": 1653,
      "Ġyan": 1654,
      "ĠAfric": 1655,
      "Ġhaife": 1656,
      "oir": 1657,
      "ĠáĪĪáĪĽ": 1658,
      "Ġmb": 1659,
      "anÃ§": 1660,
      "tÃł": 1661,
      "its": 1662,
      "Ġlokacin": 1663,
      "Ġhar": 1664,
      "ature": 1665,
      "áīłáĪ©": 1666,
      "ohn": 1667,
      "wÃ²": 1668,
      "Ġmasu": 1669,
      "cri": 1670,
      "áĬķáīĭ": 1671,
      "ach": 1672,
      "Ġsup": 1673,
      "ris": 1674,
      "Ġfin": 1675,
      "ura": 1676,
      "ck": 1677,
      "áī½áĬķ": 1678,
      "ĠÃ¨dÃ¨": 1679,
      "ode": 1680,
      "áĬª": 1681,
      "Ġuk": 1682,
      "ĠIb": 1683,
      "199": 1684,
      "ative": 1685,
      "Ġbiyu": 1686,
      "yáº¹": 1687,
      "ĠáĪĨáĬĲ": 1688,
      "Ġáĭ¨áĬĲ": 1689,
      "rÃŃkÃł": 1690,
      "iversity": 1691,
      "Ġcan": 1692,
      "Ġyank": 1693,
      "áĬĵáīµ": 1694,
      "ĠpÃ©": 1695,
      "Ġbec": 1696,
      "Ġtak": 1697,
      "Ġlo": 1698,
      "ĠkÃŃ": 1699,
      "ert": 1700,
      "enne": 1701,
      "ĠáĪįáĮħ": 1702,
      "Ġkasar": 1703,
      "ĠKi": 1704,
      "inist": 1705,
      "Ġtrans": 1706,
      "rÃ²": 1707,
      "Ġsuna": 1708,
      "iyo": 1709,
      "ages": 1710,
      "ude": 1711,
      "oto": 1712,
      "ĠbÃ¡": 1713,
      "gáº¹": 1714,
      "âĢĿ": 1715,
      "ales": 1716,
      "Ġpub": 1717,
      "ute": 1718,
      "gr": 1719,
      "Ġind": 1720,
      "ĠGre": 1721,
      "Ġita": 1722,
      "Ã®": 1723,
      "tiv": 1724,
      "oko": 1725,
      "ĠáĭµáĪ¨áĪµ": 1726,
      "ĠolÃ³": 1727,
      "ĠáĭĿ": 1728,
      "Ġmá»į": 1729,
      "Ġdeux": 1730,
      "ĠTanzania": 1731,
      "ury": 1732,
      "par": 1733,
      "ĠMatukio": 1734,
      "Ġlangu": 1735,
      "Ġcour": 1736,
      "Ġzama": 1737,
      "áĭļáĭ«": 1738,
      "umb": 1739,
      "áįī": 1740,
      "ze": 1741,
      "led": 1742,
      "Ġtheir": 1743,
      "ĠÃ©t": 1744,
      "ĠPapa": 1745,
      "NÃŃ": 1746,
      "itt": 1747,
      "Ġrep": 1748,
      "It": 1749,
      "uru": 1750,
      "mes": 1751,
      "Ġ192": 1752,
      "Ġes": 1753,
      "orld": 1754,
      "ustr": 1755,
      "Ġgud": 1756,
      "ĠdÃ©p": 1757,
      "Ġáĭ«áĪįáī°": 1758,
      "Ġmais": 1759,
      "ashin": 1760,
      "ĠmÃ¡": 1761,
      "Ġwak": 1762,
      "Ġwon": 1763,
      "ĠPro": 1764,
      "ula": 1765,
      "Ġ13": 1766,
      "He": 1767,
      "Ġwal": 1768,
      "Ġalikuwa": 1769,
      "Ġbirnin": 1770,
      "su": 1771,
      "alin": 1772,
      "yp": 1773,
      "iku": 1774,
      "Ġthis": 1775,
      "áĭ°áī¥": 1776,
      "ĠAmeric": 1777,
      "áī°áĪ¨áĮİ": 1778,
      "Mak": 1779,
      "imb": 1780,
      "Ġfara": 1781,
      "ÃĢwá»įn": 1782,
      "Ġfa": 1783,
      "Ġoá¹£Ã¹": 1784,
      "Ġye": 1785,
      "ĠyÃ¬ÃŃ": 1786,
      "ĠáĪħ": 1787,
      "ĠÃĴ": 1788,
      "ett": 1789,
      "áĮĬ": 1790,
      "ĠkÃ³": 1791,
      "ĠáĬ¤": 1792,
      "Ã¢": 1793,
      "ito": 1794,
      "tÃ¬": 1795,
      "Ġáĭ¨áĬ¥": 1796,
      "Ġáīĭ": 1797,
      "ĠáĪµáĪĿ": 1798,
      "eth": 1799,
      "ĠáĪĮ": 1800,
      "ingi": 1801,
      "ran": 1802,
      "áĪ£": 1803,
      "Ġmul": 1804,
      "old": 1805,
      "ĠJam": 1806,
      "áĪĨáĬĳ": 1807,
      "utar": 1808,
      "ussi": 1809,
      "áĪ¸": 1810,
      "oria": 1811,
      "ĠáĪĢ": 1812,
      "ĠáĬłáĮĪ": 1813,
      "áī³áĪį": 1814,
      "ĠáīłáĬ¥": 1815,
      "Ġses": 1816,
      "ĠâĢľ": 1817,
      "itu": 1818,
      "gan": 1819,
      "nÃ¬yÃłn": 1820,
      "tt": 1821,
      "²áį±": 1822,
      "ereza": 1823,
      "ugaban": 1824,
      "áĬķáĭ«": 1825,
      "irka": 1826,
      "Ġhadi": 1827,
      "ĠáĪĽáĪĪáīµ": 1828,
      "ular": 1829,
      "ould": 1830,
      "Ġentre": 1831,
      "ingereza": 1832,
      "Ġinter": 1833,
      "Ġyawan": 1834,
      "áĬĵáĪį": 1835,
      "imu": 1836,
      "ten": 1837,
      "Ġmji": 1838,
      "ogo": 1839,
      "áĪĬáĭĿ": 1840,
      "eo": 1841,
      "com": 1842,
      "Ġbáº¹": 1843,
      "ĠWa": 1844,
      "º¸": 1845,
      "ĠBr": 1846,
      "ĠUniversity": 1847,
      "áĪłáĪ": 1848,
      "ĠáĪĥ": 1849,
      "udu": 1850,
      "gl": 1851,
      "áī¸áĭįáĬķ": 1852,
      "ĠOk": 1853,
      "Ġincl": 1854,
      "ĠQ": 1855,
      "ian": 1856,
      "Ġkwenye": 1857,
      "ĠÆĻwa": 1858,
      "ĠáĬķáĮīáĪ¥": 1859,
      "ĠtÃºn": 1860,
      "oph": 1861,
      "Ġother": 1862,
      "áĬ¨áī°": 1863,
      "Ġone": 1864,
      "áī±áĬķ": 1865,
      "Ġmu": 1866,
      "ech": 1867,
      "áĪµáī°": 1868,
      "Ġcar": 1869,
      "áĭįáĭ«áĬķ": 1870,
      "ĠÃ¨nÃ¬yÃłn": 1871,
      "Ġninu": 1872,
      "áįķ": 1873,
      "Ġorile": 1874,
      "ĠCol": 1875,
      "Ġiá¹£áº¹": 1876,
      "ution": 1877,
      "áī°áĪ¨áĮİáĪĺ": 1878,
      "atar": 1879,
      "Ġáĭ¨áĪļáĭ«": 1880,
      "ĠNijeriya": 1881,
      "Ġfam": 1882,
      "áĪĢ": 1883,
      "Ġbas": 1884,
      "tain": 1885,
      "orth": 1886,
      "\",": 1887,
      "áī£áī¢": 1888,
      "hun": 1889,
      "ĠáĬłáĪĺ": 1890,
      "emi": 1891,
      "iji": 1892,
      "Ġáī³áĪªáĬŃ": 1893,
      "Ġlugha": 1894,
      "lem": 1895,
      "Ã©g": 1896,
      "Ġinah": 1897,
      "insi": 1898,
      "áĬķáĮ": 1899,
      "Ġdo": 1900,
      "ĠáīłáĬłáĪ": 1901,
      "Ġáĭ«áĪįáī°áī°áĪ¨áĮİáĪĺ": 1902,
      "ĠAp": 1903,
      "²áį±áį»áį": 1904,
      "ain": 1905,
      "ĠKristo": 1906,
      "ences": 1907,
      "Ġop": 1908,
      "Ġamb": 1909,
      "áĪĦ": 1910,
      "gbá»į": 1911,
      "ater": 1912,
      "antar": 1913,
      "ume": 1914,
      "gin": 1915,
      "ĠáĮī": 1916,
      "ĠáĪ°áĭį": 1917,
      "mar": 1918,
      "Ġsub": 1919,
      "sÃ¬": 1920,
      "Ġci": 1921,
      "ayo": 1922,
      "dÃŃ": 1923,
      "Ġco": 1924,
      "ĠWar": 1925,
      "áĭĽáīµ": 1926,
      "ĠáīĭáĬķáīĭ": 1927,
      "yn": 1928,
      "ĠkÃ²": 1929,
      "hari": 1930,
      "Makala": 1931,
      "Ġaiki": 1932,
      "ree": 1933,
      "wamn": 1934,
      "Ġinahusu": 1935,
      "amba": 1936,
      "áĪŀáī½": 1937,
      "gbÃ©": 1938,
      "Ġgáº¹": 1939,
      "cent": 1940,
      "áĮ¥áĪŃ": 1941,
      "ĠrÃ©g": 1942,
      "akar": 1943,
      "Ġbeen": 1944,
      "Ġcol": 1945,
      "fÃ©r": 1946,
      "áĪ«áīµ": 1947,
      "Ġwho": 1948,
      "Ãªme": 1949,
      "ĠDe": 1950,
      "Ġiya": 1951,
      "fe": 1952,
      "Ġáĭ³": 1953,
      "kÃ²": 1954,
      "str": 1955,
      "red": 1956,
      "Ġáį£": 1957,
      "áī£áīµ": 1958,
      "aransa": 1959,
      "kazi": 1960,
      "áī¥áĪŃ": 1961,
      "áĪł": 1962,
      "ĠáĬłáĬ«": 1963,
      "ĠJohn": 1964,
      "ĠNigeria": 1965,
      "Ġpop": 1966,
      "Ġsyst": 1967,
      "áĪįáĬŃ": 1968,
      "ĠOr": 1969,
      "anÃ§ais": 1970,
      "uring": 1971,
      "ĠMas": 1972,
      "Un": 1973,
      "ves": 1974,
      "Ġáĭ¨áĪĽ": 1975,
      "yÃ¨": 1976,
      "Ġáī¥áĭĻ": 1977,
      "ĠáĬĵáī¸áĭį": 1978,
      "báº¹": 1979,
      "Ã¨me": 1980,
      "erre": 1981,
      "wÃ¡": 1982,
      "hemu": 1983,
      "ely": 1984,
      "atin": 1985,
      "ople": 1986,
      "Ġprin": 1987,
      "ĠÃ¬gbÃł": 1988,
      "oro": 1989,
      "hed": 1990,
      "áĪĭáīµ": 1991,
      "áĬ¨áĪį": 1992,
      "jÃ¡": 1993,
      "Ġinda": 1994,
      "ĠáĭŃáĮĪ": 1995,
      "ife": 1996,
      "Ġkasa": 1997,
      "ĠAfirka": 1998,
      "Ġpers": 1999,
      "áĪĿáĪ®": 2000,
      "Ġreg": 2001,
      "Ġhist": 2002,
      "ĠÃ¡": 2003,
      "usi": 2004,
      "Ġhal": 2005,
      "ident": 2006,
      "vol": 2007,
      "Ġused": 2008,
      "Ġmany": 2009,
      "ĠáĪŀ": 2010,
      "11": 2011,
      "Ã©d": 2012,
      "Ġtáº¹": 2013,
      "ĠáĮł": 2014,
      "áĪ³áĭŃ": 2015,
      "tÃ²": 2016,
      "oman": 2017,
      "ÌĢ.": 2018,
      "ante": 2019,
      "ongo": 2020,
      "Ġsam": 2021,
      "phi": 2022,
      "dÃ¡": 2023,
      "tis": 2024,
      "ĠáĪĻ": 2025,
      "Ġmáº¹": 2026,
      "198": 2027,
      "ĠÃ²á¹£Ã¨": 2028,
      "Ġ190": 2029,
      "Ġper": 2030,
      "ĠdÃ¡": 2031,
      "kas": 2032,
      "ĠJap": 2033,
      "Ġag": 2034,
      "atic": 2035,
      "áī³áĭĬ": 2036,
      "hen": 2037,
      "áĪĿáĪħ": 2038,
      "Ã³n": 2039,
      "Ġcewa": 2040,
      "Ã©c": 2041,
      "Ġgbo": 2042,
      "Ġkam": 2043,
      "ĠáĬłáĪµáī°": 2044,
      "Ġzam": 2045,
      "Ġwata": 2046,
      "Ar": 2047,
      "pend": 2048,
      "áĮĤ": 2049,
      "ĠáĮ½": 2050,
      "ept": 2051,
      "ĠprÃ©s": 2052,
      "tÃŃ": 2053,
      "umani": 2054,
      "son": 2055,
      "Ġlar": 2056,
      "ici": 2057,
      "ĠÆĻwallon": 2058,
      "ĠáĮİ": 2059,
      "ony": 2060,
      "elles": 2061,
      "dÃ¬": 2062,
      "Ġkwan": 2063,
      "ĠÃī": 2064,
      "tilis": 2065,
      "ener": 2066,
      "Am": 2067,
      "ough": 2068,
      "ľáĪªáĬ«": 2069,
      "Ġkafa": 2070,
      "áĪĺáĪŃ": 2071,
      "ĠfranÃ§ais": 2072,
      "Ġsome": 2073,
      "Ġwana": 2074,
      "ĠPh": 2075,
      "ĠáĪ³áĭŃ": 2076,
      "alme": 2077,
      "chool": 2078,
      "abar": 2079,
      "ĠVi": 2080,
      "enc": 2081,
      "Ġjama": 2082,
      "ĠáĬ¥áĬķáĭ³": 2083,
      "iye": 2084,
      "Ġaussi": 2085,
      "áĬķáĭ³": 2086,
      "aga": 2087,
      "ĠáĭĭáĬĵ": 2088,
      "ition": 2089,
      "pin": 2090,
      "ĠáĬ®": 2091,
      "uke": 2092,
      "alla": 2093,
      "áĮĨ": 2094,
      "ĠáīłáĪļ": 2095,
      "áĭ²áĪµ": 2096,
      "Ġpla": 2097,
      "anga": 2098,
      "ĠInd": 2099,
      "ĠGe": 2100,
      "à¤": 2101,
      "Ġmwan": 2102,
      "lement": 2103,
      "Ġkim": 2104,
      "ĠAk": 2105,
      "erumani": 2106,
      "amoja": 2107,
      "wai": 2108,
      "Ġcap": 2109,
      "ĠáĪĺáĬķ": 2110,
      "ĠÃ©c": 2111,
      "outh": 2112,
      "áĮįáĪŃ": 2113,
      "Ġduniya": 2114,
      "ĠáĪĺáĪµ": 2115,
      "co": 2116,
      "wn": 2117,
      "Ġcal": 2118,
      "Ġfait": 2119,
      "isiwa": 2120,
      "urn": 2121,
      "Ġdist": 2122,
      "Ġwad": 2123,
      "áī·": 2124,
      "ayar": 2125,
      "Ġdake": 2126,
      "rop": 2127,
      "Ġsign": 2128,
      "katifu": 2129,
      "ĠÃĮpÃŃnláº¹": 2130,
      "áĮłáĪŃ": 2131,
      "Ãī": 2132,
      "lÃ¨": 2133,
      "Ġkn": 2134,
      "Ġweng": 2135,
      "Ġáī¤áī°": 2136,
      "Ġmah": 2137,
      "Ġáį¢": 2138,
      "Ġsoci": 2139,
      "tive": 2140,
      "áĭĿáī¥": 2141,
      "Ġsous": 2142,
      "ĠAt": 2143,
      "Ġkil": 2144,
      "ena": 2145,
      "jÃł": 2146,
      "Éĵ": 2147,
      "áĪĭáĭŃ": 2148,
      "áĮĪáĬĺ": 2149,
      "ĠÆ": 2150,
      "ism": 2151,
      "Ġpart": 2152,
      "arch": 2153,
      "As": 2154,
      "Ġdaya": 2155,
      "ered": 2156,
      "umi": 2157,
      "Ġgroup": 2158,
      "ĠJihar": 2159,
      "ĠKing": 2160,
      "ision": 2161,
      "ĠFrance": 2162,
      "Ġana": 2163,
      "anen": 2164,
      "áįĸ": 2165,
      "rÃ©s": 2166,
      "Ġig": 2167,
      "ros": 2168,
      "ĠGr": 2169,
      "já»įba": 2170,
      "á¹£e": 2171,
      "ĠÃ©tÃ©": 2172,
      "org": 2173,
      "ily": 2174,
      "Ġacc": 2175,
      "Ã¨res": 2176,
      "Ġyar": 2177,
      "aij": 2178,
      "ĠáĪģáĪī": 2179,
      "ild": 2180,
      "ĠIng": 2181,
      "--": 2182,
      "Ġtele": 2183,
      "Ġbabban": 2184,
      "ĠBK": 2185,
      "Ġnombre": 2186,
      "Ġwake": 2187,
      "Ġwannan": 2188,
      "owe": 2189,
      "Ġake": 2190,
      "Ġáĭ¨áĪĨ": 2191,
      "Ġnd": 2192,
      "ĠÃ©g": 2193,
      "áĭī": 2194,
      "ĠdÃ©c": 2195,
      "iaka": 2196,
      "Ġinto": 2197,
      "Ġsin": 2198,
      "Ġvers": 2199,
      "Ġwatu": 2200,
      "yÃ©": 2201,
      "atun": 2202,
      "ayi": 2203,
      "ternational": 2204,
      "50": 2205,
      "Ġlak": 2206,
      "ĠáįĬ": 2207,
      "ology": 2208,
      "ack": 2209,
      "ĠAng": 2210,
      "áĬŀ": 2211,
      "Ġcin": 2212,
      "Ġtwo": 2213,
      "Ġvari": 2214,
      "Ġmf": 2215,
      "jen": 2216,
      "ood": 2217,
      "iyan": 2218,
      "Ġcer": 2219,
      "aul": 2220,
      "Ġwork": 2221,
      "21": 2222,
      "Ġut": 2223,
      "ĠÃĪ": 2224,
      "imi": 2225,
      "Â«": 2226,
      "ĠtÃł": 2227,
      "adu": 2228,
      "ĠKarne": 2229,
      "onom": 2230,
      "ĠáĬłáĪĿ": 2231,
      "arr": 2232,
      "áĮĢáĪĺáĪªáĭ«": 2233,
      "Ġcor": 2234,
      "Ġáĭ¨áĪĿ": 2235,
      "Ġhukum": 2236,
      "ĠJul": 2237,
      "Ġser": 2238,
      "áĪŃáĪµáī²": 2239,
      "ĠMe": 2240,
      "uba": 2241,
      "ĠgÃ©n": 2242,
      "Ġtemp": 2243,
      "Ġact": 2244,
      "áĪĨáĬĲ": 2245,
      "ĠAmáº¹": 2246,
      "ps": 2247,
      "Ġcette": 2248,
      "urope": 2249,
      "yÃł": 2250,
      "ĠJanu": 2251,
      "ziki": 2252,
      "Ġyankin": 2253,
      "Ġsehemu": 2254,
      "ĠáĪĺáĭ°áī¥": 2255,
      "Ġafter": 2256,
      "ings": 2257,
      "ĠAustr": 2258,
      "Ġkab": 2259,
      "Ġik": 2260,
      "ĠBen": 2261,
      "ĠCon": 2262,
      "áĪ«áĭĬ": 2263,
      "rÃłn": 2264,
      "afin": 2265,
      "ĠáĪ°áĭİáī½": 2266,
      "Ġmost": 2267,
      "ĠwÃ¡": 2268,
      "kasÃŃ": 2269,
      "lÃ³": 2270,
      "Ġra": 2271,
      "Ġkul": 2272,
      "ĠlÃ³rÃŃ": 2273,
      "ĠMay": 2274,
      "Ġsuch": 2275,
      "ungu": 2276,
      "Ġhim": 2277,
      "Ġno": 2278,
      "ĠØ": 2279,
      "Ġmkuu": 2280,
      "Ġsc": 2281,
      "ount": 2282,
      "Ġpays": 2283,
      "ĠX": 2284,
      "oyin": 2285,
      "lan": 2286,
      "ora": 2287,
      "Ġibi": 2288,
      "Ġ2015": 2289,
      "ĠCom": 2290,
      "ĠAmerican": 2291,
      "Ġlong": 2292,
      "Ġáīłáĭĺ": 2293,
      "Ġgu": 2294,
      "ĠGh": 2295,
      "ĠNov": 2296,
      "Ġlakini": 2297,
      "ock": 2298,
      "erg": 2299,
      "Ġáī¦": 2300,
      "Ġpamoja": 2301,
      "ĠSept": 2302,
      "elu": 2303,
      "ĠáĬĲáĮĪáĪŃ": 2304,
      "áįİ": 2305,
      "ĠÆĻafa": 2306,
      "ĠUnited": 2307,
      "Ġro": 2308,
      "gbÃ¨": 2309,
      "áĪ«áĪį": 2310,
      "Ġher": 2311,
      "aient": 2312,
      "arly": 2313,
      "Ġsá»į": 2314,
      "annin": 2315,
      "ĠSe": 2316,
      "Ġkamar": 2317,
      "Ġbet": 2318,
      "uga": 2319,
      "Ġont": 2320,
      "ĠYor": 2321,
      "Ġmiaka": 2322,
      "ologie": 2323,
      "act": 2324,
      "ery": 2325,
      "Ġgab": 2326,
      "áĬķáĮįáĪĬáĭĿ": 2327,
      "ulture": 2328,
      "áĪĪáī½": 2329,
      "Ġsamu": 2330,
      "ĠáĭĵáĪĿ": 2331,
      "áī°áĭį": 2332,
      "Ġáī°áĪĺ": 2333,
      "áī¦áī½": 2334,
      "aka": 2335,
      "din": 2336,
      "Ġ2011": 2337,
      "dÃ©": 2338,
      "Ġlang": 2339,
      "Ġthey": 2340,
      "áĮ¸": 2341,
      "Ġdont": 2342,
      "Ġnje": 2343,
      "iter": 2344,
      "vers": 2345,
      "Ġmutane": 2346,
      "fun": 2347,
      "oire": 2348,
      "ikia": 2349,
      "ulation": 2350,
      "196": 2351,
      "peci": 2352,
      "ĠTur": 2353,
      "Ġfilm": 2354,
      "Ġpres": 2355,
      "197": 2356,
      "Ġ11": 2357,
      "ĠáĭĵáĪĺáīµ": 2358,
      "Ġtsak": 2359,
      "wÃ³": 2360,
      "áį¥": 2361,
      "Ġ2014": 2362,
      "fáº¹": 2363,
      "Ya": 2364,
      "Ġmore": 2365,
      "áĮłáīĢ": 2366,
      "Ġcommun": 2367,
      "do": 2368,
      "Ġul": 2369,
      "vent": 2370,
      "Ġkup": 2371,
      "áĪĽáĪª": 2372,
      "Ġwasu": 2373,
      "ĠáīĨ": 2374,
      "ĠAnd": 2375,
      "iá¹£áº¹": 2376,
      "Ġduk": 2377,
      "ĠÃ²á¹£Ã¨rÃ©": 2378,
      "Ġáĭ¨áĪļáĮĪáĬĿ": 2379,
      "ley": 2380,
      "ĠJami": 2381,
      "Ġ)": 2382,
      "Ġins": 2383,
      "Ġamba": 2384,
      "ĠmÃ¡a": 2385,
      "gÃºn": 2386,
      "Ġir": 2387,
      "ĠOn": 2388,
      "ĠIngila": 2389,
      "Ġbo": 2390,
      "go": 2391,
      "Ġperm": 2392,
      "kÃ¬": 2393,
      "ÌĢ,": 2394,
      "Ġgir": 2395,
      "áīħáĪĿ": 2396,
      "ĠWil": 2397,
      "ham": 2398,
      "Ġinf": 2399,
      "Ġsai": 2400,
      "áĪ¨áĭį": 2401,
      "ĠJe": 2402,
      "ju": 2403,
      "Ġina": 2404,
      "va": 2405,
      "ĠdÃ©part": 2406,
      "Ġsim": 2407,
      "Ġeff": 2408,
      "Ġconsid": 2409,
      "bÃł": 2410,
      "Ġabo": 2411,
      "ĠyÃŃ": 2412,
      "ĠtÃłbÃŃ": 2413,
      "fani": 2414,
      "ĠkÃ©": 2415,
      "Ġpa": 2416,
      "áĮĵ": 2417,
      "Ġbin": 2418,
      "uth": 2419,
      "ĠalÃ¡": 2420,
      "ĠRoma": 2421,
      "30": 2422,
      "Ġocc": 2423,
      "áĭŀ": 2424,
      "Ġder": 2425,
      "ĠáĬª": 2426,
      "ible": 2427,
      "Ġ2016": 2428,
      "ela": 2429,
      "jin": 2430,
      "áįĬáīµ": 2431,
      "fici": 2432,
      "áĮįáī¥": 2433,
      "liam": 2434,
      "ĠÃ¨yÃŃ": 2435,
      "Ġyin": 2436,
      "Ġkwanza": 2437,
      "abb": 2438,
      "ĠáĪĿáĬŃ": 2439,
      "áĬ¢": 2440,
      "Ġover": 2441,
      "Ġint": 2442,
      "áĭ±áĪµ": 2443,
      "áĪģáĪĿ": 2444,
      "ĠáĬ¥áĭ¨": 2445,
      "ements": 2446,
      "ies": 2447,
      "ebru": 2448,
      "pÃ©": 2449,
      "Ġnum": 2450,
      "áĬĸáī½": 2451,
      "the": 2452,
      "Ġdire": 2453,
      "áĪĭáĬķáĭµ": 2454,
      "áĭ³áĬķ": 2455,
      "ĠAmerika": 2456,
      "yl": 2457,
      "unan": 2458,
      "ishwa": 2459,
      "urg": 2460,
      "Ġ189": 2461,
      "Ġláº¹": 2462,
      "ĠBar": 2463,
      "áįĴ": 2464,
      "ĠÃłká»į": 2465,
      "Ġáº¹gbáº¹": 2466,
      "uss": 2467,
      "ander": 2468,
      "ween": 2469,
      "ĠComm": 2470,
      "gbÃ¡": 2471,
      "zini": 2472,
      "eni": 2473,
      "ĠáĪĭ": 2474,
      "lÃł": 2475,
      "ÙĦ": 2476,
      "Ġsiku": 2477,
      "andishi": 2478,
      "Ġáī¤áīµ": 2479,
      "áĮĮ": 2480,
      "ĠonÃŃ": 2481,
      "ĠHe": 2482,
      "ivyo": 2483,
      "áĬ¥áĬķ": 2484,
      "II": 2485,
      "Ġtime": 2486,
      "Ġ2019": 2487,
      "áĮ¨áĪ¨": 2488,
      "ĠHar": 2489,
      "Ġáīĥ": 2490,
      "Ġ[": 2491,
      "Ġdin": 2492,
      "Ġterm": 2493,
      "Ġohun": 2494,
      "áī³áī¸áĭį": 2495,
      "Ġass": 2496,
      "Ġel": 2497,
      "Ġpeut": 2498,
      "ww": 2499,
      "Ġnon": 2500,
      "core": 2501,
      "Ġmet": 2502,
      "áĬłáī¥": 2503,
      "22": 2504,
      "Af": 2505,
      "mba": 2506,
      "Ġ2012": 2507,
      "ple": 2508,
      "eli": 2509,
      "ĠAward": 2510,
      "áĭŃáĪħ": 2511,
      "Ġgrand": 2512,
      "ft": 2513,
      "rough": 2514,
      "áĪ¨áĬķ": 2515,
      "Ġshir": 2516,
      "Ġknown": 2517,
      "ema": 2518,
      "ĠáĪĺáĬ«": 2519,
      "ubu": 2520,
      "ĠáĪĲ": 2521,
      "Ġgarin": 2522,
      "Ġeneo": 2523,
      "ange": 2524,
      "Ġaikin": 2525,
      "ĠmÃªme": 2526,
      "Ġbar": 2527,
      "Ġshugaban": 2528,
      "áĮ¦": 2529,
      "ĠApr": 2530,
      "iria": 2531,
      "áĪ¨áĮĥ": 2532,
      "imo": 2533,
      "eno": 2534,
      "chini": 2535,
      "Ġkai": 2536,
      "Ġloc": 2537,
      "ente": 2538,
      "Ġleur": 2539,
      "ĠAfrica": 2540,
      "ĠáĬłáī¥": 2541,
      "soci": 2542,
      "Ġmakar": 2543,
      "ĠolÃ¹": 2544,
      "ĠBe": 2545,
      "ungo": 2546,
      "Ġinclud": 2547,
      "Ġhasa": 2548,
      "Ġhany": 2549,
      "Ġmi": 2550,
      "ĠáĬ¨áĬł": 2551,
      "áĪĪáĭ«": 2552,
      "inst": 2553,
      "áī°áĪŃ": 2554,
      "Ġáī°áīĢ": 2555,
      "ĠÉĹan": 2556,
      "On": 2557,
      "ets": 2558,
      "ographi": 2559,
      "ĠáĬĲáīłáĪ¨": 2560,
      "uhamm": 2561,
      "Ġprov": 2562,
      "Ġserv": 2563,
      "kazini": 2564,
      "gba": 2565,
      "Ġutilis": 2566,
      "áĮĪáĭµ": 2567,
      "áīĨáĮ£": 2568,
      "Ġwakazi": 2569,
      "Ġpartic": 2570,
      "ict": 2571,
      "Ġgwamn": 2572,
      "ĠáĪĨáĬĸ": 2573,
      "ĠChar": 2574,
      "ĠCar": 2575,
      "ours": 2576,
      "ibi": 2577,
      "áĪ°áĭį": 2578,
      "Ġ2010": 2579,
      "overn": 2580,
      "ĠlÃ¨": 2581,
      "ĠjÃ¹": 2582,
      "ĠáĬłáĮĪáĪŃ": 2583,
      "ĠáīłáĪµ": 2584,
      "Ġ2018": 2585,
      "ugu": 2586,
      "Ġgbogbo": 2587,
      "Ġorig": 2588,
      "Ġposs": 2589,
      "Ġwengi": 2590,
      "Ġáº¸": 2591,
      "Ġfl": 2592,
      "áĪ¨áĭ³": 2593,
      "áĪīáīµ": 2594,
      "hariki": 2595,
      "ĠáĬłáī£": 2596,
      "ĠáīłáĬ¢áīµáĭ®áĮµáĭ«": 2597,
      "han": 2598,
      "mÃ¹": 2599,
      "yá»į": 2600,
      "ĠIl": 2601,
      "Ġray": 2602,
      "app": 2603,
      "áĬĲáĭļáĪħ": 2604,
      "áĭµáĬķ": 2605,
      "Ġ2006": 2606,
      "ĠAlex": 2607,
      "ĠFebru": 2608,
      "Ġproduc": 2609,
      "ĠAug": 2610,
      "áĪĶáĪŃ": 2611,
      "Ġbetween": 2612,
      "Ġ2017": 2613,
      "áĪĺáĪµ": 2614,
      "áĪĽáĭĬ": 2615,
      "Ġ2007": 2616,
      "Ġkya": 2617,
      "áĪ°áī¥": 2618,
      "ho": 2619,
      "mÃŃ": 2620,
      "ĠáĪ´": 2621,
      "Ġimp": 2622,
      "ĠÃª": 2623,
      "ÃłÃ¡": 2624,
      "ĠCl": 2625,
      "Ġáįķ": 2626,
      "Ġatt": 2627,
      "rÃ¨s": 2628,
      "áīª": 2629,
      "Ġainsi": 2630,
      "Ġche": 2631,
      "ashe": 2632,
      "ĠMal": 2633,
      "ĠáĭĺáĬķáĭµ": 2634,
      "ouver": 2635,
      "Ġsana": 2636,
      "Ġsci": 2637,
      "ĠcrÃ©": 2638,
      "áīµáĬĵ": 2639,
      "ĠMata": 2640,
      "Ġmay": 2641,
      "áįħ": 2642,
      "ĠáĮ¨": 2643,
      "Ġáĭ¨áĪ°": 2644,
      "áĮĪáĬĻ": 2645,
      "Ġemp": 2646,
      "ĠKan": 2647,
      "Ġgaba": 2648,
      "ics": 2649,
      "oda": 2650,
      "ashi": 2651,
      "Ġhak": 2652,
      "Ġprincip": 2653,
      "Ġman": 2654,
      "Ġgre": 2655,
      "ĠnÃŃgbÃł": 2656,
      "Ġcontr": 2657,
      "ĠáĮĢáĪĿáĪ®": 2658,
      "Ġjina": 2659,
      "áĪĭáī¸áĭį": 2660,
      "Ġzaidi": 2661,
      "ĠSchool": 2662,
      "yd": 2663,
      "akin": 2664,
      "ateur": 2665,
      "Ġfound": 2666,
      "áĭ¥": 2667,
      "eshi": 2668,
      "Ġkubwa": 2669,
      "ĠáĪ«": 2670,
      "Ġclass": 2671,
      "glish": 2672,
      "Ùİ": 2673,
      "Ġtar": 2674,
      "ica": 2675,
      "Ġinc": 2676,
      "tait": 2677,
      "Ġnew": 2678,
      "Ġ30": 2679,
      "Ġáī£áĪĪ": 2680,
      "áĮ½áĪĲ": 2681,
      "rie": 2682,
      "Ġnchini": 2683,
      "ĠAc": 2684,
      "zaji": 2685,
      "ĠgbÃ©": 2686,
      "áĪŃáĪ±": 2687,
      "This": 2688,
      "tar": 2689,
      "Ġáįĵ": 2690,
      "Ġshine": 2691,
      "Ġmal": 2692,
      "ĠPol": 2693,
      "ower": 2694,
      "lle": 2695,
      "rent": 2696,
      "Ġdiv": 2697,
      "ĠáĬ¢áīµáĭ®áĮµáĭ«": 2698,
      "Ġlui": 2699,
      "ona": 2700,
      "itÃ©s": 2701,
      "Ġomo": 2702,
      "ĠGhana": 2703,
      "Ġdep": 2704,
      "ather": 2705,
      "inal": 2706,
      "Ġret": 2707,
      "ĠgÃ©nÃ©r": 2708,
      "ick": 2709,
      "ĠáĮ¦áĪŃ": 2710,
      "23": 2711,
      "Ġsol": 2712,
      "ĠMag": 2713,
      "Ġhai": 2714,
      "but": 2715,
      "Ġimport": 2716,
      "ym": 2717,
      "á»Į": 2718,
      "enya": 2719,
      "ero": 2720,
      "ĠáĮ¸": 2721,
      "ieu": 2722,
      "Ġ2013": 2723,
      "Ġkm": 2724,
      "Ġthan": 2725,
      "áĭ¨áĪŃ": 2726,
      "Ġáĭ«áĪĪáĭį": 2727,
      "áī¡áī¥": 2728,
      "ĠÃªtre": 2729,
      "Ġout": 2730,
      "áĬ¤áĪį": 2731,
      "á¹£Ãł": 2732,
      "Ġwhen": 2733,
      "Ġáī¥áī»": 2734,
      "anzu": 2735,
      "Ã¯": 2736,
      "bin": 2737,
      "áĬķáĬķ": 2738,
      "tish": 2739,
      "Ġvi": 2740,
      "Ġprop": 2741,
      "Ġlil": 2742,
      "Ġkungiyar": 2743,
      "uran": 2744,
      "rod": 2745,
      "Ġbaya": 2746,
      "ashen": 2747,
      "Ġáī°áĭĪ": 2748,
      "áĮ£áĪį": 2749,
      "Ġname": 2750,
      "idan": 2751,
      "ĠWorld": 2752,
      "erb": 2753,
      "áĭµáĪĿ": 2754,
      "Ġpartie": 2755,
      "kÃłn": 2756,
      "pl": 2757,
      "Ġjir": 2758,
      "Ġá»įdun": 2759,
      "ĠTr": 2760,
      "owo": 2761,
      "Ġ188": 2762,
      "áĪłáĪ¨": 2763,
      "iyya": 2764,
      "Ġconn": 2765,
      "ukan": 2766,
      "lah": 2767,
      "Ġorin": 2768,
      "ĥáĭŃ": 2769,
      "ĠáĬ¨áįį": 2770,
      "tes": 2771,
      "ĠáĪĺáĪį": 2772,
      "Ġáĭ«áĪĪ": 2773,
      "ĠáĭĺáĪĺ": 2774,
      "cce": 2775,
      "Ġáĭ¨áĭĪ": 2776,
      "Ã¬bÃŃ": 2777,
      "Ġamfani": 2778,
      "ĠÃ©galement": 2779,
      "jerumani": 2780,
      "áĪĿáĬĵ": 2781,
      "tif": 2782,
      "ĠBo": 2783,
      "ĠáĬłáĭį": 2784,
      "lÃ¹": 2785,
      "áĪįáĮ£": 2786,
      "ouse": 2787,
      "ĠdÃ©partement": 2788,
      "him": 2789,
      "min": 2790,
      "Ġ&": 2791,
      "use": 2792,
      "Ġ25": 2793,
      "Ġhaka": 2794,
      "Ġju": 2795,
      "ĠDes": 2796,
      "Ã¹bÃ¡": 2797,
      "ĠParis": 2798,
      "Ġgasar": 2799,
      "ĠBir": 2800,
      "yana": 2801,
      "ĠNaij": 2802,
      "ĠáĬ¦": 2803,
      "ĠfÃŃ": 2804,
      "áĬĵáĭĬ": 2805,
      "ific": 2806,
      "Ġshiga": 2807,
      "ches": 2808,
      "Ġmafi": 2809,
      "Ġdig": 2810,
      "way": 2811,
      "Ġonly": 2812,
      "Ġprof": 2813,
      "Ġcentury": 2814,
      "ĠAre": 2815,
      "Ġfar": 2816,
      "Ġfim": 2817,
      "Ġkir": 2818,
      "Ġáī°áĬ¨": 2819,
      "ĠMuhamm": 2820,
      "Ġjus": 2821,
      "enda": 2822,
      "amo": 2823,
      "Ġpri": 2824,
      "ĠSouth": 2825,
      "ĠUr": 2826,
      "ĠAmur": 2827,
      "Ġalors": 2828,
      "agos": 2829,
      "ĠHist": 2830,
      "toba": 2831,
      "ĠYork": 2832,
      "Ã¬nrin": 2833,
      "aifa": 2834,
      "áį²áį±áį»áį": 2835,
      "ission": 2836,
      "ĠNaijiria": 2837,
      "Ġcre": 2838,
      "194": 2839,
      "ilaya": 2840,
      "alisar": 2841,
      "Mwaka": 2842,
      "dá»į": 2843,
      "Ġfe": 2844,
      "vir": 2845,
      "áĬħ": 2846,
      "hm": 2847,
      "lis": 2848,
      "Ġsiya": 2849,
      "ĠEurope": 2850,
      "Ġtu": 2851,
      "endele": 2852,
      "okana": 2853,
      "ograph": 2854,
      "Ġtit": 2855,
      "áĪļáĭ«": 2856,
      "ourn": 2857,
      "ofin": 2858,
      "Ch": 2859,
      "tÃłn": 2860,
      "ĠâĢĺ": 2861,
      "25": 2862,
      "omb": 2863,
      "Ġconf": 2864,
      "ĠáīģáĮ¥áĪŃ": 2865,
      "Ġtout": 2866,
      "ues": 2867,
      "Ġanci": 2868,
      "Ni": 2869,
      "Ãºká»į": 2870,
      "igi": 2871,
      "Ġtarehe": 2872,
      "Kati": 2873,
      "ollow": 2874,
      "//": 2875,
      "ural": 2876,
      "Ġjami": 2877,
      "Ġunder": 2878,
      "ĠáĪ¥áĪŃ": 2879,
      "Ġum": 2880,
      "ĠáĪī": 2881,
      "ĠShe": 2882,
      "ĠDa": 2883,
      "mÃ¬": 2884,
      "Ġ%": 2885,
      "ĠWest": 2886,
      "Ġanti": 2887,
      "Ġ24": 2888,
      "Ġdomin": 2889,
      "ties": 2890,
      "Ġalif": 2891,
      "kun": 2892,
      "ĠPe": 2893,
      "ĠPl": 2894,
      "Ġsannan": 2895,
      "ĠSp": 2896,
      "ĠTar": 2897,
      "Ġmot": 2898,
      "Ġáĭ¨áīĢ": 2899,
      "://": 2900,
      "ĠOktoba": 2901,
      "Ġáĭ¨áĪĨáĬĲ": 2902,
      "atol": 2903,
      "eld": 2904,
      "ĠNe": 2905,
      "ingine": 2906,
      "Ġáĭ®": 2907,
      "Ġmara": 2908,
      "ating": 2909,
      "ĠáĬłáīł": 2910,
      "Ġpoliti": 2911,
      "ones": 2912,
      "Ġwakati": 2913,
      "áĪ¥áī³áīµ": 2914,
      "tical": 2915,
      "Ġjuu": 2916,
      "Ġduring": 2917,
      "Ġtech": 2918,
      "áĪŃáĬŃ": 2919,
      "irc": 2920,
      "ĠáĭĪáĬķ": 2921,
      "kwa": 2922,
      "Ġaj": 2923,
      "ĠáĮ£": 2924,
      "ption": 2925,
      "Ġpass": 2926,
      "ĠoÃ¹": 2927,
      "ĠáīłáĪĿ": 2928,
      "áī¢áĭ«": 2929,
      "Ġbu": 2930,
      "amment": 2931,
      "Ġthere": 2932,
      "insa": 2933,
      "ĠrÃ©gion": 2934,
      "Ġwe": 2935,
      "ĠGerm": 2936,
      "oci": 2937,
      "rÃ¨": 2938,
      "amin": 2939,
      "áĬ¦": 2940,
      "ĠWak": 2941,
      "ĠRD": 2942,
      "isho": 2943,
      "ĠwÃŃ": 2944,
      "cher": 2945,
      "Ġ21": 2946,
      "onde": 2947,
      "Ġwould": 2948,
      "áĮ¨áĪ¨áĪ»": 2949,
      "ieurs": 2950,
      "Ġwhere": 2951,
      "áĮłáĪ«": 2952,
      "wani": 2953,
      "áĮ¤": 2954,
      "áīĥáĪį": 2955,
      "kÃ¹n": 2956,
      "ĠáĪľ": 2957,
      "ikali": 2958,
      "ĠáīłáĭļáĪħ": 2959,
      "ĠáĭµáĪŃ": 2960,
      "ĠnÃŃpa": 2961,
      "Ġyears": 2962,
      "áĪ³áīµ": 2963,
      "Ġamma": 2964,
      "kÃ¨": 2965,
      "itwa": 2966,
      "ilos": 2967,
      "ifi": 2968,
      "áĪľáĬķ": 2969,
      "dom": 2970,
      "ites": 2971,
      "189": 2972,
      "Ġ0": 2973,
      "Ġnan": 2974,
      "Ġmin": 2975,
      "ĠOs": 2976,
      "ĠYorÃ¹bÃ¡": 2977,
      "ĠÃłrÃ¹n": 2978,
      "Ġáĭ¨áī°áī£": 2979,
      "indi": 2980,
      "Ã©rÃ©": 2981,
      "okea": 2982,
      "Ġshekaru": 2983,
      "ĠEnglish": 2984,
      "ĠáĪĺáĬ«áĬ¨áĪį": 2985,
      "Ġed": 2986,
      "Ġáī¡": 2987,
      "Ġhiyo": 2988,
      "ukum": 2989,
      "ĠItalia": 2990,
      "ĠMut": 2991,
      "ides": 2992,
      "ĠáĬ¨áĪĺ": 2993,
      "ense": 2994,
      "ĠrÃŃ": 2995,
      "Ġ2020": 2996,
      "ĠáīłáĪĭáĭŃ": 2997,
      "Ġabin": 2998,
      "áĭİáī¹": 2999,
      "Ġsystem": 3000,
      "ĠáīłáĭĺáĪĺáĬĲ": 3001,
      "Ġmt": 3002,
      "undi": 3003,
      "oli": 3004,
      "ĠBri": 3005,
      "áĮįáĭļ": 3006,
      "ĠdÃ©velop": 3007,
      "Ġterrit": 3008,
      "Ġsecond": 3009,
      "Ġnam": 3010,
      "áĬķáĮī": 3011,
      "omi": 3012,
      "Ġ2009": 3013,
      "Ġabout": 3014,
      "Ġces": 3015,
      "ital": 3016,
      "ral": 3017,
      "áĬ³": 3018,
      "ause": 3019,
      "ĠKus": 3020,
      "haribi": 3021,
      "Ġras": 3022,
      "ĠáīłáĪ°": 3023,
      "ĠAugust": 3024,
      "ikwa": 3025,
      "Ġang": 3026,
      "hip": 3027,
      "ĠEm": 3028,
      "Ġbay": 3029,
      "ĠKenya": 3030,
      "imbo": 3031,
      "ĠjÃ¡": 3032,
      "ĠLes": 3033,
      "ĠUf": 3034,
      "áīħáĪŃ": 3035,
      "Ġkaratun": 3036,
      "ĠAmurka": 3037,
      "gi": 3038,
      "ĠUjerumani": 3039,
      "ĠArm": 3040,
      "ĠáĬŃáįįáĪĪ": 3041,
      "ĠKas": 3042,
      "áī¥áĪ¨": 3043,
      "áĪĽáĭŃ": 3044,
      "áĪħáĪį": 3045,
      "Ġcompos": 3046,
      "lin": 3047,
      "ĠCo": 3048,
      "ĠdÃ©s": 3049,
      "Ġlim": 3050,
      "Ġrest": 3051,
      "Ġmap": 3052,
      "ual": 3053,
      "ansu": 3054,
      "ments": 3055,
      "Ġodun": 3056,
      "Ġpremier": 3057,
      "ĠannÃ©es": 3058,
      "gar": 3059,
      "ĠáĬłáĪŃ": 3060,
      "Ġstr": 3061,
      "wi": 3062,
      "Ġyawa": 3063,
      "áĪĺáĪĪ": 3064,
      "Ġtake": 3065,
      "Ġ23": 3066,
      "ĠUingereza": 3067,
      "Ġ2008": 3068,
      "fore": 3069,
      "ĠBur": 3070,
      "Ġprodu": 3071,
      "áĪĿáĪħáĪŃáīµ": 3072,
      "Ġsau": 3073,
      "Ġprot": 3074,
      "Ġlater": 3075,
      "abe": 3076,
      "ĠEd": 3077,
      "ĠtrÃ¨s": 3078,
      "Ġsak": 3079,
      "cha": 3080,
      "áĭŃáĭĪ": 3081,
      "áįĥ": 3082,
      "ĠPr": 3083,
      "ĠPort": 3084,
      "Ġpeople": 3085,
      "Ġhanyar": 3086,
      "áīĦ": 3087,
      "Ġkal": 3088,
      "urin": 3089,
      "yy": 3090,
      "Ġfut": 3091,
      "ĠMaj": 3092,
      "ĠbÃŃi": 3093,
      "Ġconstit": 3094,
      "Ġpublic": 3095,
      "áĬķáĮįáĪĬáĭĿáĬĽ": 3096,
      "wu": 3097,
      "ret": 3098,
      "ĠMic": 3099,
      "Ġdevelop": 3100,
      "ĠCent": 3101,
      "Ġelect": 3102,
      "á¹£á»į": 3103,
      "Ġ2005": 3104,
      "Ġilikuwa": 3105,
      "Ã©m": 3106,
      "ved": 3107,
      "Ġelle": 3108,
      "áĬķáĬĵ": 3109,
      "iláº¹": 3110,
      "tim": 3111,
      "edia": 3112,
      "ĠáĬ¥áĬķáĭ²áĪģáĪĿ": 3113,
      "Ã©rie": 3114,
      "eta": 3115,
      "Ġupande": 3116,
      "Ġuku": 3117,
      "ĠáĪ½": 3118,
      "imin": 3119,
      "ĠBC": 3120,
      "anni": 3121,
      "ondon": 3122,
      "áīĨáĮ£áĮłáĪŃ": 3123,
      "Ġgame": 3124,
      "ĠÃ¬tá»į": 3125,
      "Ġwenye": 3126,
      "Ġáĭ¨áĮį": 3127,
      "Ġili": 3128,
      "ĠÂ»,": 3129,
      "erin": 3130,
      "ĠmÃº": 3131,
      "atique": 3132,
      "oloni": 3133,
      "nÃł": 3134,
      "ĠkÃº": 3135,
      "ĠpÃ¨": 3136,
      "ĠÃ¬já»įba": 3137,
      "ĠÃĵ": 3138,
      "ĠNational": 3139,
      "Ġáī¦áī³": 3140,
      "dÃŃn": 3141,
      "gbÃ²": 3142,
      "Ġilu": 3143,
      "Ġnyingi": 3144,
      "áĮįáĭļáĬłáī¥": 3145,
      "ĠLib": 3146,
      "ĠÃ¨tÃ²": 3147,
      "yr": 3148,
      "ĠHaus": 3149,
      "eries": 3150,
      "Ġbecame": 3151,
      "Kwa": 3152,
      "áĮģ": 3153,
      "ĠKis": 3154,
      "unci": 3155,
      "áĭ°áīµ": 3156,
      "endant": 3157,
      "gu": 3158,
      "Ġvol": 3159,
      "other": 3160,
      "risti": 3161,
      "lor": 3162,
      "Ġhada": 3163,
      "adan": 3164,
      "Ġif": 3165,
      "isme": 3166,
      "ĠEl": 3167,
      "sáº¹": 3168,
      "ench": 3169,
      "Ġbaada": 3170,
      "tics": 3171,
      "Åĵ": 3172,
      "Ġaga": 3173,
      "elf": 3174,
      "ĠKusini": 3175,
      "áĭįáĪĿ": 3176,
      "áĪµáī³": 3177,
      "ĠStates": 3178,
      "Ġpat": 3179,
      "Ġrub": 3180,
      "Ġ2000": 3181,
      "atta": 3182,
      "áĮĪáĬķ": 3183,
      "Ġend": 3184,
      "oke": 3185,
      "anti": 3186,
      "ĠáīłáīĢ": 3187,
      "Ġuse": 3188,
      "áĬŀáī½": 3189,
      "60": 3190,
      "Ġtri": 3191,
      "Ġakan": 3192,
      "ilia": 3193,
      "lege": 3194,
      "Ġkarne": 3195,
      "Ġoffici": 3196,
      "ĠáĬĲáīłáĪ©": 3197,
      "okin": 3198,
      "ced": 3199,
      "Ġarm": 3200,
      "áĭ¬": 3201,
      "unia": 3202,
      "uda": 3203,
      "ĠayÃ©": 3204,
      "áĮĨáī½": 3205,
      "24": 3206,
      "tains": 3207,
      "istoire": 3208,
      "áī¤áīµ": 3209,
      "onne": 3210,
      "wÃł": 3211,
      "ince": 3212,
      "Ġáī°áī¥": 3213,
      "bert": 3214,
      "Ġmaso": 3215,
      "Ġspeci": 3216,
      "ĠMor": 3217,
      "áĪŃáĪµáī²áĭ«áĬķ": 3218,
      "áĮ¥áĬķ": 3219,
      "Ġ1960": 3220,
      "ĠWilliam": 3221,
      "Ġwrit": 3222,
      "emia": 3223,
      "Ġsan": 3224,
      "Ġáīħáĭ±áĪµ": 3225,
      "ges": 3226,
      "Ġfollow": 3227,
      "iver": 3228,
      "Ġconc": 3229,
      "áĭķáĪ«": 3230,
      "195": 3231,
      "ĠhaÉĹ": 3232,
      "Ġ100": 3233,
      "koa": 3234,
      "Ġij": 3235,
      "omo": 3236,
      "Ġchini": 3237,
      "27": 3238,
      "ks": 3239,
      "ako": 3240,
      "fanin": 3241,
      "³áĪµ": 3242,
      "afi": 3243,
      "áĮįáĭļáĬłáī¥áĪĶáĪŃ": 3244,
      "Ġpuis": 3245,
      "ĠUs": 3246,
      "ĠáĭŃáĮĪáĬĽ": 3247,
      "uko": 3248,
      "rÃ¬": 3249,
      "Ø§": 3250,
      "Ġaká»į": 3251,
      "Ġáĭ¨áĪµ": 3252,
      "Ġáº¹láº¹": 3253,
      "Ġ1990": 3254,
      "28": 3255,
      "hu": 3256,
      "Ġ28": 3257,
      "ublic": 3258,
      "ĠMil": 3259,
      "áĪµáĬĵ": 3260,
      "ĠNa": 3261,
      "Ġ27": 3262,
      "áĬŃáīµ": 3263,
      "Ġdisc": 3264,
      "mÃ¬n": 3265,
      "Ġbuga": 3266,
      "ĠTa": 3267,
      "ĠáĪ¨": 3268,
      "ĠáĪĿáĬŃáĬķáĭ«": 3269,
      "obi": 3270,
      "áĭ¶áī½": 3271,
      "ĠTs": 3272,
      "Ġtari": 3273,
      "ĠKwa": 3274,
      "ĠLagos": 3275,
      "Ġyanzu": 3276,
      "Ġiliy": 3277,
      "Ġmad": 3278,
      "ĠAfrican": 3279,
      "Ġtsakanin": 3280,
      "áĪº": 3281,
      "Ġlors": 3282,
      "áī¥áĪ«": 3283,
      "istan": 3284,
      "ĠMan": 3285,
      "Ã³Ã²": 3286,
      "ĠÆĻar": 3287,
      "ĠArewa": 3288,
      "ĠPaul": 3289,
      "Ġprogr": 3290,
      "Ġlanguage": 3291,
      "ĠáĬłáĪī": 3292,
      "Ġchar": 3293,
      "aribu": 3294,
      "ĠáĪĿáĬķ": 3295,
      "ĠdiffÃ©r": 3296,
      "ĠkÃ©k": 3297,
      "agu": 3298,
      "soh": 3299,
      "ilip": 3300,
      "Ġthrough": 3301,
      "Ġ2003": 3302,
      "ject": 3303,
      "Ġsama": 3304,
      "let": 3305,
      "Ġvo": 3306,
      "Ġext": 3307,
      "ĠViungo": 3308,
      "cy": 3309,
      "alimb": 3310,
      "Ġ187": 3311,
      "igne": 3312,
      "ĠÃ¬pÃŃnláº¹": 3313,
      "ĠSaint": 3314,
      "ner": 3315,
      "sp": 3316,
      "ĠMad": 3317,
      "ĠSec": 3318,
      "alimbali": 3319,
      "Ġkuna": 3320,
      "Ġgar": 3321,
      "Ġuh": 3322,
      "29": 3323,
      "sÃłn": 3324,
      "ancin": 3325,
      "urch": 3326,
      "ojo": 3327,
      "Ġmbalimbali": 3328,
      "aract": 3329,
      "ĠáĭŃáī£": 3330,
      "eneo": 3331,
      "Ġcalled": 3332,
      "isp": 3333,
      "owever": 3334,
      "Ġhigh": 3335,
      "ĠKáº¹": 3336,
      "áĮĪáĬĵ": 3337,
      "ruct": 3338,
      "ĠÃ©tait": 3339,
      "lique": 3340,
      "ĠkÃ©kerÃ©": 3341,
      "aren": 3342,
      "unge": 3343,
      "uki": 3344,
      "Ġprob": 3345,
      "Ġmwandishi": 3346,
      "áĭŃáĬķ": 3347,
      "ĠInternational": 3348,
      ".,": 3349,
      "ĠNorth": 3350,
      "ocr": 3351,
      "Wa": 3352,
      "Ġmp": 3353,
      "ĠÃ¬wÃ©": 3354,
      "ifu": 3355,
      "Ġ2002": 3356,
      "Ġaff": 3357,
      "elon": 3358,
      "ĠKe": 3359,
      "ĠDuniya": 3360,
      "ĠÂ».": 3361,
      "ambar": 3362,
      "mon": 3363,
      "Ġcity": 3364,
      "ĠLondon": 3365,
      "ĠáĬŃáįįáĪį": 3366,
      "Ġáĭ¨áĬĲáīłáĪ¨": 3367,
      "áīĢáīµ": 3368,
      "Ġgener": 3369,
      "áĬĴáĭ«": 3370,
      "dÃº": 3371,
      "Ġcas": 3372,
      "áī±áĪĿ": 3373,
      "áĬĸáĪŃ": 3374,
      "orÃŃ": 3375,
      "Ġfond": 3376,
      "Ġpopulation": 3377,
      "De": 3378,
      "dition": 3379,
      "páº¹": 3380,
      "Ġmuh": 3381,
      "ambo": 3382,
      "Ġrais": 3383,
      "Ġplusieurs": 3384,
      "takatifu": 3385,
      "Ġzina": 3386,
      "Ġresp": 3387,
      "ttp": 3388,
      "Ġáĭ²": 3389,
      "Ġkif": 3390,
      "adin": 3391,
      "ĠCor": 3392,
      "ĠBritish": 3393,
      "Ġsami": 3394,
      "ĠáĪŃ": 3395,
      "ĠUm": 3396,
      "áĭ°áĪ¨áĮĪ": 3397,
      "Ġmemb": 3398,
      "ĠEx": 3399,
      "ived": 3400,
      "ĠpremiÃ¨re": 3401,
      "Ġwacce": 3402,
      "wood": 3403,
      "Ġsaboda": 3404,
      "ku": 3405,
      "umia": 3406,
      "veau": 3407,
      "At": 3408,
      "isation": 3409,
      "erian": 3410,
      "BC": 3411,
      "Ç¹": 3412,
      "Ġsud": 3413,
      "áĪĪáī°": 3414,
      "ĠPart": 3415,
      "ĠáĬłáĬ«áī£áī¢": 3416,
      "ĠKam": 3417,
      "ĠKano": 3418,
      "ĠáĬ¥áĬķáĮį": 3419,
      "áĮ½áĪĲáįį": 3420,
      "Ġali": 3421,
      "áĭ¨áīµ": 3422,
      "ety": 3423,
      "Ġvie": 3424,
      "rodha": 3425,
      "bá»į": 3426,
      "arÃŃ": 3427,
      "umu": 3428,
      "uve": 3429,
      "ĠDec": 3430,
      "Ġáįĸ": 3431,
      "Ġguda": 3432,
      "Ġmoja": 3433,
      "Ġrap": 3434,
      "Ġji": 3435,
      "Ġkwamba": 3436,
      "Sa": 3437,
      "adition": 3438,
      "ĠState": 3439,
      "Ã©tÃ©": 3440,
      "ĠáĬłáīĨáĮ£áĮłáĪŃ": 3441,
      "Ġlangue": 3442,
      "Katika": 3443,
      "Dans": 3444,
      "Or": 3445,
      "Ġnord": 3446,
      "laya": 3447,
      "ger": 3448,
      "oba": 3449,
      "ĠsÃ©": 3450,
      "Ġsamar": 3451,
      "ĠÃģ": 3452,
      "Ġfáº¹": 3453,
      "Ġge": 3454,
      "ĠOb": 3455,
      "Ġnuna": 3456,
      "osti": 3457,
      "26": 3458,
      "ix": 3459,
      "áĭ®áĬķ": 3460,
      "ĠIII": 3461,
      "uf": 3462,
      "stáº¹": 3463,
      "193": 3464,
      "ald": 3465,
      "Ġnotamment": 3466,
      "ils": 3467,
      "Ã¬dÃ¬": 3468,
      "Ġ1999": 3469,
      "nes": 3470,
      "ĠáīłáĮį": 3471,
      "áĪ¨áĮį": 3472,
      "ĠáĬłáĬķáĭ±": 3473,
      "Ġzin": 3474,
      "ĠkÃ³pa": 3475,
      "Ab": 3476,
      "Ġfon": 3477,
      "áĪįáīħ": 3478,
      "ĠTi": 3479,
      "Ġ26": 3480,
      "ennes": 3481,
      "Ġmwa": 3482,
      "áĬķáĮĭ": 3483,
      "áĪŃáĭĿ": 3484,
      "ĠáĮįáĭĽáīµ": 3485,
      "orge": 3486,
      "Ġos": 3487,
      "ĠáĬ¥áĭ«": 3488,
      "volution": 3489,
      "uo": 3490,
      "Ġsitu": 3491,
      "Ġkafin": 3492,
      "áįĪáĪŃ": 3493,
      "Ġ1980": 3494,
      "ined": 3495,
      "ison": 3496,
      "áĪĿáĬķ": 3497,
      "teur": 3498,
      "Ġkad": 3499,
      "Ġkawa": 3500,
      "Ġsababu": 3501,
      "illes": 3502,
      "áĭµáĪŀ": 3503,
      "ĠRob": 3504,
      "tÃ³": 3505,
      "ilu": 3506,
      "Ġáīłáī¥": 3507,
      "Ad": 3508,
      "Ġbro": 3509,
      "Ġáīłáĭ°": 3510,
      "áĮİáĪŃ": 3511,
      "emple": 3512,
      "ĠáĬ¨áī°áĪŀáī½": 3513,
      "40": 3514,
      "áįĢ": 3515,
      "ĠPet": 3516,
      "áĮĪáī£": 3517,
      "ĠáĬłáĪĭ": 3518,
      "ĠAnn": 3519,
      "jec": 3520,
      "Ġpad": 3521,
      "áĭŃáĬĵ": 3522,
      "áīĢáĭį": 3523,
      "ĠáĬ¥áĬķáĭ°áĪļ": 3524,
      "ographie": 3525,
      "gas": 3526,
      "Ġthree": 3527,
      "Ġ2004": 3528,
      "ctions": 3529,
      "Ġkik": 3530,
      "orin": 3531,
      "Ġhab": 3532,
      "áĮĪáĪĪ": 3533,
      "Ġatom": 3534,
      "80": 3535,
      "rÃ³": 3536,
      "ĠáĬĥáĭŃ": 3537,
      "Ġlib": 3538,
      "ĠáĪ¶": 3539,
      "ĠBah": 3540,
      "ĠÃīt": 3541,
      "kÃº": 3542,
      "ler": 3543,
      "adar": 3544,
      "ĠEb": 3545,
      "Ġsans": 3546,
      "Ġ29": 3547,
      "ĠlÃ¡ra": 3548,
      "ĠÃ¡stáº¹": 3549,
      "Ġtsa": 3550,
      "Ġmen": 3551,
      "tiques": 3552,
      "ato": 3553,
      "ĠáīłáįĬáīµ": 3554,
      "áĬĺ": 3555,
      "Ġport": 3556,
      "ĠDan": 3557,
      "antes": 3558,
      "ĠáĭŃáī½": 3559,
      "iyyar": 3560,
      "Ġsuc": 3561,
      "Ġkusini": 3562,
      "yth": 3563,
      "uliwa": 3564,
      "Ġmain": 3565,
      "ĠUlaya": 3566,
      "bÃ¹n": 3567,
      "Ġnature": 3568,
      "ĠpÃł": 3569,
      "umba": 3570,
      "agne": 3571,
      "ĠGreek": 3572,
      "ĠnÃ©": 3573,
      "áĪĽáĬĸ": 3574,
      "mpire": 3575,
      "aro": 3576,
      "áīµáĪŃ": 3577,
      "áĪĭáĪī": 3578,
      "oso": 3579,
      "Ġearly": 3580,
      "ype": 3581,
      "Ġnou": 3582,
      "Ġmade": 3583,
      "Ġbel": 3584,
      "ctob": 3585,
      "Ġmakarantar": 3586,
      "Ġcr": 3587,
      "ĠCity": 3588,
      "áīħáīµ": 3589,
      "ĠÆĻasa": 3590,
      "áĮ£áĪĿ": 3591,
      "kÃ¡": 3592,
      "Ã¡ra": 3593,
      "Ġforme": 3594,
      "ĠáĪĽáĪŃ": 3595,
      "anzia": 3596,
      "ĠáĪģáĪĪáīµ": 3597,
      "áĪĪáĭ«áĭ©": 3598,
      "overnment": 3599,
      "Ġmill": 3600,
      "Ġphilos": 3601,
      "wah": 3602,
      "Ġ22": 3603,
      "ĠáĭŃáī³": 3604,
      "ĠCollege": 3605,
      "Ġplace": 3606,
      "áĪı": 3607,
      "áĪĳ": 3608,
      "ĠRep": 3609,
      "Ġthese": 3610,
      "Ġbeing": 3611,
      "ĠaprÃ¨s": 3612,
      "Wá»į": 3613,
      "Ġtas": 3614,
      "ĠKik": 3615,
      "áī¥áĪµ": 3616,
      "ĠMusul": 3617,
      "nÃŃ": 3618,
      "ĠáĪ¸": 3619,
      "umo": 3620,
      "Ġdepuis": 3621,
      "Ùħ": 3622,
      "áĬ¬": 3623,
      "áĬŃáĪµ": 3624,
      "aniya": 3625,
      "lam": 3626,
      "Ġtsoh": 3627,
      "ier": 3628,
      "wala": 3629,
      "hel": 3630,
      "Ġ()": 3631,
      "Ġhivyo": 3632,
      "aly": 3633,
      "Ġthem": 3634,
      "ĠIpin": 3635,
      "ĠáĪĿáĬķáĮ": 3636,
      "Ġsamun": 3637,
      "lished": 3638,
      "atoliki": 3639,
      "ful": 3640,
      "áĭĸ": 3641,
      "Ġáī´": 3642,
      "áĪĪáĬķ": 3643,
      "ellement": 3644,
      "Ġfilamu": 3645,
      "Bayan": 3646,
      "anza": 3647,
      "Ġáĭ©": 3648,
      "ams": 3649,
      "Ġlead": 3650,
      "apo": 3651,
      "Ġwar": 3652,
      "ĠSal": 3653,
      "ayya": 3654,
      "ĠÃĪkÃ³": 3655,
      "ĠáĬłáīłáī£": 3656,
      "Ġdro": 3657,
      "oss": 3658,
      "AS": 3659,
      "ĠBa": 3660,
      "ĠWas": 3661,
      "ste": 3662,
      "rom": 3663,
      "ribu": 3664,
      "Ġnumber": 3665,
      "áĪĪáĭŃ": 3666,
      "ĠCan": 3667,
      "áĪ«áīħ": 3668,
      "ilo": 3669,
      "pace": 3670,
      "ĠáĪĮáĪĭ": 3671,
      "minist": 3672,
      "áī£áĭŃ": 3673,
      "ango": 3674,
      "ĠSc": 3675,
      "áĪ°áĪ«": 3676,
      "ĠChina": 3677,
      "emble": 3678,
      "zed": 3679,
      "Ġyayin": 3680,
      "ĠMk": 3681,
      "Ġwell": 3682,
      "ĠáĭĺáĪĺáĬĲ": 3683,
      "Ġ1970": 3684,
      "Ġyad": 3685,
      "hiop": 3686,
      "okuwa": 3687,
      "Ġthen": 3688,
      "Ġdang": 3689,
      "Ġlab": 3690,
      "ists": 3691,
      "ĠAbd": 3692,
      "Ġdiffer": 3693,
      "Ġmajor": 3694,
      "³áį": 3695,
      "áĪįáĮį": 3696,
      "ĠMon": 3697,
      "Ġmaka": 3698,
      "áĪ®áįĵ": 3699,
      "Ã¡náº¹": 3700,
      "ĠáĭĵáĪĺáī³áīµ": 3701,
      "Ġtabi": 3702,
      "Ġlit": 3703,
      "Ġculture": 3704,
      "ĠAbu": 3705,
      "áĪĿáĪŃ": 3706,
      "áĪĺáīµ": 3707,
      "Ġvis": 3708,
      "Ġwasa": 3709,
      "Ġdirect": 3710,
      "ĠáĮ¦áĪŃáĬĲáīµ": 3711,
      "jet": 3712,
      "val": 3713,
      "Ġlitt": 3714,
      "ĠSan": 3715,
      "Ġjam": 3716,
      "áĪĺáĪ¨": 3717,
      "ĠáĪĥáĭŃ": 3718,
      "Åį": 3719,
      "áĪŃáĪĺáĬķ": 3720,
      "uti": 3721,
      "ances": 3722,
      "ĠMac": 3723,
      "adem": 3724,
      "ĠDar": 3725,
      "ĠRo": 3726,
      "ogun": 3727,
      "ĠáĪµáĪ«": 3728,
      "oyal": 3729,
      "áĪªáĬ«áĭĬ": 3730,
      "Ġincluding": 3731,
      "Ma": 3732,
      "esi": 3733,
      "Par": 3734,
      "Äģ": 3735,
      "Ġáĭ¨áĭį": 3736,
      "Ġáĭ¨áĭĵ": 3737,
      "ĠáĬ¨áĪļ": 3738,
      "ĠáĪµáĪŃ": 3739,
      "Ġ186": 3740,
      "Ġáĭ¨áĪĺáĮĢáĪĺáĪªáĭ«": 3741,
      "Ġjusqu": 3742,
      "Ġyao": 3743,
      "ulo": 3744,
      "Ġipa": 3745,
      "ĠáĪ²áĭ«": 3746,
      "Ã©lÃ©": 3747,
      "Ġwajen": 3748,
      "ĠAsia": 3749,
      "Ġpoint": 3750,
      "ĠjÃ¹lá»į": 3751,
      "arabu": 3752,
      "ĠÃ¬dÃŃ": 3753,
      "ĠáĬłáĭŃáĬĲáīµ": 3754,
      "endelea": 3755,
      "Ġkoma": 3756,
      "ĠáĬłáĪ¨": 3757,
      "ĠgbÃł": 3758,
      "áĪĲáĬķáĪµ": 3759,
      "áī·áĪį": 3760,
      "Ġkud": 3761,
      "ĠSud": 3762,
      "ĠrÃ¨": 3763,
      "cept": 3764,
      "Ġconst": 3765,
      "ateurs": 3766,
      "ĠFrench": 3767,
      "ĠQu": 3768,
      "Ġ*": 3769,
      "Ġnational": 3770,
      "uman": 3771,
      "áĮłáīĥ": 3772,
      "áĮłáĪ¨": 3773,
      "Ġkilom": 3774,
      "Ã¼": 3775,
      "áĪįáĪĿ": 3776,
      "áĪįáĭµ": 3777,
      "lack": 3778,
      "ĠJean": 3779,
      "ĠDav": 3780,
      "Ġsay": 3781,
      "uses": 3782,
      "...": 3783,
      "Ġmulkin": 3784,
      "ĠáĭĽ": 3785,
      "áīłáī¥": 3786,
      "ĠIpinle": 3787,
      "fini": 3788,
      "áĪŃáĭµ": 3789,
      "iro": 3790,
      "ument": 3791,
      "áĪĭáĪĿ": 3792,
      "Ġmab": 3793,
      "ado": 3794,
      "ĠFil": 3795,
      "áī£áī¸áĭį": 3796,
      "ananan": 3797,
      "Ġtara": 3798,
      "Ġhars": 3799,
      "eder": 3800,
      "ĠSte": 3801,
      "áĪ¬áīµ": 3802,
      "Ġfac": 3803,
      "ĠMo": 3804,
      "ĠáĬ¨áĭļáĭ«": 3805,
      "Ġbayyana": 3806,
      "ĠUfaransa": 3807,
      "omen": 3808,
      "áĭ°áĪį": 3809,
      "áĬĲáĮĪáĪŃ": 3810,
      "áĮįáĪ«": 3811,
      "Ġáį²áį±áį»áį": 3812,
      "ĠÃ¬gbÃłjÃ¡": 3813,
      "lÃŃ": 3814,
      "ilar": 3815,
      "Ġyam": 3816,
      "ĠFor": 3817,
      "ĠÃ¬má»į": 3818,
      "ĠáĬ¨áįįáī°áĬĽ": 3819,
      "ĠParty": 3820,
      "iques": 3821,
      "Ġworld": 3822,
      "ĠPer": 3823,
      "antu": 3824,
      "áįįáĪ«": 3825,
      "ĠplÃ¡náº¹": 3826,
      "struc": 3827,
      "ĠBro": 3828,
      "ĠáĬ¥áĪŃ": 3829,
      "áī£áĪŃ": 3830,
      "berg": 3831,
      "rist": 3832,
      "ĠrÃ©s": 3833,
      "ĠáĬłáĭ²áĪµ": 3834,
      "ĠáĭĪáĪŃ": 3835,
      "acc": 3836,
      "Ġplay": 3837,
      "ords": 3838,
      "rÃ¬n": 3839,
      "ĠáĬ³áĪµ": 3840,
      "tag": 3841,
      "ansi": 3842,
      "Ġkuk": 3843,
      "Ġyenye": 3844,
      "ĠEt": 3845,
      "ashara": 3846,
      "ĠáĬĲáĮĪáĪ¥áī³áīµ": 3847,
      "Ġmanyan": 3848,
      "Ġsens": 3849,
      "ĠáĪłáĪ": 3850,
      "ĠGab": 3851,
      "Ġbien": 3852,
      "áĮĢáĪĺáĪŃáĭ«": 3853,
      "ĠáĪĮáĪİáī½": 3854,
      "iriki": 3855,
      "ĠáĬ¥áĮħ": 3856,
      "ĠJanuary": 3857,
      "áĬĲáĭį": 3858,
      "wahili": 3859,
      "kar": 3860,
      "Ġnaa": 3861,
      "Ġsym": 3862,
      "Ġmilit": 3863,
      "ĠreprÃ©s": 3864,
      "ĠJanuari": 3865,
      "cle": 3866,
      "Ġdec": 3867,
      "Ġvita": 3868,
      "ots": 3869,
      "ĠáĪĽáĪµ": 3870,
      "ĠArab": 3871,
      "Ġambayo": 3872,
      "Ġwadanda": 3873,
      "ras": 3874,
      "ĠAir": 3875,
      "ĠáĪĺáĮł": 3876,
      "Ġalip": 3877,
      "ĠRoman": 3878,
      "ÃĴ": 3879,
      "ĠáĬ©": 3880,
      "rew": 3881,
      "Ġgina": 3882,
      "ĠFar": 3883,
      "áĭİáī½áĬķ": 3884,
      "fÃł": 3885,
      "áĭĮ": 3886,
      "Ġtex": 3887,
      "Ġref": 3888,
      "Ġtradition": 3889,
      "Ġyadda": 3890,
      "isl": 3891,
      "ĠKir": 3892,
      "oyi": 3893,
      "Ġtrois": 3894,
      "stit": 3895,
      "ĠdÃŃ": 3896,
      "Ġfito": 3897,
      "ĠáĬłáįį": 3898,
      "ĠÉĹaya": 3899,
      "Ġdescri": 3900,
      "ĠUg": 3901,
      "ĠAgosti": 3902,
      "ĠáĭŃáī£áĪĭáĪį": 3903,
      "dÃł": 3904,
      "®áī½": 3905,
      "atif": 3906,
      "ually": 3907,
      "áĭ°áĭį": 3908,
      "Ġdesign": 3909,
      "ĠáĭĪáīħáīµ": 3910,
      "áĭĵáīµ": 3911,
      "attle": 3912,
      "ino": 3913,
      "ĠáĪĺáĪ°": 3914,
      "ĠáĪĿáĭµáĪŃ": 3915,
      "ĠmÃ©jÃ¬": 3916,
      "orte": 3917,
      "ombe": 3918,
      "áīłáĪĭ": 3919,
      "ĠAllah": 3920,
      "ĠáĪįáĭ©": 3921,
      "Ġserikali": 3922,
      "gÃ¹n": 3923,
      "jini": 3924,
      "ĠIS": 3925,
      "áįĪáĪ¨áĬķ": 3926,
      "Ġdonn": 3927,
      "she": 3928,
      "Ġstate": 3929,
      "ren": 3930,
      "ĠKad": 3931,
      "osa": 3932,
      "Ġarch": 3933,
      "gen": 3934,
      "ÙĬ": 3935,
      "Ġfit": 3936,
      "Ġdeath": 3937,
      "ĠBer": 3938,
      "Ġkaskazini": 3939,
      "ukar": 3940,
      "ĠpÃ©ri": 3941,
      "iment": 3942,
      "áī³áĭŃ": 3943,
      "áįįáīµ": 3944,
      "áī¶áĪµ": 3945,
      "Ġdev": 3946,
      "iction": 3947,
      "azama": 3948,
      "ĠKim": 3949,
      "ott": 3950,
      "Ġrefer": 3951,
      "áĬ¥áĪµ": 3952,
      "Ġappe": 3953,
      "zwa": 3954,
      "ĠHen": 3955,
      "áī£áĪĪ": 3956,
      "ĠáĭķáĪĪáīµ": 3957,
      "Ġsupport": 3958,
      "áº¸": 3959,
      "Ġáĭľ": 3960,
      "urop": 3961,
      "Ġval": 3962,
      "ĠorÃºká»į": 3963,
      "ĠkejÃ¬": 3964,
      "xim": 3965,
      "inc": 3966,
      "ĠáĭĻ": 3967,
      "was": 3968,
      "áĬ¨áĭļáĪħ": 3969,
      "upe": 3970,
      "áįĭáīµ": 3971,
      "áĪµáĪĪ": 3972,
      "Ìģ,": 3973,
      "Ġjag": 3974,
      "áī²áĬ«": 3975,
      "áĮ¨áĪĽáĪª": 3976,
      "Ġakwai": 3977,
      "ĠJulai": 3978,
      "rÃł": 3979,
      "Ġsouv": 3980,
      "rac": 3981,
      "Ġ1991": 3982,
      "ĠJamh": 3983,
      "Wali": 3984,
      "esh": 3985,
      "Ġsour": 3986,
      "Ġdai": 3987,
      "ĠBab": 3988,
      "agn": 3989,
      "Ġlog": 3990,
      "omme": 3991,
      "Ġany": 3992,
      "áįĪáĭį": 3993,
      "ĠÃĮtá»į": 3994,
      "awala": 3995,
      "Ġcommon": 3996,
      "áĭİáĪµ": 3997,
      "ĠSeptember": 3998,
      "Elle": 3999,
      "ky": 4000,
      "Ġmaeneo": 4001,
      "Ġ2001": 4002,
      "ĠChristi": 4003,
      "izikia": 4004,
      "Ġsuccess": 4005,
      "ĠáīłáĪŃ": 4006,
      "ĠCharles": 4007,
      "Ġdama": 4008,
      "Ġkira": 4009,
      "Ġmis": 4010,
      "orun": 4011,
      "ids": 4012,
      "áĪĭáīħ": 4013,
      "Ġmonde": 4014,
      "Ġlangues": 4015,
      "áĮ¢": 4016,
      "ĠáĬłáĭµáĪŃ": 4017,
      "Ġorgan": 4018,
      "Ġmwana": 4019,
      "ĠgbajÃº": 4020,
      "ility": 4021,
      "lection": 4022,
      "Ġlake": 4023,
      "ĠáĪĽáĭķ": 4024,
      "Ġsyn": 4025,
      "Ġgudanar": 4026,
      "70": 4027,
      "áĪ¹": 4028,
      "asu": 4029,
      "ĠSch": 4030,
      "rÃŃn": 4031,
      "Ġpersonn": 4032,
      "ĠJapan": 4033,
      "ispania": 4034,
      "Ġlin": 4035,
      "ĠlÃ©": 4036,
      "Ġkum": 4037,
      "Ġgidan": 4038,
      "idd": 4039,
      "hie": 4040,
      "áĪĽáīµ": 4041,
      "Ġáĭ«áĪµ": 4042,
      "ĠMuhammad": 4043,
      "Ġkit": 4044,
      "Ġgra": 4045,
      "ĠDis": 4046,
      "fan": 4047,
      "ĠEng": 4048,
      "ross": 4049,
      "Ġans": 4050,
      "Ġlife": 4051,
      "Sh": 4052,
      "áĬ¨áĪĪ": 4053,
      "vient": 4054,
      "ĠáīĥáĪį": 4055,
      "Ce": 4056,
      "Cette": 4057,
      "ģáĬķ": 4058,
      "Ġboth": 4059,
      "ĠMed": 4060,
      "Ġhali": 4061,
      "Ġzili": 4062,
      "ried": 4063,
      "áĭ²áĭ«": 4064,
      "fois": 4065,
      "ington": 4066,
      "áĪĭáĭĬ": 4067,
      "Ġalb": 4068,
      "Ġwhile": 4069,
      "Ġáī¥áĪİ": 4070,
      "Ġsiyasa": 4071,
      "gÃ©": 4072,
      "Ġsame": 4073,
      "Ġcaract": 4074,
      "Ġmoins": 4075,
      "ĠáĬłáĪµáī°áĭ³": 4076,
      "¹¢": 4077,
      "190": 4078,
      "áīłáĪį": 4079,
      "ĠagbÃ¨": 4080,
      "Daga": 4081,
      "ford": 4082,
      "ty": 4083,
      "áĬ¢áīµáĭ®áĮµáĭ«": 4084,
      "ices": 4085,
      "áĪĭáĬŃ": 4086,
      "ĠFizikia": 4087,
      "ĠJuni": 4088,
      "ĠnÃŃbi": 4089,
      "áĪªáĭİáī½": 4090,
      "áĪ½áĬķ": 4091,
      "ĠjÃ¡de": 4092,
      "áī«": 4093,
      "ĠOá¹£Ã¹": 4094,
      "raz": 4095,
      "odi": 4096,
      "Ġkuh": 4097,
      "Ġinflu": 4098,
      "Ġsanya": 4099,
      "Ġbr": 4100,
      "Ġfur": 4101,
      "ĠBank": 4102,
      "ago": 4103,
      "autres": 4104,
      "lÃ³gÃºn": 4105,
      "ration": 4106,
      "áī¨": 4107,
      "esa": 4108,
      "erc": 4109,
      "ĠáīµáĪĿáĪħáĪŃáīµ": 4110,
      "áĪĬáĭ«": 4111,
      "Ġmutum": 4112,
      "lá»įpá»į": 4113,
      "Ġautres": 4114,
      "ĠwÃŃpÃ©": 4115,
      "Yan": 4116,
      "alth": 4117,
      "áīłáĭļáĪħ": 4118,
      "Ġappel": 4119,
      "ĠáĬ¨áĬĲ": 4120,
      "ĠáĬłáĪ«": 4121,
      "lands": 4122,
      "uro": 4123,
      "ĠPre": 4124,
      "áĪ«áĬķ": 4125,
      "arki": 4126,
      "ojÃº": 4127,
      "káº¹": 4128,
      "áī³áĭį": 4129,
      "áīĢáĪĺ": 4130,
      "Ġáī£áĪħ": 4131,
      "AN": 4132,
      "Ġcel": 4133,
      "ands": 4134,
      "Ġville": 4135,
      "Ġáį²áį": 4136,
      "Ġáī°áĪ«": 4137,
      "Au": 4138,
      "burg": 4139,
      "gent": 4140,
      "pÃ¨": 4141,
      "ĠAare": 4142,
      "Ġáĭ¨áī³": 4143,
      "ĠMak": 4144,
      "Ġri": 4145,
      "Ġgabatar": 4146,
      "ĠTiba": 4147,
      "ctober": 4148,
      "ĠDi": 4149,
      "áĭ®áī½": 4150,
      "asihi": 4151,
      "ĠMachi": 4152,
      "ĠDecember": 4153,
      "áįĮ": 4154,
      "ĠSoci": 4155,
      "uter": 4156,
      "ague": 4157,
      "Ġbefore": 4158,
      "ofu": 4159,
      "weza": 4160,
      "Ġmfalme": 4161,
      "ĠAwards": 4162,
      "áĪ³áĪį": 4163,
      "Ġlarge": 4164,
      "ĠBel": 4165,
      "ĠáĬ¨áĭļáĪħ": 4166,
      "Ġeng": 4167,
      "áīĢáĪŃ": 4168,
      "Ġ1993": 4169,
      "ĠáĪĿáĬŃáĬķáĭ«áīµ": 4170,
      "BN": 4171,
      "for": 4172,
      "táº¹": 4173,
      "illa": 4174,
      "iru": 4175,
      "abl": 4176,
      "ĠIlÃ©": 4177,
      "áĭŃáĭĪáīµ": 4178,
      "Ã¨ne": 4179,
      "áĭŃáīµ": 4180,
      "áĭ°áĪĿ": 4181,
      "igizaji": 4182,
      "oot": 4183,
      "Ã¶": 4184,
      "ÙĨ": 4185,
      "ĠáĪĦ": 4186,
      "Ġmita": 4187,
      "Ġáĭ®áĪĲáĬķáĪµ": 4188,
      "Ġagainst": 4189,
      "ĠDem": 4190,
      "Ġstruct": 4191,
      "Ġ1998": 4192,
      "Ġayy": 4193,
      "ables": 4194,
      "imes": 4195,
      "Ġyali": 4196,
      "Ġdara": 4197,
      "Ġsm": 4198,
      "Ġkamm": 4199,
      "Ġbak": 4200,
      "Ġ(\"": 4201,
      "Ġzai": 4202,
      "ĠáĬ¨áĬłáĪ": 4203,
      "otes": 4204,
      "Ġmodern": 4205,
      "Ġtangu": 4206,
      "itz": 4207,
      "Ġmaji": 4208,
      "áīłáĪ«": 4209,
      "ĠComp": 4210,
      "ĠáĭŃáĮĪáĬĽáĪį": 4211,
      "\")": 4212,
      "90": 4213,
      "ÃĪ": 4214,
      "Ġwato": 4215,
      "ĠMtakatifu": 4216,
      "ĠáīłáĭĪ": 4217,
      "Ġderni": 4218,
      "ĠHausa": 4219,
      "ĠKaduna": 4220,
      "Ìģ.": 4221,
      "ĠáīłáĮ£áĪĿ": 4222,
      "Ġmto": 4223,
      "Ġassoci": 4224,
      "Ġáº¹ni": 4225,
      "Ġmutu": 4226,
      "áĮĬáĭľ": 4227,
      "ĠMart": 4228,
      "Ãłráº¹": 4229,
      "ĠáĭŃáī³áĭĪ": 4230,
      "ivi": 4231,
      "ĠthÃ©": 4232,
      "ws": 4233,
      "ĠAz": 4234,
      "ĠáĬłáĪĽ": 4235,
      "Ġáī¥áĪŃ": 4236,
      "ĠAlexander": 4237,
      "Ġáį¡áį¡": 4238,
      "ĠMashariki": 4239,
      "Ġmahaif": 4240,
      "Ġkammala": 4241,
      "sá»į": 4242,
      "yst": 4243,
      "zation": 4244,
      "andard": 4245,
      "Ġanim": 4246,
      "Ġkuf": 4247,
      "oseph": 4248,
      "bÃ²": 4249,
      "ĠÐ": 4250,
      "ĠAhm": 4251,
      "ĠSw": 4252,
      "ĠBal": 4253,
      "áīłáī°": 4254,
      "áĪ³áĭĬ": 4255,
      "istes": 4256,
      "Ġpeke": 4257,
      "áĪµáĬķ": 4258,
      "fuata": 4259,
      "paka": 4260,
      "amman": 4261,
      "Ġndani": 4262,
      "jia": 4263,
      "Ġmov": 4264,
      "formation": 4265,
      "uwanci": 4266,
      "ĠMei": 4267,
      "ĠDesemba": 4268,
      "78": 4269,
      "pond": 4270,
      "Ġirin": 4271,
      "Ġlori": 4272,
      "ĠEg": 4273,
      "ibiyar": 4274,
      "Ġpartir": 4275,
      "Ġsouvent": 4276,
      "gest": 4277,
      "Ġtal": 4278,
      "Ġkaribu": 4279,
      "Ġyayi": 4280,
      "eriod": 4281,
      "Ã®t": 4282,
      "Ġpermet": 4283,
      "lÃ²": 4284,
      "ted": 4285,
      "Ġli": 4286,
      "áĪ«áĪ±": 4287,
      "ĠáĬ£": 4288,
      "Ġliv": 4289,
      "ased": 4290,
      "Ġwaje": 4291,
      "ĠLo": 4292,
      "áĪ³áī¥": 4293,
      "Ġkuanzia": 4294,
      "91": 4295,
      "áĮĪáĪ©": 4296,
      "ivil": 4297,
      "Ġ1995": 4298,
      "á¹£Ã¨lÃº": 4299,
      "Ġjirgin": 4300,
      "ĠagbÃ¨gbÃ¨": 4301,
      "Ġexemple": 4302,
      "ĠáĪ¥áĪ«": 4303,
      "ĠNigerian": 4304,
      "Ġfamily": 4305,
      "wara": 4306,
      "Ġcould": 4307,
      "Ġbl": 4308,
      "ĠAth": 4309,
      "rique": 4310,
      "áĭĪáĭ°": 4311,
      "Ġ1994": 4312,
      "ĠLegas": 4313,
      "Ġbirni": 4314,
      "Ġhukumar": 4315,
      "ĠAprili": 4316,
      "pÃ¡": 4317,
      "Ġast": 4318,
      "atre": 4319,
      "Ġhann": 4320,
      "Ġtaka": 4321,
      "ĠLou": 4322,
      "ĠHa": 4323,
      "áĮĭáĪį": 4324,
      "ĠGeorge": 4325,
      "áĮĪáĬĺáĭį": 4326,
      "Ġtemps": 4327,
      "45": 4328,
      "Ġmeng": 4329,
      "ĠÃŃ": 4330,
      "anna": 4331,
      "ĠFranc": 4332,
      "ically": 4333,
      "atsina": 4334,
      "Ġgirma": 4335,
      "fiya": 4336,
      "ĠmÃŃ": 4337,
      "alitÃ©": 4338,
      "Ġdaban": 4339,
      "olly": 4340,
      "Ġjar": 4341,
      "pen": 4342,
      "Ġsake": 4343,
      "ĠáĪ±": 4344,
      "Ġcoun": 4345,
      "áī¥áīµ": 4346,
      "Ġchake": 4347,
      "ware": 4348,
      "inta": 4349,
      "ieux": 4350,
      "poque": 4351,
      "Ġmass": 4352,
      "Ġáĭ¶": 4353,
      "áĬķáī²": 4354,
      "Ġwan": 4355,
      "quent": 4356,
      "ĠáĬłáīĢ": 4357,
      "ĠáĪĺáĪłáĪ¨": 4358,
      "ĠáĪĺáĮ½áĪĲáįį": 4359,
      "áĪ«áĪī": 4360,
      "áĮ£áīµ": 4361,
      "fuat": 4362,
      "Ġhuko": 4363,
      "viron": 4364,
      "ography": 4365,
      "ĠGerman": 4366,
      "35": 4367,
      "ĠÃłmÃ¬": 4368,
      "ĠSeptemba": 4369,
      "áĭĲ": 4370,
      "ĠwaÉĹ": 4371,
      "ikana": 4372,
      "mer": 4373,
      "uch": 4374,
      "Ġsuke": 4375,
      "ĠáĬłáīµ": 4376,
      "âĢĶ": 4377,
      "ĠáĬłáĪľáĪªáĬ«": 4378,
      "ĠáĭĪáĬķáĭµ": 4379,
      "ĠáĪĪáĬł": 4380,
      "áĬĸáĪ©": 4381,
      "ĠáĮ¥áīħáĪĿ": 4382,
      "utu": 4383,
      "ows": 4384,
      "veral": 4385,
      "ression": 4386,
      "esse": 4387,
      "ĠáĪª": 4388,
      "Ġkuj": 4389,
      "áĪįáĮ£áĬķ": 4390,
      "ĠdÃ©velopp": 4391,
      "run": 4392,
      "Ġáī½": 4393,
      "Ġcro": 4394,
      "ĠAde": 4395,
      "ush": 4396,
      "ĠDel": 4397,
      "ection": 4398,
      "Ġáĭ°áĪ¨áĮĥ": 4399,
      "Ġavant": 4400,
      "nement": 4401,
      "Ġking": 4402,
      "áĪįáĪµ": 4403,
      "Ġgida": 4404,
      "Ġáĭ¨áĪħ": 4405,
      "Ġ1997": 4406,
      "ession": 4407,
      "Ġhistori": 4408,
      "dÃ³": 4409,
      "till": 4410,
      "ĠYar": 4411,
      "ĠÃģf": 4412,
      "ĠKil": 4413,
      "ĠId": 4414,
      "ĠáĬłáĭ«": 4415,
      "ension": 4416,
      "Ġ1996": 4417,
      "Ġcontinu": 4418,
      "ĠNovember": 4419,
      "rÃº": 4420,
      "âĢİ": 4421,
      "Ġcours": 4422,
      "ĠáīĭáĬķáīĭáĭİáī½": 4423,
      "score": 4424,
      "vie": 4425,
      "esha": 4426,
      "Ġng": 4427,
      "Ġled": 4428,
      "Ġkudu": 4429,
      "ĠRÃ©": 4430,
      "áĭĪáĪ°": 4431,
      "ording": 4432,
      "ities": 4433,
      "Ġmwigizaji": 4434,
      "Ġmusul": 4435,
      "Se": 4436,
      "bit": 4437,
      "sÃ¹": 4438,
      "Ġdest": 4439,
      "áįĲ": 4440,
      "Ġfour": 4441,
      "Ã¬mÃ¹": 4442,
      "ĠáĬ¥áĮįáĪŃ": 4443,
      "ĠáĪĿáĪµ": 4444,
      "Ġáĭ¨áĬ¤": 4445,
      "ĠáĪ¥áĬĲ": 4446,
      "ustri": 4447,
      "Ġyear": 4448,
      "Ġuhuru": 4449,
      "Ġuli": 4450,
      "Ġkid": 4451,
      "Ġbai": 4452,
      "Ġful": 4453,
      "áĬĵáī¸áĭį": 4454,
      "oles": 4455,
      "alif": 4456,
      "áĬ¨áīµ": 4457,
      "ĠáĪĽáĬķ": 4458,
      "áĪĬáĬŃ": 4459,
      "gn": 4460,
      "ĠCap": 4461,
      "áĪ¨áĪĿ": 4462,
      "Ã³mÃ¬n": 4463,
      "ĠOgun": 4464,
      "odes": 4465,
      "ifa": 4466,
      "áīĥáĪµ": 4467,
      "Ġ50": 4468,
      "FA": 4469,
      "ient": 4470,
      "Ġpá»į": 4471,
      "ĠGl": 4472,
      "áĪĽáĬķ": 4473,
      "Ġkutokana": 4474,
      "ories": 4475,
      "cul": 4476,
      "áĬĻ": 4477,
      "Ġfannin": 4478,
      "atis": 4479,
      "Ġinay": 4480,
      "Ġmach": 4481,
      "Ġ185": 4482,
      "Ġadd": 4483,
      "áĪŃáĪµáī¶áĪµ": 4484,
      "ĠMarch": 4485,
      "Ġgrande": 4486,
      "position": 4487,
      "ĠáĭĪáĬķáĭĿ": 4488,
      "áĪĿáĬĲáīµ": 4489,
      "Ġáīłáī³": 4490,
      "ĠÃ¬gb": 4491,
      "Ġsal": 4492,
      "áĬĸáĪµ": 4493,
      "Ġkark": 4494,
      "Ġpouv": 4495,
      "ĠAll": 4496,
      "ĠFebruari": 4497,
      "vision": 4498,
      "Ġuna": 4499,
      "ĠYun": 4500,
      "Ġdonc": 4501,
      "Ġáī°áī¥áĪİ": 4502,
      "wanda": 4503,
      "ĠRais": 4504,
      "áĭĭáīĤ": 4505,
      "Ġexamp": 4506,
      "ĠáĪįáĮĨáī½": 4507,
      "eman": 4508,
      "asara": 4509,
      "uropÃ©": 4510,
      "vo": 4511,
      "yÃ¡": 4512,
      "ĠáĭĿáĪŃáĭĿ": 4513,
      "ĠNovemba": 4514,
      "br": 4515,
      "ning": 4516,
      "ĠÎ": 4517,
      "Ġbiyar": 4518,
      "ĠPi": 4519,
      "Ã²rÃ¹n": 4520,
      "try": 4521,
      "nu": 4522,
      "Ġren": 4523,
      "ĠÃłwon": 4524,
      "áĬĵáĬķ": 4525,
      "ĠáĮŃ": 4526,
      "ĠâĢĶ": 4527,
      "hard": 4528,
      "auti": 4529,
      "Ġoper": 4530,
      "ĠBabban": 4531,
      "apon": 4532,
      "Ġorigin": 4533,
      "por": 4534,
      "tun": 4535,
      "áīŃ": 4536,
      "ĠKa": 4537,
      "ĠáĬłáįĪ": 4538,
      "Ġuntil": 4539,
      "ĠEs": 4540,
      "ĠVal": 4541,
      "Ġarea": 4542,
      "ĠÃītats": 4543,
      "Ġgen": 4544,
      "ĠIm": 4545,
      "acin": 4546,
      "ĠYa": 4547,
      "www": 4548,
      "ĠOctober": 4549,
      "ĠáĮįáī¥": 4550,
      "Ġarewa": 4551,
      "ĠFebruary": 4552,
      "Ġtyp": 4553,
      "Ġfois": 4554,
      "ĠgÃ©": 4555,
      "áĪĺáĭį": 4556,
      "áĪĭáĭį": 4557,
      "ĠDr": 4558,
      "áĭĭáĬķ": 4559,
      "roduc": 4560,
      "ĠOrodha": 4561,
      "Ġencore": 4562,
      "lymp": 4563,
      "resent": 4564,
      "ouest": 4565,
      "Ġkaramar": 4566,
      "Ġsoit": 4567,
      "ĠáĪĺáĬķáĮĪáĭµ": 4568,
      "ĠAcadem": 4569,
      "Ġmort": 4570,
      "ĠAli": 4571,
      "ĠyÃ³Ã²": 4572,
      "asiasa": 4573,
      "Ġpelu": 4574,
      "ator": 4575,
      "áĪĪáī²áĬ«": 4576,
      "Ġáĭ¨áĬ¢": 4577,
      "Ġcontre": 4578,
      "áĭĬáīµ": 4579,
      "áįĪáĪį": 4580,
      "Ġáī¥áĪĶ": 4581,
      "conom": 4582,
      "kana": 4583,
      "Ġten": 4584,
      "Ġmer": 4585,
      "Ġwilaya": 4586,
      "ĠáĮ¥áĬĵáīµ": 4587,
      "48": 4588,
      "tal": 4589,
      "omas": 4590,
      "ives": 4591,
      "áĭĪáī½": 4592,
      "Ġatta": 4593,
      "Ġ1992": 4594,
      "ĠáĮ¥áĬķ": 4595,
      "ĠJames": 4596,
      "Ġdur": 4597,
      "lev": 4598,
      "ĠKemia": 4599,
      "ĠáĪĺáĪŃ": 4600,
      "áĭĪáĪĪ": 4601,
      "áĮłáīħ": 4602,
      "Ġ40": 4603,
      "bar": 4604,
      "Ġsing": 4605,
      "áĪµáįĭ": 4606,
      "imÃ¡": 4607,
      "ĠUS": 4608,
      "ĠsÃŃláº¹": 4609,
      "Ġruwa": 4610,
      "ĠÃ²á¹£": 4611,
      "Ãªte": 4612,
      "áĬĶáī³": 4613,
      "Ġappro": 4614,
      "Ġkilomita": 4615,
      "Ġmed": 4616,
      "Ġpi": 4617,
      "Ġá¹£iá¹£áº¹": 4618,
      "Ġpekee": 4619,
      "ĠáĪ®": 4620,
      "Ġdem": 4621,
      "ayyar": 4622,
      "ĠáĪĪáĪĿ": 4623,
      "áĭĺáĮĭ": 4624,
      "Ã¤": 4625,
      "áĪŁ": 4626,
      "Ġcirc": 4627,
      "Ġsauran": 4628,
      "adio": 4629,
      "Ġmutanen": 4630,
      "ĠShugaban": 4631,
      "Ġtena": 4632,
      "Ġtype": 4633,
      "unic": 4634,
      "áĭ«áĪį": 4635,
      "Ġstud": 4636,
      "jeo": 4637,
      "Ġ1976": 4638,
      "Ġdisp": 4639,
      "ĠáĪīáīĥáĪµ": 4640,
      "Ġpolitique": 4641,
      "hor": 4642,
      "Ġaá¹£": 4643,
      "Ġlat": 4644,
      "alog": 4645,
      "ĠMont": 4646,
      "Ġáī°áĪ°": 4647,
      "Ġquel": 4648,
      "31": 4649,
      "wana": 4650,
      "áĪ¾": 4651,
      "asha": 4652,
      "quement": 4653,
      "Ã¹gbá»į": 4654,
      "Ġprocess": 4655,
      "uck": 4656,
      "Ġwakil": 4657,
      "Ġrayuwa": 4658,
      "Ġrasmi": 4659,
      "line": 4660,
      "Ġwote": 4661,
      "Ġáīłáĭ¨": 4662,
      "ĠIle": 4663,
      "ĠPrin": 4664,
      "akoso": 4665,
      "Ġáĭ¨áĪķ": 4666,
      "ĠâĢ¢": 4667,
      "áĮłáĭį": 4668,
      "Ak": 4669,
      "ided": 4670,
      "ĠEmpire": 4671,
      "áĭķáĪ«áī¥": 4672,
      "ĠreprÃ©sent": 4673,
      "Ġdid": 4674,
      "uns": 4675,
      "ĠRay": 4676,
      "Ġmaza": 4677,
      "ĠJuly": 4678,
      "gal": 4679,
      "uj": 4680,
      "unga": 4681,
      "amad": 4682,
      "ĠÃłgbÃ©": 4683,
      "endo": 4684,
      "depend": 4685,
      "Ġáĭ¨áĬłáĪľáĪªáĬ«": 4686,
      "Ġperiod": 4687,
      "Ġojo": 4688,
      "Ġown": 4689,
      "Ġáīłáĭĵ": 4690,
      "ĠPers": 4691,
      "áĮ¥áĪ®": 4692,
      "ĠáīħáĪŃ": 4693,
      "ojoibi": 4694,
      "day": 4695,
      "oo": 4696,
      "áįİáī½": 4697,
      "Ġtour": 4698,
      "ĠáĬ¥áĬķáĮĤ": 4699,
      "Ġimportant": 4700,
      "ulu": 4701,
      "âĢ¦": 4702,
      "Ġelement": 4703,
      "Ġte": 4704,
      "afu": 4705,
      "Ġáĭ¨áĪļáĪĪáĭį": 4706,
      "ĠIndia": 4707,
      "oa": 4708,
      "aria": 4709,
      "Ġcla": 4710,
      "utt": 4711,
      "ĠáĬ¨áĬ¥": 4712,
      "anth": 4713,
      "Ġcommer": 4714,
      "ÙĪ": 4715,
      "Ġâ": 4716,
      "Ġmam": 4717,
      "Ġminist": 4718,
      "áĪİáīµ": 4719,
      "ĠáĮīáĭ³": 4720,
      "ria": 4721,
      "ises": 4722,
      "aman": 4723,
      "Ġzab": 4724,
      "ĠáĭĪáĭŃ": 4725,
      "Ġasili": 4726,
      "ĠáĬŃáĪį": 4727,
      "Ġzamani": 4728,
      "ĠEthiop": 4729,
      "omon": 4730,
      "ĠgÃŃ": 4731,
      "áī°áĬķ": 4732,
      "inguis": 4733,
      "ĠApril": 4734,
      "Ã©l": 4735,
      "ament": 4736,
      "Ġinv": 4737,
      "imp": 4738,
      "ĠEast": 4739,
      "ody": 4740,
      "ĠáĬķáĮį": 4741,
      "Ġhukumomin": 4742,
      "ving": 4743,
      "win": 4744,
      "Ġáĭ¨áīµ": 4745,
      "ĠCal": 4746,
      "ĠdÃ©but": 4747,
      "ovi": 4748,
      "Ġkarni": 4749,
      "ĠnÃŃnu": 4750,
      "Ġscienti": 4751,
      "ĠAcademy": 4752,
      "yya": 4753,
      "Ġduni": 4754,
      "ĠáĮĮ": 4755,
      "ĠHer": 4756,
      "alian": 4757,
      "ĠáĬ¥áĬķáĭ²áĪħ": 4758,
      "Ġbecause": 4759,
      "Ġproduction": 4760,
      "36": 4761,
      "ken": 4762,
      "Ġyau": 4763,
      "Ġoften": 4764,
      "haa": 4765,
      "ĠáĭŃáīĢ": 4766,
      "Ġilimi": 4767,
      "ĠáīµáĬķ": 4768,
      "Ġ1967": 4769,
      "ble": 4770,
      "lejin": 4771,
      "ĠSha": 4772,
      "áī¥áĪ¨áīµ": 4773,
      "Ġsuiv": 4774,
      "ĠÃ²un": 4775,
      "ĠrÃ©fÃ©r": 4776,
      "Ġ||": 4777,
      "ĠáĪģáĪĪ": 4778,
      "attalin": 4779,
      "Ġparticuli": 4780,
      "ĠáįķáĪ¬": 4781,
      "pub": 4782,
      "sÃ¬n": 4783,
      "Ġlashe": 4784,
      "Ġogun": 4785,
      "ĠKib": 4786,
      "opo": 4787,
      "Ġ1975": 4788,
      "Ġtsarin": 4789,
      "ĠáĪķáĭĿáī¥": 4790,
      "ĠJapon": 4791,
      "ĠÃłkÃ³": 4792,
      "ĠBib": 4793,
      "Ġleurs": 4794,
      "Ġvile": 4795,
      "áĬŃáĪī": 4796,
      "Ġear": 4797,
      "Ġrema": 4798,
      "though": 4799,
      "aiss": 4800,
      "Ġáī³áĪªáĬ«áĭĬ": 4801,
      "amuziki": 4802,
      "Ġmkubwa": 4803,
      "Ġdigiri": 4804,
      "adaye": 4805,
      "Ġseveral": 4806,
      "Ġ1989": 4807,
      "ĠfranÃ§aise": 4808,
      "CO": 4809,
      "zaliwa": 4810,
      "Ġback": 4811,
      "ĠMin": 4812,
      "ĠBl": 4813,
      "ĠáĪĺáĮ¨áĪ¨áĪ»": 4814,
      "áīłáĪ©áīµ": 4815,
      "ĠlÃ©g": 4816,
      "Ġmor": 4817,
      "ĠBas": 4818,
      "áĬĲáī±": 4819,
      "Ãīt": 4820,
      "Fr": 4821,
      "mu": 4822,
      "ĠKh": 4823,
      "ĠáīłáĬĲ": 4824,
      "áĪ¨áĪ°": 4825,
      "Ġfonction": 4826,
      "ĠTazama": 4827,
      "ĠPat": 4828,
      "ĠRa": 4829,
      "Ġagbe": 4830,
      "comp": 4831,
      "ikwayo": 4832,
      "hist": 4833,
      "áĪŃáī²": 4834,
      "ĠMinist": 4835,
      "usion": 4836,
      "ĠAlf": 4837,
      "Ġcelui": 4838,
      "bes": 4839,
      "rÃ¡": 4840,
      "atan": 4841,
      "ete": 4842,
      "áĪĺáĪį": 4843,
      "Ġtous": 4844,
      "Ġactiv": 4845,
      "ĠprÃ©c": 4846,
      "ĠDavid": 4847,
      "Ġsmall": 4848,
      "xes": 4849,
      "Ġmani": 4850,
      "áĭįáĪ®áįĵ": 4851,
      "ĠRic": 4852,
      "ĠamÃ©r": 4853,
      "Ġpeu": 4854,
      "athol": 4855,
      "ĠáĭĿáĪŃáĭĿáĪŃ": 4856,
      "Ġer": 4857,
      "ishin": 4858,
      "alo": 4859,
      "ird": 4860,
      "Ġeach": 4861,
      "less": 4862,
      "Ġ1987": 4863,
      "ency": 4864,
      ")áį£": 4865,
      "¶áį": 4866,
      "ĠGro": 4867,
      "Ġaround": 4868,
      "Ġ|-": 4869,
      "Ġ1950": 4870,
      "Ġmean": 4871,
      "áĬ¨áī°áĪĽ": 4872,
      "Ġselon": 4873,
      "áĪĺáĭµ": 4874,
      "Ġ1982": 4875,
      "ĠAtlan": 4876,
      "ĠÆĺ": 4877,
      "Ġtechni": 4878,
      "kÃ¹nrin": 4879,
      "bra": 4880,
      "áī°áĭĭáĪį": 4881,
      "ukuu": 4882,
      "áĪħáĬķ": 4883,
      "Ġorder": 4884,
      "ioni": 4885,
      "Ġkwaikwayo": 4886,
      "ĠáīłáĬ©": 4887,
      "ĠáĮįáĭµáĪĿ": 4888,
      "Ġuch": 4889,
      "Ġmusamman": 4890,
      "ydro": 4891,
      "ĠgbajÃºmá»į": 4892,
      "ames": 4893,
      "ĠáĮĬ": 4894,
      "akon": 4895,
      "áīłáĬł": 4896,
      "Ġáįĭ": 4897,
      "Ġsuite": 4898,
      "ekana": 4899,
      "ĠáĪģáĬĶáī³": 4900,
      "ĠáĬłáĪĺáīµ": 4901,
      "Ġkamfanin": 4902,
      "ĠBahari": 4903,
      "ĠáĭŃáī½áĪĭáĪį": 4904,
      "onso": 4905,
      "Ġmm": 4906,
      "Ġoff": 4907,
      "á¹£u": 4908,
      "áī¤áī°": 4909,
      "Ġterme": 4910,
      "ĠsinimÃ¡": 4911,
      "pÃ²": 4912,
      "orig": 4913,
      "ĠKatsina": 4914,
      "ĠBell": 4915,
      "áĪ«áĪ²": 4916,
      "Ġá¹£áº¹": 4917,
      "áī»áī¸áĭį": 4918,
      "Ġáĭ¨áĬ¥áĪµ": 4919,
      "ĠRepublic": 4920,
      "áĮĦ": 4921,
      "Ġáī»": 4922,
      "Ġcamp": 4923,
      "itin": 4924,
      "áĬĲáĪ³": 4925,
      "ationale": 4926,
      "áĭ¨áĪĿ": 4927,
      "Ġpáº¹lu": 4928,
      "46": 4929,
      "falme": 4930,
      "ms": 4931,
      "Ä«": 4932,
      "Ġkila": 4933,
      "ĠSun": 4934,
      "adhi": 4935,
      "ĠáĬĲáĮ»": 4936,
      "ivid": 4937,
      "ourt": 4938,
      "ĠÃ©p": 4939,
      "Ġ180": 4940,
      "Ġcontin": 4941,
      "ĠfÃŃÃ¬mÃ¹": 4942,
      "ĠpadÃł": 4943,
      "However": 4944,
      "Ø±": 4945,
      "Ġkula": 4946,
      "Ġáī±": 4947,
      "ĠojÃº": 4948,
      "Ġfina": 4949,
      "ĠHot": 4950,
      "áĪģáĬķ": 4951,
      "Ġ1984": 4952,
      "Ġ1985": 4953,
      "Ġgroupe": 4954,
      "37": 4955,
      "vis": 4956,
      "ĠAct": 4957,
      "áĭ«áĭĬ": 4958,
      "ĠáĪĺáĪįáĬŃ": 4959,
      "áĪ¶áī½": 4960,
      "ĠMajalisar": 4961,
      "ollywood": 4962,
      "xt": 4963,
      "ints": 4964,
      "Ġbila": 4965,
      "entes": 4966,
      "áĪĪáĪĽ": 4967,
      "osi": 4968,
      "Ġ1983": 4969,
      "Ġ1986": 4970,
      "Ġ1979": 4971,
      "ĠáĪļáĬĴ": 4972,
      "For": 4973,
      "Ġlik": 4974,
      "ando": 4975,
      "áĮįáĬķ": 4976,
      "ĠGo": 4977,
      "oki": 4978,
      "ĠChurch": 4979,
      "ĠáįĪáĪŃ": 4980,
      "uvent": 4981,
      "wÃ¡jÃº": 4982,
      "Ġzaman": 4983,
      "Tare": 4984,
      "Ġbase": 4985,
      "Ġja": 4986,
      "oselu": 4987,
      "áĭļáīĥ": 4988,
      "ollo": 4989,
      "Ã´t": 4990,
      "Ġutawala": 4991,
      "bÃº": 4992,
      "ls": 4993,
      "pas": 4994,
      "Ġlabar": 4995,
      "ĠMis": 4996,
      "add": 4997,
      "ĠKati": 4998,
      "imm": 4999,
      "ĠPress": 5000,
      "Ġkwall": 5001,
      "Ġ31": 5002,
      "ĠáĬŃáĪŃáĪµáī²áĭ«áĬķ": 5003,
      "Ġ1988": 5004,
      "Ġrelig": 5005,
      "Ġijoba": 5006,
      "by": 5007,
      "Ġmur": 5008,
      "ipe": 5009,
      "ĠlÃ¡Ãł": 5010,
      "aifaf": 5011,
      "Ġnu": 5012,
      "Ġpap": 5013,
      "ĠGir": 5014,
      "ĠÃ¬tÃłn": 5015,
      "áĭĪáĮ£": 5016,
      "áĭĭáĬĵ": 5017,
      "Ġidadi": 5018,
      "gozi": 5019,
      "dÃ¹": 5020,
      "Ġlambar": 5021,
      "ÃłÃł": 5022,
      "Ġgouver": 5023,
      "Ġpropos": 5024,
      "ĠáĬĲáĮĪáĪ®áī½": 5025,
      "Ġjagor": 5026,
      "Ġduniani": 5027,
      "Ġseries": 5028,
      "ĠwÃ³n": 5029,
      "osh": 5030,
      "áĭ¨áĬł": 5031,
      "oft": 5032,
      "áī´áĭİáĪµ": 5033,
      "Ġhukuma": 5034,
      "ĠKiingereza": 5035,
      "Ġconstitu": 5036,
      "áĬ¸": 5037,
      "Ġáīłáĭį": 5038,
      "ulikana": 5039,
      "ĠJune": 5040,
      "insu": 5041,
      "Ġáī¢áĪĨáĬķ": 5042,
      "rÃ²yÃ¬n": 5043,
      "Hist": 5044,
      "nam": 5045,
      "Ġiko": 5046,
      "Ġdunia": 5047,
      "ĠÃłÃ¬": 5048,
      "ĠNi": 5049,
      "ĠáĭĺáĪŃ": 5050,
      "gani": 5051,
      "oung": 5052,
      "yle": 5053,
      "umma": 5054,
      "áĪ«áī¸áĭį": 5055,
      "ĠDo": 5056,
      "raft": 5057,
      "ĠáĭŃáĪĺáĪµ": 5058,
      "Ġthough": 5059,
      "off": 5060,
      "Ġkazi": 5061,
      "Ġáĭ¨áĪĽáĭŃ": 5062,
      "áĪĽáĬĸáīµ": 5063,
      "yen": 5064,
      "Ġbang": 5065,
      "Ġfather": 5066,
      "Ġ(Â«": 5067,
      "atikana": 5068,
      "angi": 5069,
      "Ġ1966": 5070,
      "ĠPeople": 5071,
      "Ġkarkashin": 5072,
      "His": 5073,
      "aik": 5074,
      "arak": 5075,
      "reg": 5076,
      "ĠMto": 5077,
      "ĠMex": 5078,
      "Ġhut": 5079,
      "Ġnau": 5080,
      "Ġáĭ«áĪħáĪį": 5081,
      "Ġexist": 5082,
      "Ġsunan": 5083,
      "ĠáĭŃáĪħáĪĿ": 5084,
      "39": 5085,
      "Ġere": 5086,
      "áĪĤ": 5087,
      "Ġnig": 5088,
      "usta": 5089,
      "ĠIr": 5090,
      "áĮĪáĭ°": 5091,
      "áĪĽáĪį": 5092,
      "Ġtre": 5093,
      "Ġbara": 5094,
      "Ġáįª": 5095,
      "Ġtrava": 5096,
      "ĠpÃ©riode": 5097,
      "Ġexample": 5098,
      "47": 5099,
      "ĠáĪ¦": 5100,
      "ĠMari": 5101,
      "Ġleo": 5102,
      "ĠFaransa": 5103,
      "ĠáĭŃáĪĨ": 5104,
      "ĠáīłáĪĻ": 5105,
      "ĠáĭµáĪŃáĮħ": 5106,
      "ĠChristian": 5107,
      "Ġset": 5108,
      "Ġsani": 5109,
      "Ġhank": 5110,
      "ourd": 5111,
      "Ġadminist": 5112,
      "ights": 5113,
      "exp": 5114,
      "ĠsystÃ¨me": 5115,
      "Ġkifo": 5116,
      "áįĶ": 5117,
      "asan": 5118,
      "irst": 5119,
      "row": 5120,
      "bÃŃláº¹": 5121,
      "ĠáĬłáĪĪáĭį": 5122,
      "joba": 5123,
      "Ġcelle": 5124,
      "Ġinternational": 5125,
      "ĠFasihi": 5126,
      "áĮĢáĪŃáĪĺáĬķ": 5127,
      "Ġmulti": 5128,
      "Láº¹": 5129,
      "ness": 5130,
      "arci": 5131,
      "Ġdh": 5132,
      "ĠáĬ¡": 5133,
      "Ġmn": 5134,
      "Ã¡Ã¬": 5135,
      "ĠáĬ¥áĬĲ": 5136,
      "áĪīáĪĿ": 5137,
      "áĬ¥áĬķáĮįáĪĬáĭĿáĬĽ": 5138,
      "aifaffun": 5139,
      "ception": 5140,
      "ĠáĪĺáĮĢáĪĺáĪŃáĭ«": 5141,
      "arkin": 5142,
      "ĠAbdul": 5143,
      "Ġiye": 5144,
      "áĮĪáĪį": 5145,
      "Ġmace": 5146,
      "ĠáĭŃáĭĺ": 5147,
      "respond": 5148,
      "Ġarr": 5149,
      "Ã´le": 5150,
      "abbar": 5151,
      "ĠHistoria": 5152,
      "DP": 5153,
      "Ġmoy": 5154,
      "Ġbisa": 5155,
      "ikukuu": 5156,
      "ĠáĪĿáĬķáĪĿ": 5157,
      "Ġ1974": 5158,
      "ĠáĪĿáĬķáĮ®áī½": 5159,
      "AC": 5160,
      "san": 5161,
      "ĠáīłáĪ½": 5162,
      "iyoyin": 5163,
      "Ġkwallon": 5164,
      "Ãªt": 5165,
      "2005": 5166,
      "ĠGeorg": 5167,
      "1892": 5168,
      "Ġkayan": 5169,
      "ĠáĪł": 5170,
      "Ġáĭ¨áī£": 5171,
      "iran": 5172,
      "ney": 5173,
      "endre": 5174,
      "aponais": 5175,
      "cÃ©": 5176,
      "áĪ·": 5177,
      "inter": 5178,
      "aru": 5179,
      "esp": 5180,
      "Ġkip": 5181,
      "áĪĺáĪ°": 5182,
      "ĠPa": 5183,
      "áĪĭáĪ´": 5184,
      "uku": 5185,
      "ĠáĪĿáĪŃ": 5186,
      "Ġáĭĭáī¢": 5187,
      "Ġnyingine": 5188,
      "bon": 5189,
      "ball": 5190,
      "lia": 5191,
      "rid": 5192,
      "Â°": 5193,
      "itect": 5194,
      "ĠKananan": 5195,
      "ĠJoseph": 5196,
      "áī£áĪĪáĭį": 5197,
      "Ġáī°áįĪ": 5198,
      "áĭ¨áĪ±": 5199,
      "ĠÃ©lect": 5200,
      "ÉĹa": 5201,
      "face": 5202,
      "ĠAustralia": 5203,
      "ox": 5204,
      "Ð°": 5205,
      "Ġur": 5206,
      "ĠáĭŃáĪ°": 5207,
      "Ġáĭ¨áĬ«": 5208,
      "Ġáĭ¨áī°áĪ°": 5209,
      "ĠáĭŃáĪħáĬķ": 5210,
      "Ġambao": 5211,
      "áĬ¥áĬķáĭ°": 5212,
      "lim": 5213,
      "Ġnada": 5214,
      "Ġbiashara": 5215,
      "ypti": 5216,
      "áĬķáĭ°": 5217,
      "ĠSci": 5218,
      "gbon": 5219,
      "áĬŃáĪŃ": 5220,
      "udes": 5221,
      "áīłáĪĪ": 5222,
      "Ġtsohon": 5223,
      "75": 5224,
      "gress": 5225,
      "las": 5226,
      "sy": 5227,
      "Ġnjia": 5228,
      "ĠinÃº": 5229,
      "ĠTari": 5230,
      "ĠáĪĺáĪĨáĬĳ": 5231,
      "ĠGod": 5232,
      "ĠOrÃŃ": 5233,
      "Ġshirin": 5234,
      "unda": 5235,
      "Ġoloselu": 5236,
      "Ġdifferent": 5237,
      "struction": 5238,
      "Ġkuhusu": 5239,
      "cter": 5240,
      "·áį": 5241,
      "ĠsÃ¡": 5242,
      "áĬķáĭ±": 5243,
      "Ġyabo": 5244,
      "ĠKudu": 5245,
      "ĠLatin": 5246,
      "cial": 5247,
      "áīłáĪĺ": 5248,
      "Ġtechn": 5249,
      "Ġphilosoph": 5250,
      "ĠSup": 5251,
      "ĠBBC": 5252,
      "áĪĭáĪĪ": 5253,
      "Ġyote": 5254,
      "Ġstat": 5255,
      "Ġimm": 5256,
      "ĠáĮ½áĪĳ": 5257,
      "ĠáĪĽáĪŃáīĨ": 5258,
      "Ġmillion": 5259,
      "Ġciki": 5260,
      "ulaire": 5261,
      "ige": 5262,
      "ĠWe": 5263,
      "ĠDola": 5264,
      "Ġvit": 5265,
      "hael": 5266,
      "ĠIbadan": 5267,
      "ĠKanisa": 5268,
      "yyun": 5269,
      "Ġnorth": 5270,
      "tice": 5271,
      "ĠBi": 5272,
      "thers": 5273,
      "ĠVol": 5274,
      "Ġnombreux": 5275,
      "ĠáĪ¥áĪŃáĭĪ": 5276,
      "Ali": 5277,
      "bÃ¬nrin": 5278,
      "gá»į": 5279,
      "anisha": 5280,
      "Ġbaba": 5281,
      "idar": 5282,
      "ĠWan": 5283,
      "ĠáĪµáĪĻ": 5284,
      "Ġ1981": 5285,
      "Ġdari": 5286,
      "Ġsite": 5287,
      "Ġgovernment": 5288,
      "ĠáĮłáĪ": 5289,
      "ĠPo": 5290,
      "ĠáĪĺáĭµ": 5291,
      "ĠáĪĺáĪª": 5292,
      "ĠRaya": 5293,
      "Ġequ": 5294,
      "áĭ³áĪŃ": 5295,
      "ĠKiswahili": 5296,
      "Ġfollowing": 5297,
      "ĠáĪłáĪ«": 5298,
      "ĠLouis": 5299,
      "ĠáĬħ": 5300,
      "ason": 5301,
      "Ġhata": 5302,
      "Ġjerin": 5303,
      "Ġrem": 5304,
      "ĠÃĢÃłráº¹": 5305,
      "Ġbegan": 5306,
      "wezi": 5307,
      "Ġlokaci": 5308,
      "Ġbased": 5309,
      "Ġem": 5310,
      "ista": 5311,
      "Ġing": 5312,
      "Ġiniti": 5313,
      "Ġvisiwa": 5314,
      "ĠInstit": 5315,
      "Ġáĭ°áĪ´": 5316,
      "ĠspÃ©": 5317,
      "Ġguerre": 5318,
      "car": 5319,
      "ĠáĪĤ": 5320,
      "á¹£i": 5321,
      "ĠáĬłáĪ³": 5322,
      "ube": 5323,
      "áī¶áī½áĬķ": 5324,
      "oute": 5325,
      "Ġprim": 5326,
      "ĠagbÃ¡": 5327,
      "ĠBenin": 5328,
      ");": 5329,
      "irs": 5330,
      "áĪĭáĪĽ": 5331,
      "Ġenti": 5332,
      "Ġeniyan": 5333,
      "Ġáĭ¨áĪ¥": 5334,
      "ĠáĪĿáĪįáĬŃ": 5335,
      "Ġsouth": 5336,
      "Åĵuv": 5337,
      "Ã³mÃ¬nÃł": 5338,
      "ID": 5339,
      "IS": 5340,
      "áĪ¡": 5341,
      "Ġchem": 5342,
      "unt": 5343,
      "ĠMah": 5344,
      "Ġword": 5345,
      "ĠRiver": 5346,
      "Ġáį¤": 5347,
      "áĪ°áĬķ": 5348,
      "áĭļáĪģ": 5349,
      "Ġá¹£ÃŃ": 5350,
      "ological": 5351,
      "sÃŃláº¹": 5352,
      "ĠKingdom": 5353,
      "Ġversion": 5354,
      "áįĪáĪ¨áĬķáĪ³áĭŃ": 5355,
      "arab": 5356,
      "Ġcri": 5357,
      "ĠÃłgbÃł": 5358,
      "Ġjaponais": 5359,
      "Ġchang": 5360,
      "áĭķáĪį": 5361,
      "ĠØ§": 5362,
      "ournal": 5363,
      "ĠEbun": 5364,
      "Har": 5365,
      "ca": 5366,
      "loy": 5367,
      "torÃŃ": 5368,
      "Ġmark": 5369,
      "Ġpwani": 5370,
      "usin": 5371,
      "ĠSat": 5372,
      "asaha": 5373,
      "Ġpeup": 5374,
      "Ġ1971": 5375,
      "Ġmajalisar": 5376,
      "Ġmulki": 5377,
      "áĪ¯": 5378,
      "ĠáĬĴ": 5379,
      "ĠáĬĸ": 5380,
      "iles": 5381,
      "ĠMu": 5382,
      "áĪĺáĮ£": 5383,
      "Ġrequ": 5384,
      "ĠáĭĪáĪ¨áĭ³": 5385,
      "ĠáĭĪáĮĪáĬķ": 5386,
      "Ġchild": 5387,
      "Ġ1965": 5388,
      "ĠáĬłáĪĪáīĥ": 5389,
      "ouvelle": 5390,
      "Ġperson": 5391,
      "ĠUganda": 5392,
      "dÃ²": 5393,
      "ĠMungu": 5394,
      "ella": 5395,
      "ĠBay": 5396,
      "áī½áĭį": 5397,
      "ects": 5398,
      "oks": 5399,
      "Ġforces": 5400,
      "oule": 5401,
      "Ġshug": 5402,
      "áĪłáĪ«": 5403,
      "Ġsince": 5404,
      "Ġcertains": 5405,
      "ering": 5406,
      "atives": 5407,
      "ĠáĮħ": 5408,
      "ules": 5409,
      "ended": 5410,
      "Ġmasana": 5411,
      "Ġ1978": 5412,
      "ĠMusulunci": 5413,
      "ES": 5414,
      "Ġgas": 5415,
      "Ġzil": 5416,
      "ĠFin": 5417,
      "Ġmawa": 5418,
      "ĠsiÃ¨": 5419,
      "Ġcorrespond": 5420,
      "Ġland": 5421,
      "Ġcoll": 5422,
      "ĠKya": 5423,
      "ĠáĬłáĪ¸": 5424,
      "áĮ¥áĪ¨": 5425,
      "áĪ®áĪµ": 5426,
      "Ã©ration": 5427,
      "ishop": 5428,
      "ĠáĪ´áīµ": 5429,
      "Ġkawaida": 5430,
      "86": 5431,
      "rÃ¡n": 5432,
      "estiv": 5433,
      "time": 5434,
      "Ġpower": 5435,
      "Ġasalin": 5436,
      "áĬ«áĪį": 5437,
      "ĠáĭķáĪĪ": 5438,
      "ĠMutane": 5439,
      "zu": 5440,
      "áĭĳ": 5441,
      "Ġdini": 5442,
      "Ġpu": 5443,
      "rian": 5444,
      "Ġkaratu": 5445,
      "publique": 5446,
      "unk": 5447,
      "Ġáĭ¨áĭĺ": 5448,
      "omes": 5449,
      "áĪ³áī¸áĭį": 5450,
      "vention": 5451,
      "Ġmbili": 5452,
      "áĮįáī¥áĮ½": 5453,
      "Ġkara": 5454,
      "ĠáĬłáĮ¥": 5455,
      "ĠPas": 5456,
      "áĮĪáī¥": 5457,
      "Ġask": 5458,
      "Ġáī³áĭĭáīĤ": 5459,
      "Ġáīłáī°áĪĪáĭŃ": 5460,
      "áĬ®áī½": 5461,
      "ĠPhilip": 5462,
      "PC": 5463,
      "TA": 5464,
      "Ã»": 5465,
      "Ġdivers": 5466,
      "ĠáĪº": 5467,
      "times": 5468,
      "ĠAj": 5469,
      "usa": 5470,
      "ĠáĬ¥áĭį": 5471,
      "áĮĪáīł": 5472,
      "Ġzote": 5473,
      "ĠFre": 5474,
      "action": 5475,
      "áĭ²áĪħ": 5476,
      "They": 5477,
      "ification": 5478,
      "01": 5479,
      "49": 5480,
      "lima": 5481,
      "áĮ¦áĪŃ": 5482,
      "Ã©tique": 5483,
      "ĠHaifaffun": 5484,
      "Ġev": 5485,
      "ĠáīłáĪĮ": 5486,
      "Ġbahari": 5487,
      "ĠáĬŃáįįáĪĭ": 5488,
      "Ġlanguages": 5489,
      "ĠEngland": 5490,
      "kÃ¹": 5491,
      "Ġess": 5492,
      "onge": 5493,
      "Ġcur": 5494,
      "ĠKongo": 5495,
      "dian": 5496,
      "áĪ©áīµ": 5497,
      "áĪ±áĪĿ": 5498,
      "ĠáĬłáĭŃáĭ°": 5499,
      "Ġresult": 5500,
      "áĪıáĪį": 5501,
      "85": 5502,
      "hab": 5503,
      "Å«": 5504,
      "Ġdevient": 5505,
      "Ġhuma": 5506,
      "Ġformer": 5507,
      "Ġphys": 5508,
      "ĠáĭŃáĪĨáĬĵáĪį": 5509,
      "32": 5510,
      "76": 5511,
      "áĬ¹": 5512,
      "Ġgiv": 5513,
      "ĠáīłáĮ¥": 5514,
      "Ġjo": 5515,
      "ĠáĬłáĭ°": 5516,
      "Ġyara": 5517,
      "arautar": 5518,
      "áĭ³áĪĿ": 5519,
      "Ġise": 5520,
      "lÃ©wÃ²": 5521,
      "Ġ1977": 5522,
      "ĠRobert": 5523,
      "origine": 5524,
      "Ita": 5525,
      "wali": 5526,
      "Ġhttp": 5527,
      "Ġrece": 5528,
      "Ġolu": 5529,
      "Ġ1969": 5530,
      "Ġmwanamuziki": 5531,
      "Ġshirya": 5532,
      "ĠwaÉĹanda": 5533,
      "ĠgÃŃga": 5534,
      "nÃ¹": 5535,
      "pha": 5536,
      "uel": 5537,
      "ĠkÃ¡": 5538,
      "ĠbÃł": 5539,
      "ĠPal": 5540,
      "áįĪáīµ": 5541,
      "Ġobs": 5542,
      "After": 5543,
      "ĠáīłáĪģ": 5544,
      "ĠrÃ©alis": 5545,
      "áĪķáĪŃ": 5546,
      "Ġmagharibi": 5547,
      "/)": 5548,
      "rer": 5549,
      "áįĳ": 5550,
      "áĪĺáī±": 5551,
      "áĬĲáĮĪ": 5552,
      "áĪ¨áī¥": 5553,
      "ĠOm": 5554,
      "okeo": 5555,
      "ĠáīĢáĮ¥": 5556,
      "aguzi": 5557,
      "Ġmasa": 5558,
      "irgin": 5559,
      "áĭµáĪ¨áĮį": 5560,
      "ĠUk": 5561,
      "áįĪáĪµ": 5562,
      "Ġ1972": 5563,
      "áĪŃáĭ«áĪĿ": 5564,
      "Ġregion": 5565,
      "Une": 5566,
      "ville": 5567,
      "ĠáĪ»": 5568,
      "ĠBlack": 5569,
      "ĠCha": 5570,
      "osai": 5571,
      "ache": 5572,
      "Ġ1973": 5573,
      "Ġ1962": 5574,
      "ĠUnion": 5575,
      "2004": 5576,
      "2006": 5577,
      "Unis": 5578,
      "áĪĿáĪħáĪŃ": 5579,
      "ĠáĬ¥áĬķáĮįáĪĬáĭĿ": 5580,
      "St": 5581,
      "bila": 5582,
      "ģáĬĳ": 5583,
      "Ġtur": 5584,
      "Ġcell": 5585,
      "Ġfaire": 5586,
      "ĠRoyal": 5587,
      "áĭ³áĪį": 5588,
      "áĮłáĪ©": 5589,
      "ĠáĬĵáīµ": 5590,
      "ĠáĬłáĮĪáĪįáĮį": 5591,
      "Ġterritoire": 5592,
      "Wh": 5593,
      "ht": 5594,
      "ĠmÃ¬ÃŃ": 5595,
      "atures": 5596,
      "Ġinst": 5597,
      "Ġstandard": 5598,
      "Ġhuo": 5599,
      "Ġinclude": 5600,
      "ĠáĬ¥áĭ¨áī°": 5601,
      "ifuata": 5602,
      "ĠáĭŃáī³áĭĪáīĥáĪį": 5603,
      "ĠáĪĺáĪłáĪ¨áīµ": 5604,
      "33": 5605,
      "sin": 5606,
      "Ġmont": 5607,
      "ĠGar": 5608,
      "Ġaliy": 5609,
      "lais": 5610,
      "lier": 5611,
      "ĠolÃ³rin": 5612,
      "Ġigba": 5613,
      "Ġhaifi": 5614,
      "Ġrubuta": 5615,
      "ĠdÃ©veloppement": 5616,
      "ĠEthiopia": 5617,
      "bol": 5618,
      "mÃº": 5619,
      "tist": 5620,
      "ĠSol": 5621,
      "ĠCoun": 5622,
      "ĠIV": 5623,
      "tage": 5624,
      "ĠHukum": 5625,
      "Ġilimin": 5626,
      "obe": 5627,
      "áĮłáĬĵ": 5628,
      "Ġmondi": 5629,
      "Ġtransl": 5630,
      "Ġhistory": 5631,
      "ĠÃ©crit": 5632,
      "ĠISBN": 5633,
      "áĬĹ": 5634,
      "itation": 5635,
      "Ġnear": 5636,
      "ĠRayayyun": 5637,
      "och": 5638,
      "ĠcÃ´": 5639,
      "Ġfer": 5640,
      "Ġintern": 5641,
      "âĢº": 5642,
      "ĠeuropÃ©": 5643,
      "ival": 5644,
      "Ġmagana": 5645,
      "Ġhalarci": 5646,
      "pp": 5647,
      "áĬĥ": 5648,
      "ubakar": 5649,
      "Ġplan": 5650,
      "esearch": 5651,
      "Ġfarkon": 5652,
      "ĠApple": 5653,
      "ĠKaskazini": 5654,
      "dÃłn": 5655,
      "Ġdoma": 5656,
      "Ġspe": 5657,
      "Ġjim": 5658,
      "ĠáĬ¥áĬĲáĭļáĪħ": 5659,
      "áĪ¨áĮĭ": 5660,
      "cep": 5661,
      "occ": 5662,
      "ijin": 5663,
      "Ġmwenye": 5664,
      "Ã©rique": 5665,
      "áįĵáĬķ": 5666,
      "ĠmÃ¬ÃŃrÃłn": 5667,
      "eau": 5668,
      "wh": 5669,
      "ĪáĪĿ": 5670,
      "isc": 5671,
      "unin": 5672,
      "idence": 5673,
      "áī£áĭĬ": 5674,
      "Ġime": 5675,
      "Ġcul": 5676,
      "Ġdel": 5677,
      "umwa": 5678,
      "áĭ°áĮį": 5679,
      "ibar": 5680,
      "ĠáĪĽáī´áĭİáĪµ": 5681,
      "ĠAnti": 5682,
      "Ġnamed": 5683,
      "gÃ¡": 5684,
      "´áį": 5685,
      "ĠáĬ¬": 5686,
      "áį²áį": 5687,
      "Ġgo": 5688,
      "abor": 5689,
      "oloj": 5690,
      "ĠWaz": 5691,
      "rain": 5692,
      "ĠáĪµáīµ": 5693,
      "Ġáĭįáĭµ": 5694,
      "ĠobÃ¬nrin": 5695,
      "ĠQue": 5696,
      "Ġsocial": 5697,
      "ĠGrand": 5698,
      "64": 5699,
      "ÙĲ": 5700,
      "Ġáĭ´": 5701,
      "Ġwill": 5702,
      "ĠDen": 5703,
      "inea": 5704,
      "ĠdÃ©m": 5705,
      "ports": 5706,
      "astern": 5707,
      "Ġfig": 5708,
      "Ġgl": 5709,
      "atiques": 5710,
      "Ġtoute": 5711,
      "ĠáĪĺáĬĲ": 5712,
      "Ġenviron": 5713,
      "uge": 5714,
      "ĠHenry": 5715,
      "ĠáĭķáĪĪáī³áīµ": 5716,
      "col": 5717,
      "lÃ¬": 5718,
      "taniya": 5719,
      "arar": 5720,
      "Ġcutar": 5721,
      "ĠNchi": 5722,
      "ĠTe": 5723,
      "ĠPres": 5724,
      "ĠáĪĺáĭĿ": 5725,
      "ston": 5726,
      "ifÃ¡": 5727,
      "amawa": 5728,
      "Ġproper": 5729,
      "Ġabs": 5730,
      "Ġtarihi": 5731,
      "89": 5732,
      "NA": 5733,
      "ĠMkoa": 5734,
      "Ġhark": 5735,
      "olf": 5736,
      "Ġá¹£Ãł": 5737,
      "Ġsix": 5738,
      "ĠKiarabu": 5739,
      "dÃºgbÃ²": 5740,
      "olojia": 5741,
      "Son": 5742,
      "bed": 5743,
      "Ġsosai": 5744,
      "Ġkisiwa": 5745,
      "Ġmic": 5746,
      "ality": 5747,
      "abo": 5748,
      "Ġáį³áį": 5749,
      "ĠÃ¬á¹£áº¹": 5750,
      "ĠEle": 5751,
      "ĠÃ©lÃ©": 5752,
      "Ġharshen": 5753,
      "Ġkin": 5754,
      "Ġpili": 5755,
      "aster": 5756,
      "ĠMov": 5757,
      "ĠBraz": 5758,
      "ĠWh": 5759,
      "ĠFI": 5760,
      "ĠHispania": 5761,
      "rait": 5762,
      "teurs": 5763,
      "Ġwithin": 5764,
      "very": 5765,
      "ards": 5766,
      "ĠipÃ²": 5767,
      "fia": 5768,
      "rÃºn": 5769,
      "zing": 5770,
      "ĠTan": 5771,
      "áĮĪáĭį": 5772,
      "ĠAlakoso": 5773,
      "Ġkasuwanci": 5774,
      "2003": 5775,
      "Ġbinc": 5776,
      "ĠáĮ¥áĬķáī³áĭĬ": 5777,
      "dáº¹": 5778,
      "ged": 5779,
      "hol": 5780,
      "hÃ¹n": 5781,
      "Ġ+": 5782,
      "Ġ),": 5783,
      "ataifa": 5784,
      "Ġunivers": 5785,
      "Ġshida": 5786,
      "Ġcomplex": 5787,
      "shir": 5788,
      "Ġitace": 5789,
      "ĠAmerica": 5790,
      "Ġagbegbe": 5791,
      "Is": 5792,
      "Ġair": 5793,
      "enia": 5794,
      "Ġmanu": 5795,
      "Ġdeven": 5796,
      "ĠáĬłáĪģáĬķ": 5797,
      "áĭ¨áī°": 5798,
      "ĠáīĢáĬĵáīµ": 5799,
      "Ġ1964": 5800,
      "Ġtaken": 5801,
      "Ġfamille": 5802,
      "ĠáĪŀáīµ": 5803,
      "Ġconsidered": 5804,
      "Ġpriv": 5805,
      "view": 5806,
      "She": 5807,
      "ii": 5808,
      "alle": 5809,
      "unis": 5810,
      "Ġomi": 5811,
      "ades": 5812,
      "áĮĪáĪª": 5813,
      "rier": 5814,
      "ĠáĭŃáĪĭáĪį": 5815,
      "Ġáĭ¨áĪĻ": 5816,
      "ÆĻa": 5817,
      "ĠYe": 5818,
      "áĭ®áĪŃ": 5819,
      "vely": 5820,
      "ĠMarejeo": 5821,
      "ether": 5822,
      "sÃ¬kÃ²": 5823,
      "sociation": 5824,
      "Ġpouvoir": 5825,
      "Tana": 5826,
      "work": 5827,
      "eric": 5828,
      "erne": 5829,
      "ately": 5830,
      "Ġfem": 5831,
      "ĠMary": 5832,
      "abin": 5833,
      "Ġlafiya": 5834,
      "ĠRom": 5835,
      "áĪĽáī½": 5836,
      "Ġabub": 5837,
      "Ġgwamnatin": 5838,
      "ĠFilm": 5839,
      "ared": 5840,
      "ĠMai": 5841,
      "ĠMoh": 5842,
      "ries": 5843,
      "Ġdue": 5844,
      "ĠáĭĵáĪĪáĪĿ": 5845,
      "ĠáīłáĬłáĬķáĭµ": 5846,
      "Ġindivid": 5847,
      "aires": 5848,
      "tient": 5849,
      "ably": 5850,
      "inga": 5851,
      "lav": 5852,
      "Ġ1961": 5853,
      "Ġ1963": 5854,
      "issance": 5855,
      "Ãªtre": 5856,
      "áĪŃáĪµáī²áĭ«": 5857,
      "ĠáįĵáĪŃáī²": 5858,
      "Ġreturn": 5859,
      "AM": 5860,
      "gor": 5861,
      "rich": 5862,
      "ĠAD": 5863,
      "omp": 5864,
      "ĠBorn": 5865,
      "Ġjou": 5866,
      "ĠIk": 5867,
      "ĠOba": 5868,
      "áĭĪáĪŃ": 5869,
      "upi": 5870,
      "Ġclaim": 5871,
      "Tarehe": 5872,
      "42": 5873,
      "kÃŃ": 5874,
      "Ġneman": 5875,
      "áįĦ": 5876,
      "ĠMakar": 5877,
      "ico": 5878,
      "áĪĽáĪŃ": 5879,
      "ĠáĭĪáĪ¨": 5880,
      "áįĪáĪĪ": 5881,
      "áĭ®áĪµ": 5882,
      "Ġavoir": 5883,
      "áĪ»áĭİáī½": 5884,
      "There": 5885,
      "Ġigb": 5886,
      "ĠKwalejin": 5887,
      "Ġbelie": 5888,
      "Ġnov": 5889,
      "Ġáīłáīµ": 5890,
      "Ġtof": 5891,
      "ĠLi": 5892,
      "áī³áī¸áĭįáĬķ": 5893,
      "ĠáĬłáĬķáĭ³": 5894,
      "Ġpossible": 5895,
      "Ġincre": 5896,
      "ĠØ§ÙĦ": 5897,
      "áĪĵ": 5898,
      "Ġmiji": 5899,
      "Ġ(;": 5900,
      "áĪĪáī¥": 5901,
      "Ġver": 5902,
      "ĠRec": 5903,
      "áĭĭáīµ": 5904,
      "ocin": 5905,
      "Ġperform": 5906,
      "73": 5907,
      "pro": 5908,
      "tiki": 5909,
      "ĠNor": 5910,
      "iongozi": 5911,
      "ĠChrist": 5912,
      "ected": 5913,
      "ĠáĪĺáĬķáĮįáĪµáīµ": 5914,
      "Ġclim": 5915,
      "ĠNijar": 5916,
      "ĠáĬłáĬ«áĪį": 5917,
      "ĠHistory": 5918,
      "Ġalbum": 5919,
      "idÃ©": 5920,
      "Ġvery": 5921,
      "ester": 5922,
      "riban": 5923,
      "ÆĻin": 5924,
      "rÃ©e": 5925,
      "oju": 5926,
      "Ġmashariki": 5927,
      "Ġcapit": 5928,
      "Ġpresent": 5929,
      "Ces": 5930,
      "áĮ¹": 5931,
      "amma": 5932,
      "ĠTV": 5933,
      "áĮįáĪį": 5934,
      "áĮįáī£": 5935,
      "ĠOpen": 5936,
      "tÃłkÃ¬": 5937,
      "aliforn": 5938,
      "Ġdhidi": 5939,
      "Tangu": 5940,
      "Ġika": 5941,
      "Ġsch": 5942,
      "Ġste": 5943,
      "Ġmes": 5944,
      "Ġfle": 5945,
      "ĠCons": 5946,
      "ĠNÃŃ": 5947,
      "ĠRuss": 5948,
      "ĠUch": 5949,
      "ĠáĬ¥áĬķáĪµ": 5950,
      "Ġáī¥áĪĪáĭį": 5951,
      "Ġáĭ°áī¡áī¥": 5952,
      "Ġ60": 5953,
      "ĠMaria": 5954,
      "áĬĵáĪįáī£áīµ": 5955,
      "áĮłáīĢáĪĿ": 5956,
      "estival": 5957,
      "Ġkis": 5958,
      "Ġkoy": 5959,
      "ĠolÃº": 5960,
      "read": 5961,
      "ĠHol": 5962,
      "ĠÆĻungiyar": 5963,
      "Ġ1945": 5964,
      "Ġidenti": 5965,
      "Ġparticular": 5966,
      "Ġáĭ¨áĬĲáīłáĪ¨áĭį": 5967,
      "Ġkadhaa": 5968,
      "amaduni": 5969,
      "Ge": 5970,
      "kal": 5971,
      "Ġtant": 5972,
      "Ġsasa": 5973,
      "Ġcount": 5974,
      "Ġyaani": 5975,
      "Ġrik": 5976,
      "áĪ«áĭį": 5977,
      "irefu": 5978,
      "áī»áĭŃáĬĵ": 5979,
      "ĠAnnabi": 5980,
      "Ġnouveau": 5981,
      "ĠáĭŃáĪĺáĪµáĪĭáĪį": 5982,
      "eur": 5983,
      "hes": 5984,
      "jÃ²": 5985,
      "Î±": 5986,
      "Ġá¹¢": 5987,
      "Ġschool": 5988,
      "enant": 5989,
      "Ġband": 5990,
      "Ġrashin": 5991,
      "umm": 5992,
      "ĠGold": 5993,
      "ĠGwamn": 5994,
      "ĠJos": 5995,
      "dire": 5996,
      "ctor": 5997,
      "Ġá¹£Ã¹gbá»į": 5998,
      "áĪ©áĬķ": 5999,
      "Ġquelques": 6000,
      "áĭ¨áĪ±áĪµ": 6001,
      "Ùı": 6002,
      "áīº": 6003,
      "uts": 6004,
      "Ã¨rent": 6005,
      "ĠPak": 6006,
      "ĠWal": 6007,
      "ĠFM": 6008,
      "ĠRed": 6009,
      "aracter": 6010,
      "áĪĮáĬŃáīµ": 6011,
      "ikip": 6012,
      "ĠáĭµáĪĿ": 6013,
      "Ġ1968": 6014,
      "Ġscience": 6015,
      "islamu": 6016,
      "ĠÃģfrÃŃkÃł": 6017,
      "ĠáĬŃáĪįáĪį": 6018,
      "ĠáįĪáĪŃáĭĸ": 6019,
      "55": 6020,
      "ram": 6021,
      "Ġiy": 6022,
      "Ġchi": 6023,
      "Ġ(),": 6024,
      "uments": 6025,
      "riv": 6026,
      "Ġthose": 6027,
      "Ġamong": 6028,
      "ĠJapani": 6029,
      "Ġgreat": 6030,
      "ĠJamhuri": 6031,
      "usiness": 6032,
      "Wannan": 6033,
      "ling": 6034,
      "Ġx": 6035,
      "áī¼": 6036,
      "Ġcult": 6037,
      "yaume": 6038,
      "Ġbayar": 6039,
      "urt": 6040,
      "Ġwao": 6041,
      "ĠOff": 6042,
      "ticle": 6043,
      "rict": 6044,
      "anzishwa": 6045,
      "anzibar": 6046,
      "ĠáĬķáĮīáĪµ": 6047,
      "gbegbe": 6048,
      "Ġzaben": 6049,
      "Apr": 6050,
      "Â²": 6051,
      "ãĥ": 6052,
      "tie": 6053,
      "ĠMap": 6054,
      "áĪįáĭ°": 6055,
      "edi": 6056,
      "Ġipin": 6057,
      "Ġosere": 6058,
      "38": 6059,
      "Ġmjini": 6060,
      "ikan": 6061,
      "ĠTech": 6062,
      "áī¥áĭĻ": 6063,
      "apá»į": 6064,
      "Ġáĭ¨áĪļáĪį": 6065,
      "ekuwa": 6066,
      "ĠMusa": 6067,
      "ĠáĪĨáĬĲáĭį": 6068,
      "ĠÃ©conom": 6069,
      "ĠMos": 6070,
      "ĠNo": 6071,
      "akini": 6072,
      "ĠRome": 6073,
      "bihi": 6074,
      "áĬ©áĪį": 6075,
      "Ġtrouve": 6076,
      "áĮłáīĥáĪĭáĭŃ": 6077,
      "ĠÃ²á¹£erÃ©": 6078,
      "xe": 6079,
      "Ġaur": 6080,
      "Ġlike": 6081,
      "ĠSer": 6082,
      "olu": 6083,
      "identi": 6084,
      "áĬĲáīłáĪŃ": 6085,
      "ĠdÃ¡ra": 6086,
      "dinin": 6087,
      "Ġmpya": 6088,
      "Ġdoc": 6089,
      "Ġlieu": 6090,
      "Ġnaf": 6091,
      "ĠLugha": 6092,
      "Ġcomb": 6093,
      "ĠAlbert": 6094,
      "Ġsaur": 6095,
      "Itokasi": 6096,
      "Ġáĭ¨áĪĿáīµ": 6097,
      "bÃłdÃłn": 6098,
      "''": 6099,
      "43": 6100,
      "=\"": 6101,
      "histoire": 6102,
      "pÃ¹": 6103,
      "ĠnÃ¬": 6104,
      "entomon": 6105,
      "round": 6106,
      "ayansi": 6107,
      "agen": 6108,
      "áī³áĭ°": 6109,
      "ÃŃnÃŃ": 6110,
      "ĠÆ´": 6111,
      "Ġcontrol": 6112,
      "isÃ©": 6113,
      "amia": 6114,
      "áĪįáīµ": 6115,
      "ĠFul": 6116,
      "ĠJac": 6117,
      "okan": 6118,
      "Ġart": 6119,
      "anyika": 6120,
      "Ġmusic": 6121,
      "ĠáĪ³áĭŃáĪĨáĬķ": 6122,
      "cil": 6123,
      "ypt": 6124,
      "ĠáĭĲ": 6125,
      "áĭ«áĭį": 6126,
      "Ġlaw": 6127,
      "ÃºsÃ¹": 6128,
      "ĠCong": 6129,
      "ĠáĬłáī£áĪį": 6130,
      "ĠáĪĺáĮ»": 6131,
      "áĪ«áĪµ": 6132,
      "Ġetc": 6133,
      "hairi": 6134,
      "ĠOlymp": 6135,
      "ired": 6136,
      "Ġhawa": 6137,
      "áī²áĬķ": 6138,
      "rice": 6139,
      "ologique": 6140,
      "Ġ1959": 6141,
      "ĠAbubakar": 6142,
      "ĠIsra": 6143,
      "Ġposition": 6144,
      "ukumbu": 6145,
      "ĠÃłgbÃ©lÃ©wÃ²": 6146,
      "Kuna": 6147,
      "kawa": 6148,
      "ĠMass": 6149,
      "ĠMiji": 6150,
      "Ġáīłáīħ": 6151,
      "ĠNuwa": 6152,
      "Ġkuu": 6153,
      "Ġadop": 6154,
      "Ġdied": 6155,
      "ĠReg": 6156,
      "Mar": 6157,
      "iÃ¨me": 6158,
      "ĠJana": 6159,
      "Ġsuff": 6160,
      "ĠáĪĽáĪħ": 6161,
      "erial": 6162,
      "Ġautre": 6163,
      "Ġ1930": 6164,
      "Ġkáº¹ta": 6165,
      "Ġlangage": 6166,
      "Ġlitta": 6167,
      "ĠLove": 6168,
      "Ð¾": 6169,
      "áī¬": 6170,
      "Ġcat": 6171,
      "ĠBattle": 6172,
      "ĠWash": 6173,
      "ĠDay": 6174,
      "ĠáĪĪáĭį": 6175,
      "áĮłáįĭ": 6176,
      "ĠAlÃ¡": 6177,
      "ĠIntern": 6178,
      "Ġáĭ¨áī°áĪĪáĭ«áĭ©": 6179,
      "Ġáī³áĪĭáīħ": 6180,
      "Ġá»Įjá»į": 6181,
      "Ġrecord": 6182,
      "Ġtsawon": 6183,
      "ÃłÃłyÃ¨": 6184,
      "99": 6185,
      "Pour": 6186,
      "uer": 6187,
      "áĮ³": 6188,
      "ĠáĬĳ": 6189,
      "ithi": 6190,
      "Ġáĭ¨áĭ°": 6191,
      "Ġgoma": 6192,
      "ĠKal": 6193,
      "ĠnÃŃtorÃŃ": 6194,
      "Ġáī°áĬĲ": 6195,
      "Ġstart": 6196,
      "ĠGuinea": 6197,
      "áĪĦáĭµ": 6198,
      "ĠprÃ©sent": 6199,
      "ĠUmoja": 6200,
      "Ġmilitary": 6201,
      "ĠáĪĽáĪµáī³áĭĪ": 6202,
      "Ġede": 6203,
      "Ġtattalin": 6204,
      "asse": 6205,
      "Ġban": 6206,
      "Ġáĭ¨áĮĪ": 6207,
      "ĠalÃłÃłyÃ¨": 6208,
      "ĠÃ¬wá»į": 6209,
      "ĠEk": 6210,
      "warar": 6211,
      "Ġpeuvent": 6212,
      "áĪĥáĬķ": 6213,
      "ĠThomas": 6214,
      "ĠáīłáĬ¥áĬķáĮįáĪĬáĭĿáĬĽ": 6215,
      "gbÃ¡yÃ©": 6216,
      "Ġprogram": 6217,
      "finition": 6218,
      "Ġlabarai": 6219,
      "Ġtofauti": 6220,
      "Manazarta": 6221,
      "Re": 6222,
      "µáį": 6223,
      "Ġnat": 6224,
      "Ġkumb": 6225,
      "ĠáĬłáĭµ": 6226,
      "Ġ2021": 6227,
      "ĠÃ¬bÃŃláº¹": 6228,
      "ĠÃ©qu": 6229,
      "áĪİáĬķ": 6230,
      "Ġ1957": 6231,
      "ĠÉĹa": 6232,
      "Ġidan": 6233,
      "Ġpremiers": 6234,
      "ĠApollo": 6235,
      "Ġkabisa": 6236,
      "Ġshirye": 6237,
      "Ġservice": 6238,
      "Wakati": 6239,
      "ĠpÃłtÃłkÃ¬": 6240,
      "Ġbakwai": 6241,
      "Ġastron": 6242,
      "hÃłn": 6243,
      "Ġdubu": 6244,
      "Ġkung": 6245,
      "Ġmik": 6246,
      "Ġdef": 6247,
      "umla": 6248,
      "ĠTer": 6249,
      "ĠGáº¹": 6250,
      "ĠJuli": 6251,
      "finai": 6252,
      "ĠIbra": 6253,
      "yÃłwÃ³": 6254,
      "88": 6255,
      "Wak": 6256,
      "Ð¸": 6257,
      "onti": 6258,
      "Ġsug": 6259,
      "Ġcy": 6260,
      "Ġbabbar": 6261,
      "ilitÃ©": 6262,
      "ĠAgba": 6263,
      "ĠMul": 6264,
      "áĪµáī±": 6265,
      "Ġtaf": 6266,
      "osp": 6267,
      "áĭ¨áĭį": 6268,
      "Ġkwam": 6269,
      "ende": 6270,
      "Ġseule": 6271,
      "ĠFrank": 6272,
      "cer": 6273,
      "hui": 6274,
      "nel": 6275,
      "ĠáĪ©": 6276,
      "Ã©ro": 6277,
      "asion": 6278,
      "ĠSin": 6279,
      "Ġáīłáĭļáĭ«": 6280,
      "ĠÃ¬f": 6281,
      "assan": 6282,
      "ĠArch": 6283,
      "And": 6284,
      "áĮłáĪį": 6285,
      "onnement": 6286,
      "ĠáĪĢáĮĪáĪŃ": 6287,
      "ĠgÃ©nÃ©ral": 6288,
      "ĠMichael": 6289,
      "Ġdeveloped": 6290,
      "ederal": 6291,
      "aissance": 6292,
      "Mji": 6293,
      "http": 6294,
      "ĠkÃ¬": 6295,
      "Ã©pend": 6296,
      "Ġfre": 6297,
      "ablished": 6298,
      "ĠPop": 6299,
      "Ġele": 6300,
      "áįįáĬĵ": 6301,
      "áīłáĪĮ": 6302,
      "eneral": 6303,
      "áĮ¥áĬķáī³áĭĬ": 6304,
      "ĠAbuja": 6305,
      "Ġkale": 6306,
      "Ġmuda": 6307,
      "Ġborn": 6308,
      "Ġhead": 6309,
      "áĪ±áĬķ": 6310,
      "Ġauthor": 6311,
      "Ġpoli": 6312,
      "Ġmwanasiasa": 6313,
      "Ġáĭ¨áī°áī£áĪĪáĭį": 6314,
      "Ġmuhimu": 6315,
      "Ġhankali": 6316,
      "ĠspÃ©ci": 6317,
      "yer": 6318,
      "ĠdÃł": 6319,
      "estion": 6320,
      "Ġcad": 6321,
      "ĠKit": 6322,
      "Ġtayi": 6323,
      "ĠáįĢ": 6324,
      "ĠáĭŃáĭĪ": 6325,
      "Ġáĭ¨áĪĮ": 6326,
      "áĬĲáīµáĬķ": 6327,
      "century": 6328,
      "Ġtarihin": 6329,
      "ocratic": 6330,
      "ĠáĭĻáĪªáĭ«": 6331,
      "ĠInstitute": 6332,
      "uz": 6333,
      "áĪŃáĪĭáĬķáĭµ": 6334,
      "Ġwurin": 6335,
      "ĠSah": 6336,
      "Ã¨de": 6337,
      "Ã¨mes": 6338,
      "ĠNord": 6339,
      "ingia": 6340,
      "Ġalong": 6341,
      "lafa": 6342,
      "obin": 6343,
      "áī¶áī¹": 6344,
      "Ġiá¹£": 6345,
      "áĪ²áĬķ": 6346,
      "2007": 6347,
      "Ġ1952": 6348,
      "Ġcentre": 6349,
      "Ġmuch": 6350,
      "ĠáĬ¥áĮħáĮį": 6351,
      "itzer": 6352,
      "Ġaina": 6353,
      "Ġstill": 6354,
      "áĪŃáĮį": 6355,
      "ĠáĮĨ": 6356,
      "ĠIgb": 6357,
      "áīłáĭį": 6358,
      "ĠFl": 6359,
      "áĬŃáĪĪ": 6360,
      "ĠEr": 6361,
      "áĭ¨áĪĺ": 6362,
      "ĠzaÉĵ": 6363,
      "ither": 6364,
      "186": 6365,
      "Ġá»ĮdÃºn": 6366,
      "Ġdiscov": 6367,
      "áī¨áĪŃ": 6368,
      "Ġayyukan": 6369,
      "Ãītat": 6370,
      "jan": 6371,
      "Î¿": 6372,
      "Ġline": 6373,
      "Ġkij": 6374,
      "áĭŃáĬĲáīµ": 6375,
      "Ġalm": 6376,
      "Ġá»įká»į": 6377,
      "ariya": 6378,
      "áĭĺáī¥": 6379,
      "ĠIsland": 6380,
      "ĠIslam": 6381,
      "Ġrepresent": 6382,
      "Ġnombreuses": 6383,
      "Ġgrec": 6384,
      "ĠWakristo": 6385,
      "sÃ³": 6386,
      "Ġtard": 6387,
      "enz": 6388,
      "Ġnorm": 6389,
      "Ġlet": 6390,
      "Ã©qu": 6391,
      "adil": 6392,
      "áĬĲáīłáĪ¨": 6393,
      "cian": 6394,
      "ĠÃ¬l": 6395,
      "áĬ¨áĪŃ": 6396,
      "Ġparfois": 6397,
      "áĬ«áī£áī¢": 6398,
      "ĠAdam": 6399,
      "Ã®le": 6400,
      "ĠMayu": 6401,
      "Ġgwamnati": 6402,
      "ĠIbrahim": 6403,
      "sÃł": 6404,
      "Ġmouv": 6405,
      "Ġcaus": 6406,
      "imba": 6407,
      "ĠWat": 6408,
      "Ġens": 6409,
      "áĪªáī³": 6410,
      "gaj": 6411,
      "Ġusing": 6412,
      "ĠáĬ«áĪį": 6413,
      "Ġmilima": 6414,
      "ĠolÃ³á¹£Ã¨lÃº": 6415,
      "Ġkimanin": 6416,
      "ĠAngel": 6417,
      "ĠAustria": 6418,
      "ĠMartin": 6419,
      "CC": 6420,
      "Pro": 6421,
      "ĠdÃº": 6422,
      "Ġdok": 6423,
      "Ġsou": 6424,
      "Ġmch": 6425,
      "Ġwo": 6426,
      "ĠBern": 6427,
      "ĠLim": 6428,
      "Ġred": 6429,
      "fique": 6430,
      "Ġ1958": 6431,
      "Ġ1940": 6432,
      "):": 6433,
      "arth": 6434,
      "Ġsor": 6435,
      "Ġnit": 6436,
      "Ġnuc": 6437,
      "Ġnasara": 6438,
      "Ġhili": 6439,
      "Ġweb": 6440,
      "áĬŃáĪŃáĪµáī²áĭ«áĬķ": 6441,
      "ĠHouse": 6442,
      "Ġkasashen": 6443,
      "Ġmathem": 6444,
      "Ġavait": 6445,
      "ĠArt": 6446,
      "Ġmilioni": 6447,
      "Ġcerta": 6448,
      "Ġkirk": 6449,
      "wÃ¹": 6450,
      "ĠAwá»įn": 6451,
      "icain": 6452,
      "Ã¨le": 6453,
      "ĠChin": 6454,
      "áĮĪáĬĽ": 6455,
      "ĠáĪĺáĪ¨áĮĥ": 6456,
      "Ġila": 6457,
      "ĠáĪĽáĮ£": 6458,
      "ditions": 6459,
      "áī²áĬŃ": 6460,
      "illed": 6461,
      "lication": 6462,
      "Ġsignific": 6463,
      "ĠTurai": 6464,
      "ĠcaractÃ©r": 6465,
      "Europe": 6466,
      "daban": 6467,
      "tum": 6468,
      "itokea": 6469,
      "urr": 6470,
      "ĠMc": 6471,
      "ĠKij": 6472,
      "ister": 6473,
      "Ġrecher": 6474,
      "ract": 6475,
      "Ġcountry": 6476,
      "pasáº¹": 6477,
      "lus": 6478,
      "wili": 6479,
      "ĠáĬłáĬĲ": 6480,
      "Ġve": 6481,
      "ĠYoh": 6482,
      "Ġcharacter": 6483,
      "áĭĺáĬķ": 6484,
      "Ã©rature": 6485,
      "2015": 6486,
      "ĠMaris": 6487,
      "Ġcourt": 6488,
      "ĠPremi": 6489,
      "Ã¡Ã¬sÃŃ": 6490,
      "41": 6491,
      "John": 6492,
      "con": 6493,
      "rÃ¹": 6494,
      "ture": 6495,
      "ĠowÃ³": 6496,
      "ilt": 6497,
      "abab": 6498,
      "ĠBest": 6499,
      "ayÃ©": 6500,
      "ĠGÃ³mÃ¬nÃł": 6501,
      "ĠFab": 6502,
      "áĪ³áī°": 6503,
      "ĠáĭŃáī»": 6504,
      "ĠáīłáĪį": 6505,
      "ĠÃ©tant": 6506,
      "áĪĪáī°áĬĽáĭį": 6507,
      "ĠRichard": 6508,
      "ĠáīłáĬ©áĪį": 6509,
      "lie": 6510,
      "mark": 6511,
      "áĬ½": 6512,
      "áĬĭáĪĭ": 6513,
      "inf": 6514,
      "áīµáĪĿ": 6515,
      "Ġbá»į": 6516,
      "áĭ«áĪµ": 6517,
      "ĠáĬ¥áĭµ": 6518,
      "ĠáĪĺáĪĪ": 6519,
      "agb": 6520,
      "ĠHigh": 6521,
      "ĠAnt": 6522,
      "ĠáĬ¥áĬķáĭ°áĪĨáĬĲ": 6523,
      "ĠapÃ¡": 6524,
      "Ã¨rement": 6525,
      "Ġdiffic": 6526,
      "ethod": 6527,
      "ĠÆ³": 6528,
      "dÃŃnlÃ³gÃºn": 6529,
      "77": 6530,
      "Ki": 6531,
      "cap": 6532,
      "Ġ$": 6533,
      "Ġ<": 6534,
      "áĬ¾": 6535,
      "Ġkur": 6536,
      "ĠÃ®": 6537,
      "ĠMy": 6538,
      "ĠCaliforn": 6539,
      "ĠIjoba": 6540,
      "Ġaliye": 6541,
      "Ġmaana": 6542,
      "áī¸áĭĭáĪį": 6543,
      "ĠChamp": 6544,
      "Ġesp": 6545,
      "Ġáĭ¨áĪĨáĬĳ": 6546,
      "ĠTrans": 6547,
      "Ġáĭ©áĬĴ": 6548,
      "Ø¨": 6549,
      "Ġlow": 6550,
      "adhim": 6551,
      "áī¥áĪĬáĬŃ": 6552,
      "ĠWatu": 6553,
      "Ġáĭ«áĪī": 6554,
      "ĠVer": 6555,
      "Ġfield": 6556,
      "Ã¢te": 6557,
      "ĠdÃ©sign": 6558,
      "hief": 6559,
      "Ġkumbukumbu": 6560,
      "AR": 6561,
      "áĬķáĮ«": 6562,
      "Ġáĭ¨áĪĭ": 6563,
      "utÃ©": 6564,
      "áīłáĬĽ": 6565,
      "áĪ«áĪĿ": 6566,
      "Ġáī°áīĭ": 6567,
      "aff": 6568,
      "ĠdÃ©cl": 6569,
      "ensi": 6570,
      "These": 6571,
      "Ġtravers": 6572,
      "áįĵáĬķáĭ«": 6573,
      "Ġsakand": 6574,
      "Ġáīłáĭ°áī¡áī¥": 6575,
      "ĠPeter": 6576,
      "56": 6577,
      "58": 6578,
      "ĠtÃ©lÃ©": 6579,
      "Ġpendant": 6580,
      "áĭ«áĭ«": 6581,
      "igo": 6582,
      "Ġils": 6583,
      "Ana": 6584,
      "áīģáĪŃ": 6585,
      "Ġvarious": 6586,
      "Ġlilikuwa": 6587,
      "Ġgiven": 6588,
      "ĠFIFA": 6589,
      "áĬ¡": 6590,
      "Ġsune": 6591,
      "alÃ¡Ã¬sÃŃ": 6592,
      "Ġfili": 6593,
      "áĪĪáĭ°": 6594,
      "ĠáĪĺáĭĭ": 6595,
      "ĠÆĻid": 6596,
      "Ġmwisho": 6597,
      "ĠáĬ«áĪĮ": 6598,
      "wards": 6599,
      "ĠÃ©taient": 6600,
      "Awon": 6601,
      "bro": 6602,
      "Ġsett": 6603,
      "Ġmirefu": 6604,
      "Ġcode": 6605,
      "Ġwaka": 6606,
      "Ġhuu": 6607,
      "Ġinform": 6608,
      "Ġindepend": 6609,
      "abijin": 6610,
      "igu": 6611,
      "Ġund": 6612,
      "ĠVict": 6613,
      "Ġshort": 6614,
      "aja": 6615,
      "ĠAfr": 6616,
      "áĭĽáĪ¬": 6617,
      "Ġrelations": 6618,
      "Ġwadda": 6619,
      "Ġoriginal": 6620,
      "Ġajili": 6621,
      "Ġnafasi": 6622,
      "Bi": 6623,
      "lov": 6624,
      "ÙĴ": 6625,
      "áĮ¼": 6626,
      "oris": 6627,
      "amani": 6628,
      "Ġ(,": 6629,
      "ĠMw": 6630,
      "áĬĲáī¶áī½": 6631,
      "ĠáĪĺáī¶": 6632,
      "ĠGa": 6633,
      "ĠDut": 6634,
      "áĮ¥áĪĿ": 6635,
      "ÆĻi": 6636,
      "áįĪáĬķ": 6637,
      "Ġwhat": 6638,
      "Ġáĭ¨áī°áĬŃáĪī": 6639,
      "áĪ©áĪĿ": 6640,
      "áī¢áīµ": 6641,
      "ĠprÃ©sident": 6642,
      "ĠIndiya": 6643,
      "ĠrÃ¨g": 6644,
      "atholic": 6645,
      "44": 6646,
      "71": 6647,
      "dic": 6648,
      "Ġnow": 6649,
      "ĠSak": 6650,
      "quer": 6651,
      "ĠáīłáĬ¨": 6652,
      "riÃ¨re": 6653,
      "Ġeven": 6654,
      "Ġremp": 6655,
      "áīĢáĪį": 6656,
      "Ġcompany": 6657,
      "ĠAss": 6658,
      "Ġ1956": 6659,
      "Ġwalio": 6660,
      "Papa": 6661,
      "esu": 6662,
      "Ġmkoa": 6663,
      "Ġcase": 6664,
      "Ġáĭ¨áįĸ": 6665,
      "ĠSing": 6666,
      "ĠRh": 6667,
      "Ġá»įba": 6668,
      "áĬłáĭŃ": 6669,
      "ankin": 6670,
      "prim": 6671,
      "ĠNiger": 6672,
      "ografia": 6673,
      "Ġwalikuwa": 6674,
      "Ġmapokeo": 6675,
      "Ġmengine": 6676,
      "ĠTanbihi": 6677,
      "darÃŃ": 6678,
      "gem": 6679,
      "Ġtá»į": 6680,
      "Ġlate": 6681,
      "Ġlett": 6682,
      "Ġcika": 6683,
      "utes": 6684,
      "áī³áī½áĬķ": 6685,
      "ogni": 6686,
      "lied": 6687,
      "Ġsucc": 6688,
      "áĪĬáĭ®áĬķ": 6689,
      "Ġhizi": 6690,
      "áĭ°áĪ¨áĮī": 6691,
      "Ġrayuwar": 6692,
      "Ġgouvernement": 6693,
      "pir": 6694,
      "vin": 6695,
      "unar": 6696,
      "ĠMs": 6697,
      "Ġtook": 6698,
      "ĠáĭŃáĮłáīĢ": 6699,
      "ĠáīłáĪ¨": 6700,
      "engo": 6701,
      "ĠáĮĪáī¥": 6702,
      "Ġmiliyan": 6703,
      "ennent": 6704,
      "ĠáĭĵáĪĺáī±": 6705,
      "ĠOlÃ³": 6706,
      "ĠTarayyar": 6707,
      "IC": 6708,
      "wun": 6709,
      "arm": 6710,
      "irÃŃ": 6711,
      "Ġjin": 6712,
      "áĭµáĪµáīµ": 6713,
      "ops": 6714,
      "á¹£Ã²": 6715,
      "áįįáĪªáĬ«": 6716,
      "Ġbaadaye": 6717,
      "arkon": 6718,
      "ticles": 6719,
      "2016": 6720,
      "áĬĳáĪµ": 6721,
      "Ġhel": 6722,
      "áĮłáĪĭ": 6723,
      "03": 6724,
      "79": 6725,
      "Awá»įn": 6726,
      "BA": 6727,
      "Nig": 6728,
      "Ðµ": 6729,
      "áĭ£": 6730,
      "Ġdyn": 6731,
      "Ġáĭ±": 6732,
      "Ġlast": 6733,
      "ĠkÃł": 6734,
      "Ġbre": 6735,
      "ĠÃłp": 6736,
      "áĪĪáĭĭáĪį": 6737,
      "ĠBy": 6738,
      "agon": 6739,
      "ĠFa": 6740,
      "ĠJi": 6741,
      "Ġegbe": 6742,
      "Ġ--": 6743,
      "áĭ¨áĬłáĪ": 6744,
      "áīħáĪµ": 6745,
      "Ġquatre": 6746,
      "aje": 6747,
      "ĠZanzibar": 6748,
      "sÃŃtÃ¬": 6749,
      "ĠsociÃ©tÃ©": 6750,
      "Ġáĭ¨áĪ°áĭį": 6751,
      "Ġdroit": 6752,
      "ootball": 6753,
      "hal": 6754,
      "jourd": 6755,
      "nÃ©": 6756,
      "Ġtab": 6757,
      "uniyar": 6758,
      "andid": 6759,
      "icha": 6760,
      "ĠWomen": 6761,
      "Ġáį«": 6762,
      "áĪªáīµ": 6763,
      "ĠáĬłáĪ°": 6764,
      "áĬ¨áĪ«": 6765,
      "ĠáīµáĪįáīħ": 6766,
      "áĬ¥áĮįáĭļáĬłáī¥áĪĶáĪŃ": 6767,
      "ĠAssociation": 6768,
      "Ġcoup": 6769,
      "ĠáĪľáīµáĪŃ": 6770,
      "fuatana": 6771,
      "mÃ²": 6772,
      "xi": 6773,
      "Ġtalla": 6774,
      "Ã©li": 6775,
      "olo": 6776,
      "ĠBrit": 6777,
      "Ġjeshi": 6778,
      "áĮĪáĬĲ": 6779,
      "ĠWá»į": 6780,
      "ĠÃ¬dÃ¡": 6781,
      "Ġmusique": 6782,
      "ĠáĪķáĭĿ": 6783,
      "Ã¢ce": 6784,
      "ĠáĪĺáĮłáĬķ": 6785,
      "ĠSociety": 6786,
      "ĠáįķáĪ¬áĭļ": 6787,
      "Acc": 6788,
      "Ġnouvelle": 6789,
      "ĠMt": 6790,
      "Ġdeg": 6791,
      "ĠáĭįáĮ¤": 6792,
      "ĠÃĮbÃłdÃłn": 6793,
      "ĠArts": 6794,
      "Ġiwe": 6795,
      "ĠáĪ¥áĪĭáĪ´": 6796,
      "embre": 6797,
      "Ġkáº¹rin": 6798,
      "Ġbuild": 6799,
      "Ġáĭŀ": 6800,
      "ĠlÃ²": 6801,
      "Ġkofin": 6802,
      "Ġhydro": 6803,
      "Ġoffic": 6804,
      "ĠCa": 6805,
      "Ã¬má»į": 6806,
      "araka": 6807,
      "áī£áĪī": 6808,
      "neo": 6809,
      "ikiwa": 6810,
      "áĪŀáīµ": 6811,
      "Ġakoko": 6812,
      "Ġsupp": 6813,
      "Ġwengine": 6814,
      "Ġzinaz": 6815,
      "Lakini": 6816,
      "Ġdim": 6817,
      "Ġkundi": 6818,
      "Ã©poque": 6819,
      "asashen": 6820,
      "ĠÃłÃł": 6821,
      "Ġanal": 6822,
      "wararr": 6823,
      "ĠlÃ¡báº¹": 6824,
      "áĭķáĭĿ": 6825,
      "áĬķáĭ³áĪŃ": 6826,
      "III": 6827,
      "Ġancient": 6828,
      "ĠáĮįáī¥áĮ½": 6829,
      "ĠáĭŃáī»áĪĭáĪį": 6830,
      "Ġ~": 6831,
      "itan": 6832,
      "ĠMer": 6833,
      "Ġhilo": 6834,
      "ribut": 6835,
      "ohann": 6836,
      "Ġ80": 6837,
      "Ġ1947": 6838,
      "Ġ1948": 6839,
      "áĬ¨áī°áĪĪáĭį": 6840,
      "Da": 6841,
      "self": 6842,
      "Ġdip": 6843,
      "ilin": 6844,
      "Ġfus": 6845,
      "áĪµáī°áĬĽ": 6846,
      "ĠKale": 6847,
      "osph": 6848,
      "ĠáĬ¨áĪĽ": 6849,
      "áĭ³áĮħ": 6850,
      "áĬłáĬķ": 6851,
      "Ġold": 6852,
      "ĠáĭµáĬķ": 6853,
      "ĠLeague": 6854,
      "Ġayáº¹": 6855,
      "Ġpublished": 6856,
      "Ġdevelopment": 6857,
      "Ġstructure": 6858,
      "ĠáĮ½áĪĳáįį": 6859,
      "ĠPakistan": 6860,
      "96": 6861,
      "Agbegbe": 6862,
      "oe": 6863,
      "Ġtatu": 6864,
      "Ġkina": 6865,
      "Ġgbe": 6866,
      "olis": 6867,
      "ĠáĪĪáī°": 6868,
      "Ġami": 6869,
      "ĠáĬ¥áĬķáĭ°áī°": 6870,
      "ĠáīłáĪĺáĪĨáĬĳ": 6871,
      "illeurs": 6872,
      "Ġprom": 6873,
      "Ġhistoria": 6874,
      "Ġviol": 6875,
      "ĠBrazil": 6876,
      "ĠÆ³an": 6877,
      "Ø¯": 6878,
      "Ġpot": 6879,
      "áĪĪáĪģ": 6880,
      "ĠPri": 6881,
      "Ġzake": 6882,
      "ĠUmar": 6883,
      "áĪ¥áī±": 6884,
      "udies": 6885,
      "ĠáĪħáĭĿáī¥": 6886,
      "Ġagric": 6887,
      "Ġkabila": 6888,
      "ĠYoruba": 6889,
      "ĠUrusi": 6890,
      "áĮİáĪŃáĮİáĪŃ": 6891,
      "Alex": 6892,
      "hara": 6893,
      "tition": 6894,
      "Ġhudu": 6895,
      "irika": 6896,
      "áī½áĪį": 6897,
      "ems": 6898,
      "Ġnipa": 6899,
      "ĠJama": 6900,
      "áĭ³áĬķáīµ": 6901,
      "pele": 6902,
      "áĬłáĪį": 6903,
      "ĠáĪµáĪĪáĭļáĪħ": 6904,
      "Ġpermett": 6905,
      "ĠYohane": 6906,
      "Vi": 6907,
      "dis": 6908,
      "kn": 6909,
      "Ġtabb": 6910,
      "Ġcivil": 6911,
      "Ġfact": 6912,
      "ÃºÃºsÃ¹": 6913,
      "Ġjour": 6914,
      "uls": 6915,
      "ĠáĬłáī£áīµ": 6916,
      "ĠHaut": 6917,
      "opa": 6918,
      "Ġanother": 6919,
      "Ġcomputer": 6920,
      "ĠIbile": 6921,
      "Ġambako": 6922,
      "Ġmfano": 6923,
      "Ġhakan": 6924,
      "áĬ³áĬķ": 6925,
      "ĠáĪĿáĬķáĮŃ": 6926,
      "Ġáĭ¨áĪĺáĮĢáĪĺáĪªáĭ«áĭį": 6927,
      "ĠBello": 6928,
      "ĠáĭµáĪŃáĮħáīµ": 6929,
      "tan": 6930,
      "áī§": 6931,
      "Ġtir": 6932,
      "ishe": 6933,
      "Ġwats": 6934,
      "Ġhuman": 6935,
      "atia": 6936,
      "abiwa": 6937,
      "imfuata": 6938,
      "ĠáĬłáĭ¨áĪŃ": 6939,
      "Ġniveau": 6940,
      "ĠWam": 6941,
      "áī£áī¥": 6942,
      "Ġáĭ¨áĬĸ": 6943,
      "ugal": 6944,
      "Ġforce": 6945,
      "aisari": 6946,
      "ĠáĬŃáĪŃáĪµáī¶áĪµ": 6947,
      "Ġmash": 6948,
      "Ġappar": 6949,
      "Ġautom": 6950,
      "Ġkusa": 6951,
      "ĠáįĬáĭ°áĪį": 6952,
      "ĠáĪ«áĪµ": 6953,
      "ĠMagharibi": 6954,
      "Ġreste": 6955,
      "ĠFrancis": 6956,
      "ghan": 6957,
      "áĮ¾": 6958,
      "Ġpal": 6959,
      "ĠKig": 6960,
      "Ã¨se": 6961,
      "Ġjimbo": 6962,
      "ĠCount": 6963,
      "Ġ1920": 6964,
      "chÃ©": 6965,
      "áĪĭáĬķ": 6966,
      "ĠáīłáĪĨ": 6967,
      "áĬ¨áī¥": 6968,
      "áĭĽáĭĿ": 6969,
      "anzisha": 6970,
      "erbaij": 6971,
      "ĠMkuu": 6972,
      "Ġsource": 6973,
      "ĠáĬłáĭŃáĭ°áĪĪáĪĿ": 6974,
      "ĠHukumar": 6975,
      "anus": 6976,
      "ĠSala": 6977,
      "ĠáīłáĪ«": 6978,
      "Ġasali": 6979,
      "cesse": 6980,
      "Ġadv": 6981,
      "ambia": 6982,
      "ĠEnugu": 6983,
      "Ġ70": 6984,
      "áĮ¡áīµ": 6985,
      "umbers": 6986,
      "coup": 6987,
      "ĠáĬłáĬķáĭ³áĬķáĭµ": 6988,
      "Ap": 6989,
      "mai": 6990,
      "tÃ¡": 6991,
      "itants": 6992,
      "Ġhand": 6993,
      "ĠShi": 6994,
      "ĠStr": 6995,
      "ĠBak": 6996,
      "Ġjá»į": 6997,
      "ĠCO": 6998,
      "ĠNd": 6999,
      "uble": 7000,
      "ĠÃ©v": 7001,
      "ovuti": 7002,
      "ojin": 7003,
      "áĬĿáĬĲáīµ": 7004,
      "ĠáīģáĮ¥": 7005,
      "Ġgeneral": 7006,
      "Ġattack": 7007,
      "34": 7008,
      "Ex": 7009,
      "met": 7010,
      "well": 7011,
      "Ġkare": 7012,
      "áĪįáĬķ": 7013,
      "ĠSovi": 7014,
      "ĠSikukuu": 7015,
      "agun": 7016,
      "áĪ«áĬ¤áĪį": 7017,
      "áīłáĪ¬": 7018,
      "áĭĿáĪĽáī½": 7019,
      "Ġkowa": 7020,
      "Ġcertain": 7021,
      "ĠáĬłáĪĿáĪĭáĬŃ": 7022,
      "gajiya": 7023,
      "98": 7024,
      "Jina": 7025,
      "uff": 7026,
      "arwa": 7027,
      "Ġmyth": 7028,
      "orph": 7029,
      "áĪŃáĬķ": 7030,
      "ĠAv": 7031,
      "áĪµáī¶": 7032,
      "Ġgaban": 7033,
      "Ġroma": 7034,
      "ĠÃłjá»į": 7035,
      "ido": 7036,
      "Ġvon": 7037,
      "ĠZe": 7038,
      "ched": 7039,
      "Ġgbá»į": 7040,
      "ĠáĬ¨áī°áĪĽáĭį": 7041,
      "Ġhuadhim": 7042,
      "ĠMusic": 7043,
      "Ġprofession": 7044,
      "ĠáīłáĪĻáĪī": 7045,
      "Ġmnamo": 7046,
      "ĠTechn": 7047,
      "rad": 7048,
      "Ġsar": 7049,
      "ĠMod": 7050,
      "quel": 7051,
      "ĠáĪĺáĪ³": 7052,
      "ĠáĪĺáĮ¥": 7053,
      "áīłáī³áĪį": 7054,
      "ĠáĬ¨áĪ°": 7055,
      "Ġread": 7056,
      "ĠtÃŃtÃŃ": 7057,
      "áĬ«áī³": 7058,
      "Ġestablished": 7059,
      "ĠáĬ¥áĬķáĭ°áĮĪáĬĵ": 7060,
      "ĠMaka": 7061,
      "Ġbirth": 7062,
      "Ġagba": 7063,
      "Ġmahali": 7064,
      "Ġabinci": 7065,
      "ĠhaÉĹa": 7066,
      "Ġmembers": 7067,
      "Ġhannu": 7068,
      "ĠDelta": 7069,
      "ĠáĪĽáĪŃáīĨáĪµ": 7070,
      "95": 7071,
      "Des": 7072,
      "Ġsáº¹": 7073,
      "Ġday": 7074,
      "Ġgwa": 7075,
      "áĭ«áĭĿ": 7076,
      "Ġep": 7077,
      "ĠáīłáĬ¢": 7078,
      "ĠShug": 7079,
      "Ġcommunes": 7080,
      "ĠÆĻidayar": 7081,
      "ĠáĬ«áĪĮáĬķáĭ³áĪŃ": 7082,
      "During": 7083,
      "utilis": 7084,
      "onia": 7085,
      "Ġkoloni": 7086,
      "Ġbikin": 7087,
      "eda": 7088,
      "ĠKasa": 7089,
      "ĠCibiyar": 7090,
      "Ġcommune": 7091,
      "áīĭáĬķáīĭ": 7092,
      "Ġ1951": 7093,
      "Ġallow": 7094,
      "áĬķáĭ³áĬķáĭµ": 7095,
      "ĠutilisÃ©": 7096,
      "áĮİáĪŃáĮİáĪŃáĭ«áĬķ": 7097,
      "vement": 7098,
      "ysi": 7099,
      "Ġcame": 7100,
      "Ġway": 7101,
      "abaki": 7102,
      "ĠáĪĺáĮ£": 7103,
      "istance": 7104,
      "kea": 7105,
      "áĪŀáĬŃ": 7106,
      "pain": 7107,
      "Ġouv": 7108,
      "onique": 7109,
      "ĠáįķáĪ®": 7110,
      "áĮ£áĪįáĭ«áĬķ": 7111,
      "Waliozaliwa": 7112,
      "ĠHotuna": 7113,
      "ĠáīłáĪ½áī³": 7114,
      "ĠMakarantar": 7115,
      "ĠNuwamba": 7116,
      "ĠáĪĽáĮ£áīĢ": 7117,
      "cel": 7118,
      "arn": 7119,
      "Ġdate": 7120,
      "ĠáĬĹ": 7121,
      "áĪįáĮħ": 7122,
      "omina": 7123,
      "Ġáī°áĬĵ": 7124,
      "stant": 7125,
      "Ġ1954": 7126,
      "embl": 7127,
      "Ã®tre": 7128,
      "ĠhaÉĹin": 7129,
      "Ġtimes": 7130,
      "ĠáĪİ": 7131,
      "áĪįáįį": 7132,
      "áī°áĬĽáĭį": 7133,
      "áĪĺáĪ«": 7134,
      "ĠLand": 7135,
      "ĠyÃłn": 7136,
      "áĪ«áĪ½": 7137,
      "Ġrele": 7138,
      "ĠUN": 7139,
      "issent": 7140,
      "áĪµáīµáĬĵ": 7141,
      "Ġibile": 7142,
      "ĠgboyÃ¨": 7143,
      "ĠMuhammadu": 7144,
      "ĠCanada": 7145,
      "ĠWashington": 7146,
      "By": 7147,
      "rest": 7148,
      "anish": 7149,
      "Ġdal": 7150,
      "orie": 7151,
      "amakon": 7152,
      "ombo": 7153,
      "ĠSil": 7154,
      "Ġáīłáįį": 7155,
      "aries": 7156,
      "ĠáĪĿáĬĵáĪįáī£áīµ": 7157,
      "Ġsepar": 7158,
      "2010": 7159,
      "2014": 7160,
      "áĮİáĬķ": 7161,
      "áĬłáĪĿ": 7162,
      "ideo": 7163,
      "idae": 7164,
      "ĠáĬłáĪĪáĪĿ": 7165,
      "Ġayant": 7166,
      "áĭ³áĬķáĭ±": 7167,
      "ĠOrÃŃláº¹": 7168,
      "Åĵuvre": 7169,
      "ifÃ¡sÃŃtÃ¬": 7170,
      "áĭ®áĪŃáĮĬ": 7171,
      "Some": 7172,
      "lles": 7173,
      "iman": 7174,
      "ĠNic": 7175,
      "âĢľ": 7176,
      "Ġrev": 7177,
      "Ġjeu": 7178,
      "áĭ´áīµ": 7179,
      "jÃ¡de": 7180,
      "Ġworks": 7181,
      "Ġretro": 7182,
      "ĠEuropean": 7183,
      "Ġwritten": 7184,
      "Ġyamma": 7185,
      "ĠBorno": 7186,
      "AprÃ¨s": 7187,
      "ĠCongress": 7188,
      "Mah": 7189,
      "comm": 7190,
      "anzi": 7191,
      "ĠAst": 7192,
      "áĪįáīģ": 7193,
      "áĪµáĪĿ": 7194,
      "Ġwid": 7195,
      "ĠKÃ¡": 7196,
      "ĠCam": 7197,
      "ĠNations": 7198,
      "ĠUt": 7199,
      "ubali": 7200,
      "Ġneed": 7201,
      "2009": 7202,
      "yota": 7203,
      "Ġáīłáī¥áĭĽáīµ": 7204,
      "Ġmanuf": 7205,
      "OS": 7206,
      "kur": 7207,
      "Ġmother": 7208,
      "lec": 7209,
      "áī½áĪģ": 7210,
      "akan": 7211,
      "Ġleft": 7212,
      "hiyar": 7213,
      "Ġáīµáĭį": 7214,
      "ĠáĪįáĭ°áīµ": 7215,
      "Ġaddition": 7216,
      "ĠwÃ¡yÃ©": 7217,
      "Ġroi": 7218,
      "Ġáĭ¨áīĢáĬķ": 7219,
      "Ġáĭ¨áĭĵáĪĪáĪĿ": 7220,
      "72": 7221,
      "hÃ¬n": 7222,
      "oud": 7223,
      "ĠtÃ¬": 7224,
      "Ġtable": 7225,
      "Ġdawo": 7226,
      "Ġjinsi": 7227,
      "Ġtaima": 7228,
      "áĮĪáīµ": 7229,
      "ĠDunia": 7230,
      "ĠÃ¬rÃ²yÃ¬n": 7231,
      "Ġáī°áĭĭ": 7232,
      "oku": 7233,
      "Ġtiti": 7234,
      "gawa": 7235,
      "áīłáĪ°": 7236,
      "áĪ¥áĪ«áīħ": 7237,
      "rick": 7238,
      "ĠArgent": 7239,
      "ĠáįĪáĪ¨áĬķ": 7240,
      "áĬªáĭ«": 7241,
      "ĠlÃ³rÃŃláº¹": 7242,
      "ĠgÃ©nÃ©ralement": 7243,
      "Ġgege": 7244,
      "Ġengine": 7245,
      "¹áį": 7246,
      "ºáį": 7247,
      "Ġaz": 7248,
      "Ġsl": 7249,
      "Ġsaf": 7250,
      "ened": 7251,
      "ĠáĪ¹": 7252,
      "irm": 7253,
      "ĠKif": 7254,
      "Ġtop": 7255,
      "ĠDon": 7256,
      "Ġeconom": 7257,
      "ĠáīłáĪķ": 7258,
      "áīłáĪī": 7259,
      "Ġkanta": 7260,
      "Ġphot": 7261,
      "jáº¹s": 7262,
      "Ġbecome": 7263,
      "Ġhimself": 7264,
      "ribution": 7265,
      "gra": 7266,
      "lif": 7267,
      "sen": 7268,
      "ying": 7269,
      "Ġfew": 7270,
      "ĠáīłáĮİáĪŃáĮİáĪŃáĭ«áĬķ": 7271,
      "Ġmaisha": 7272,
      "Ġchamp": 7273,
      "Ġstyle": 7274,
      "ĠáĭµáĬķáĮĭ": 7275,
      "Ġsound": 7276,
      "anguage": 7277,
      "Ġreconn": 7278,
      "Ġindustri": 7279,
      "ĠGreat": 7280,
      "ĠáĬłáĮĪáĪ«áīµ": 7281,
      "Ġziliz": 7282,
      "ĠInternet": 7283,
      "rank": 7284,
      "Ġage": 7285,
      "erie": 7286,
      "Ġáĭ¨áī¥": 7287,
      "Ġdecl": 7288,
      "Ġwest": 7289,
      "ĠBau": 7290,
      "chie": 7291,
      "ĠyÃł": 7292,
      "ĠFlor": 7293,
      "aliya": 7294,
      "Ġilip": 7295,
      "Ġorgani": 7296,
      "áĭĪáĪ¨": 7297,
      "fied": 7298,
      "ĠáĪįáī¥": 7299,
      "ĠconsidÃ©rÃ©": 7300,
      "ĠPoland": 7301,
      "áº¹ráº¹": 7302,
      "Ġwater": 7303,
      "Ã¬wÃ©": 7304,
      "ĠGal": 7305,
      "Ġvale": 7306,
      "Ġeyi": 7307,
      "Ġáĭ¨áĪŀ": 7308,
      "áĭĺáĪĺ": 7309,
      "Ġ36": 7310,
      "ĠKaramar": 7311,
      "----": 7312,
      "ĠWestern": 7313,
      "Ġspecies": 7314,
      "ĠáĪĽáĪµáī³áĭĪáĪ»áĭİáī½": 7315,
      "AD": 7316,
      "hali": 7317,
      "Ùĩ": 7318,
      "ĠChe": 7319,
      "áĬĲáī±áĬķ": 7320,
      "áĪ³áĬķ": 7321,
      "Ġevent": 7322,
      "Ġá»įlá»į": 7323,
      "Ġáĭ¨áĬ®": 7324,
      "áĭ«áĬķáĭ³áĬķáĭ±": 7325,
      "ĠáĬŃáįįáĪİáī½": 7326,
      "Ġáĭ¨áĪļáĭ«áĪµ": 7327,
      "Ġwatakatifu": 7328,
      "Ġtoutes": 7329,
      "Ġprogramm": 7330,
      "ĠScot": 7331,
      "Ġmeaning": 7332,
      "Ġtechniques": 7333,
      "92": 7334,
      "Ph": 7335,
      "eum": 7336,
      "oi": 7337,
      "ped": 7338,
      "uya": 7339,
      "Ġmta": 7340,
      "Ġáī¶": 7341,
      "alem": 7342,
      "Ġáĭ¨áĮ¥": 7343,
      "ĠáĮ«": 7344,
      "ĠCr": 7345,
      "chan": 7346,
      "Ġviv": 7347,
      "ĠJer": 7348,
      "Ġconte": 7349,
      "over": 7350,
      "áĭĵáĬķ": 7351,
      "Ġkawo": 7352,
      "Ġáĭ³áĪŃ": 7353,
      "Ġkimataifa": 7354,
      "Ġrawar": 7355,
      "Ġcheo": 7356,
      "Ġsymbol": 7357,
      "Ac": 7358,
      "tÃº": 7359,
      "ĠdÃ¨s": 7360,
      "Ġcandid": 7361,
      "ĠoyÃ¨": 7362,
      "ĠMiss": 7363,
      "ĠSm": 7364,
      "Ġrend": 7365,
      "ĠáĮ³": 7366,
      "ĠáĬłáī¶": 7367,
      "ĠWais": 7368,
      "Ġallem": 7369,
      "udd": 7370,
      "angwa": 7371,
      "ĠáĪĽáĪŃáĭ«áĪĿ": 7372,
      "assin": 7373,
      "áī¦áīµ": 7374,
      "ĠLaw": 7375,
      "%)": 7376,
      "sÃ¡": 7377,
      "uelle": 7378,
      "¸áį": 7379,
      "áī¾": 7380,
      "Ġnasar": 7381,
      "Ġkaf": 7382,
      "alu": 7383,
      "Ġpost": 7384,
      "Ġáĭ¨áĪĪáĭį": 7385,
      "Ġhum": 7386,
      "Ġhowever": 7387,
      "entre": 7388,
      "ĠTai": 7389,
      "ĠáĬ¨áĪģ": 7390,
      "Ġeth": 7391,
      "ources": 7392,
      "ĠAlg": 7393,
      "Ġáī¥áĭĽáīµ": 7394,
      "Ġ35": 7395,
      "Ġchaque": 7396,
      "ĠNews": 7397,
      "Ġeduc": 7398,
      "áĮĪáĪªáī±": 7399,
      "AF": 7400,
      "prÃ©": 7401,
      "Ġkill": 7402,
      "reat": 7403,
      "Ġroman": 7404,
      "áĪĪáĪĺ": 7405,
      "ĠPan": 7406,
      "gbÃ³": 7407,
      "áĪ³áĪ³áĭŃ": 7408,
      "áĬłáīµ": 7409,
      "hind": 7410,
      "Ġkusan": 7411,
      "Ġpubli": 7412,
      "ĠáĭĿáĪŃáĭ«": 7413,
      "suite": 7414,
      "Ġmuziki": 7415,
      "ergy": 7416,
      "Ġcommunic": 7417,
      "Ġlocal": 7418,
      "ĠIlimi": 7419,
      "Ġhaih": 7420,
      "Ġjamii": 7421,
      "ĠGermany": 7422,
      "Ġáī¡áĭµáĬķ": 7423,
      "Ġgargajiya": 7424,
      "Ġkawai": 7425,
      "ĠArabic": 7426,
      "ĠáĪĪáĪĿáĪ³áĪĮ": 7427,
      "Ġelements": 7428,
      "Mais": 7429,
      "Ray": 7430,
      "uit": 7431,
      "ining": 7432,
      "áĬķáĪ³áĭĬ": 7433,
      "ores": 7434,
      "rey": 7435,
      "abba": 7436,
      "ĠjÃ©": 7437,
      "ull": 7438,
      "Ġ2091": 7439,
      "ĠOlÃº": 7440,
      "Ġenf": 7441,
      "udo": 7442,
      "ĠáĭĪáĪįáĭ°": 7443,
      "ĠprÃ¨s": 7444,
      "ĠáĬ¥áĬķáĭ²áĭ«": 7445,
      "Ġintroduc": 7446,
      "07": 7447,
      "LÃ¡": 7448,
      "born": 7449,
      "nic": 7450,
      "tÃºn": 7451,
      "Ġmission": 7452,
      "yam": 7453,
      "ĠSpain": 7454,
      "Ãºpá»į": 7455,
      "chuk": 7456,
      "Ġmaa": 7457,
      "avy": 7458,
      "tÃłgÃ©": 7459,
      "Ġgwamnan": 7460,
      "ĠGroup": 7461,
      "Ġáī¢áĪĨáĬķáĪĿ": 7462,
      "TV": 7463,
      "When": 7464,
      "áĬķáĭ¶": 7465,
      "tier": 7466,
      "ĠAcc": 7467,
      "ĠintÃ©": 7468,
      "Ġinvol": 7469,
      "Ġrangi": 7470,
      "imakin": 7471,
      "ĠBre": 7472,
      "ĠTri": 7473,
      "Ġmaf": 7474,
      "Ġáĭ¨áĬ¦": 7475,
      "Ġconqu": 7476,
      "Ġcondu": 7477,
      "83": 7478,
      "87": 7479,
      "ey": 7480,
      "hudi": 7481,
      "Ġndi": 7482,
      "Ġkun": 7483,
      "itta": 7484,
      "ilishi": 7485,
      "Ġáĭ¨áĭ«": 7486,
      "ĠGra": 7487,
      "Ġorient": 7488,
      "odo": 7489,
      "Ġáĭĺáĭ´": 7490,
      "Ġcompte": 7491,
      "Ġá»Įba": 7492,
      "ĠIbn": 7493,
      "Ġsometimes": 7494,
      "Ġeffet": 7495,
      "Ġsystems": 7496,
      "Ġwenyewe": 7497,
      "historia": 7498,
      "men": 7499,
      "Ġide": 7500,
      "Ġdat": 7501,
      "Ġnde": 7502,
      "Ġnumbers": 7503,
      "Ã©v": 7504,
      "ĠpÃ¨re": 7505,
      "Ġáĭ¨áīĨ": 7506,
      "áĪµáĪĽ": 7507,
      "ikisho": 7508,
      "ĠLife": 7509,
      "ĠWilaya": 7510,
      "Ġáī°áīĥ": 7511,
      "ourg": 7512,
      "Ġonimo": 7513,
      "abawa": 7514,
      "Ġaddinin": 7515,
      "Ġibn": 7516,
      "Ġ1946": 7517,
      "Ġyanki": 7518,
      "ĠGreg": 7519,
      "ĠáĮłáīħ": 7520,
      "Ġoccup": 7521,
      "áī¥áĪ«áĭŃ": 7522,
      "Ġáĭ¨áĭįáĮŃ": 7523,
      "ĠdonnÃ©es": 7524,
      "Ġparticulier": 7525,
      "áĪĮáĬŃáīµáĪªáĬŃ": 7526,
      "Ã«": 7527,
      "Ġprac": 7528,
      "Ġbord": 7529,
      "atini": 7530,
      "quÃ©": 7531,
      "ĠÃłgbÃ¡yÃ©": 7532,
      "ulia": 7533,
      "ayen": 7534,
      "Ġtotal": 7535,
      "ĠHars": 7536,
      "cipe": 7537,
      "thur": 7538,
      "Ġproc": 7539,
      "Ġáīłáī°áĮ¨áĪĽáĪª": 7540,
      "áĪĲáįĬ": 7541,
      "Ġ1953": 7542,
      "Ġdistin": 7543,
      "Ġambapo": 7544,
      "Ġemploy": 7545,
      "áĪŃáĪ±áĪĿ": 7546,
      "Ġconcern": 7547,
      "jáº¹sÃ¡ra": 7548,
      "PP": 7549,
      "can": 7550,
      "gÃ³": 7551,
      "rol": 7552,
      "Ġsent": 7553,
      "áĪŃáī±": 7554,
      "ĠMand": 7555,
      "ĠLin": 7556,
      "ĠWata": 7557,
      "Ġáĭ¨áĪĢ": 7558,
      "ĠáĪĪáĬ¥": 7559,
      "ovu": 7560,
      "ensis": 7561,
      "áĪĻáīµ": 7562,
      "ĠáĮĪáĭ°": 7563,
      "Ġ1939": 7564,
      "Ġprovince": 7565,
      "vironnement": 7566,
      "ĠáĬĥáĭŃáĪĪ": 7567,
      "ĠáĭľáĬĵ": 7568,
      "Ġsingle": 7569,
      "Ġpolitical": 7570,
      "Lugha": 7571,
      "jÃ³": 7572,
      "rite": 7573,
      "tak": 7574,
      "áĪŃáī£": 7575,
      "ilim": 7576,
      "ĠAw": 7577,
      "ĠAwon": 7578,
      "ĠMb": 7579,
      "icin": 7580,
      "ĠSom": 7581,
      "ingu": 7582,
      "ĠáĬłáīħ": 7583,
      "ĠáĪĺáĪ¬áīµ": 7584,
      "ĠáĬ¨áĪĮ": 7585,
      "ĠOf": 7586,
      "ĠÃ¬p": 7587,
      "ĠáĭŃáĪĦ": 7588,
      "áĬ¨áĭļáĭ«": 7589,
      "lac": 7590,
      "iff": 7591,
      "Ġaure": 7592,
      "Ġáĭ¨áĪļáī³áĭĪ": 7593,
      "ĠáĮįáĭĽ": 7594,
      "Ġstar": 7595,
      "Ġwithout": 7596,
      "2011": 7597,
      "ĠáĮĪáĬķ": 7598,
      "titution": 7599,
      "Ġclos": 7600,
      "ĠDemocratic": 7601,
      "ĠKijerumani": 7602,
      "Ġayáº¹yáº¹": 7603,
      "ĠSoviet": 7604,
      "bb": 7605,
      "ono": 7606,
      "Ġtheory": 7607,
      "Ġgari": 7608,
      "ability": 7609,
      "ĠNollywood": 7610,
      "ĠáĬ¥áĬĶ": 7611,
      "ĠEli": 7612,
      "udio": 7613,
      "ĠUb": 7614,
      "Ġconserv": 7615,
      "ferences": 7616,
      "Ġká»įkÃłn": 7617,
      "Ġmtu": 7618,
      "ĠdiffÃ©rentes": 7619,
      "Ġcontinent": 7620,
      "ĠáĪĺáĮ»áĪķ": 7621,
      "According": 7622,
      "05": 7623,
      "Id": 7624,
      "New": 7625,
      "OR": 7626,
      "her": 7627,
      "kara": 7628,
      "macin": 7629,
      "||": 7630,
      "Ġbal": 7631,
      "Ġáĭ¨áĬŃ": 7632,
      "lear": 7633,
      "irun": 7634,
      "ĠSir": 7635,
      "etnam": 7636,
      "olowo": 7637,
      "áĬ«áĪĿ": 7638,
      "Ġbeau": 7639,
      "ĠrÃ©c": 7640,
      "Ġáī£áĪį": 7641,
      "Ġimani": 7642,
      "2008": 7643,
      "ector": 7644,
      "allaka": 7645,
      "ĠáĬ¥áĬķáĮįáĪĬáĭĿáĬĽ": 7646,
      "Ġschol": 7647,
      "02": 7648,
      "100": 7649,
      "eff": 7650,
      "Ġdog": 7651,
      "Ġshar": 7652,
      "ĠMpaka": 7653,
      "Ġdefe": 7654,
      "ĠCre": 7655,
      "agement": 7656,
      "áīłáīħ": 7657,
      "áĭ¨áĪļ": 7658,
      "ĠYamma": 7659,
      "áĭĺáĭį": 7660,
      "áĭĽáĬĽáĭį": 7661,
      "Ġheld": 7662,
      "essor": 7663,
      "ĠáĪµáĪĪáĪļ": 7664,
      "Ġdoit": 7665,
      "Ġpopular": 7666,
      "ĠTurk": 7667,
      "Ġkyautar": 7668,
      "ĠBiranen": 7669,
      "ĠSecond": 7670,
      "ĠSudan": 7671,
      "ĠáĪĺáĪįáĬŃáĭĵ": 7672,
      "ikipedia": 7673,
      "04": 7674,
      "pi": 7675,
      "utions": 7676,
      "xford": 7677,
      "Ġkow": 7678,
      "umiwa": 7679,
      "áĬĵáĭŃáīµ": 7680,
      "áī°áīµ": 7681,
      "áĭµáĪ¨áĪµ": 7682,
      "ĠFestival": 7683,
      "ective": 7684,
      "ĠáĬłáĪħ": 7685,
      "Ġfort": 7686,
      "ĠVirgin": 7687,
      "seau": 7688,
      "ateau": 7689,
      "Ġáĭ¨áī°áĪĺ": 7690,
      "ĠáīĢáĭ³": 7691,
      "bio": 7692,
      "2017": 7693,
      "engene": 7694,
      "prise": 7695,
      "ĠMaur": 7696,
      "anÃ§ois": 7697,
      "Ġwakifuata": 7698,
      "ĠáĪĻáĪī": 7699,
      "iddle": 7700,
      "ĠAzerbaij": 7701,
      "Ġmondiale": 7702,
      "ĠSalaam": 7703,
      "lamu": 7704,
      "pes": 7705,
      "site": 7706,
      "ĠÉĵ": 7707,
      "iled": 7708,
      "etwork": 7709,
      "ĠCas": 7710,
      "áĭµáĬĵ": 7711,
      "ĠFas": 7712,
      "ĠJar": 7713,
      "Ġarziki": 7714,
      "Ġshari": 7715,
      "ova": 7716,
      "Ġsurface": 7717,
      "Ġuishe": 7718,
      "iversitÃ©": 7719,
      "Ġ1949": 7720,
      "lemagne": 7721,
      "ĠáĬĥáĭŃáĪį": 7722,
      "ĠDisamba": 7723,
      "Ġtravail": 7724,
      "Ġhuadhimisha": 7725,
      "alus": 7726,
      "ĠpÃłÃ¡": 7727,
      "aton": 7728,
      "Ġdak": 7729,
      "Ġdefin": 7730,
      "ĠIá¹£áº¹": 7731,
      "ulf": 7732,
      "Ġtown": 7733,
      "áĬ¨áī³": 7734,
      "Ġconstruction": 7735,
      "áīłáĪ³": 7736,
      "áĬĳáĬķ": 7737,
      "áįĭáĪį": 7738,
      "erman": 7739,
      "áĭįáĬķáīµ": 7740,
      "ughter": 7741,
      "Ġtakriban": 7742,
      "NÃŃgbÃł": 7743,
      "ĠJamus": 7744,
      "ĠáĬłáĮĪáĪ®áī½": 7745,
      "Ġáī¥áĪĶáĪ«áĭĬ": 7746,
      "lish": 7747,
      "Ġdam": 7748,
      "onekana": 7749,
      "Ġmig": 7750,
      "isse": 7751,
      "ĠfÃ¬": 7752,
      "lections": 7753,
      "Ġgur": 7754,
      "ĠNap": 7755,
      "ĠáĬ¥áĮįáĭļáĬłáī¥áĪĶáĪŃ": 7756,
      "áĮĪáī¡": 7757,
      "stan": 7758,
      "áīĢáĭµáĪŀ": 7759,
      "Ġzao": 7760,
      "Ġáĭ¨áī°áįĪ": 7761,
      "tout": 7762,
      "Ġáī£áĭŃ": 7763,
      "Ġsuper": 7764,
      "ĠArewacin": 7765,
      "áĭ°áĪ¨áĮĪáĭį": 7766,
      "Ġzinabaki": 7767,
      "ÃĴun": 7768,
      "ĠáĭĪáĭŃáĬķáĪĿ": 7769,
      "ĠáīĢáĮ¥áĪİ": 7770,
      "ababisha": 7771,
      "Ġturn": 7772,
      "Ġspace": 7773,
      "ways": 7774,
      "amban": 7775,
      "ĠKin": 7776,
      "ĠKur": 7777,
      "áī¥áĬķ": 7778,
      "áīłáīĥ": 7779,
      "áĭĪáīħ": 7780,
      "áīłáĪµ": 7781,
      "ĠrÃ©p": 7782,
      "phab": 7783,
      "Ġcompar": 7784,
      "ential": 7785,
      "ĠgrÃ¢ce": 7786,
      "Ġkwenda": 7787,
      "ĠÃ²á¹£Ã¨lÃº": 7788,
      "Ġproduced": 7789,
      "ĠcrÃ©ation": 7790,
      "Ġcrew": 7791,
      "Ġphilosop": 7792,
      "74": 7793,
      "ĠpÃ¡": 7794,
      "ÃŃÃł": 7795,
      "Ġbata": 7796,
      "usalem": 7797,
      "umar": 7798,
      "áĮĪáĪ«áīµ": 7799,
      "akana": 7800,
      "áĬŃáĬķ": 7801,
      "Ġill": 7802,
      "Ġstates": 7803,
      "Ġadap": 7804,
      "Ġabáº¹": 7805,
      "áĪĪáĪĿáĪ³áĪĮ": 7806,
      "cript": 7807,
      "áĪ¸áĬĲ": 7808,
      "tained": 7809,
      "Ġndogo": 7810,
      "Ġyammacin": 7811,
      "Ġsources": 7812,
      "Ġadministr": 7813,
      "ĠPresident": 7814,
      "ĠáĪĽáĮ£áīĢáĪ»": 7815,
      "Con": 7816,
      "Ġothers": 7817,
      "iriwa": 7818,
      "ĠKaisari": 7819,
      "ĠIre": 7820,
      "ĠLy": 7821,
      "ĠJew": 7822,
      "Ġáįİ": 7823,
      "ĠáĭŃáĭ©": 7824,
      "Ġmakuu": 7825,
      "autre": 7826,
      "Ġyanayin": 7827,
      "Ġsimilar": 7828,
      "ĠBarb": 7829,
      "dÃŃnlá»į": 7830,
      "unicip": 7831,
      "Kar": 7832,
      "nÃº": 7833,
      "Ġligne": 7834,
      "áĬķáī³": 7835,
      "ĠAy": 7836,
      "ĠAri": 7837,
      "Ġgid": 7838,
      "ĠWah": 7839,
      "Ġvir": 7840,
      "ĠFound": 7841,
      "Ġkashe": 7842,
      "2013": 7843,
      "oyen": 7844,
      "ammed": 7845,
      "Ġpron": 7846,
      "Ġparticip": 7847,
      "Ġmeas": 7848,
      "wÃ²rÃ¡n": 7849,
      "Ġattemp": 7850,
      "ĠEgypt": 7851,
      "ĠFabra": 7852,
      "ctic": 7853,
      "Ġmpaka": 7854,
      "Ġáĭ¨áįĪ": 7855,
      "Ġhor": 7856,
      "ushe": 7857,
      "eter": 7858,
      "abwe": 7859,
      "ĠÃłá¹£Ãł": 7860,
      "ador": 7861,
      "aika": 7862,
      "Ġalich": 7863,
      "okoto": 7864,
      "áīħáĭ«": 7865,
      "áĬłáĬķáĭµ": 7866,
      "rÃŃwÃ¡": 7867,
      "undu": 7868,
      "ĠáĮ¥áĪ©": 7869,
      "Ġface": 7870,
      "Ġlongue": 7871,
      "Ġfilms": 7872,
      "Ġincluded": 7873,
      "Ġtaron": 7874,
      "ĠArmy": 7875,
      "ĠPortugal": 7876,
      "áĬĺáīµ": 7877,
      "Ġáī£áĪħáĪŃ": 7878,
      "Ġtalabijin": 7879,
      "500": 7880,
      "BÃŃ": 7881,
      "ĠdÃ¬": 7882,
      "Ġcare": 7883,
      "Ġcause": 7884,
      "Ġnav": 7885,
      "áĬĵáĮĪ": 7886,
      "ĠNaz": 7887,
      "áĮįáī£áĪŃ": 7888,
      "ĠJohann": 7889,
      "haji": 7890,
      "ciyar": 7891,
      "ĠáīłáĪħ": 7892,
      "ogin": 7893,
      "2018": 7894,
      "anyoyin": 7895,
      "iller": 7896,
      "ength": 7897,
      "2002": 7898,
      "Ġ1955": 7899,
      "Ġlargest": 7900,
      "Ġkabla": 7901,
      "unguza": 7902,
      "ĠCentral": 7903,
      "ĠáĬłáįįáĪªáĬ«": 7904,
      "ĠCouncil": 7905,
      "fanya": 7906,
      "vant": 7907,
      "wiwa": 7908,
      "zama": 7909,
      "Ġneno": 7910,
      "Ġpur": 7911,
      "Ġcop": 7912,
      "Ġbody": 7913,
      "ĠAS": 7914,
      "ĠSab": 7915,
      "olin": 7916,
      "ĠNg": 7917,
      "rote": 7918,
      "ĠLab": 7919,
      "ĠGi": 7920,
      "ĠGood": 7921,
      "Ġzone": 7922,
      "ĠDam": 7923,
      "Ġensuite": 7924,
      "áĪªáĪµ": 7925,
      "erson": 7926,
      "ends": 7927,
      "Ġsept": 7928,
      "Ġkarshe": 7929,
      "áĬ®áīµ": 7930,
      "ĠáīłáĪĽáĪĪáīµ": 7931,
      "alsafa": 7932,
      "Ġtakwas": 7933,
      "Ġmakabila": 7934,
      "Ne": 7935,
      "Ġdamar": 7936,
      "Ġmuk": 7937,
      "Ġmemba": 7938,
      "Ġpor": 7939,
      "organ": 7940,
      "áĪŃáī¶": 7941,
      "Ġosu": 7942,
      "irar": 7943,
      "ĠBill": 7944,
      "Ġ1918": 7945,
      "aign": 7946,
      "Ġvil": 7947,
      "Ġenc": 7948,
      "Ġeither": 7949,
      "ipo": 7950,
      "ateg": 7951,
      "Ġcho": 7952,
      "ensemble": 7953,
      "Ġusually": 7954,
      "áĭ©áĪµ": 7955,
      "ĠAdÃ©": 7956,
      "Ġmake": 7957,
      "Ġ90": 7958,
      "áĮ«áĭĪ": 7959,
      "ĠáĪ³áĭŃáĬķáĪ³áĭĬ": 7960,
      "Ġbuilt": 7961,
      "ĠáįĸáĪĪáī²áĬ«": 7962,
      "kÃ¡láº¹": 7963,
      "Ġarchitect": 7964,
      "Ġlogici": 7965,
      "ĠCalifornia": 7966,
      "áī¥áĪ«áĭŃáĪµáĮ¥": 7967,
      "81": 7968,
      "ail": 7969,
      "Ġdir": 7970,
      "Ġlist": 7971,
      "Ġlinguis": 7972,
      "ĠAba": 7973,
      "Ġfav": 7974,
      "kad": 7975,
      "qui": 7976,
      "ĠKK": 7977,
      "ĠáĬłáĭ³": 7978,
      "áĭµáĪ®": 7979,
      "Ġyal": 7980,
      "Ġeto": 7981,
      "Ġacikin": 7982,
      "Ġcommand": 7983,
      "áĬłáĪĪ": 7984,
      "Ġfilin": 7985,
      "Ġgrands": 7986,
      "Ġconstru": 7987,
      "ĠSwed": 7988,
      "ĠáĮīáĭ³áĭŃ": 7989,
      "ĠTarihi": 7990,
      "Wakristo": 7991,
      "Ġsac": 7992,
      "ĠáĪ¬": 7993,
      "uto": 7994,
      "ĠKid": 7995,
      "ĠTex": 7996,
      "Ġyoung": 7997,
      "áī³áĬķ": 7998,
      "ested": 7999,
      "anto": 8000,
      "á¹£irÃŃ": 8001,
      "termin": 8002,
      "Ġipo": 8003,
      "áīĤáīµ": 8004,
      "Ġsamo": 8005,
      "ĠáĬ¥áĬķáĭ³áĭŃ": 8006,
      "ĠáĭĽáĪ¬": 8007,
      "ĠFarans": 8008,
      "áĭ®áĪŃáĮĬáĪµ": 8009,
      "AL": 8010,
      "Mal": 8011,
      "Ġsaba": 8012,
      "wal": 8013,
      "Ġkok": 8014,
      "itude": 8015,
      "Ġru": 8016,
      "ĠCro": 8017,
      "ĠCatholic": 8018,
      "Ġleg": 8019,
      "ĠáĬ¨áĪĨáĬĲ": 8020,
      "ĠOá¹£u": 8021,
      "Ġless": 8022,
      "áĪ°áĪŃ": 8023,
      "auche": 8024,
      "ordin": 8025,
      "áĪłáĪ¨áī°": 8026,
      "Ġaká»įrin": 8027,
      "Ġcharge": 8028,
      "Ġrapport": 8029,
      "jects": 8030,
      "ĠáĪļáĬĴáĪµáīµ": 8031,
      "Ġá¹£ÃŃá¹£e": 8032,
      "Ġsauransu": 8033,
      "Ġsignificant": 8034,
      "Ag": 8035,
      "vu": 8036,
      "Ġaye": 8037,
      "Ġkaya": 8038,
      "Ġmit": 8039,
      "Ã©ra": 8040,
      "Ġcig": 8041,
      "asayansi": 8042,
      "Ġáĭ¨áįį": 8043,
      "umika": 8044,
      "Ġáīłáī£": 8045,
      "eme": 8046,
      "akh": 8047,
      "ĠWab": 8048,
      "Ġvy": 8049,
      "Ġalthough": 8050,
      "Ġá»įwá»į": 8051,
      "Ġordin": 8052,
      "obal": 8053,
      "Ġpetit": 8054,
      "áĪľáīµ": 8055,
      "áĬ®áĬĸ": 8056,
      "anuel": 8057,
      "ĠáĪļáĪĬáĭ®áĬķ": 8058,
      "Ġtuntun": 8059,
      "imbabwe": 8060,
      "ĠáīłáĪµáī°": 8061,
      "Ġpossib": 8062,
      "Ġcapitale": 8063,
      "66": 8064,
      "Duk": 8065,
      "cal": 8066,
      "itions": 8067,
      "nyÃŃ": 8068,
      "ÏĤ": 8069,
      "Ġdr": 8070,
      "eren": 8071,
      "Ġcanc": 8072,
      "Ġbran": 8073,
      "áĪµáī´": 8074,
      "ĠSult": 8075,
      "Ã¬lÃº": 8076,
      "lace": 8077,
      "kejÃ¬": 8078,
      "ĠÆĻars": 8079,
      "ĠáīłáĬ®": 8080,
      "Ġkashi": 8081,
      "Ġformed": 8082,
      "ysis": 8083,
      "ĠColumb": 8084,
      "Ġcapital": 8085,
      "ĠAngola": 8086,
      "Ġáī°áĬ¨áī³": 8087,
      "Ġorganis": 8088,
      "anthrop": 8089,
      "Ġmmoja": 8090,
      "ĠcaractÃ©ris": 8091,
      "ĠBauchi": 8092,
      "lad": 8093,
      "°áį»áį": 8094,
      "rea": 8095,
      "ututt": 8096,
      "ĠBad": 8097,
      "ĠTal": 8098,
      "áĭµáĪĺ": 8099,
      "Ġáį»áį": 8100,
      "ĠáĭŃáĮł": 8101,
      "áĬ¨áĪĭ": 8102,
      "iving": 8103,
      "ster": 8104,
      "ĠáĪµáī¥áĪµ": 8105,
      "Ġáĭ«áĪ³": 8106,
      "Ġáĭ¨áĪļáĪ°": 8107,
      "Ġáĭ¨áĪļáĮĪáĬĻ": 8108,
      "Ġáĭ°áĪ«áĪ²": 8109,
      "áĮŃáĪŃ": 8110,
      "velopment": 8111,
      "angaza": 8112,
      "ĠolÃ¹darÃŃ": 8113,
      "ĠáĮ¸áī£áĭŃ": 8114,
      "Ġnames": 8115,
      "Ġobserv": 8116,
      "Î¹": 8117,
      "Ġdata": 8118,
      "ĠsÃ©rie": 8119,
      "ases": 8120,
      "rel": 8121,
      "uriyar": 8122,
      "usse": 8123,
      "Ġleast": 8124,
      "Ġreli": 8125,
      "ĠdÃ©f": 8126,
      "gebra": 8127,
      "ĠAfghan": 8128,
      "Ġ...": 8129,
      "Ã©sÃŃ": 8130,
      "ÉĹu": 8131,
      "áĪİáĮĤ": 8132,
      "ĠáīħáĪŃáĪµ": 8133,
      "ĠáīµáĪŃáĮīáĪĿ": 8134,
      "Ġmshairi": 8135,
      "ducation": 8136,
      "Ġexpress": 8137,
      "lementi": 8138,
      "Ġbook": 8139,
      "ĠolÃ¹ká»į": 8140,
      "Ġgenerally": 8141,
      "Ġmachine": 8142,
      "Ġcurrent": 8143,
      "ĠbÃłbÃ¡": 8144,
      "ĠMovie": 8145,
      "Ku": 8146,
      "mÃ©": 8147,
      "Ġdown": 8148,
      "ĠÃº": 8149,
      "itte": 8150,
      "Ìģ-": 8151,
      "Ġrole": 8152,
      "ĠNam": 8153,
      "ĠTro": 8154,
      "ĠáĪĺáīħ": 8155,
      "ĠJack": 8156,
      "ĠOyo": 8157,
      "key": 8158,
      "undin": 8159,
      "áĮħáĪĿ": 8160,
      "Ġshekarun": 8161,
      "Ġmakubwa": 8162,
      "Ils": 8163,
      "ĠJohnson": 8164,
      "Ġcalcul": 8165,
      "ircraft": 8166,
      "Ġpataki": 8167,
      "ĠáĪĥáĭŃáĪĽáĬĸáīµ": 8168,
      "Ġabubuwan": 8169,
      "áĬĵáĭŃáīµáĭµ": 8170,
      "ray": 8171,
      "wer": 8172,
      "Ġwur": 8173,
      "umin": 8174,
      "ĠáĬ¥áĪĿáĬĲáīµ": 8175,
      "ĠáĬłáĮĭ": 8176,
      "áĪĭáīģ": 8177,
      "áĪĭáĮĬ": 8178,
      "ĠDani": 8179,
      "ĠFer": 8180,
      "Ġ2022": 8181,
      "Ġwasannin": 8182,
      "ĠáĭįáĮŃ": 8183,
      "áĪĻáĬķ": 8184,
      "tsu": 8185,
      "Ã©tÃ©s": 8186,
      "Ġfamilia": 8187,
      "ĠEdward": 8188,
      "Ġofficial": 8189,
      "ĠGabas": 8190,
      "ĠrÃ©fÃ©rences": 8191,
      "Ġchildren": 8192,
      "52": 8193,
      "53": 8194,
      "57": 8195,
      "59": 8196,
      "cs": 8197,
      "cend": 8198,
      "rans": 8199,
      "inte": 8200,
      "Ġmv": 8201,
      "alli": 8202,
      "ĠAN": 8203,
      "ĠKore": 8204,
      "Ã¨nes": 8205,
      "ĠIran": 8206,
      "áĬ«áĪŃ": 8207,
      "ĠáĪ²áīĢ": 8208,
      "ĠáĪ²áĪĨáĬĳ": 8209,
      "Ġexiste": 8210,
      "Ġsaid": 8211,
      "áī¹áĬķ": 8212,
      "ĠáĮİáĬķ": 8213,
      "ĠVietnam": 8214,
      "Ġtypes": 8215,
      "unshi": 8216,
      "ĠáĪĺáĪĨáĬĳáĬķ": 8217,
      "',": 8218,
      "fect": 8219,
      "kÃ©": 8220,
      "sur": 8221,
      "voir": 8222,
      "inois": 8223,
      "Ġdieu": 8224,
      "esis": 8225,
      "Ġsus": 8226,
      "Ġnationale": 8227,
      "Ġmwezi": 8228,
      "áĬķáĬŃ": 8229,
      "ĠAgb": 8230,
      "Ã¡Ã¡": 8231,
      "Ġrule": 8232,
      "adamu": 8233,
      "ĠKab": 8234,
      "áĪĭáĪµ": 8235,
      "ĠHal": 8236,
      "Ġreport": 8237,
      "iyoyi": 8238,
      "áĪ°áĪį": 8239,
      "obo": 8240,
      "ĠáīłáĬ¦": 8241,
      "Ġextern": 8242,
      "Ġhaving": 8243,
      "berde": 8244,
      "alisation": 8245,
      "Ġ1944": 8246,
      "ĠáĬķáĮīáĪł": 8247,
      "Ġhalafu": 8248,
      "ĠCarl": 8249,
      "Ġdescribed": 8250,
      "Ġcertaines": 8251,
      "Ġsakandare": 8252,
      "jÃ¹": 8253,
      "jets": 8254,
      "Ã£": 8255,
      "Ġliste": 8256,
      "Ã©p": 8257,
      "tir": 8258,
      "Ġoko": 8259,
      "amai": 8260,
      "Ġgod": 8261,
      "ĠCup": 8262,
      "ĠLÃ¡": 8263,
      "ĠDist": 8264,
      "ĠFirst": 8265,
      "Ġconse": 8266,
      "ĠáĭĪáī³áĭ°": 8267,
      "áīħáĬĵ": 8268,
      "áĮ£áĬķ": 8269,
      "2019": 8270,
      "2012": 8271,
      "Ġcompr": 8272,
      "illar": 8273,
      "ĠáĪ¥áįįáĪ«": 8274,
      "ĠáĪµáĪĪáĪĨáĬĲ": 8275,
      "Ġcentral": 8276,
      "1998": 8277,
      "Ġdoes": 8278,
      "ĠConf": 8279,
      "ĠkÃºrÃ²": 8280,
      "Ġinfluence": 8281,
      "ĠáĪ¦áĪµáīµ": 8282,
      "htm": 8283,
      "ĠSahara": 8284,
      "phe": 8285,
      "Ø©": 8286,
      "áĬķáĭ²": 8287,
      "ĠAla": 8288,
      "Ġáĭ¨áīħ": 8289,
      "ĠSara": 8290,
      "quelle": 8291,
      "áĪĺáĪ©": 8292,
      "aged": 8293,
      "ĠOd": 8294,
      "Ġiliyo": 8295,
      "áĬ¨áĪ¨áĪĿ": 8296,
      "Ġshow": 8297,
      "orial": 8298,
      "Ã¡nÃ¬": 8299,
      "ught": 8300,
      "titude": 8301,
      "Ġhizo": 8302,
      "Ġmagn": 8303,
      "Ġtsohuwar": 8304,
      "ĠáĪĿáĪįáĬŃáīµ": 8305,
      "gemea": 8306,
      "á¹£irÃŃá¹£i": 8307,
      "82": 8308,
      "</": 8309,
      "cles": 8310,
      "ãĤ": 8311,
      "aron": 8312,
      "Ġtel": 8313,
      "ĠsÃ¬n": 8314,
      "Ġlam": 8315,
      "Ġox": 8316,
      "ently": 8317,
      "ols": 8318,
      "ĠBoy": 8319,
      "Ġjiki": 8320,
      "hah": 8321,
      "ĠHung": 8322,
      "ario": 8323,
      "Ġarg": 8324,
      "ĠáĮįáĬķáĬĻ": 8325,
      "Ġcontemp": 8326,
      "à¤ķ": 8327,
      "Ġtelevision": 8328,
      "Ġtitre": 8329,
      "Ġhannun": 8330,
      "Ġsuggest": 8331,
      "lafazi": 8332,
      "áī¨áĪŃáĪ²": 8333,
      "mÃªme": 8334,
      "oint": 8335,
      "Ġsil": 8336,
      "Ġkansa": 8337,
      "Ġgi": 8338,
      "Ġran": 8339,
      "imal": 8340,
      "agit": 8341,
      "áī£áī³": 8342,
      "istry": 8343,
      "áĬ«áĬ¨áĪĪ": 8344,
      "aces": 8345,
      "áĪĨáĬĸ": 8346,
      "cture": 8347,
      "áĮĭáīµ": 8348,
      "ensive": 8349,
      "ĠáĭµáĪį": 8350,
      "áĮĢáīµ": 8351,
      "Ġdiff": 8352,
      "Ġiyaka": 8353,
      "---": 8354,
      "ĠÃ®les": 8355,
      "Na": 8356,
      "OL": 8357,
      "Up": 8358,
      "bÃ³": 8359,
      "rale": 8360,
      "temp": 8361,
      "zani": 8362,
      "Ïģ": 8363,
      "áĮª": 8364,
      "Ã©lÃ¨": 8365,
      "tig": 8366,
      "Ġciv": 8367,
      "Ġfive": 8368,
      "áĪµáĭ«": 8369,
      "utan": 8370,
      "ĠCamb": 8371,
      "áĬŃáĪ²": 8372,
      "áĭĪáĭŃáĪĿ": 8373,
      "upart": 8374,
      "Ġbegin": 8375,
      "Ġáĭĺáįĭ": 8376,
      "áīĥáĪ´": 8377,
      "ously": 8378,
      "Ġsurv": 8379,
      "illage": 8380,
      "áĬłáĪµ": 8381,
      "Ġambazo": 8382,
      "hamia": 8383,
      "Ġchef": 8384,
      "ĠáĭĺáĪĺáĬĵáĭĬ": 8385,
      "Ġraison": 8386,
      "ĠáĭŃáīĢáĪ«áĪī": 8387,
      "ĠAlfred": 8388,
      "Ġipinle": 8389,
      "mas": 8390,
      "Ġoun": 8391,
      "ĠAM": 8392,
      "Ġhome": 8393,
      "ĠSea": 8394,
      "Ġindi": 8395,
      "Ġrah": 8396,
      "Ġjur": 8397,
      "ĠCat": 8398,
      "Ġtouj": 8399,
      "okuta": 8400,
      "áīĢáĪ¨": 8401,
      "ĠáĪµáĪŀáī½": 8402,
      "Ġplupart": 8403,
      "áīłáīµáĬķ": 8404,
      "Ġ500": 8405,
      "Ġ1942": 8406,
      "ĠindÃ©pend": 8407,
      "ĠolÃ³rÃŃ": 8408,
      "Ġlarg": 8409,
      "encont": 8410,
      "Ġdukkan": 8411,
      "Ġmots": 8412,
      "ĠKamusi": 8413,
      "Ġbrother": 8414,
      "adarwa": 8415,
      "ĠCompany": 8416,
      "Ġmouvement": 8417,
      "áīħáĪµáīĥáĪ´": 8418,
      "Ġtoujours": 8419,
      "no": 8420,
      "rons": 8421,
      "ÑĢ": 8422,
      "Ġ).": 8423,
      "Ġliter": 8424,
      "áĬķáĮİ": 8425,
      "tile": 8426,
      "andika": 8427,
      "Ġgovern": 8428,
      "Ġress": 8429,
      "Ġlaquelle": 8430,
      "ĠBul": 8431,
      "ĠCivil": 8432,
      "ĠWaf": 8433,
      "ĠáĬ¨áĭĪ": 8434,
      "Ġevery": 8435,
      "arian": 8436,
      "áīĢáĮ¥": 8437,
      "ĠAnamb": 8438,
      "Ġ400": 8439,
      "2000": 8440,
      "Ġáīłáī°áĪĪ": 8441,
      "Ġhaifar": 8442,
      "Ġpoints": 8443,
      "1997": 8444,
      "Ġeffect": 8445,
      "ĠKanada": 8446,
      "Ġáĭ«áĪĪáĭįáĬķ": 8447,
      "Ġkudancin": 8448,
      "Ġnufin": 8449,
      "Ġlina": 8450,
      "ĠMark": 8451,
      "Ġhivi": 8452,
      "áĪĿáī¥": 8453,
      "ĠSar": 8454,
      "Ġradi": 8455,
      "quare": 8456,
      "adiyya": 8457,
      "áĭ°áĬķ": 8458,
      "áĮĪáĪ«": 8459,
      "ĠGeneral": 8460,
      "Ġaltern": 8461,
      "ĠHab": 8462,
      "ĠHai": 8463,
      "ĠáĪĿáĭķáĪ«áī¥": 8464,
      "Ġconne": 8465,
      "Ġcombin": 8466,
      "áĭ²áĭ®": 8467,
      "ĠáīµáĪŃ": 8468,
      "ĠáīµáĪĿáĪħáĪŃ": 8469,
      "ĠInter": 8470,
      "Ġkutumia": 8471,
      "Ġwatumwa": 8472,
      "kÃ³so": 8473,
      "Ġtransm": 8474,
      "Ġhistor": 8475,
      "Ġkuliko": 8476,
      "Ġgirm": 8477,
      "Ġanglais": 8478,
      "ĠáĪĺáĪ°áĪ¨áīµ": 8479,
      "áĪµáĪĪáĭļáĪħ": 8480,
      "ĠÃłÃ¬sÃłn": 8481,
      "ĠWaislamu": 8482,
      "get": 8483,
      "wÃłÃ¡": 8484,
      "Ġemb": 8485,
      "Ġafin": 8486,
      "Ġbat": 8487,
      "áĪĿáįĴ": 8488,
      "elo": 8489,
      "iken": 8490,
      "Ġright": 8491,
      "ĠChi": 8492,
      "Ġtafi": 8493,
      "Ġtourn": 8494,
      "ĠDok": 8495,
      "ĠDep": 8496,
      "Ġvia": 8497,
      "áĪĽáĪ½": 8498,
      "Ġáĭ¨áĪ®": 8499,
      "Ġseul": 8500,
      "annÃ©e": 8501,
      "Ġarri": 8502,
      "azine": 8503,
      "ĠÉĹin": 8504,
      "ronic": 8505,
      "ĠhuÉĹu": 8506,
      "ĠáĬĲáĮĪáĪł": 8507,
      "ĠfaÃ§": 8508,
      "Ġsaman": 8509,
      "Ġchez": 8510,
      "Ġpropri": 8511,
      "Ġprix": 8512,
      "ĠSpanish": 8513,
      "Ġarmy": 8514,
      "ĠPierre": 8515,
      "arufu": 8516,
      "wari": 8517,
      "erve": 8518,
      "Ġbes": 8519,
      "Ġhus": 8520,
      "Ġhayo": 8521,
      "Ġgun": 8522,
      "Ġnahiyar": 8523,
      "Ġris": 8524,
      "adun": 8525,
      "ĠKol": 8526,
      "Ġjumla": 8527,
      "ulus": 8528,
      "ĠLaf": 8529,
      "ĠGall": 8530,
      "ĠHam": 8531,
      "otun": 8532,
      "Ġáĭ¨áĪ´": 8533,
      "lahi": 8534,
      "áĪ°áīµ": 8535,
      "ĠYan": 8536,
      "ĠAlb": 8537,
      "ĠAmani": 8538,
      "áĬ¥áĬĲáĭļáĪħ": 8539,
      "ĠÃ²kÃ¨": 8540,
      "Â»)": 8541,
      "Ġprend": 8542,
      "olewa": 8543,
      "ominira": 8544,
      "each": 8545,
      "ĠirÃº": 8546,
      "ĠBurtaniya": 8547,
      "Ġáī°áĪ«áĪ«": 8548,
      "ridge": 8549,
      "Ġharkokin": 8550,
      "ilimia": 8551,
      "68": 8552,
      "93": 8553,
      "dess": 8554,
      "Ġpin": 8555,
      "Ġhij": 8556,
      "Ã¡lÃŃ": 8557,
      "emo": 8558,
      "ĠGasar": 8559,
      "ĠJon": 8560,
      "arib": 8561,
      "Ġconcept": 8562,
      "Ġparts": 8563,
      "Ġhaya": 8564,
      "ĠáĬŃáĪŃáĪµáī²áĭ«": 8565,
      "Ang": 8566,
      "ĠáĮĭáĪ«": 8567,
      "Ġ1943": 8568,
      "Ġ1937": 8569,
      "tagne": 8570,
      "Ġmengi": 8571,
      "Ġdurant": 8572,
      "Ġaskofu": 8573,
      "Iá¹£áº¹": 8574,
      "VID": 8575,
      "Ð½": 8576,
      "Ġ×": 8577,
      "Ġmise": 8578,
      "Ġáĭ¨áĪĪáĪĿ": 8579,
      "andis": 8580,
      "Ġgauche": 8581,
      "Ġinstr": 8582,
      "ikh": 8583,
      "ĠrÃ´le": 8584,
      "iaf": 8585,
      "ĠCin": 8586,
      "Ã¬yÃłn": 8587,
      "ĠTang": 8588,
      "idia": 8589,
      "ĠLu": 8590,
      "ĠWag": 8591,
      "ciya": 8592,
      "Ġáį©": 8593,
      "ĠáĭŃáĭŀ": 8594,
      "ĠÃĮlÃº": 8595,
      "Ġcomplet": 8596,
      "ĠáĮĪáĮ½": 8597,
      "enegal": 8598,
      "ĠÉĹari": 8599,
      "áĪķáįĪáīµ": 8600,
      "enna": 8601,
      "Ġrecogni": 8602,
      "Ġsabon": 8603,
      "Ġregard": 8604,
      "emaji": 8605,
      "Ġservices": 8606,
      "ĠáįĪáĪŃáĭĸáĬķ": 8607,
      "UN": 8608,
      "mond": 8609,
      "now": 8610,
      "shi": 8611,
      "onie": 8612,
      "ĠáĬĽ": 8613,
      "Ġbank": 8614,
      "atory": 8615,
      "ĠMwaka": 8616,
      "ĠÃłÃ¡": 8617,
      "ĠTor": 8618,
      "áĭ°áĪµ": 8619,
      "ĠLar": 8620,
      "Ġalit": 8621,
      "Ġord": 8622,
      "áĭ³áĭµ": 8623,
      "ĠáĪµáĪĭ": 8624,
      "ĠáĭįáĪĢ": 8625,
      "jejen": 8626,
      "Ġfunction": 8627,
      "ĠáĭķáĪĪáī°": 8628,
      "ĠáįįáĪ¬": 8629,
      "Ġloi": 8630,
      "áĬ¥áĬķáĭ²": 8631,
      "Ġdernier": 8632,
      "ĠamÃ©ricain": 8633,
      "ĠMisri": 8634,
      "ĠsuccÃ¨s": 8635,
      "Babban": 8636,
      "Jihar": 8637,
      "uy": 8638,
      "á¹¢": 8639,
      "onin": 8640,
      "enu": 8641,
      "aland": 8642,
      "itaire": 8643,
      "Ġáĭ¨áĬ¨": 8644,
      "ĠSokoto": 8645,
      "ĠÃłjáº¹sÃ¡ra": 8646,
      "ĠNotes": 8647,
      "Ġ1914": 8648,
      "igar": 8649,
      "ĠLos": 8650,
      "oshi": 8651,
      "Ġala": 8652,
      "ĠRes": 8653,
      "alib": 8654,
      "Ġáĭ¨áĪ±": 8655,
      "Ġori": 8656,
      "áĭĿáĪĿ": 8657,
      "ĬáĭľáĪĿ": 8658,
      "áĮłáĪĪ": 8659,
      "Ġforms": 8660,
      "ussian": 8661,
      "áĬķáĮĮ": 8662,
      "áī¥áĪŃáĪĥ": 8663,
      "Ġprincipalement": 8664,
      "ĠáĬłáĪīáīµ": 8665,
      "06": 8666,
      "ny": 8667,
      "sÃ¡n": 8668,
      "áĬ£": 8669,
      "Ġcibiyar": 8670,
      "Ġfais": 8671,
      "uruki": 8672,
      "Ġhuwa": 8673,
      "Ġwrote": 8674,
      "enta": 8675,
      "icine": 8676,
      "ĠServ": 8677,
      "áĪĺáĬĵ": 8678,
      "áīłáĬĭáĪĭ": 8679,
      "ĠOxford": 8680,
      "anique": 8681,
      "áĬ«áĬ¤áĪį": 8682,
      "ĠáĪįáĮģ": 8683,
      "Ġaccept": 8684,
      "áĬĽáĭįáĪĿ": 8685,
      "alism": 8686,
      "Ġáī¢áĭ«": 8687,
      "ĠespÃ¨": 8688,
      "Ġgabas": 8689,
      "ĠBook": 8690,
      "Ġstrong": 8691,
      "ĠKejÃ¬": 8692,
      "Ġmention": 8693,
      "ĠmaniÃ¨re": 8694,
      "gorith": 8695,
      "Ġtabbatar": 8696,
      "97": 8697,
      "IA": 8698,
      "Nchi": 8699,
      "rage": 8700,
      "test": 8701,
      "uan": 8702,
      "via": 8703,
      "wing": 8704,
      "ÉĻ": 8705,
      "Ġtest": 8706,
      "Ġmallaka": 8707,
      "isan": 8708,
      "rement": 8709,
      "Ġáĭ¨áīł": 8710,
      "Ġáĭ¨áĮĭ": 8711,
      "oms": 8712,
      "imá»į": 8713,
      "ĠCy": 8714,
      "ĠCont": 8715,
      "Ġzo": 8716,
      "ĠOne": 8717,
      "ĠáĭŃáĪĺ": 8718,
      "eck": 8719,
      "Ġaujourd": 8720,
      "ĠYesu": 8721,
      "ĠáĭįáĪĥ": 8722,
      "ĠáīłáĪĺáĪĨáĬķ": 8723,
      "áĪ²áĭ«": 8724,
      "ĠDevelopment": 8725,
      "Ġsakamakon": 8726,
      "\").": 8727,
      "Hivyo": 8728,
      "ae": 8729,
      "cus": 8730,
      "grÃ©": 8731,
      "zung": 8732,
      "inin": 8733,
      "Ġcoule": 8734,
      "Ġinformation": 8735,
      "Ġradio": 8736,
      "ĠTele": 8737,
      "ĠPap": 8738,
      "ĠáĪĺáĮį": 8739,
      "ĠáĬ¨áĪĿ": 8740,
      "Ġáī°áĮĪ": 8741,
      "Ġáĭ«áĭĺ": 8742,
      "Ġprogress": 8743,
      "acy": 8744,
      "áĮłáīµ": 8745,
      "Ġzaune": 8746,
      "ĠáīłáĬ¤": 8747,
      "field": 8748,
      "ÃŃnÃº": 8749,
      "Ġáī£áĪķáĪŃ": 8750,
      "Ġdial": 8751,
      "Ġáĭ¨áĬłáĭ¨áĪŃ": 8752,
      "áīĤáĭ«": 8753,
      "ĠolÃ³gun": 8754,
      "Ġroyaume": 8755,
      "yria": 8756,
      "ĠHausawa": 8757,
      "ĠdiffÃ©rents": 8758,
      "ĠappelÃ©": 8759,
      "ĠScience": 8760,
      "ĠÃ©lÃ©ments": 8761,
      "Ġcountries": 8762,
      "Ġnatural": 8763,
      "Ġastronom": 8764,
      "áī¨áĪŃáĪ²áī²": 8765,
      "mÃ¡": 8766,
      "ĠlÃł": 8767,
      "Ġmall": 8768,
      "Ġmole": 8769,
      "Ġáīª": 8770,
      "Ġcry": 8771,
      "itÃ¬": 8772,
      "Ġround": 8773,
      "Ġtot": 8774,
      "agas": 8775,
      "ĠHindi": 8776,
      "alie": 8777,
      "áįįáĬķ": 8778,
      "ĠáĪĪáĪļ": 8779,
      "see": 8780,
      "Ġrelati": 8781,
      "Ġyanayi": 8782,
      "áĬŀáī¹": 8783,
      "Ġikan": 8784,
      "Ġrapid": 8785,
      "Ġnouvel": 8786,
      "stead": 8787,
      "ĠDenmark": 8788,
      "IN": 8789,
      "kh": 8790,
      "mir": 8791,
      "ÏĦ": 8792,
      "Ġtek": 8793,
      "Ġkilled": 8794,
      "Ġple": 8795,
      "ĠAle": 8796,
      "ĠfrÃ©": 8797,
      "irobi": 8798,
      "etry": 8799,
      "Ġrencont": 8800,
      "abeth": 8801,
      "áĭ«áĪľ": 8802,
      "idai": 8803,
      "ĠLuc": 8804,
      "âĢ¹": 8805,
      "Ġzane": 8806,
      "ĠFederal": 8807,
      "ĠEarth": 8808,
      "ĠUp": 8809,
      "Ġsimp": 8810,
      "Ġfounded": 8811,
      "ĠWilliams": 8812,
      "ĠAthens": 8813,
      "ĠRÃ©publique": 8814,
      "Ġfulani": 8815,
      "Ġgenre": 8816,
      "Ġnigba": 8817,
      "wÃ¹já»į": 8818,
      "Ġdipl": 8819,
      "side": 8820,
      "wÃº": 8821,
      "enga": 8822,
      "wat": 8823,
      "Ġlight": 8824,
      "Ġbid": 8825,
      "iche": 8826,
      "ĠBon": 8827,
      "ĠáĮĥ": 8828,
      "Ġtaifa": 8829,
      "ĠáĬłáĭĭ": 8830,
      "ĠRen": 8831,
      "Ġáī°áĮ½": 8832,
      "ĠáīłáĪĭ": 8833,
      "ĠYuni": 8834,
      "Ġard": 8835,
      "ured": 8836,
      "ĠáĪ²áĪį": 8837,
      "ĠbÃŃbÃŃ": 8838,
      "athan": 8839,
      "Ġtáº¹lif": 8840,
      "Ġcreated": 8841,
      "ĠáĪĿáĬķáĮĬáĭľáĪĿ": 8842,
      "Ġmakao": 8843,
      "Ġsayensi": 8844,
      "ĠáĬłáĪ«áīµ": 8845,
      "ĠBiblia": 8846,
      "EC": 8847,
      "Orodha": 8848,
      "lines": 8849,
      "oya": 8850,
      "ror": 8851,
      "Ġtaba": 8852,
      "ĠáīĦ": 8853,
      "itter": 8854,
      "Ġbuk": 8855,
      "eds": 8856,
      "Ġinap": 8857,
      "ĠKwam": 8858,
      "Ġjournal": 8859,
      "áĭŃáĪģ": 8860,
      "ĠIf": 8861,
      "ĠIsa": 8862,
      "ĠLitt": 8863,
      "Ġvic": 8864,
      "Ġá»įgá»į": 8865,
      "Ġasp": 8866,
      "áĪīáĬķ": 8867,
      "okacin": 8868,
      "áī¡áĬķ": 8869,
      "ĠZimbabwe": 8870,
      "Ġ''": 8871,
      "ĠdÃ©couver": 8872,
      "Ġkyau": 8873,
      "cycl": 8874,
      "Ġproblem": 8875,
      "ĠÃ¬dÃŃje": 8876,
      "áĬ¨áī°áĪĽáĭį": 8877,
      "ĠáĪłáĪ«áĭĬáīµ": 8878,
      "Ġoluilu": 8879,
      "Ġwatsa": 8880,
      "ĠArgentina": 8881,
      "ĠÃºn": 8882,
      "51": 8883,
      "Tari": 8884,
      "uver": 8885,
      "Äĵ": 8886,
      "Ġmember": 8887,
      "Ġbrit": 8888,
      "amare": 8889,
      "Ġhana": 8890,
      "Ġresearch": 8891,
      "chang": 8892,
      "ĠPÃ³": 8893,
      "áī¥áĬĽ": 8894,
      "áīłáĬłáĪ": 8895,
      "Ġey": 8896,
      "Ġáī°áĬŃáĪį": 8897,
      "ĠdÃ©jÃł": 8898,
      "Ġceux": 8899,
      "ĠItaly": 8900,
      "icho": 8901,
      "ellow": 8902,
      "Ġacid": 8903,
      "Ġshafi": 8904,
      "ĠAgusta": 8905,
      "ĠáĬłáĪįáī°": 8906,
      "ĠProf": 8907,
      "ĠCommon": 8908,
      "Ġjiho": 8909,
      "Ġdocument": 8910,
      "ĠáĪĺáĮ»áĪķáįįáīµ": 8911,
      "84": 8912,
      "Hasa": 8913,
      "rup": 8914,
      "Ġtels": 8915,
      "áĬķáī¥": 8916,
      "Ġom": 8917,
      "Ġfont": 8918,
      "Ġáĭ¨áįĬ": 8919,
      "urer": 8920,
      "Ġrun": 8921,
      "Ġrike": 8922,
      "ĠÃłdÃºgbÃ²": 8923,
      "ager": 8924,
      "ĠGovernment": 8925,
      "Ġalik": 8926,
      "rap": 8927,
      "áĪªáīĥ": 8928,
      "ĠáĭĪáĮ¥": 8929,
      "liance": 8930,
      "Ġkufuatana": 8931,
      "ĠáĪ°áĬĲ": 8932,
      "ishaji": 8933,
      "ĠáĪĬáīĥ": 8934,
      "moire": 8935,
      "ituo": 8936,
      "center": 8937,
      "ĠáīĨáĭŃ": 8938,
      "áĬķáĮīáĪ¥": 8939,
      "áĪįáĪµáįįáĬĵ": 8940,
      "Ġáįªáį»áį": 8941,
      "ĠQueen": 8942,
      "ĠdÃºrÃ³": 8943,
      "ĠFoundation": 8944,
      "áĪĨáĬĸáĪĿ": 8945,
      "54": 8946,
      "gon": 8947,
      "kk": 8948,
      "nd": 8949,
      "áĬķáīĢ": 8950,
      "ĠBag": 8951,
      "Ġ1917": 8952,
      "change": 8953,
      "ĠFÃ¡": 8954,
      "áĪªáĬ®áī½": 8955,
      "ĠáĭŃáīĨ": 8956,
      "ender": 8957,
      "ÉĹin": 8958,
      "Ġaccess": 8959,
      "lande": 8960,
      "ĠmÃ©th": 8961,
      "oney": 8962,
      "Ġ1936": 8963,
      "Ġkiasi": 8964,
      "Ġtrop": 8965,
      "Ġ1922": 8966,
      "Ġ1929": 8967,
      "ĠÃ¬dÃŃlÃ©": 8968,
      "Ġappear": 8969,
      "Waliofariki": 8970,
      "ĠmÃŃrÃłn": 8971,
      "ĠáĮĮáī³": 8972,
      "ĠKibantu": 8973,
      "ĠáĮĬáĭ®áĪŃáĮĬáĪµ": 8974,
      "Ġmathematic": 8975,
      "ĠAnambra": 8976,
      "::": 8977,
      "AT": 8978,
      "Si": 8979,
      "ean": 8980,
      "kiri": 8981,
      "Ø³": 8982,
      "Ġmethod": 8983,
      "ised": 8984,
      "áĪĪáīĢ": 8985,
      "ĠCla": 8986,
      "ĠáĬĲáĮ¥": 8987,
      "ĠHel": 8988,
      "áĪĽáĭįáĭ«áĬķ": 8989,
      "ĠáįĮ": 8990,
      "Ġá»įpá»į": 8991,
      "team": 8992,
      "áī¸áĭī": 8993,
      "Ġquar": 8994,
      "ÉĹi": 8995,
      "Ġfiimu": 8996,
      "áīģáīµ": 8997,
      "anced": 8998,
      "ĠáĪĬáīĢ": 8999,
      "ĠáĬłáĪĺáī³áīµ": 9000,
      "icial": 9001,
      "áī·áĬķ": 9002,
      "Ġsimple": 9003,
      "áĭŀáī½": 9004,
      "tifs": 9005,
      "ĠáĭŃáĮĪáĬĽáĪī": 9006,
      "ĠAtlantiki": 9007,
      "ĠRecords": 9008,
      "ĠKifaransa": 9009,
      "To": 9010,
      "Ġ!": 9011,
      "ĠÙ": 9012,
      "Ġdashi": 9013,
      "Ġlatin": 9014,
      "Ġpup": 9015,
      "ilway": 9016,
      "ĠAbi": 9017,
      "ators": 9018,
      "áĪĺáĮ¥": 9019,
      "áĪ¨áĪŃ": 9020,
      "ĠáīłáĪĢ": 9021,
      "áĬ«áĪĦ": 9022,
      "áĪĬáĬķ": 9023,
      "áĬķáĮįáĪį": 9024,
      "ologue": 9025,
      "ĠáĮĪáĭ¥": 9026,
      "ĠÂ»)": 9027,
      "Ġappara": 9028,
      "duzi": 9029,
      "ablement": 9030,
      "ĠáĪĺáĬķáĮįáĪ¥áī³áīµ": 9031,
      "shen": 9032,
      "1999": 9033,
      "Ġopen": 9034,
      "ĠPhil": 9035,
      "Ġwadannan": 9036,
      "ĠBened": 9037,
      "Ġáĭ¨áīĢáĭµáĪŀ": 9038,
      "yyuka": 9039,
      "ĠÃ©conomique": 9040,
      "Ġbeaucoup": 9041,
      "If": 9042,
      "Ġfadin": 9043,
      "Ġyakin": 9044,
      "ĠMet": 9045,
      "ĠMala": 9046,
      "ichi": 9047,
      "ĠPark": 9048,
      "ĠDin": 9049,
      "Ġva": 9050,
      "Ġvip": 9051,
      "Ġvoc": 9052,
      "ĠFe": 9053,
      "ogi": 9054,
      "endera": 9055,
      "ĠYou": 9056,
      "Ġsex": 9057,
      "áĬĴáĪįáĬŃ": 9058,
      "engwa": 9059,
      "áįĬáĭ«": 9060,
      "Ġconsist": 9061,
      "Ġakiwa": 9062,
      "Ġfils": 9063,
      "ĠIslands": 9064,
      "Ġmoderne": 9065,
      "uvu": 9066,
      "Ġindic": 9067,
      "Ġestim": 9068,
      "Ġáĭ¨áĪļáĮĪáĬĿáīłáīµ": 9069,
      "áĭŃáĪħáĪĿ": 9070,
      "Ġfitar": 9071,
      "Ġyaliy": 9072,
      "Ġbangaren": 9073,
      "ĠFulani": 9074,
      "ĠCOVID": 9075,
      "US": 9076,
      "nelle": 9077,
      "tres": 9078,
      "yte": 9079,
      "ĠáĬĥ": 9080,
      "Ġkub": 9081,
      "Ġmale": 9082,
      "Ġcet": 9083,
      "ĠMali": 9084,
      "ĠSim": 9085,
      "ĠáĬ¥áĬ©áĪį": 9086,
      "ĠáĬłáĭĺ": 9087,
      "ĠJáº¹": 9088,
      "ĠáįĴ": 9089,
      "cts": 9090,
      "Ġhaut": 9091,
      "ĠÃ²bÃŃ": 9092,
      "rican": 9093,
      "ĠáĪĨáĬĳ": 9094,
      "ampuni": 9095,
      "Ġáĭķáĭµ": 9096,
      "Ġyanke": 9097,
      "Ġ1925": 9098,
      "ĠáīłáĬłáĪģáĬĳ": 9099,
      "Ġoppos": 9100,
      "Americ": 9101,
      "Ġcontinued": 9102,
      "Qu": 9103,
      "bÃ¬": 9104,
      "áįı": 9105,
      "ĠáīĤ": 9106,
      "Ġhom": 9107,
      "Ġwhe": 9108,
      "Ã¨te": 9109,
      "Ã¨ge": 9110,
      "ĠCross": 9111,
      "rodu": 9112,
      "áĬĲáĮį": 9113,
      "ĠáĬ¨áī£": 9114,
      "ĠÃ¬bÃ¡": 9115,
      "ĠElect": 9116,
      "Ġáī°áĮ«": 9117,
      "Ġáĭ¨áĪģ": 9118,
      "opp": 9119,
      "ĠÃ©poque": 9120,
      "ĠâĢ¹": 9121,
      "Ġchama": 9122,
      "Ġule": 9123,
      "ĠáīłáĪĺáī£áĪį": 9124,
      "ependant": 9125,
      "Ã©nÃ©": 9126,
      "Ġ1941": 9127,
      "atsayin": 9128,
      "Ġshahar": 9129,
      "Ġoccident": 9130,
      "Ġconnu": 9131,
      "ĠWatakatifu": 9132,
      ")áį¢": 9133,
      "Kuma": 9134,
      "RS": 9135,
      "des": 9136,
      "ium": 9137,
      "ares": 9138,
      "Ġdit": 9139,
      "Ġtandis": 9140,
      "Ġsera": 9141,
      "enus": 9142,
      "Ġáĭ¨áĮĢáĪŃáĪĺáĬķ": 9143,
      "ĠPul": 9144,
      "Ġyáº¹": 9145,
      "ĠDuke": 9146,
      "ĠáĬ¨áĮį": 9147,
      "ĠRadio": 9148,
      "áĪĽáī¸áĭį": 9149,
      "ĠáīłáĪŀ": 9150,
      "Ġthird": 9151,
      "áĭ¨áĪ©": 9152,
      "ĠáĬ¥áĬķáīħáĪµáīĥáĪ´": 9153,
      "ĠdÃ©fin": 9154,
      "Ġáī¥áĪĶáĪŃ": 9155,
      "ĠItalian": 9156,
      "ĠáĬŃáĪĪáī¥": 9157,
      "ĠáĮĪáī¥áĪ¨": 9158,
      "Ġphysi": 9159,
      "Ġgramm": 9160,
      "Ġ1933": 9161,
      "áĭ°áĪŃáĮį": 9162,
      "Ġgroups": 9163,
      "Ġcorps": 9164,
      "ĠCommun": 9165,
      "Ġgrandes": 9166,
      "Ġáĭ¨áī°áī£áĪĪ": 9167,
      "ĠáĬłáīĢáįį": 9168,
      "While": 9169,
      "ĠMohammed": 9170,
      "temps": 9171,
      "Ã¡lÃŃÃł": 9172,
      ".-": 9173,
      "non": 9174,
      "áĭ·": 9175,
      "Ġsanar": 9176,
      "Ġkib": 9177,
      "ĠMel": 9178,
      "ĠSyst": 9179,
      "ĠáĬ¥áĪĿ": 9180,
      "Ġalk": 9181,
      "Ġthus": 9182,
      "obs": 9183,
      "Ġáĭ¨áĪļáĪ°áĪ«": 9184,
      "ĠáĪĽáĬħ": 9185,
      "ĠVI": 9186,
      "Ġpeti": 9187,
      "ĠArist": 9188,
      "áĭ±áīµ": 9189,
      "Ġacqu": 9190,
      "2001": 9191,
      "Ġmeji": 9192,
      "Ġáĭ¨áĬĲáĮĪ": 9193,
      "Ġáĭ¨áĬĲáīłáĪ©áīµ": 9194,
      "ĠUsman": 9195,
      "Ġáĭ¨áĭĵáĪĺáī±": 9196,
      "Ġinganta": 9197,
      "html": 9198,
      "63": 9199,
      "ota": 9200,
      "Ġhard": 9201,
      "Ġrock": 9202,
      "Ã¨rÃ¨": 9203,
      "ĠáĬłáĬĵ": 9204,
      "ĠáĬłáĮł": 9205,
      "Ġnipasáº¹": 9206,
      "ĠáĪĺáĬ®": 9207,
      "ĠáĪĺáĪ£": 9208,
      "ĠáĬ¨áĮ¥": 9209,
      "Ġvilles": 9210,
      "ĠHad": 9211,
      "anie": 9212,
      "ĠÃ¬yÃ¡": 9213,
      "áĬ¨áĬĵ": 9214,
      "Ġartist": 9215,
      "Ġfronti": 9216,
      "Ġkuzaliwa": 9217,
      "ĠáĪĬáĭ«": 9218,
      "ĠáĬĲáĮĪáĪ¥áīµ": 9219,
      "áĮĬáĭ«": 9220,
      "ĠrÃ©gions": 9221,
      "ĠprÃ©sente": 9222,
      "Ġsiyasan": 9223,
      "ĠdÃŃáº¹": 9224,
      "áĮĬáĭľáĭį": 9225,
      "ĠáīµáĬķáĪ½": 9226,
      "oftware": 9227,
      "ĠáĪºáĪħ": 9228,
      "ĠáĬłáĮĪáĪįáĮįáĪİáīµ": 9229,
      "Be": 9230,
      "Maj": 9231,
      "One": 9232,
      "bor": 9233,
      "cun": 9234,
      "kiya": 9235,
      "naire": 9236,
      "pia": 9237,
      "van": 9238,
      "yÃ¬ÃŃ": 9239,
      "ĠÅ": 9240,
      "Ġant": 9241,
      "ÃŃrÃŃkÃł": 9242,
      "ĠSav": 9243,
      "Ġrad": 9244,
      "ĠKÃ²": 9245,
      "áĬĵáĮĪáĪŃ": 9246,
      "áĭŃáĪį": 9247,
      "ĠGer": 9248,
      "Ġzabe": 9249,
      "ĠáĬ¨áĪµ": 9250,
      "áĪ³áĪ°": 9251,
      "Ġconditions": 9252,
      "ĠáĪµáĬķ": 9253,
      "Ġáĭ«áĪĭáī¸áĭį": 9254,
      "Ġkuv": 9255,
      "áĪ¥áĪ«": 9256,
      "Ġmarried": 9257,
      "ĠGuerre": 9258,
      "cription": 9259,
      "pecially": 9260,
      "ĠáīĥáĪĭáīµ": 9261,
      "ubuce": 9262,
      "ĠUsw": 9263,
      "Ġrespons": 9264,
      "ĠMarie": 9265,
      "shiryen": 9266,
      "ĠJacques": 9267,
      "With": 9268,
      "rand": 9269,
      "Ġmambo": 9270,
      "iland": 9271,
      "ĠhÃłn": 9272,
      "Ġganin": 9273,
      "edy": 9274,
      "ĠSarkin": 9275,
      "ĠKu": 9276,
      "ĠKon": 9277,
      "imar": 9278,
      "embe": 9279,
      "aking": 9280,
      "Ġzar": 9281,
      "Ġvik": 9282,
      "ĠFal": 9283,
      "ĠRound": 9284,
      "ĠÃ¬gbÃ©": 9285,
      "ĠVita": 9286,
      "Ġcher": 9287,
      "ĠáĬłáĪµáįĪ": 9288,
      "ĠáĮĢáĪŃáĪĺáĬķ": 9289,
      "Ġhalf": 9290,
      "Ġáī°áĪĺáĪ³áĪ³áĭŃ": 9291,
      "ĠáĬłáī£áĪĭáīµ": 9292,
      "Ġáĭ¨áĪĨáĬĲáĭį": 9293,
      "ĠnÃ©cess": 9294,
      "ĠBerlin": 9295,
      "Ġreferred": 9296,
      "ĠPremier": 9297,
      "ĠAfrilu": 9298,
      "áĬ®áĬĸáĪļ": 9299,
      "vaux": 9300,
      "west": 9301,
      "Ġliss": 9302,
      "alitÃ©s": 9303,
      "ĠMji": 9304,
      "áĪįáĮĭ": 9305,
      "ĠSur": 9306,
      "Ġrana": 9307,
      "Ġruk": 9308,
      "Ġjust": 9309,
      "ĠáĬłáĮį": 9310,
      "Ġleyin": 9311,
      "ĠJina": 9312,
      "Ġeux": 9313,
      "Ġgave": 9314,
      "iwaju": 9315,
      "Ġolud": 9316,
      "issement": 9317,
      "ĠgbÃ¡": 9318,
      "lications": 9319,
      "Ġ1931": 9320,
      "ĠannÃ©e": 9321,
      "ĠáĪĪáĪĽáĪµ": 9322,
      "áī£áī¢áĪİáĬķ": 9323,
      "Ġtsakiyar": 9324,
      "Ġdirection": 9325,
      "ĠAlexand": 9326,
      "Ġreceived": 9327,
      "ĠJanairu": 9328,
      "Ġensemble": 9329,
      "ĠDutch": 9330,
      "berdeen": 9331,
      "Ainsi": 9332,
      "ĠtÃªte": 9333,
      "Ġsoj": 9334,
      "Ġsoja": 9335,
      "áĮİáī½": 9336,
      "ored": 9337,
      "ĠAkin": 9338,
      "ĠMen": 9339,
      "Ġrá»į": 9340,
      "Ġrange": 9341,
      "ĠáĬ¥áĪ«áĪ±": 9342,
      "ĠDiv": 9343,
      "Ġáĭ¨áĬ¡": 9344,
      "ĠáĭĵáĭŃáĬĲáīµ": 9345,
      "Ġsein": 9346,
      "seed": 9347,
      "Ġchurch": 9348,
      "assa": 9349,
      "ĠChuo": 9350,
      "Ġkananan": 9351,
      "ĠadarÃŃ": 9352,
      "Ġmaking": 9353,
      "Ġáĭ¨áĬłáĭįáĪ®áįĵ": 9354,
      "Ġupon": 9355,
      "ĠáĮĢáĪĺáĪ¨": 9356,
      "wÃ²sÃłn": 9357,
      "ĠsupÃ©rie": 9358,
      "ĠáĬłáĪĿáī£": 9359,
      "Ġulikuwa": 9360,
      "Ġrespec": 9361,
      "ĠáĬŃáįįáĪĭáĮĪáĪŃ": 9362,
      "Ġnasarar": 9363,
      "American": 9364,
      "GB": 9365,
      "Hak": 9366,
      "Ol": 9367,
      "Pope": 9368,
      "bal": 9369,
      "eurs": 9370,
      "rary": 9371,
      "Ġkiongozi": 9372,
      "Ġáĭ¨áĪ«áĪ±": 9373,
      "ĠMoyen": 9374,
      "ĠSenegal": 9375,
      "ĠáīłáĬ«": 9376,
      "áĬĲáĬĽ": 9377,
      "Ġalgebra": 9378,
      "Ġconcent": 9379,
      "áĭ³áĪª": 9380,
      "Ġprojet": 9381,
      "ĠáĮįáĭµ": 9382,
      "Ġexcl": 9383,
      "Ġapa": 9384,
      "fika": 9385,
      "¢áīµáĭ®áĮµáĭ«áĬķ": 9386,
      "Ġtsara": 9387,
      "ĠAsiya": 9388,
      "Ġformation": 9389,
      "Ġmilieu": 9390,
      "wamna": 9391,
      "Ġ1928": 9392,
      "Union": 9393,
[...]
