{
  "version": "1.0",
  "truncation": null,
  "padding": null,
  "added_tokens": [
    {
      "id": 0,
      "content": "[UNK]",
      "single_word": false,
      "lstrip": false,
      "rstrip": false,
      "normalized": false,
      "special": true
    },
    {
      "id": 1,
      "content": "<0x00>",
      "single_word": false,
      "lstrip": false,
      "rstrip": false,
      "normalized": false,
      "special": true
    },
    {
      "id": 2,
      "content": "<0x01>",
      "single_word": false,
      "lstrip": false,
      "rstrip": false,
      "normalized": false,
      "special": true
    },
    {
      "id": 3,
      "content": "<0x02>",
      "single_word": false,
      "lstrip": false,
      "rstrip": false,
      "normalized": false,
      "special": true
    },
    {
      "id": 4,
      "content": "<0x03>",
      "single_word": false,
      "lstrip": false,
      "rstrip": false,
      "normalized": false,
      "special": true
    },
    {
      "id": 5,
      "content": "<0x04>",
      "single_word": false,
      "lstrip": false,
      "rstrip": false,
      "normalized": false,
      "special": true
    },
    {
      "id": 6,
      "content": "<0x05>",
      "single_word": false,
      "lstrip": false,
      "rstrip": false,
      "normalized": false,
      "special": true
    },
    {
      "id": 7,
      "content": "<0x06>",
      "single_word": false,
      "lstrip": false,
      "rstrip": false,
      "normalized": false,
      "special": true
    },
    {
      "id": 8,
      "content": "<0x07>",
      "single_word": false,
      "lstrip": false,
      "rstrip": false,
      "normalized": false,
      "special": true
    },
    {
      "id": 9,
      "content": "<0x08>",
      "single_word": false,
      "lstrip": false,
      "rstrip": false,
      "normalized": false,
      "special": true
    },
    {
      "id": 10,
      "content": "<0x09>",
      "single_word": false,
      "lstrip": false,
      "rstrip": false,
      "normalized": false,
      "special": true
    },
    {
      "id": 11,
      "content": "<0x0A>",
      "single_word": false,
      "lstrip": false,
      "rstrip": false,
      "normalized": false,
      "special": true
    },
    {
      "id": 12,
      "content": "<0x0B>",
      "single_word": false,
      "lstrip": false,
      "rstrip": false,
      "normalized": false,
      "special": true
    },
    {
      "id": 13,
      "content": "<0x0C>",
      "single_word": false,
      "lstrip": false,
      "rstrip": false,
      "normalized": false,
      "special": true
    },
    {
      "id": 14,
      "content": "<0x0D>",
      "single_word": false,
      "lstrip": false,
      "rstrip": false,
      "normalized": false,
      "special": true
    },
    {
      "id": 15,
      "content": "<0x0E>",
      "single_word": false,
      "lstrip": false,
      "rstrip": false,
      "normalized": false,
      "special": true
    },
    {
      "id": 16,
      "content": "<0x0F>",
      "single_word": false,
      "lstrip": false,
      "rstrip": false,
      "normalized": false,
      "special": true
    },
    {
      "id": 17,
      "content": "<0x10>",
      "single_word": false,
      "lstrip": false,
      "rstrip": false,
      "normalized": false,
      "special": true
    },
    {
      "id": 18,
      "content": "<0x11>",
      "single_word": false,
      "lstrip": false,
      "rstrip": false,
      "normalized": false,
      "special": true
    },
    {
      "id": 19,
      "content": "<0x12>",
      "single_word": false,
      "lstrip": false,
      "rstrip": false,
      "normalized": false,
      "special": true
    },
    {
      "id": 20,
      "content": "<0x13>",
      "single_word": false,
      "lstrip": false,
      "rstrip": false,
      "normalized": false,
      "special": true
    },
    {
      "id": 21,
      "content": "<0x14>",
      "single_word": false,
      "lstrip": false,
      "rstrip": false,
      "normalized": false,
      "special": true
    },
    {
      "id": 22,
      "content": "<0x15>",
      "single_word": false,
      "lstrip": false,
      "rstrip": false,
      "normalized": false,
      "special": true
    },
    {
      "id": 23,
      "content": "<0x16>",
      "single_word": false,
      "lstrip": false,
      "rstrip": false,
      "normalized": false,
      "special": true
    },
    {
      "id": 24,
      "content": "<0x17>",
      "single_word": false,
      "lstrip": false,
      "rstrip": false,
      "normalized": false,
      "special": true
    },
    {
      "id": 25,
      "content": "<0x18>",
      "single_word": false,
      "lstrip": false,
      "rstrip": false,
      "normalized": false,
      "special": true
    },
    {
      "id": 26,
      "content": "<0x19>",
      "single_word": false,
      "lstrip": false,
      "rstrip": false,
      "normalized": false,
      "special": true
    },
    {
      "id": 27,
      "content": "<0x1A>",
      "single_word": false,
      "lstrip": false,
      "rstrip": false,
      "normalized": false,
      "special": true
    },
    {
      "id": 28,
      "content": "<0x1B>",
      "single_word": false,
      "lstrip": false,
      "rstrip": false,
      "normalized": false,
      "special": true
    },
    {
      "id": 29,
      "content": "<0x1C>",
      "single_word": false,
      "lstrip": false,
      "rstrip": false,
      "normalized": false,
      "special": true
    },
    {
      "id": 30,
      "content": "<0x1D>",
      "single_word": false,
      "lstrip": false,
      "rstrip": false,
      "normalized": false,
      "special": true
    },
    {
      "id": 31,
      "content": "<0x1E>",
      "single_word": false,
      "lstrip": false,
      "rstrip": false,
      "normalized": false,
      "special": true
    },
    {
      "id": 32,
      "content": "<0x1F>",
      "single_word": false,
      "lstrip": false,
      "rstrip": false,
      "normalized": false,
      "special": true
    },
    {
      "id": 33,
      "content": "<0x20>",
      "single_word": false,
      "lstrip": false,
      "rstrip": false,
      "normalized": false,
      "special": true
    },
    {
      "id": 34,
      "content": "<0x21>",
      "single_word": false,
      "lstrip": false,
      "rstrip": false,
      "normalized": false,
      "special": true
    },
    {
      "id": 35,
      "content": "<0x22>",
      "single_word": false,
      "lstrip": false,
      "rstrip": false,
      "normalized": false,
      "special": true
    },
    {
      "id": 36,
      "content": "<0x23>",
      "single_word": false,
      "lstrip": false,
      "rstrip": false,
      "normalized": false,
      "special": true
    },
    {
      "id": 37,
      "content": "<0x24>",
      "single_word": false,
      "lstrip": false,
      "rstrip": false,
      "normalized": false,
      "special": true
    },
    {
      "id": 38,
      "content": "<0x25>",
      "single_word": false,
      "lstrip": false,
      "rstrip": false,
      "normalized": false,
      "special": true
    },
    {
      "id": 39,
      "content": "<0x26>",
      "single_word": false,
      "lstrip": false,
      "rstrip": false,
      "normalized": false,
      "special": true
    },
    {
      "id": 40,
      "content": "<0x27>",
      "single_word": false,
      "lstrip": false,
      "rstrip": false,
      "normalized": false,
      "special": true
    },
    {
      "id": 41,
      "content": "<0x28>",
      "single_word": false,
      "lstrip": false,
      "rstrip": false,
      "normalized": false,
      "special": true
    },
    {
      "id": 42,
      "content": "<0x29>",
      "single_word": false,
      "lstrip": false,
      "rstrip": false,
      "normalized": false,
      "special": true
    },
    {
      "id": 43,
      "content": "<0x2A>",
      "single_word": false,
      "lstrip": false,
      "rstrip": false,
      "normalized": false,
      "special": true
    },
    {
      "id": 44,
      "content": "<0x2B>",
      "single_word": false,
      "lstrip": false,
      "rstrip": false,
      "normalized": false,
      "special": true
    },
    {
      "id": 45,
      "content": "<0x2C>",
      "single_word": false,
      "lstrip": false,
      "rstrip": false,
      "normalized": false,
      "special": true
    },
    {
      "id": 46,
      "content": "<0x2D>",
      "single_word": false,
      "lstrip": false,
      "rstrip": false,
      "normalized": false,
      "special": true
    },
    {
      "id": 47,
      "content": "<0x2E>",
      "single_word": false,
      "lstrip": false,
      "rstrip": false,
      "normalized": false,
      "special": true
    },
    {
      "id": 48,
      "content": "<0x2F>",
      "single_word": false,
      "lstrip": false,
      "rstrip": false,
      "normalized": false,
      "special": true
    },
    {
      "id": 49,
      "content": "<0x30>",
      "single_word": false,
      "lstrip": false,
      "rstrip": false,
      "normalized": false,
      "special": true
    },
    {
      "id": 50,
      "content": "<0x31>",
      "single_word": false,
      "lstrip": false,
      "rstrip": false,
      "normalized": false,
      "special": true
    },
    {
      "id": 51,
      "content": "<0x32>",
      "single_word": false,
      "lstrip": false,
      "rstrip": false,
      "normalized": false,
      "special": true
    },
    {
      "id": 52,
      "content": "<0x33>",
      "single_word": false,
      "lstrip": false,
      "rstrip": false,
      "normalized": false,
      "special": true
    },
    {
      "id": 53,
      "content": "<0x34>",
      "single_word": false,
      "lstrip": false,
      "rstrip": false,
      "normalized": false,
      "special": true
    },
    {
      "id": 54,
      "content": "<0x35>",
      "single_word": false,
      "lstrip": false,
      "rstrip": false,
      "normalized": false,
      "special": true
    },
    {
      "id": 55,
      "content": "<0x36>",
      "single_word": false,
      "lstrip": false,
      "rstrip": false,
      "normalized": false,
      "special": true
    },
    {
      "id": 56,
      "content": "<0x37>",
      "single_word": false,
      "lstrip": false,
      "rstrip": false,
      "normalized": false,
      "special": true
    },
    {
      "id": 57,
      "content": "<0x38>",
      "single_word": false,
      "lstrip": false,
      "rstrip": false,
      "normalized": false,
      "special": true
    },
    {
      "id": 58,
      "content": "<0x39>",
      "single_word": false,
      "lstrip": false,
      "rstrip": false,
      "normalized": false,
      "special": true
    },
    {
      "id": 59,
      "content": "<0x3A>",
      "single_word": false,
      "lstrip": false,
      "rstrip": false,
      "normalized": false,
      "special": true
    },
    {
      "id": 60,
      "content": "<0x3B>",
      "single_word": false,
      "lstrip": false,
      "rstrip": false,
      "normalized": false,
      "special": true
    },
    {
      "id": 61,
      "content": "<0x3C>",
      "single_word": false,
      "lstrip": false,
      "rstrip": false,
      "normalized": false,
      "special": true
    },
    {
      "id": 62,
      "content": "<0x3D>",
      "single_word": false,
      "lstrip": false,
      "rstrip": false,
      "normalized": false,
      "special": true
    },
    {
      "id": 63,
      "content": "<0x3E>",
      "single_word": false,
      "lstrip": false,
      "rstrip": false,
      "normalized": false,
      "special": true
    },
    {
      "id": 64,
      "content": "<0x3F>",
      "single_word": false,
      "lstrip": false,
      "rstrip": false,
      "normalized": false,
      "special": true
    },
    {
      "id": 65,
      "content": "<0x40>",
      "single_word": false,
      "lstrip": false,
      "rstrip": false,
      "normalized": false,
      "special": true
    },
    {
      "id": 66,
      "content": "<0x41>",
      "single_word": false,
      "lstrip": false,
      "rstrip": false,
      "normalized": false,
      "special": true
    },
    {
      "id": 67,
      "content": "<0x42>",
      "single_word": false,
      "lstrip": false,
      "rstrip": false,
      "normalized": false,
      "special": true
    },
    {
      "id": 68,
      "content": "<0x43>",
      "single_word": false,
      "lstrip": false,
      "rstrip": false,
      "normalized": false,
      "special": true
    },
    {
      "id": 69,
      "content": "<0x44>",
      "single_word": false,
      "lstrip": false,
      "rstrip": false,
      "normalized": false,
      "special": true
    },
    {
      "id": 70,
      "content": "<0x45>",
      "single_word": false,
      "lstrip": false,
      "rstrip": false,
      "normalized": false,
      "special": true
    },
    {
      "id": 71,
      "content": "<0x46>",
      "single_word": false,
      "lstrip": false,
      "rstrip": false,
      "normalized": false,
      "special": true
    },
    {
      "id": 72,
      "content": "<0x47>",
      "single_word": false,
      "lstrip": false,
      "rstrip": false,
      "normalized": false,
      "special": true
    },
    {
      "id": 73,
      "content": "<0x48>",
      "single_word": false,
      "lstrip": false,
      "rstrip": false,
      "normalized": false,
      "special": true
    },
    {
      "id": 74,
      "content": "<0x49>",
      "single_word": false,
      "lstrip": false,
      "rstrip": false,
      "normalized": false,
      "special": true
    },
    {
      "id": 75,
      "content": "<0x4A>",
      "single_word": false,
      "lstrip": false,
      "rstrip": false,
      "normalized": false,
      "special": true
    },
    {
      "id": 76,
      "content": "<0x4B>",
      "single_word": false,
      "lstrip": false,
      "rstrip": false,
      "normalized": false,
      "special": true
    },
    {
      "id": 77,
      "content": "<0x4C>",
      "single_word": false,
      "lstrip": false,
      "rstrip": false,
      "normalized": false,
      "special": true
    },
    {
      "id": 78,
      "content": "<0x4D>",
      "single_word": false,
      "lstrip": false,
      "rstrip": false,
      "normalized": false,
      "special": true
    },
    {
      "id": 79,
      "content": "<0x4E>",
      "single_word": false,
      "lstrip": false,
      "rstrip": false,
      "normalized": false,
      "special": true
    },
    {
      "id": 80,
      "content": "<0x4F>",
      "single_word": false,
      "lstrip": false,
      "rstrip": false,
      "normalized": false,
      "special": true
    },
    {
      "id": 81,
      "content": "<0x50>",
      "single_word": false,
      "lstrip": false,
      "rstrip": false,
      "normalized": false,
      "special": true
    },
    {
      "id": 82,
      "content": "<0x51>",
      "single_word": false,
      "lstrip": false,
      "rstrip": false,
      "normalized": false,
      "special": true
    },
    {
      "id": 83,
      "content": "<0x52>",
      "single_word": false,
      "lstrip": false,
      "rstrip": false,
      "normalized": false,
      "special": true
    },
    {
      "id": 84,
      "content": "<0x53>",
      "single_word": false,
      "lstrip": false,
      "rstrip": false,
      "normalized": false,
      "special": true
    },
    {
      "id": 85,
      "content": "<0x54>",
      "single_word": false,
      "lstrip": false,
      "rstrip": false,
      "normalized": false,
      "special": true
    },
    {
      "id": 86,
      "content": "<0x55>",
      "single_word": false,
      "lstrip": false,
      "rstrip": false,
      "normalized": false,
      "special": true
    },
    {
      "id": 87,
      "content": "<0x56>",
      "single_word": false,
      "lstrip": false,
      "rstrip": false,
      "normalized": false,
      "special": true
    },
    {
      "id": 88,
      "content": "<0x57>",
      "single_word": false,
      "lstrip": false,
      "rstrip": false,
      "normalized": false,
      "special": true
    },
    {
      "id": 89,
      "content": "<0x58>",
      "single_word": false,
      "lstrip": false,
      "rstrip": false,
      "normalized": false,
      "special": true
    },
    {
      "id": 90,
      "content": "<0x59>",
      "single_word": false,
      "lstrip": false,
      "rstrip": false,
      "normalized": false,
      "special": true
    },
    {
      "id": 91,
      "content": "<0x5A>",
      "single_word": false,
      "lstrip": false,
      "rstrip": false,
      "normalized": false,
      "special": true
    },
    {
      "id": 92,
      "content": "<0x5B>",
      "single_word": false,
      "lstrip": false,
      "rstrip": false,
      "normalized": false,
      "special": true
    },
    {
      "id": 93,
      "content": "<0x5C>",
      "single_word": false,
      "lstrip": false,
      "rstrip": false,
      "normalized": false,
      "special": true
    },
    {
      "id": 94,
      "content": "<0x5D>",
      "single_word": false,
      "lstrip": false,
      "rstrip": false,
      "normalized": false,
      "special": true
    },
    {
      "id": 95,
      "content": "<0x5E>",
      "single_word": false,
      "lstrip": false,
      "rstrip": false,
      "normalized": false,
      "special": true
    },
    {
      "id": 96,
      "content": "<0x5F>",
      "single_word": false,
      "lstrip": false,
      "rstrip": false,
      "normalized": false,
      "special": true
    },
    {
      "id": 97,
      "content": "<0x60>",
      "single_word": false,
      "lstrip": false,
      "rstrip": false,
      "normalized": false,
      "special": true
    },
    {
      "id": 98,
      "content": "<0x61>",
      "single_word": false,
      "lstrip": false,
      "rstrip": false,
      "normalized": false,
      "special": true
    },
    {
      "id": 99,
      "content": "<0x62>",
      "single_word": false,
      "lstrip": false,
      "rstrip": false,
      "normalized": false,
      "special": true
    },
    {
      "id": 100,
      "content": "<0x63>",
      "single_word": false,
      "lstrip": false,
      "rstrip": false,
      "normalized": false,
      "special": true
    },
    {
      "id": 101,
      "content": "<0x64>",
      "single_word": false,
      "lstrip": false,
      "rstrip": false,
      "normalized": false,
      "special": true
    },
    {
      "id": 102,
      "content": "<0x65>",
      "single_word": false,
      "lstrip": false,
      "rstrip": false,
      "normalized": false,
      "special": true
    },
    {
      "id": 103,
      "content": "<0x66>",
      "single_word": false,
      "lstrip": false,
      "rstrip": false,
      "normalized": false,
      "special": true
    },
    {
      "id": 104,
      "content": "<0x67>",
      "single_word": false,
      "lstrip": false,
      "rstrip": false,
      "normalized": false,
      "special": true
    },
    {
      "id": 105,
      "content": "<0x68>",
      "single_word": false,
      "lstrip": false,
      "rstrip": false,
      "normalized": false,
      "special": true
    },
    {
      "id": 106,
      "content": "<0x69>",
      "single_word": false,
      "lstrip": false,
      "rstrip": false,
      "normalized": false,
      "special": true
    },
    {
      "id": 107,
      "content": "<0x6A>",
      "single_word": false,
      "lstrip": false,
      "rstrip": false,
      "normalized": false,
      "special": true
    },
    {
      "id": 108,
      "content": "<0x6B>",
      "single_word": false,
      "lstrip": false,
      "rstrip": false,
      "normalized": false,
      "special": true
    },
    {
      "id": 109,
      "content": "<0x6C>",
      "single_word": false,
      "lstrip": false,
      "rstrip": false,
      "normalized": false,
      "special": true
    },
    {
      "id": 110,
      "content": "<0x6D>",
      "single_word": false,
      "lstrip": false,
      "rstrip": false,
      "normalized": false,
      "special": true
    },
    {
      "id": 111,
      "content": "<0x6E>",
      "single_word": false,
      "lstrip": false,
      "rstrip": false,
      "normalized": false,
      "special": true
    },
    {
      "id": 112,
      "content": "<0x6F>",
      "single_word": false,
      "lstrip": false,
      "rstrip": false,
      "normalized": false,
      "special": true
    },
    {
      "id": 113,
      "content": "<0x70>",
      "single_word": false,
      "lstrip": false,
      "rstrip": false,
      "normalized": false,
      "special": true
    },
    {
      "id": 114,
      "content": "<0x71>",
      "single_word": false,
      "lstrip": false,
      "rstrip": false,
      "normalized": false,
      "special": true
    },
    {
      "id": 115,
      "content": "<0x72>",
      "single_word": false,
      "lstrip": false,
      "rstrip": false,
      "normalized": false,
      "special": true
    },
    {
      "id": 116,
      "content": "<0x73>",
      "single_word": false,
      "lstrip": false,
      "rstrip": false,
      "normalized": false,
      "special": true
    },
    {
      "id": 117,
      "content": "<0x74>",
      "single_word": false,
      "lstrip": false,
      "rstrip": false,
      "normalized": false,
      "special": true
    },
    {
      "id": 118,
      "content": "<0x75>",
      "single_word": false,
      "lstrip": false,
      "rstrip": false,
      "normalized": false,
      "special": true
    },
    {
      "id": 119,
      "content": "<0x76>",
      "single_word": false,
      "lstrip": false,
      "rstrip": false,
      "normalized": false,
      "special": true
    },
    {
      "id": 120,
      "content": "<0x77>",
      "single_word": false,
      "lstrip": false,
      "rstrip": false,
      "normalized": false,
      "special": true
    },
    {
      "id": 121,
      "content": "<0x78>",
      "single_word": false,
      "lstrip": false,
      "rstrip": false,
      "normalized": false,
      "special": true
    },
    {
      "id": 122,
      "content": "<0x79>",
      "single_word": false,
      "lstrip": false,
      "rstrip": false,
      "normalized": false,
      "special": true
    },
    {
      "id": 123,
      "content": "<0x7A>",
      "single_word": false,
      "lstrip": false,
      "rstrip": false,
      "normalized": false,
      "special": true
    },
    {
      "id": 124,
      "content": "<0x7B>",
      "single_word": false,
      "lstrip": false,
      "rstrip": false,
      "normalized": false,
      "special": true
    },
    {
      "id": 125,
      "content": "<0x7C>",
      "single_word": false,
      "lstrip": false,
      "rstrip": false,
      "normalized": false,
      "special": true
    },
    {
      "id": 126,
      "content": "<0x7D>",
      "single_word": false,
      "lstrip": false,
      "rstrip": false,
      "normalized": false,
      "special": true
    },
    {
      "id": 127,
      "content": "<0x7E>",
      "single_word": false,
      "lstrip": false,
      "rstrip": false,
      "normalized": false,
      "special": true
    },
    {
      "id": 128,
      "content": "<0x7F>",
      "single_word": false,
      "lstrip": false,
      "rstrip": false,
      "normalized": false,
      "special": true
    },
    {
      "id": 129,
      "content": "<0x80>",
      "single_word": false,
      "lstrip": false,
      "rstrip": false,
      "normalized": false,
      "special": true
    },
    {
      "id": 130,
      "content": "<0x81>",
      "single_word": false,
      "lstrip": false,
      "rstrip": false,
      "normalized": false,
      "special": true
    },
    {
      "id": 131,
      "content": "<0x82>",
      "single_word": false,
      "lstrip": false,
      "rstrip": false,
      "normalized": false,
      "special": true
    },
    {
      "id": 132,
      "content": "<0x83>",
      "single_word": false,
      "lstrip": false,
      "rstrip": false,
      "normalized": false,
      "special": true
    },
    {
      "id": 133,
      "content": "<0x84>",
      "single_word": false,
      "lstrip": false,
      "rstrip": false,
      "normalized": false,
      "special": true
    },
    {
      "id": 134,
      "content": "<0x85>",
      "single_word": false,
      "lstrip": false,
      "rstrip": false,
      "normalized": false,
      "special": true
    },
    {
      "id": 135,
      "content": "<0x86>",
      "single_word": false,
      "lstrip": false,
      "rstrip": false,
      "normalized": false,
      "special": true
    },
    {
      "id": 136,
      "content": "<0x87>",
      "single_word": false,
      "lstrip": false,
      "rstrip": false,
      "normalized": false,
      "special": true
    },
    {
      "id": 137,
      "content": "<0x88>",
      "single_word": false,
      "lstrip": false,
      "rstrip": false,
      "normalized": false,
      "special": true
    },
    {
      "id": 138,
      "content": "<0x89>",
      "single_word": false,
      "lstrip": false,
      "rstrip": false,
      "normalized": false,
      "special": true
    },
    {
      "id": 139,
      "content": "<0x8A>",
      "single_word": false,
      "lstrip": false,
      "rstrip": false,
      "normalized": false,
      "special": true
    },
    {
      "id": 140,
      "content": "<0x8B>",
      "single_word": false,
      "lstrip": false,
      "rstrip": false,
      "normalized": false,
      "special": true
    },
    {
      "id": 141,
      "content": "<0x8C>",
      "single_word": false,
      "lstrip": false,
      "rstrip": false,
      "normalized": false,
      "special": true
    },
    {
      "id": 142,
      "content": "<0x8D>",
      "single_word": false,
      "lstrip": false,
      "rstrip": false,
      "normalized": false,
      "special": true
    },
    {
      "id": 143,
      "content": "<0x8E>",
      "single_word": false,
      "lstrip": false,
      "rstrip": false,
      "normalized": false,
      "special": true
    },
    {
      "id": 144,
      "content": "<0x8F>",
      "single_word": false,
      "lstrip": false,
      "rstrip": false,
      "normalized": false,
      "special": true
    },
    {
      "id": 145,
      "content": "<0x90>",
      "single_word": false,
      "lstrip": false,
      "rstrip": false,
      "normalized": false,
      "special": true
    },
    {
      "id": 146,
      "content": "<0x91>",
      "single_word": false,
      "lstrip": false,
      "rstrip": false,
      "normalized": false,
      "special": true
    },
    {
      "id": 147,
      "content": "<0x92>",
      "single_word": false,
      "lstrip": false,
      "rstrip": false,
      "normalized": false,
      "special": true
    },
    {
      "id": 148,
      "content": "<0x93>",
      "single_word": false,
      "lstrip": false,
      "rstrip": false,
      "normalized": false,
      "special": true
    },
    {
      "id": 149,
      "content": "<0x94>",
      "single_word": false,
      "lstrip": false,
      "rstrip": false,
      "normalized": false,
      "special": true
    },
    {
      "id": 150,
      "content": "<0x95>",
      "single_word": false,
      "lstrip": false,
      "rstrip": false,
      "normalized": false,
      "special": true
    },
    {
      "id": 151,
      "content": "<0x96>",
      "single_word": false,
      "lstrip": false,
      "rstrip": false,
      "normalized": false,
      "special": true
    },
    {
      "id": 152,
      "content": "<0x97>",
      "single_word": false,
      "lstrip": false,
      "rstrip": false,
      "normalized": false,
      "special": true
    },
    {
      "id": 153,
      "content": "<0x98>",
      "single_word": false,
      "lstrip": false,
      "rstrip": false,
      "normalized": false,
      "special": true
    },
    {
      "id": 154,
      "content": "<0x99>",
      "single_word": false,
      "lstrip": false,
      "rstrip": false,
      "normalized": false,
      "special": true
    },
    {
      "id": 155,
      "content": "<0x9A>",
      "single_word": false,
      "lstrip": false,
      "rstrip": false,
      "normalized": false,
      "special": true
    },
    {
      "id": 156,
      "content": "<0x9B>",
      "single_word": false,
      "lstrip": false,
      "rstrip": false,
      "normalized": false,
      "special": true
    },
    {
      "id": 157,
      "content": "<0x9C>",
      "single_word": false,
      "lstrip": false,
      "rstrip": false,
      "normalized": false,
      "special": true
    },
    {
      "id": 158,
      "content": "<0x9D>",
      "single_word": false,
      "lstrip": false,
      "rstrip": false,
      "normalized": false,
      "special": true
    },
    {
      "id": 159,
      "content": "<0x9E>",
      "single_word": false,
      "lstrip": false,
      "rstrip": false,
      "normalized": false,
      "special": true
    },
    {
      "id": 160,
      "content": "<0x9F>",
      "single_word": false,
      "lstrip": false,
      "rstrip": false,
      "normalized": false,
      "special": true
    },
    {
      "id": 161,
      "content": "<0xA0>",
      "single_word": false,
      "lstrip": false,
      "rstrip": false,
      "normalized": false,
      "special": true
    },
    {
      "id": 162,
      "content": "<0xA1>",
      "single_word": false,
      "lstrip": false,
      "rstrip": false,
      "normalized": false,
      "special": true
    },
    {
      "id": 163,
      "content": "<0xA2>",
      "single_word": false,
      "lstrip": false,
      "rstrip": false,
      "normalized": false,
      "special": true
    },
    {
      "id": 164,
      "content": "<0xA3>",
      "single_word": false,
      "lstrip": false,
      "rstrip": false,
      "normalized": false,
      "special": true
    },
    {
      "id": 165,
      "content": "<0xA4>",
      "single_word": false,
      "lstrip": false,
      "rstrip": false,
      "normalized": false,
      "special": true
    },
    {
      "id": 166,
      "content": "<0xA5>",
      "single_word": false,
      "lstrip": false,
      "rstrip": false,
      "normalized": false,
      "special": true
    },
    {
      "id": 167,
      "content": "<0xA6>",
      "single_word": false,
      "lstrip": false,
      "rstrip": false,
      "normalized": false,
      "special": true
    },
    {
      "id": 168,
      "content": "<0xA7>",
      "single_word": false,
      "lstrip": false,
      "rstrip": false,
      "normalized": false,
      "special": true
    },
    {
      "id": 169,
      "content": "<0xA8>",
      "single_word": false,
      "lstrip": false,
      "rstrip": false,
      "normalized": false,
      "special": true
    },
    {
      "id": 170,
      "content": "<0xA9>",
      "single_word": false,
      "lstrip": false,
      "rstrip": false,
      "normalized": false,
      "special": true
    },
    {
      "id": 171,
      "content": "<0xAA>",
      "single_word": false,
      "lstrip": false,
      "rstrip": false,
      "normalized": false,
      "special": true
    },
    {
      "id": 172,
      "content": "<0xAB>",
      "single_word": false,
      "lstrip": false,
      "rstrip": false,
      "normalized": false,
      "special": true
    },
    {
      "id": 173,
      "content": "<0xAC>",
      "single_word": false,
      "lstrip": false,
      "rstrip": false,
      "normalized": false,
      "special": true
    },
    {
      "id": 174,
      "content": "<0xAD>",
      "single_word": false,
      "lstrip": false,
      "rstrip": false,
      "normalized": false,
      "special": true
    },
    {
      "id": 175,
      "content": "<0xAE>",
      "single_word": false,
      "lstrip": false,
      "rstrip": false,
      "normalized": false,
      "special": true
    },
    {
      "id": 176,
      "content": "<0xAF>",
      "single_word": false,
      "lstrip": false,
      "rstrip": false,
      "normalized": false,
      "special": true
    },
    {
      "id": 177,
      "content": "<0xB0>",
      "single_word": false,
      "lstrip": false,
      "rstrip": false,
      "normalized": false,
      "special": true
    },
    {
      "id": 178,
      "content": "<0xB1>",
      "single_word": false,
      "lstrip": false,
      "rstrip": false,
      "normalized": false,
      "special": true
    },
    {
      "id": 179,
      "content": "<0xB2>",
      "single_word": false,
      "lstrip": false,
      "rstrip": false,
      "normalized": false,
      "special": true
    },
    {
      "id": 180,
      "content": "<0xB3>",
      "single_word": false,
      "lstrip": false,
      "rstrip": false,
      "normalized": false,
      "special": true
    },
    {
      "id": 181,
      "content": "<0xB4>",
      "single_word": false,
      "lstrip": false,
      "rstrip": false,
      "normalized": false,
      "special": true
    },
    {
      "id": 182,
      "content": "<0xB5>",
      "single_word": false,
      "lstrip": false,
      "rstrip": false,
      "normalized": false,
      "special": true
    },
    {
      "id": 183,
      "content": "<0xB6>",
      "single_word": false,
      "lstrip": false,
      "rstrip": false,
      "normalized": false,
      "special": true
    },
    {
      "id": 184,
      "content": "<0xB7>",
      "single_word": false,
      "lstrip": false,
      "rstrip": false,
      "normalized": false,
      "special": true
    },
    {
      "id": 185,
      "content": "<0xB8>",
      "single_word": false,
      "lstrip": false,
      "rstrip": false,
      "normalized": false,
      "special": true
    },
    {
      "id": 186,
      "content": "<0xB9>",
      "single_word": false,
      "lstrip": false,
      "rstrip": false,
      "normalized": false,
      "special": true
    },
    {
      "id": 187,
      "content": "<0xBA>",
      "single_word": false,
      "lstrip": false,
      "rstrip": false,
      "normalized": false,
      "special": true
    },
    {
      "id": 188,
      "content": "<0xBB>",
      "single_word": false,
      "lstrip": false,
      "rstrip": false,
      "normalized": false,
      "special": true
    },
    {
      "id": 189,
      "content": "<0xBC>",
      "single_word": false,
      "lstrip": false,
      "rstrip": false,
      "normalized": false,
      "special": true
    },
    {
      "id": 190,
      "content": "<0xBD>",
      "single_word": false,
      "lstrip": false,
      "rstrip": false,
      "normalized": false,
      "special": true
    },
    {
      "id": 191,
      "content": "<0xBE>",
      "single_word": false,
      "lstrip": false,
      "rstrip": false,
      "normalized": false,
      "special": true
    },
    {
      "id": 192,
      "content": "<0xBF>",
      "single_word": false,
      "lstrip": false,
      "rstrip": false,
      "normalized": false,
      "special": true
    },
    {
      "id": 193,
      "content": "<0xC0>",
      "single_word": false,
      "lstrip": false,
      "rstrip": false,
      "normalized": false,
      "special": true
    },
    {
      "id": 194,
      "content": "<0xC1>",
      "single_word": false,
      "lstrip": false,
      "rstrip": false,
      "normalized": false,
      "special": true
    },
    {
      "id": 195,
      "content": "<0xC2>",
      "single_word": false,
      "lstrip": false,
      "rstrip": false,
      "normalized": false,
      "special": true
    },
    {
      "id": 196,
      "content": "<0xC3>",
      "single_word": false,
      "lstrip": false,
      "rstrip": false,
      "normalized": false,
      "special": true
    },
    {
      "id": 197,
      "content": "<0xC4>",
      "single_word": false,
      "lstrip": false,
      "rstrip": false,
      "normalized": false,
      "special": true
    },
    {
      "id": 198,
      "content": "<0xC5>",
      "single_word": false,
      "lstrip": false,
      "rstrip": false,
      "normalized": false,
      "special": true
    },
    {
      "id": 199,
      "content": "<0xC6>",
      "single_word": false,
      "lstrip": false,
      "rstrip": false,
      "normalized": false,
      "special": true
    },
    {
      "id": 200,
      "content": "<0xC7>",
      "single_word": false,
      "lstrip": false,
      "rstrip": false,
      "normalized": false,
      "special": true
    },
    {
      "id": 201,
      "content": "<0xC8>",
      "single_word": false,
      "lstrip": false,
      "rstrip": false,
      "normalized": false,
      "special": true
    },
    {
      "id": 202,
      "content": "<0xC9>",
      "single_word": false,
      "lstrip": false,
      "rstrip": false,
      "normalized": false,
      "special": true
    },
    {
      "id": 203,
      "content": "<0xCA>",
      "single_word": false,
      "lstrip": false,
      "rstrip": false,
      "normalized": false,
      "special": true
    },
    {
      "id": 204,
      "content": "<0xCB>",
      "single_word": false,
      "lstrip": false,
      "rstrip": false,
      "normalized": false,
      "special": true
    },
    {
      "id": 205,
      "content": "<0xCC>",
      "single_word": false,
      "lstrip": false,
      "rstrip": false,
      "normalized": false,
      "special": true
    },
    {
      "id": 206,
      "content": "<0xCD>",
      "single_word": false,
      "lstrip": false,
      "rstrip": false,
      "normalized": false,
      "special": true
    },
    {
      "id": 207,
      "content": "<0xCE>",
      "single_word": false,
      "lstrip": false,
      "rstrip": false,
      "normalized": false,
      "special": true
    },
    {
      "id": 208,
      "content": "<0xCF>",
      "single_word": false,
      "lstrip": false,
      "rstrip": false,
      "normalized": false,
      "special": true
    },
    {
      "id": 209,
      "content": "<0xD0>",
      "single_word": false,
      "lstrip": false,
      "rstrip": false,
      "normalized": false,
      "special": true
    },
    {
      "id": 210,
      "content": "<0xD1>",
      "single_word": false,
      "lstrip": false,
      "rstrip": false,
      "normalized": false,
      "special": true
    },
    {
      "id": 211,
      "content": "<0xD2>",
      "single_word": false,
      "lstrip": false,
      "rstrip": false,
      "normalized": false,
      "special": true
    },
    {
      "id": 212,
      "content": "<0xD3>",
      "single_word": false,
      "lstrip": false,
      "rstrip": false,
      "normalized": false,
      "special": true
    },
    {
      "id": 213,
      "content": "<0xD4>",
      "single_word": false,
      "lstrip": false,
      "rstrip": false,
      "normalized": false,
      "special": true
    },
    {
      "id": 214,
      "content": "<0xD5>",
      "single_word": false,
      "lstrip": false,
      "rstrip": false,
      "normalized": false,
      "special": true
    },
    {
      "id": 215,
      "content": "<0xD6>",
      "single_word": false,
      "lstrip": false,
      "rstrip": false,
      "normalized": false,
      "special": true
    },
    {
      "id": 216,
      "content": "<0xD7>",
      "single_word": false,
      "lstrip": false,
      "rstrip": false,
      "normalized": false,
      "special": true
    },
    {
      "id": 217,
      "content": "<0xD8>",
      "single_word": false,
      "lstrip": false,
      "rstrip": false,
      "normalized": false,
      "special": true
    },
    {
      "id": 218,
      "content": "<0xD9>",
      "single_word": false,
      "lstrip": false,
      "rstrip": false,
      "normalized": false,
      "special": true
    },
    {
      "id": 219,
      "content": "<0xDA>",
      "single_word": false,
      "lstrip": false,
      "rstrip": false,
      "normalized": false,
      "special": true
    },
    {
      "id": 220,
      "content": "<0xDB>",
      "single_word": false,
      "lstrip": false,
      "rstrip": false,
      "normalized": false,
      "special": true
    },
    {
      "id": 221,
      "content": "<0xDC>",
      "single_word": false,
      "lstrip": false,
      "rstrip": false,
      "normalized": false,
      "special": true
    },
    {
      "id": 222,
      "content": "<0xDD>",
      "single_word": false,
      "lstrip": false,
      "rstrip": false,
      "normalized": false,
      "special": true
    },
    {
      "id": 223,
      "content": "<0xDE>",
      "single_word": false,
      "lstrip": false,
      "rstrip": false,
      "normalized": false,
      "special": true
    },
    {
      "id": 224,
      "content": "<0xDF>",
      "single_word": false,
      "lstrip": false,
      "rstrip": false,
      "normalized": false,
      "special": true
    },
    {
      "id": 225,
      "content": "<0xE0>",
      "single_word": false,
      "lstrip": false,
      "rstrip": false,
      "normalized": false,
      "special": true
    },
    {
      "id": 226,
      "content": "<0xE1>",
      "single_word": false,
      "lstrip": false,
      "rstrip": false,
      "normalized": false,
      "special": true
    },
    {
      "id": 227,
      "content": "<0xE2>",
      "single_word": false,
      "lstrip": false,
      "rstrip": false,
      "normalized": false,
      "special": true
    },
    {
      "id": 228,
      "content": "<0xE3>",
      "single_word": false,
      "lstrip": false,
      "rstrip": false,
      "normalized": false,
      "special": true
    },
    {
      "id": 229,
      "content": "<0xE4>",
      "single_word": false,
      "lstrip": false,
      "rstrip": false,
      "normalized": false,
      "special": true
    },
    {
      "id": 230,
      "content": "<0xE5>",
      "single_word": false,
      "lstrip": false,
      "rstrip": false,
      "normalized": false,
      "special": true
    },
    {
      "id": 231,
      "content": "<0xE6>",
      "single_word": false,
      "lstrip": false,
      "rstrip": false,
      "normalized": false,
      "special": true
    },
    {
      "id": 232,
      "content": "<0xE7>",
      "single_word": false,
      "lstrip": false,
      "rstrip": false,
      "normalized": false,
      "special": true
    },
    {
      "id": 233,
      "content": "<0xE8>",
      "single_word": false,
      "lstrip": false,
      "rstrip": false,
      "normalized": false,
      "special": true
    },
    {
      "id": 234,
      "content": "<0xE9>",
      "single_word": false,
      "lstrip": false,
      "rstrip": false,
      "normalized": false,
      "special": true
    },
    {
      "id": 235,
      "content": "<0xEA>",
      "single_word": false,
      "lstrip": false,
      "rstrip": false,
      "normalized": false,
      "special": true
    },
    {
      "id": 236,
      "content": "<0xEB>",
      "single_word": false,
      "lstrip": false,
      "rstrip": false,
      "normalized": false,
      "special": true
    },
    {
      "id": 237,
      "content": "<0xEC>",
      "single_word": false,
      "lstrip": false,
      "rstrip": false,
      "normalized": false,
      "special": true
    },
    {
      "id": 238,
      "content": "<0xED>",
      "single_word": false,
      "lstrip": false,
      "rstrip": false,
      "normalized": false,
      "special": true
    },
    {
      "id": 239,
      "content": "<0xEE>",
      "single_word": false,
      "lstrip": false,
      "rstrip": false,
      "normalized": false,
      "special": true
    },
    {
      "id": 240,
      "content": "<0xEF>",
      "single_word": false,
      "lstrip": false,
      "rstrip": false,
      "normalized": false,
      "special": true
    },
    {
      "id": 241,
      "content": "<0xF0>",
      "single_word": false,
      "lstrip": false,
      "rstrip": false,
      "normalized": false,
      "special": true
    },
    {
      "id": 242,
      "content": "<0xF1>",
      "single_word": false,
      "lstrip": false,
      "rstrip": false,
      "normalized": false,
      "special": true
    },
    {
      "id": 243,
      "content": "<0xF2>",
      "single_word": false,
      "lstrip": false,
      "rstrip": false,
      "normalized": false,
      "special": true
    },
    {
      "id": 244,
      "content": "<0xF3>",
      "single_word": false,
      "lstrip": false,
      "rstrip": false,
      "normalized": false,
      "special": true
    },
    {
      "id": 245,
      "content": "<0xF4>",
      "single_word": false,
      "lstrip": false,
      "rstrip": false,
      "normalized": false,
      "special": true
    },
    {
      "id": 246,
      "content": "<0xF5>",
      "single_word": false,
      "lstrip": false,
      "rstrip": false,
      "normalized": false,
      "special": true
    },
    {
      "id": 247,
      "content": "<0xF6>",
      "single_word": false,
      "lstrip": false,
      "rstrip": false,
      "normalized": false,
      "special": true
    },
    {
      "id": 248,
      "content": "<0xF7>",
      "single_word": false,
      "lstrip": false,
      "rstrip": false,
      "normalized": false,
      "special": true
    },
    {
      "id": 249,
      "content": "<0xF8>",
      "single_word": false,
      "lstrip": false,
      "rstrip": false,
      "normalized": false,
      "special": true
    },
    {
      "id": 250,
      "content": "<0xF9>",
      "single_word": false,
      "lstrip": false,
      "rstrip": false,
      "normalized": false,
      "special": true
    },
    {
      "id": 251,
      "content": "<0xFA>",
      "single_word": false,
      "lstrip": false,
      "rstrip": false,
      "normalized": false,
      "special": true
    },
    {
      "id": 252,
      "content": "<0xFB>",
      "single_word": false,
      "lstrip": false,
      "rstrip": false,
      "normalized": false,
      "special": true
    },
    {
      "id": 253,
      "content": "<0xFC>",
      "single_word": false,
      "lstrip": false,
      "rstrip": false,
      "normalized": false,
      "special": true
    },
    {
      "id": 254,
      "content": "<0xFD>",
      "single_word": false,
      "lstrip": false,
      "rstrip": false,
      "normalized": false,
      "special": true
    },
    {
      "id": 255,
      "content": "<0xFE>",
      "single_word": false,
      "lstrip": false,
      "rstrip": false,
      "normalized": false,
      "special": true
    },
    {
      "id": 256,
      "content": "<0xFF>",
      "single_word": false,
      "lstrip": false,
      "rstrip": false,
      "normalized": false,
      "special": true
    }
  ],
  "normalizer": {
    "type": "Sequence",
    "normalizers": [
      {
        "type": "NFC"
      },
      {
        "type": "Lowercase"
      },
      {
        "type": "Replace",
        "pattern": {
          "Regex": "[^\\w\\s]+"
        },
        "content": ""
      },
      {
        "type": "Replace",
        "pattern": {
          "Regex": "\\d+"
        },
        "content": "0"
      },
      {
        "type": "NFD"
      },
      {
        "type": "StripAccents"
      },
      {
        "type": "NFC"
      },
      {
        "type": "Replace",
        "pattern": {
          "String": "ሐ"
        },
        "content": "ሀ"
      },
      {
        "type": "Replace",
        "pattern": {
          "String": "ሑ"
        },
        "content": "ሁ"
      },
      {
        "type": "Replace",
        "pattern": {
          "String": "ሒ"
        },
        "content": "ሂ"
      },
      {
        "type": "Replace",
        "pattern": {
          "String": "ሓ"
        },
        "content": "ሃ"
      },
      {
        "type": "Replace",
        "pattern": {
          "String": "ሔ"
        },
        "content": "ሄ"
      },
      {
        "type": "Replace",
        "pattern": {
          "String": "ሕ"
        },
        "content": "ህ"
      },
      {
        "type": "Replace",
        "pattern": {
          "String": "ሖ"
        },
        "content": "ሆ"
      },
      {
        "type": "Replace",
        "pattern": {
          "String": "ሗ"
        },
        "content": "ሇ"
      },
      {
        "type": "Replace",
        "pattern": {
          "String": "ኀ"
        },
        "content": "ሀ"
      },
      {
        "type": "Replace",
        "pattern": {
          "String": "ኁ"
        },
        "content": "ሁ"
      },
      {
        "type": "Replace",
        "pattern": {
          "String": "ኂ"
        },
        "content": "ሂ"
      },
      {
        "type": "Replace",
        "pattern": {
          "String": "ኃ"
        },
        "content": "ሃ"
      },
      {
        "type": "Replace",
        "pattern": {
          "String": "ኄ"
        },
        "content": "ሄ"
      },
      {
        "type": "Replace",
        "pattern": {
          "String": "ኅ"
        },
        "content": "ህ"
      },
      {
        "type": "Replace",
        "pattern": {
          "String": "ኆ"
        },
        "content": "ሆ"
      },
      {
        "type": "Replace",
        "pattern": {
          "String": "ኇ"
        },
        "content": "ሇ"
      },
      {
        "type": "Replace",
        "pattern": {
          "String": "ሠ"
        },
        "content": "ሰ"
      },
      {
        "type": "Replace",
        "pattern": {
          "String": "ሡ"
        },
        "content": "ሱ"
      },
      {
        "type": "Replace",
        "pattern": {
          "String": "ሢ"
        },
        "content": "ሲ"
      },
      {
        "type": "Replace",
        "pattern": {
          "String": "ሣ"
        },
        "content": "ሳ"
      },
      {
        "type": "Replace",
        "pattern": {
          "String": "ሤ"
        },
        "content": "ሴ"
      },
      {
        "type": "Replace",
        "pattern": {
          "String": "ሥ"
        },
        "content": "ስ"
      },
      {
        "type": "Replace",
        "pattern": {
          "String": "ሦ"
        },
        "content": "ሶ"
      },
      {
        "type": "Replace",
        "pattern": {
          "String": "ሧ"
        },
        "content": "ሷ"
      },
      {
        "type": "Replace",
        "pattern": {
          "String": "ዐ"
        },
        "content": "አ"
      },
      {
        "type": "Replace",
        "pattern": {
          "String": "ዑ"
        },
        "content": "ኡ"
      },
      {
        "type": "Replace",
        "pattern": {
          "String": "ዒ"
        },
        "content": "ኢ"
      },
      {
        "type": "Replace",
        "pattern": {
          "String": "ዓ"
        },
        "content": "ኣ"
      },
      {
        "type": "Replace",
        "pattern": {
          "String": "ዔ"
        },
        "content": "ኤ"
      },
      {
        "type": "Replace",
        "pattern": {
          "String": "ዕ"
        },
        "content": "እ"
      },
      {
        "type": "Replace",
        "pattern": {
          "String": "ዖ"
        },
        "content": "ኦ"
      },
      {
        "type": "Replace",
        "pattern": {
          "String": "዗"
        },
        "content": "ኧ"
      },
      {
        "type": "Replace",
        "pattern": {
          "String": "ፀ"
        },
        "content": "ጸ"
      },
      {
        "type": "Replace",
        "pattern": {
          "String": "ፁ"
        },
        "content": "ጹ"
      },
      {
        "type": "Replace",
        "pattern": {
          "String": "ፂ"
        },
        "content": "ጺ"
      },
      {
        "type": "Replace",
        "pattern": {
          "String": "ፃ"
        },
        "content": "ጻ"
      },
      {
        "type": "Replace",
        "pattern": {
          "String": "ፄ"
        },
        "content": "ጼ"
      },
      {
        "type": "Replace",
        "pattern": {
          "String": "ፅ"
        },
        "content": "ጽ"
      },
      {
        "type": "Replace",
        "pattern": {
          "String": "ፆ"
        },
        "content": "ጾ"
      },
      {
        "type": "Replace",
        "pattern": {
          "String": "ፇ"
        },
        "content": "ጿ"
      },
      {
        "type": "Replace",
        "pattern": {
          "String": "ሀ"
        },
        "content": "ህ"
      },
      {
        "type": "Replace",
        "pattern": {
          "String": "ሁ"
        },
        "content": "ህ"
      },
      {
        "type": "Replace",
        "pattern": {
          "String": "ሂ"
        },
        "content": "ህ"
      },
      {
        "type": "Replace",
        "pattern": {
          "String": "ሃ"
        },
        "content": "ህ"
      },
      {
        "type": "Replace",
        "pattern": {
          "String": "ሄ"
        },
        "content": "ህ"
      },
      {
        "type": "Replace",
        "pattern": {
          "String": "ሆ"
        },
        "content": "ህ"
      },
      {
        "type": "Replace",
        "pattern": {
          "String": "ሇ"
        },
        "content": "ህ"
      },
      {
        "type": "Replace",
        "pattern": {
          "String": "ለ"
        },
        "content": "ል"
      },
      {
        "type": "Replace",
        "pattern": {
          "String": "ሉ"
        },
        "content": "ል"
      },
      {
        "type": "Replace",
        "pattern": {
          "String": "ሊ"
        },
        "content": "ል"
      },
      {
        "type": "Replace",
        "pattern": {
          "String": "ላ"
        },
        "content": "ል"
      },
      {
        "type": "Replace",
        "pattern": {
          "String": "ሌ"
        },
        "content": "ል"
      },
      {
        "type": "Replace",
        "pattern": {
          "String": "ሎ"
        },
        "content": "ል"
      },
      {
        "type": "Replace",
        "pattern": {
          "String": "ሏ"
        },
        "content": "ል"
      },
      {
        "type": "Replace",
        "pattern": {
          "String": "ሐ"
        },
        "content": "ሕ"
      },
      {
        "type": "Replace",
        "pattern": {
          "String": "ሑ"
        },
        "content": "ሕ"
      },
      {
        "type": "Replace",
        "pattern": {
          "String": "ሒ"
        },
        "content": "ሕ"
      },
      {
        "type": "Replace",
        "pattern": {
          "String": "ሓ"
        },
        "content": "ሕ"
      },
      {
        "type": "Replace",
        "pattern": {
          "String": "ሔ"
        },
        "content": "ሕ"
      },
      {
        "type": "Replace",
        "pattern": {
          "String": "ሖ"
        },
        "content": "ሕ"
      },
      {
        "type": "Replace",
        "pattern": {
          "String": "ሗ"
        },
        "content": "ሕ"
      },
      {
        "type": "Replace",
        "pattern": {
          "String": "መ"
        },
        "content": "ም"
      },
      {
        "type": "Replace",
        "pattern": {
          "String": "ሙ"
        },
        "content": "ም"
      },
      {
        "type": "Replace",
        "pattern": {
          "String": "ሚ"
        },
        "content": "ም"
      },
      {
        "type": "Replace",
        "pattern": {
          "String": "ማ"
        },
        "content": "ም"
      },
      {
        "type": "Replace",
        "pattern": {
          "String": "ሜ"
        },
        "content": "ም"
      },
      {
        "type": "Replace",
        "pattern": {
          "String": "ሞ"
        },
        "content": "ም"
      },
      {
        "type": "Replace",
        "pattern": {
          "String": "ሟ"
        },
        "content": "ም"
      },
      {
        "type": "Replace",
        "pattern": {
          "String": "ሠ"
        },
        "content": "ሥ"
      },
      {
        "type": "Replace",
        "pattern": {
          "String": "ሡ"
        },
        "content": "ሥ"
      },
      {
        "type": "Replace",
        "pattern": {
          "String": "ሢ"
        },
        "content": "ሥ"
      },
      {
        "type": "Replace",
        "pattern": {
          "String": "ሣ"
        },
        "content": "ሥ"
      },
      {
        "type": "Replace",
        "pattern": {
          "String": "ሤ"
        },
        "content": "ሥ"
      },
      {
        "type": "Replace",
        "pattern": {
          "String": "ሦ"
        },
        "content": "ሥ"
      },
      {
        "type": "Replace",
        "pattern": {
          "String": "ሧ"
        },
        "content": "ሥ"
      },
      {
        "type": "Replace",
        "pattern": {
          "String": "ረ"
        },
        "content": "ር"
      },
      {
        "type": "Replace",
        "pattern": {
          "String": "ሩ"
        },
        "content": "ር"
      },
      {
        "type": "Replace",
        "pattern": {
          "String": "ሪ"
        },
        "content": "ር"
      },
      {
        "type": "Replace",
        "pattern": {
          "String": "ራ"
        },
        "content": "ር"
      },
      {
        "type": "Replace",
        "pattern": {
          "String": "ሬ"
        },
        "content": "ር"
      },
      {
        "type": "Replace",
        "pattern": {
          "String": "ሮ"
        },
        "content": "ር"
      },
      {
        "type": "Replace",
        "pattern": {
          "String": "ሯ"
        },
        "content": "ር"
      },
      {
        "type": "Replace",
        "pattern": {
          "String": "ሰ"
        },
        "content": "ስ"
      },
      {
        "type": "Replace",
        "pattern": {
          "String": "ሱ"
        },
        "content": "ስ"
      },
      {
        "type": "Replace",
        "pattern": {
          "String": "ሲ"
        },
        "content": "ስ"
      },
      {
        "type": "Replace",
        "pattern": {
          "String": "ሳ"
        },
        "content": "ስ"
      },
      {
        "type": "Replace",
        "pattern": {
          "String": "ሴ"
        },
        "content": "ስ"
      },
      {
        "type": "Replace",
        "pattern": {
          "String": "ሶ"
        },
        "content": "ስ"
      },
      {
        "type": "Replace",
        "pattern": {
          "String": "ሷ"
        },
        "content": "ስ"
      },
      {
        "type": "Replace",
        "pattern": {
          "String": "ሸ"
        },
        "content": "ሽ"
      },
      {
        "type": "Replace",
        "pattern": {
          "String": "ሹ"
        },
        "content": "ሽ"
      },
      {
        "type": "Replace",
        "pattern": {
          "String": "ሺ"
        },
        "content": "ሽ"
      },
      {
        "type": "Replace",
        "pattern": {
          "String": "ሻ"
        },
        "content": "ሽ"
      },
      {
        "type": "Replace",
        "pattern": {
          "String": "ሼ"
        },
        "content": "ሽ"
      },
      {
        "type": "Replace",
        "pattern": {
          "String": "ሾ"
        },
        "content": "ሽ"
      },
      {
        "type": "Replace",
        "pattern": {
          "String": "ሿ"
        },
        "content": "ሽ"
      },
      {
        "type": "Replace",
        "pattern": {
          "String": "ቀ"
        },
        "content": "ቅ"
      },
      {
        "type": "Replace",
        "pattern": {
          "String": "ቁ"
        },
        "content": "ቅ"
      },
      {
        "type": "Replace",
        "pattern": {
          "String": "ቂ"
        },
        "content": "ቅ"
      },
      {
        "type": "Replace",
        "pattern": {
          "String": "ቃ"
        },
        "content": "ቅ"
      },
      {
        "type": "Replace",
        "pattern": {
          "String": "ቄ"
        },
        "content": "ቅ"
      },
      {
        "type": "Replace",
        "pattern": {
          "String": "ቆ"
        },
        "content": "ቅ"
      },
      {
        "type": "Replace",
        "pattern": {
          "String": "ቇ"
        },
        "content": "ቅ"
      },
      {
        "type": "Replace",
        "pattern": {
          "String": "ቈ"
        },
        "content": "ቍ"
      },
      {
        "type": "Replace",
        "pattern": {
          "String": "቉"
        },
        "content": "ቍ"
      },
      {
        "type": "Replace",
        "pattern": {
          "String": "ቊ"
        },
        "content": "ቍ"
      },
      {
        "type": "Replace",
        "pattern": {
          "String": "ቋ"
        },
        "content": "ቍ"
      },
      {
        "type": "Replace",
        "pattern": {
          "String": "ቌ"
        },
        "content": "ቍ"
      },
      {
        "type": "Replace",
        "pattern": {
          "String": "቎"
        },
        "content": "ቍ"
      },
      {
        "type": "Replace",
        "pattern": {
          "String": "቏"
        },
        "content": "ቍ"
      },
      {
        "type": "Replace",
        "pattern": {
          "String": "ቐ"
        },
        "content": "ቕ"
      },
      {
        "type": "Replace",
        "pattern": {
          "String": "ቑ"
        },
        "content": "ቕ"
      },
      {
        "type": "Replace",
        "pattern": {
          "String": "ቒ"
        },
        "content": "ቕ"
      },
      {
        "type": "Replace",
        "pattern": {
          "String": "ቓ"
        },
        "content": "ቕ"
      },
      {
        "type": "Replace",
        "pattern": {
          "String": "ቔ"
        },
        "content": "ቕ"
      },
      {
        "type": "Replace",
        "pattern": {
          "String": "ቖ"
        },
        "content": "ቕ"
      },
      {
        "type": "Replace",
        "pattern": {
          "String": "቗"
        },
        "content": "ቕ"
      },
      {
        "type": "Replace",
        "pattern": {
          "String": "ቘ"
        },
        "content": "ቝ"
      },
      {
        "type": "Replace",
        "pattern": {
          "String": "቙"
        },
        "content": "ቝ"
      },
      {
        "type": "Replace",
        "pattern": {
          "String": "ቚ"
        },
        "content": "ቝ"
      },
      {
        "type": "Replace",
        "pattern": {
          "String": "ቛ"
        },
        "content": "ቝ"
      },
      {
        "type": "Replace",
        "pattern": {
          "String": "ቜ"
        },
        "content": "ቝ"
      },
      {
        "type": "Replace",
        "pattern": {
          "String": "቞"
        },
        "content": "ቝ"
      },
      {
        "type": "Replace",
        "pattern": {
          "String": "቟"
        },
        "content": "ቝ"
      },
      {
        "type": "Replace",
        "pattern": {
          "String": "በ"
        },
        "content": "ብ"
      },
      {
        "type": "Replace",
        "pattern": {
          "String": "ቡ"
        },
        "content": "ብ"
      },
      {
        "type": "Replace",
        "pattern": {
          "String": "ቢ"
        },
        "content": "ብ"
      },
      {
        "type": "Replace",
        "pattern": {
          "String": "ባ"
        },
        "content": "ብ"
      },
      {
        "type": "Replace",
        "pattern": {
          "String": "ቤ"
        },
        "content": "ብ"
      },
      {
        "type": "Replace",
        "pattern": {
          "String": "ቦ"
        },
        "content": "ብ"
      },
      {
        "type": "Replace",
        "pattern": {
          "String": "ቧ"
        },
        "content": "ብ"
      },
      {
        "type": "Replace",
        "pattern": {
          "String": "ቨ"
        },
        "content": "ቭ"
      },
      {
        "type": "Replace",
        "pattern": {
          "String": "ቩ"
        },
        "content": "ቭ"
      },
      {
        "type": "Replace",
        "pattern": {
          "String": "ቪ"
        },
        "content": "ቭ"
      },
      {
        "type": "Replace",
        "pattern": {
          "String": "ቫ"
        },
        "content": "ቭ"
      },
      {
        "type": "Replace",
        "pattern": {
          "String": "ቬ"
        },
        "content": "ቭ"
      },
      {
        "type": "Replace",
        "pattern": {
          "String": "ቮ"
        },
        "content": "ቭ"
      },
      {
        "type": "Replace",
        "pattern": {
          "String": "ቯ"
        },
        "content": "ቭ"
      },
      {
        "type": "Replace",
        "pattern": {
          "String": "ተ"
        },
        "content": "ት"
      },
      {
        "type": "Replace",
        "pattern": {
          "String": "ቱ"
        },
        "content": "ት"
      },
      {
        "type": "Replace",
        "pattern": {
          "String": "ቲ"
        },
        "content": "ት"
      },
      {
        "type": "Replace",
        "pattern": {
          "String": "ታ"
        },
        "content": "ት"
      },
      {
        "type": "Replace",
        "pattern": {
          "String": "ቴ"
        },
        "content": "ት"
      },
      {
        "type": "Replace",
        "pattern": {
          "String": "ቶ"
        },
        "content": "ት"
      },
      {
        "type": "Replace",
        "pattern": {
          "String": "ቷ"
        },
        "content": "ት"
      },
      {
        "type": "Replace",
        "pattern": {
          "String": "ቸ"
        },
        "content": "ች"
      },
      {
        "type": "Replace",
        "pattern": {
          "String": "ቹ"
        },
        "content": "ች"
      },
      {
        "type": "Replace",
        "pattern": {
          "String": "ቺ"
        },
        "content": "ች"
      },
      {
        "type": "Replace",
        "pattern": {
          "String": "ቻ"
        },
        "content": "ች"
      },
      {
        "type": "Replace",
        "pattern": {
          "String": "ቼ"
        },
        "content": "ች"
      },
      {
        "type": "Replace",
        "pattern": {
          "String": "ቾ"
        },
        "content": "ች"
      },
      {
        "type": "Replace",
        "pattern": {
          "String": "ቿ"
        },
        "content": "ች"
      },
      {
        "type": "Replace",
        "pattern": {
          "String": "ኀ"
        },
        "content": "ኅ"
      },
      {
        "type": "Replace",
        "pattern": {
          "String": "ኁ"
        },
        "content": "ኅ"
      },
      {
        "type": "Replace",
        "pattern": {
          "String": "ኂ"
        },
        "content": "ኅ"
      },
      {
        "type": "Replace",
        "pattern": {
          "String": "ኃ"
        },
        "content": "ኅ"
      },
      {
        "type": "Replace",
        "pattern": {
          "String": "ኄ"
        },
        "content": "ኅ"
      },
      {
        "type": "Replace",
        "pattern": {
          "String": "ኆ"
        },
        "content": "ኅ"
      },
      {
        "type": "Replace",
        "pattern": {
          "String": "ኇ"
        },
        "content": "ኅ"
      },
      {
        "type": "Replace",
        "pattern": {
          "String": "ኈ"
        },
        "content": "ኍ"
      },
      {
        "type": "Replace",
        "pattern": {
          "String": "኉"
        },
        "content": "ኍ"
      },
      {
        "type": "Replace",
        "pattern": {
          "String": "ኊ"
        },
        "content": "ኍ"
      },
      {
        "type": "Replace",
        "pattern": {
          "String": "ኋ"
        },
        "content": "ኍ"
      },
      {
        "type": "Replace",
        "pattern": {
          "String": "ኌ"
        },
        "content": "ኍ"
      },
      {
        "type": "Replace",
        "pattern": {
          "String": "኎"
        },
        "content": "ኍ"
      },
      {
        "type": "Replace",
        "pattern": {
          "String": "኏"
        },
        "content": "ኍ"
      },
      {
        "type": "Replace",
        "pattern": {
          "String": "ነ"
        },
        "content": "ን"
      },
      {
        "type": "Replace",
        "pattern": {
          "String": "ኑ"
        },
        "content": "ን"
      },
      {
        "type": "Replace",
        "pattern": {
          "String": "ኒ"
        },
        "content": "ን"
      },
      {
        "type": "Replace",
        "pattern": {
          "String": "ና"
        },
        "content": "ን"
      },
      {
        "type": "Replace",
        "pattern": {
          "String": "ኔ"
        },
        "content": "ን"
      },
      {
        "type": "Replace",
        "pattern": {
          "String": "ኖ"
        },
        "content": "ን"
      },
      {
        "type": "Replace",
        "pattern": {
          "String": "ኗ"
        },
        "content": "ን"
      },
      {
        "type": "Replace",
        "pattern": {
          "String": "ኘ"
        },
        "content": "ኝ"
      },
      {
        "type": "Replace",
        "pattern": {
          "String": "ኙ"
        },
        "content": "ኝ"
      },
      {
        "type": "Replace",
        "pattern": {
          "String": "ኚ"
        },
        "content": "ኝ"
      },
      {
        "type": "Replace",
        "pattern": {
          "String": "ኛ"
        },
        "content": "ኝ"
      },
      {
        "type": "Replace",
        "pattern": {
          "String": "ኜ"
        },
        "content": "ኝ"
      },
      {
        "type": "Replace",
        "pattern": {
          "String": "ኞ"
        },
        "content": "ኝ"
      },
      {
        "type": "Replace",
        "pattern": {
          "String": "ኟ"
        },
        "content": "ኝ"
      },
      {
        "type": "Replace",
        "pattern": {
          "String": "አ"
        },
        "content": "እ"
      },
      {
        "type": "Replace",
        "pattern": {
          "String": "ኡ"
        },
        "content": "እ"
      },
      {
        "type": "Replace",
        "pattern": {
          "String": "ኢ"
        },
        "content": "እ"
      },
      {
        "type": "Replace",
        "pattern": {
          "String": "ኣ"
        },
        "content": "እ"
      },
      {
        "type": "Replace",
        "pattern": {
          "String": "ኤ"
        },
        "content": "እ"
      },
      {
        "type": "Replace",
        "pattern": {
          "String": "ኦ"
        },
        "content": "እ"
      },
      {
        "type": "Replace",
        "pattern": {
          "String": "ኧ"
        },
        "content": "እ"
      },
      {
        "type": "Replace",
        "pattern": {
          "String": "ከ"
        },
        "content": "ክ"
      },
      {
        "type": "Replace",
        "pattern": {
          "String": "ኩ"
        },
        "content": "ክ"
      },
      {
        "type": "Replace",
        "pattern": {
          "String": "ኪ"
        },
        "content": "ክ"
      },
      {
        "type": "Replace",
        "pattern": {
          "String": "ካ"
        },
        "content": "ክ"
      },
      {
        "type": "Replace",
        "pattern": {
          "String": "ኬ"
        },
        "content": "ክ"
      },
      {
        "type": "Replace",
        "pattern": {
          "String": "ኮ"
        },
        "content": "ክ"
      },
      {
        "type": "Replace",
        "pattern": {
          "String": "ኯ"
        },
        "content": "ክ"
      },
      {
        "type": "Replace",
        "pattern": {
          "String": "ኰ"
        },
        "content": "ኵ"
      },
      {
        "type": "Replace",
        "pattern": {
          "String": "኱"
        },
        "content": "ኵ"
      },
      {
        "type": "Replace",
        "pattern": {
          "String": "ኲ"
        },
        "content": "ኵ"
      },
      {
        "type": "Replace",
        "pattern": {
          "String": "ኳ"
        },
        "content": "ኵ"
      },
      {
        "type": "Replace",
        "pattern": {
          "String": "ኴ"
        },
        "content": "ኵ"
      },
      {
        "type": "Replace",
        "pattern": {
          "String": "኶"
        },
        "content": "ኵ"
      },
      {
        "type": "Replace",
        "pattern": {
          "String": "኷"
        },
        "content": "ኵ"
      },
      {
        "type": "Replace",
        "pattern": {
          "String": "ኸ"
        },
        "content": "ኽ"
      },
      {
        "type": "Replace",
        "pattern": {
          "String": "ኹ"
        },
        "content": "ኽ"
      },
      {
        "type": "Replace",
        "pattern": {
          "String": "ኺ"
        },
        "content": "ኽ"
      },
      {
        "type": "Replace",
        "pattern": {
          "String": "ኻ"
        },
        "content": "ኽ"
      },
      {
        "type": "Replace",
        "pattern": {
          "String": "ኼ"
        },
        "content": "ኽ"
      },
      {
        "type": "Replace",
        "pattern": {
          "String": "ኾ"
        },
        "content": "ኽ"
      },
      {
        "type": "Replace",
        "pattern": {
          "String": "኿"
        },
        "content": "ኽ"
      },
      {
        "type": "Replace",
        "pattern": {
          "String": "ዀ"
        },
        "content": "ዅ"
      },
      {
        "type": "Replace",
        "pattern": {
          "String": "዁"
        },
        "content": "ዅ"
      },
      {
        "type": "Replace",
        "pattern": {
          "String": "ዂ"
        },
        "content": "ዅ"
      },
      {
        "type": "Replace",
        "pattern": {
          "String": "ዃ"
        },
        "content": "ዅ"
      },
      {
        "type": "Replace",
        "pattern": {
          "String": "ዄ"
        },
        "content": "ዅ"
      },
      {
        "type": "Replace",
        "pattern": {
          "String": "዆"
        },
        "content": "ዅ"
      },
      {
        "type": "Replace",
        "pattern": {
          "String": "዇"
        },
        "content": "ዅ"
      },
      {
        "type": "Replace",
        "pattern": {
          "String": "ወ"
        },
        "content": "ው"
      },
      {
        "type": "Replace",
        "pattern": {
          "String": "ዉ"
        },
        "content": "ው"
      },
      {
        "type": "Replace",
        "pattern": {
          "String": "ዊ"
        },
        "content": "ው"
      },
      {
        "type": "Replace",
        "pattern": {
          "String": "ዋ"
        },
        "content": "ው"
      },
      {
        "type": "Replace",
        "pattern": {
          "String": "ዌ"
        },
        "content": "ው"
      },
      {
        "type": "Replace",
        "pattern": {
          "String": "ዎ"
        },
        "content": "ው"
      },
      {
        "type": "Replace",
        "pattern": {
          "String": "ዏ"
        },
        "content": "ው"
      },
      {
        "type": "Replace",
        "pattern": {
          "String": "ዐ"
        },
        "content": "ዕ"
      },
      {
        "type": "Replace",
        "pattern": {
          "String": "ዑ"
        },
        "content": "ዕ"
      },
      {
        "type": "Replace",
        "pattern": {
          "String": "ዒ"
        },
        "content": "ዕ"
      },
      {
        "type": "Replace",
        "pattern": {
          "String": "ዓ"
        },
        "content": "ዕ"
      },
      {
        "type": "Replace",
        "pattern": {
          "String": "ዔ"
        },
        "content": "ዕ"
      },
      {
        "type": "Replace",
        "pattern": {
          "String": "ዖ"
        },
        "content": "ዕ"
      },
      {
        "type": "Replace",
        "pattern": {
          "String": "዗"
        },
        "content": "ዕ"
      },
      {
        "type": "Replace",
        "pattern": {
          "String": "ዘ"
        },
        "content": "ዝ"
      },
      {
        "type": "Replace",
        "pattern": {
          "String": "ዙ"
        },
        "content": "ዝ"
      },
      {
        "type": "Replace",
        "pattern": {
          "String": "ዚ"
        },
        "content": "ዝ"
      },
      {
        "type": "Replace",
        "pattern": {
          "String": "ዛ"
        },
        "content": "ዝ"
      },
      {
        "type": "Replace",
        "pattern": {
          "String": "ዜ"
        },
        "content": "ዝ"
      },
      {
        "type": "Replace",
        "pattern": {
          "String": "ዞ"
        },
        "content": "ዝ"
      },
      {
        "type": "Replace",
        "pattern": {
          "String": "ዟ"
        },
        "content": "ዝ"
      },
      {
        "type": "Replace",
        "pattern": {
          "String": "ዠ"
        },
        "content": "ዥ"
      },
      {
        "type": "Replace",
        "pattern": {
          "String": "ዡ"
        },
        "content": "ዥ"
      },
      {
        "type": "Replace",
        "pattern": {
          "String": "ዢ"
        },
        "content": "ዥ"
      },
      {
        "type": "Replace",
        "pattern": {
          "String": "ዣ"
        },
        "content": "ዥ"
      },
      {
        "type": "Replace",
        "pattern": {
          "String": "ዤ"
        },
        "content": "ዥ"
      },
      {
        "type": "Replace",
        "pattern": {
          "String": "ዦ"
        },
        "content": "ዥ"
      },
      {
        "type": "Replace",
        "pattern": {
          "String": "ዧ"
        },
        "content": "ዥ"
      },
      {
        "type": "Replace",
        "pattern": {
          "String": "የ"
        },
        "content": "ይ"
      },
      {
        "type": "Replace",
        "pattern": {
          "String": "ዩ"
        },
        "content": "ይ"
      },
      {
        "type": "Replace",
        "pattern": {
          "String": "ዪ"
        },
        "content": "ይ"
      },
      {
        "type": "Replace",
        "pattern": {
          "String": "ያ"
        },
        "content": "ይ"
      },
      {
        "type": "Replace",
        "pattern": {
          "String": "ዬ"
        },
        "content": "ይ"
      },
      {
        "type": "Replace",
        "pattern": {
          "String": "ዮ"
        },
        "content": "ይ"
      },
      {
        "type": "Replace",
        "pattern": {
          "String": "ዯ"
        },
        "content": "ይ"
      },
      {
        "type": "Replace",
        "pattern": {
          "String": "ደ"
        },
        "content": "ድ"
      },
      {
        "type": "Replace",
        "pattern": {
          "String": "ዱ"
        },
        "content": "ድ"
      },
      {
        "type": "Replace",
        "pattern": {
          "String": "ዲ"
        },
        "content": "ድ"
      },
      {
        "type": "Replace",
        "pattern": {
          "String": "ዳ"
        },
        "content": "ድ"
      },
      {
        "type": "Replace",
        "pattern": {
          "String": "ዴ"
        },
        "content": "ድ"
      },
      {
        "type": "Replace",
        "pattern": {
          "String": "ዶ"
        },
        "content": "ድ"
      },
      {
        "type": "Replace",
        "pattern": {
          "String": "ዷ"
        },
        "content": "ድ"
      },
      {
        "type": "Replace",
        "pattern": {
          "String": "ዸ"
        },
        "content": "ዽ"
      },
      {
        "type": "Replace",
        "pattern": {
          "String": "ዹ"
        },
        "content": "ዽ"
      },
      {
        "type": "Replace",
        "pattern": {
          "String": "ዺ"
        },
        "content": "ዽ"
      },
      {
        "type": "Replace",
        "pattern": {
          "String": "ዻ"
        },
        "content": "ዽ"
      },
      {
        "type": "Replace",
        "pattern": {
          "String": "ዼ"
        },
        "content": "ዽ"
      },
      {
        "type": "Replace",
        "pattern": {
          "String": "ዾ"
        },
        "content": "ዽ"
      },
      {
        "type": "Replace",
        "pattern": {
          "String": "ዿ"
        },
        "content": "ዽ"
      },
      {
        "type": "Replace",
        "pattern": {
          "String": "ጀ"
        },
        "content": "ጅ"
      },
      {
        "type": "Replace",
        "pattern": {
          "String": "ጁ"
        },
        "content": "ጅ"
      },
      {
        "type": "Replace",
        "pattern": {
          "String": "ጂ"
        },
        "content": "ጅ"
      },
      {
        "type": "Replace",
        "pattern": {
          "String": "ጃ"
        },
        "content": "ጅ"
      },
      {
        "type": "Replace",
        "pattern": {
          "String": "ጄ"
        },
        "content": "ጅ"
      },
      {
        "type": "Replace",
        "pattern": {
          "String": "ጆ"
        },
        "content": "ጅ"
      },
      {
        "type": "Replace",
        "pattern": {
          "String": "ጇ"
        },
        "content": "ጅ"
      },
      {
        "type": "Replace",
        "pattern": {
          "String": "ገ"
        },
        "content": "ግ"
      },
      {
        "type": "Replace",
        "pattern": {
          "String": "ጉ"
        },
        "content": "ግ"
      },
      {
        "type": "Replace",
        "pattern": {
          "String": "ጊ"
        },
        "content": "ግ"
      },
      {
        "type": "Replace",
        "pattern": {
          "String": "ጋ"
        },
        "content": "ግ"
      },
      {
        "type": "Replace",
        "pattern": {
          "String": "ጌ"
        },
        "content": "ግ"
      },
      {
        "type": "Replace",
        "pattern": {
          "String": "ጎ"
        },
        "content": "ግ"
      },
      {
        "type": "Replace",
        "pattern": {
          "String": "ጏ"
        },
        "content": "ግ"
      },
      {
        "type": "Replace",
        "pattern": {
          "String": "ጐ"
        },
        "content": "ጕ"
      },
      {
        "type": "Replace",
        "pattern": {
          "String": "጑"
        },
        "content": "ጕ"
      },
      {
        "type": "Replace",
        "pattern": {
          "String": "ጒ"
        },
        "content": "ጕ"
      },
      {
        "type": "Replace",
        "pattern": {
          "String": "ጓ"
        },
        "content": "ጕ"
      },
      {
        "type": "Replace",
        "pattern": {
          "String": "ጔ"
        },
        "content": "ጕ"
      },
      {
        "type": "Replace",
        "pattern": {
          "String": "጖"
        },
        "content": "ጕ"
      },
      {
        "type": "Replace",
        "pattern": {
          "String": "጗"
        },
        "content": "ጕ"
      },
      {
        "type": "Replace",
        "pattern": {
          "String": "ጘ"
        },
        "content": "ጝ"
      },
      {
        "type": "Replace",
        "pattern": {
          "String": "ጙ"
        },
        "content": "ጝ"
      },
      {
        "type": "Replace",
        "pattern": {
          "String": "ጚ"
        },
        "content": "ጝ"
      },
      {
        "type": "Replace",
        "pattern": {
          "String": "ጛ"
        },
        "content": "ጝ"
      },
      {
        "type": "Replace",
        "pattern": {
          "String": "ጜ"
        },
        "content": "ጝ"
      },
      {
        "type": "Replace",
        "pattern": {
          "String": "ጞ"
        },
        "content": "ጝ"
      },
      {
        "type": "Replace",
        "pattern": {
          "String": "ጟ"
        },
        "content": "ጝ"
      },
      {
        "type": "Replace",
        "pattern": {
          "String": "ጠ"
        },
        "content": "ጥ"
      },
      {
        "type": "Replace",
        "pattern": {
          "String": "ጡ"
        },
        "content": "ጥ"
      },
      {
        "type": "Replace",
        "pattern": {
          "String": "ጢ"
        },
        "content": "ጥ"
      },
      {
        "type": "Replace",
        "pattern": {
          "String": "ጣ"
        },
        "content": "ጥ"
      },
      {
        "type": "Replace",
        "pattern": {
          "String": "ጤ"
        },
        "content": "ጥ"
      },
      {
        "type": "Replace",
        "pattern": {
          "String": "ጦ"
        },
        "content": "ጥ"
      },
      {
        "type": "Replace",
        "pattern": {
          "String": "ጧ"
        },
        "content": "ጥ"
      },
      {
        "type": "Replace",
        "pattern": {
          "String": "ጨ"
        },
        "content": "ጭ"
      },
      {
        "type": "Replace",
        "pattern": {
          "String": "ጩ"
        },
        "content": "ጭ"
      },
      {
        "type": "Replace",
        "pattern": {
          "String": "ጪ"
        },
        "content": "ጭ"
      },
      {
        "type": "Replace",
        "pattern": {
          "String": "ጫ"
        },
        "content": "ጭ"
      },
      {
        "type": "Replace",
        "pattern": {
          "String": "ጬ"
        },
        "content": "ጭ"
      },
      {
        "type": "Replace",
        "pattern": {
          "String": "ጮ"
        },
        "content": "ጭ"
      },
      {
        "type": "Replace",
        "pattern": {
          "String": "ጯ"
        },
        "content": "ጭ"
      },
      {
        "type": "Replace",
        "pattern": {
          "String": "ጰ"
        },
        "content": "ጵ"
      },
      {
        "type": "Replace",
        "pattern": {
          "String": "ጱ"
        },
        "content": "ጵ"
      },
      {
        "type": "Replace",
        "pattern": {
          "String": "ጲ"
        },
        "content": "ጵ"
      },
      {
        "type": "Replace",
        "pattern": {
          "String": "ጳ"
        },
        "content": "ጵ"
      },
      {
        "type": "Replace",
        "pattern": {
          "String": "ጴ"
        },
        "content": "ጵ"
      },
      {
        "type": "Replace",
        "pattern": {
          "String": "ጶ"
        },
        "content": "ጵ"
      },
      {
        "type": "Replace",
        "pattern": {
          "String": "ጷ"
        },
        "content": "ጵ"
      },
      {
        "type": "Replace",
        "pattern": {
          "String": "ጸ"
        },
        "content": "ጽ"
      },
      {
        "type": "Replace",
        "pattern": {
          "String": "ጹ"
        },
        "content": "ጽ"
      },
      {
        "type": "Replace",
        "pattern": {
          "String": "ጺ"
        },
        "content": "ጽ"
      },
      {
        "type": "Replace",
        "pattern": {
          "String": "ጻ"
        },
        "content": "ጽ"
      },
      {
        "type": "Replace",
        "pattern": {
          "String": "ጼ"
        },
        "content": "ጽ"
      },
      {
        "type": "Replace",
        "pattern": {
          "String": "ጾ"
        },
        "content": "ጽ"
      },
      {
        "type": "Replace",
        "pattern": {
          "String": "ጿ"
        },
        "content": "ጽ"
      },
      {
        "type": "Replace",
        "pattern": {
          "String": "ፀ"
        },
        "content": "ፅ"
      },
      {
        "type": "Replace",
        "pattern": {
          "String": "ፁ"
        },
        "content": "ፅ"
      },
      {
        "type": "Replace",
        "pattern": {
          "String": "ፂ"
        },
        "content": "ፅ"
      },
      {
        "type": "Replace",
        "pattern": {
          "String": "ፃ"
        },
        "content": "ፅ"
      },
      {
        "type": "Replace",
        "pattern": {
          "String": "ፄ"
        },
        "content": "ፅ"
      },
      {
        "type": "Replace",
        "pattern": {
          "String": "ፆ"
        },
        "content": "ፅ"
      },
      {
        "type": "Replace",
        "pattern": {
          "String": "ፇ"
        },
        "content": "ፅ"
      },
      {
        "type": "Replace",
        "pattern": {
          "String": "ፈ"
        },
        "content": "ፍ"
      },
      {
        "type": "Replace",
        "pattern": {
          "String": "ፉ"
        },
        "content": "ፍ"
      },
      {
        "type": "Replace",
        "pattern": {
          "String": "ፊ"
        },
        "content": "ፍ"
      },
      {
        "type": "Replace",
        "pattern": {
          "String": "ፋ"
        },
        "content": "ፍ"
      },
      {
        "type": "Replace",
        "pattern": {
          "String": "ፌ"
        },
        "content": "ፍ"
      },
      {
        "type": "Replace",
        "pattern": {
          "String": "ፎ"
        },
        "content": "ፍ"
      },
      {
        "type": "Replace",
        "pattern": {
          "String": "ፏ"
        },
        "content": "ፍ"
      },
      {
        "type": "Replace",
        "pattern": {
          "String": "ፐ"
        },
        "content": "ፕ"
      },
      {
        "type": "Replace",
        "pattern": {
          "String": "ፑ"
        },
        "content": "ፕ"
      },
      {
        "type": "Replace",
        "pattern": {
          "String": "ፒ"
        },
        "content": "ፕ"
      },
      {
        "type": "Replace",
        "pattern": {
          "String": "ፓ"
        },
        "content": "ፕ"
      },
      {
        "type": "Replace",
        "pattern": {
          "String": "ፔ"
        },
        "content": "ፕ"
      },
      {
        "type": "Replace",
        "pattern": {
          "String": "ፖ"
        },
        "content": "ፕ"
      },
      {
        "type": "Replace",
        "pattern": {
          "String": "ፗ"
        },
        "content": "ፕ"
      }
    ]
  },
  "pre_tokenizer": {
    "type": "Whitespace"
  },
  "post_processor": null,
  "decoder": {
    "type": "ByteFallback"
  },
  "model": {
    "type": "BPE",
    "dropout": null,
    "unk_token": "[UNK]",
    "continuing_subword_prefix": null,
    "end_of_word_suffix": null,
    "fuse_unk": false,
    "byte_fallback": true,
    "ignore_merges": false,
    "vocab": {
      "[UNK]": 0,
      "<0x00>": 1,
      "<0x01>": 2,
      "<0x02>": 3,
      "<0x03>": 4,
      "<0x04>": 5,
      "<0x05>": 6,
      "<0x06>": 7,
      "<0x07>": 8,
      "<0x08>": 9,
      "<0x09>": 10,
      "<0x0A>": 11,
      "<0x0B>": 12,
      "<0x0C>": 13,
      "<0x0D>": 14,
      "<0x0E>": 15,
      "<0x0F>": 16,
      "<0x10>": 17,
      "<0x11>": 18,
      "<0x12>": 19,
      "<0x13>": 20,
      "<0x14>": 21,
      "<0x15>": 22,
      "<0x16>": 23,
      "<0x17>": 24,
      "<0x18>": 25,
      "<0x19>": 26,
      "<0x1A>": 27,
      "<0x1B>": 28,
      "<0x1C>": 29,
      "<0x1D>": 30,
      "<0x1E>": 31,
      "<0x1F>": 32,
      "<0x20>": 33,
      "<0x21>": 34,
      "<0x22>": 35,
      "<0x23>": 36,
      "<0x24>": 37,
      "<0x25>": 38,
      "<0x26>": 39,
      "<0x27>": 40,
      "<0x28>": 41,
      "<0x29>": 42,
      "<0x2A>": 43,
      "<0x2B>": 44,
      "<0x2C>": 45,
      "<0x2D>": 46,
      "<0x2E>": 47,
      "<0x2F>": 48,
      "<0x30>": 49,
      "<0x31>": 50,
      "<0x32>": 51,
      "<0x33>": 52,
      "<0x34>": 53,
      "<0x35>": 54,
      "<0x36>": 55,
      "<0x37>": 56,
      "<0x38>": 57,
      "<0x39>": 58,
      "<0x3A>": 59,
      "<0x3B>": 60,
      "<0x3C>": 61,
      "<0x3D>": 62,
      "<0x3E>": 63,
      "<0x3F>": 64,
      "<0x40>": 65,
      "<0x41>": 66,
      "<0x42>": 67,
      "<0x43>": 68,
      "<0x44>": 69,
      "<0x45>": 70,
      "<0x46>": 71,
      "<0x47>": 72,
      "<0x48>": 73,
      "<0x49>": 74,
      "<0x4A>": 75,
      "<0x4B>": 76,
      "<0x4C>": 77,
      "<0x4D>": 78,
      "<0x4E>": 79,
      "<0x4F>": 80,
      "<0x50>": 81,
      "<0x51>": 82,
      "<0x52>": 83,
      "<0x53>": 84,
      "<0x54>": 85,
      "<0x55>": 86,
      "<0x56>": 87,
      "<0x57>": 88,
      "<0x58>": 89,
      "<0x59>": 90,
      "<0x5A>": 91,
      "<0x5B>": 92,
      "<0x5C>": 93,
      "<0x5D>": 94,
      "<0x5E>": 95,
      "<0x5F>": 96,
      "<0x60>": 97,
      "<0x61>": 98,
      "<0x62>": 99,
      "<0x63>": 100,
      "<0x64>": 101,
      "<0x65>": 102,
      "<0x66>": 103,
      "<0x67>": 104,
      "<0x68>": 105,
      "<0x69>": 106,
      "<0x6A>": 107,
      "<0x6B>": 108,
      "<0x6C>": 109,
      "<0x6D>": 110,
      "<0x6E>": 111,
      "<0x6F>": 112,
      "<0x70>": 113,
      "<0x71>": 114,
      "<0x72>": 115,
      "<0x73>": 116,
      "<0x74>": 117,
      "<0x75>": 118,
      "<0x76>": 119,
      "<0x77>": 120,
      "<0x78>": 121,
      "<0x79>": 122,
      "<0x7A>": 123,
      "<0x7B>": 124,
      "<0x7C>": 125,
      "<0x7D>": 126,
      "<0x7E>": 127,
      "<0x7F>": 128,
      "<0x80>": 129,
      "<0x81>": 130,
      "<0x82>": 131,
      "<0x83>": 132,
      "<0x84>": 133,
      "<0x85>": 134,
      "<0x86>": 135,
      "<0x87>": 136,
      "<0x88>": 137,
      "<0x89>": 138,
      "<0x8A>": 139,
      "<0x8B>": 140,
      "<0x8C>": 141,
      "<0x8D>": 142,
      "<0x8E>": 143,
      "<0x8F>": 144,
      "<0x90>": 145,
      "<0x91>": 146,
      "<0x92>": 147,
      "<0x93>": 148,
      "<0x94>": 149,
      "<0x95>": 150,
      "<0x96>": 151,
      "<0x97>": 152,
      "<0x98>": 153,
      "<0x99>": 154,
      "<0x9A>": 155,
      "<0x9B>": 156,
      "<0x9C>": 157,
      "<0x9D>": 158,
      "<0x9E>": 159,
      "<0x9F>": 160,
      "<0xA0>": 161,
      "<0xA1>": 162,
      "<0xA2>": 163,
      "<0xA3>": 164,
      "<0xA4>": 165,
      "<0xA5>": 166,
      "<0xA6>": 167,
      "<0xA7>": 168,
      "<0xA8>": 169,
      "<0xA9>": 170,
      "<0xAA>": 171,
      "<0xAB>": 172,
      "<0xAC>": 173,
      "<0xAD>": 174,
      "<0xAE>": 175,
      "<0xAF>": 176,
      "<0xB0>": 177,
      "<0xB1>": 178,
      "<0xB2>": 179,
      "<0xB3>": 180,
      "<0xB4>": 181,
      "<0xB5>": 182,
      "<0xB6>": 183,
      "<0xB7>": 184,
      "<0xB8>": 185,
      "<0xB9>": 186,
      "<0xBA>": 187,
      "<0xBB>": 188,
      "<0xBC>": 189,
      "<0xBD>": 190,
      "<0xBE>": 191,
      "<0xBF>": 192,
      "<0xC0>": 193,
      "<0xC1>": 194,
      "<0xC2>": 195,
      "<0xC3>": 196,
      "<0xC4>": 197,
      "<0xC5>": 198,
      "<0xC6>": 199,
      "<0xC7>": 200,
      "<0xC8>": 201,
      "<0xC9>": 202,
      "<0xCA>": 203,
      "<0xCB>": 204,
      "<0xCC>": 205,
      "<0xCD>": 206,
      "<0xCE>": 207,
      "<0xCF>": 208,
      "<0xD0>": 209,
      "<0xD1>": 210,
      "<0xD2>": 211,
      "<0xD3>": 212,
      "<0xD4>": 213,
      "<0xD5>": 214,
      "<0xD6>": 215,
      "<0xD7>": 216,
      "<0xD8>": 217,
      "<0xD9>": 218,
      "<0xDA>": 219,
      "<0xDB>": 220,
      "<0xDC>": 221,
      "<0xDD>": 222,
      "<0xDE>": 223,
      "<0xDF>": 224,
      "<0xE0>": 225,
      "<0xE1>": 226,
      "<0xE2>": 227,
      "<0xE3>": 228,
      "<0xE4>": 229,
      "<0xE5>": 230,
      "<0xE6>": 231,
      "<0xE7>": 232,
      "<0xE8>": 233,
      "<0xE9>": 234,
      "<0xEA>": 235,
      "<0xEB>": 236,
      "<0xEC>": 237,
      "<0xED>": 238,
      "<0xEE>": 239,
      "<0xEF>": 240,
      "<0xF0>": 241,
      "<0xF1>": 242,
      "<0xF2>": 243,
      "<0xF3>": 244,
      "<0xF4>": 245,
      "<0xF5>": 246,
      "<0xF6>": 247,
      "<0xF7>": 248,
      "<0xF8>": 249,
      "<0xF9>": 250,
      "<0xFA>": 251,
      "<0xFB>": 252,
      "<0xFC>": 253,
      "<0xFD>": 254,
      "<0xFE>": 255,
      "<0xFF>": 256,
      "0": 257,
      "_": 258,
      "a": 259,
      "b": 260,
      "c": 261,
      "d": 262,
      "e": 263,
      "f": 264,
      "g": 265,
      "h": 266,
      "i": 267,
      "j": 268,
      "k": 269,
      "l": 270,
      "m": 271,
      "n": 272,
      "o": 273,
      "p": 274,
      "q": 275,
      "r": 276,
      "s": 277,
      "t": 278,
      "u": 279,
      "v": 280,
      "w": 281,
      "x": 282,
      "y": 283,
      "z": 284,
      "ª": 285,
      "µ": 286,
      "º": 287,
      "ß": 288,
      "æ": 289,
      "ð": 290,
      "ø": 291,
      "þ": 292,
      "đ": 293,
      "ħ": 294,
      "ı": 295,
      "ł": 296,
      "ŋ": 297,
      "œ": 298,
      "ſ": 299,
      "ƒ": 300,
      "ƙ": 301,
      "ƣ": 302,
      "ƴ": 303,
      "ƿ": 304,
      "ǀ": 305,
      "ǝ": 306,
      "ȝ": 307,
      "ȣ": 308,
      "ɐ": 309,
      "ɑ": 310,
      "ɒ": 311,
      "ɓ": 312,
      "ɔ": 313,
      "ɕ": 314,
      "ɖ": 315,
      "ɗ": 316,
      "ə": 317,
      "ɚ": 318,
      "ɛ": 319,
      "ɜ": 320,
      "ɟ": 321,
      "ɡ": 322,
      "ɣ": 323,
      "ɤ": 324,
      "ɥ": 325,
      "ɦ": 326,
      "ɧ": 327,
      "ɨ": 328,
      "ɪ": 329,
      "ɫ": 330,
      "ɯ": 331,
      "ɰ": 332,
      "ɲ": 333,
      "ɳ": 334,
      "ɴ": 335,
      "ɵ": 336,
      "ɹ": 337,
      "ɻ": 338,
      "ɽ": 339,
      "ɾ": 340,
      "ʀ": 341,
      "ʁ": 342,
      "ʂ": 343,
      "ʃ": 344,
      "ʈ": 345,
      "ʉ": 346,
      "ʊ": 347,
      "ʋ": 348,
      "ʌ": 349,
      "ʎ": 350,
      "ʏ": 351,
      "ʑ": 352,
      "ʒ": 353,
      "ʔ": 354,
      "ʕ": 355,
      "ʰ": 356,
      "ʱ": 357,
      "ʲ": 358,
      "ʵ": 359,
      "ʷ": 360,
      "ʹ": 361,
      "ʻ": 362,
      "ʼ": 363,
      "ʽ": 364,
      "ʾ": 365,
      "ʿ": 366,
      "ˀ": 367,
      "ˁ": 368,
      "ˈ": 369,
      "ˌ": 370,
      "ː": 371,
      "ˑ": 372,
      "ˠ": 373,
      "ˤ": 374,
      "ͳ": 375,
      "α": 376,
      "β": 377,
      "γ": 378,
      "δ": 379,
      "ε": 380,
      "ζ": 381,
      "η": 382,
      "θ": 383,
      "ι": 384,
      "κ": 385,
      "λ": 386,
      "μ": 387,
      "ν": 388,
      "ξ": 389,
      "ο": 390,
      "π": 391,
      "ρ": 392,
      "ς": 393,
      "σ": 394,
      "τ": 395,
      "υ": 396,
      "φ": 397,
      "χ": 398,
      "ψ": 399,
      "ω": 400,
      "ϐ": 401,
      "ϙ": 402,
      "ϛ": 403,
      "ϝ": 404,
      "ϟ": 405,
      "ϡ": 406,
      "ϵ": 407,
      "ϻ": 408,
      "а": 409,
      "б": 410,
      "в": 411,
      "г": 412,
      "д": 413,
      "е": 414,
      "ж": 415,
      "з": 416,
      "и": 417,
      "к": 418,
      "л": 419,
      "м": 420,
      "н": 421,
      "о": 422,
      "п": 423,
      "р": 424,
      "с": 425,
      "т": 426,
      "у": 427,
      "ф": 428,
      "х": 429,
      "ц": 430,
      "ч": 431,
      "ш": 432,
      "щ": 433,
      "ъ": 434,
      "ы": 435,
      "ь": 436,
      "э": 437,
      "ю": 438,
      "я": 439,
      "ђ": 440,
      "і": 441,
      "ј": 442,
      "ћ": 443,
      "џ": 444,
      "ғ": 445,
      "қ": 446,
      "ң": 447,
      "ҧ": 448,
      "ү": 449,
      "ұ": 450,
      "ҷ": 451,
      "һ": 452,
      "ӕ": 453,
      "ә": 454,
      "ө": 455,
      "ա": 456,
      "բ": 457,
      "գ": 458,
      "դ": 459,
      "ե": 460,
      "է": 461,
      "թ": 462,
      "ի": 463,
      "լ": 464,
      "կ": 465,
      "հ": 466,
      "մ": 467,
      "յ": 468,
      "ն": 469,
      "ո": 470,
      "պ": 471,
      "ս": 472,
      "վ": 473,
      "տ": 474,
      "ր": 475,
      "ց": 476,
      "ւ": 477,
      "ք": 478,
      "ֆ": 479,
      "և": 480,
      "א": 481,
      "ב": 482,
      "ג": 483,
      "ד": 484,
      "ה": 485,
      "ו": 486,
      "ז": 487,
      "ח": 488,
      "ט": 489,
      "י": 490,
      "ך": 491,
      "כ": 492,
      "ל": 493,
      "ם": 494,
      "מ": 495,
      "ן": 496,
      "נ": 497,
      "ס": 498,
      "ע": 499,
      "ף": 500,
      "פ": 501,
      "ץ": 502,
      "צ": 503,
      "ק": 504,
      "ר": 505,
      "ש": 506,
      "ת": 507,
      "ء": 508,
      "ا": 509,
      "ب": 510,
      "ة": 511,
      "ت": 512,
      "ث": 513,
      "ج": 514,
      "ح": 515,
      "خ": 516,
      "د": 517,
      "ذ": 518,
      "ر": 519,
      "ز": 520,
      "س": 521,
      "ش": 522,
      "ص": 523,
      "ض": 524,
      "ط": 525,
      "ظ": 526,
      "ع": 527,
      "غ": 528,
      "ـ": 529,
      "ف": 530,
      "ق": 531,
      "ك": 532,
      "ل": 533,
      "م": 534,
      "ن": 535,
      "ه": 536,
      "و": 537,
      "ى": 538,
      "ي": 539,
      "ٱ": 540,
      "ٹ": 541,
      "پ": 542,
      "ځ": 543,
      "چ": 544,
      "ڈ": 545,
      "ڌ": 546,
      "ڑ": 547,
      "ړ": 548,
      "ښ": 549,
      "ک": 550,
      "ڪ": 551,
      "ڬ": 552,
      "گ": 553,
      "ں": 554,
      "ھ": 555,
      "ہ": 556,
      "ۆ": 557,
      "ۇ": 558,
      "ۋ": 559,
      "ی": 560,
      "ې": 561,
      "ە": 562,
      "ۥ": 563,
      "ۦ": 564,
      "ܐ": 565,
      "ܒ": 566,
      "ܓ": 567,
      "ܕ": 568,
      "ܗ": 569,
      "ܘ": 570,
      "ܛ": 571,
      "ܝ": 572,
      "ܠ": 573,
      "ܡ": 574,
      "ܢ": 575,
      "ܣ": 576,
      "ܩ": 577,
      "ܪ": 578,
      "ނ": 579,
      "ބ": 580,
      "އ": 581,
      "މ": 582,
      "ދ": 583,
      "ލ": 584,
      "ގ": 585,
      "ޔ": 586,
      "अ": 587,
      "आ": 588,
      "इ": 589,
      "ई": 590,
      "उ": 591,
      "ऊ": 592,
      "ए": 593,
      "क": 594,
      "ख": 595,
      "ग": 596,
      "घ": 597,
      "च": 598,
      "छ": 599,
      "ज": 600,
      "ट": 601,
      "ड": 602,
      "ढ": 603,
      "ण": 604,
      "त": 605,
      "थ": 606,
      "द": 607,
      "ध": 608,
      "न": 609,
      "प": 610,
      "फ": 611,
      "ब": 612,
      "भ": 613,
      "म": 614,
      "य": 615,
      "र": 616,
      "ल": 617,
      "व": 618,
      "श": 619,
      "ष": 620,
      "स": 621,
      "ह": 622,
      "আ": 623,
      "ই": 624,
      "উ": 625,
      "ও": 626,
      "ক": 627,
      "গ": 628,
      "চ": 629,
      "জ": 630,
      "ট": 631,
      "ণ": 632,
      "ত": 633,
      "দ": 634,
      "ধ": 635,
      "ন": 636,
      "প": 637,
      "ব": 638,
      "ভ": 639,
      "ম": 640,
      "য": 641,
      "র": 642,
      "ল": 643,
      "শ": 644,
      "ষ": 645,
      "স": 646,
      "হ": 647,
      "ৎ": 648,
      "ਘ": 649,
      "ਜ": 650,
      "ਨ": 651,
      "ਪ": 652,
      "ਬ": 653,
      "ਮ": 654,
      "ਸ": 655,
      "ਹ": 656,
      "આ": 657,
      "ઇ": 658,
      "ઈ": 659,
      "ઉ": 660,
      "ઊ": 661,
      "ઓ": 662,
      "ક": 663,
      "ખ": 664,
      "ગ": 665,
      "છ": 666,
      "જ": 667,
      "ત": 668,
      "ન": 669,
      "ફ": 670,
      "બ": 671,
      "ભ": 672,
      "મ": 673,
      "ર": 674,
      "લ": 675,
      "વ": 676,
      "શ": 677,
      "સ": 678,
      "હ": 679,
      "அ": 680,
      "உ": 681,
      "ஓ": 682,
      "க": 683,
      "ங": 684,
      "ச": 685,
      "ஜ": 686,
      "ட": 687,
      "ண": 688,
      "த": 689,
      "ந": 690,
      "ன": 691,
      "ப": 692,
      "ம": 693,
      "ய": 694,
      "ர": 695,
      "ற": 696,
      "ல": 697,
      "ள": 698,
      "ழ": 699,
      "வ": 700,
      "ஸ": 701,
      "క": 702,
      "గ": 703,
      "చ": 704,
      "జ": 705,
      "డ": 706,
      "త": 707,
      "ద": 708,
      "న": 709,
      "ప": 710,
      "బ": 711,
      "భ": 712,
      "మ": 713,
      "ర": 714,
      "ల": 715,
      "శ": 716,
      "స": 717,
      "హ": 718,
      "അ": 719,
      "ഉ": 720,
      "ഐ": 721,
      "ക": 722,
      "ട": 723,
      "ഡ": 724,
      "ണ": 725,
      "ന": 726,
      "പ": 727,
      "ബ": 728,
      "മ": 729,
      "യ": 730,
      "ര": 731,
      "റ": 732,
      "ല": 733,
      "ള": 734,
      "വ": 735,
      "സ": 736,
      "ൻ": 737,
      "ൽ": 738,
      "ක": 739,
      "ග": 740,
      "ච": 741,
      "ජ": 742,
      "ට": 743,
      "ඩ": 744,
      "ණ": 745,
      "ත": 746,
      "ද": 747,
      "ධ": 748,
      "න": 749,
      "ප": 750,
      "බ": 751,
      "ම": 752,
      "ය": 753,
      "ර": 754,
      "ල": 755,
      "ව": 756,
      "ශ": 757,
      "ස": 758,
      "හ": 759,
      "ก": 760,
      "ข": 761,
      "ค": 762,
      "ง": 763,
      "จ": 764,
      "ช": 765,
      "ณ": 766,
      "ด": 767,
      "ต": 768,
      "ท": 769,
      "น": 770,
      "บ": 771,
      "ป": 772,
      "ผ": 773,
      "พ": 774,
      "ภ": 775,
      "ม": 776,
      "ย": 777,
      "ร": 778,
      "ว": 779,
      "ศ": 780,
      "ษ": 781,
      "ส": 782,
      "ห": 783,
      "อ": 784,
      "ฯ": 785,
      "ะ": 786,
      "า": 787,
      "เ": 788,
      "แ": 789,
      "ใ": 790,
      "ไ": 791,
      "ཐ": 792,
      "པ": 793,
      "ཕ": 794,
      "བ": 795,
      "མ": 796,
      "ལ": 797,
      "ည": 798,
      "တ": 799,
      "ဓ": 800,
      "န": 801,
      "ယ": 802,
      "ဝ": 803,
      "ა": 804,
      "ბ": 805,
      "გ": 806,
      "დ": 807,
      "ე": 808,
      "ვ": 809,
      "ზ": 810,
      "თ": 811,
      "ი": 812,
      "კ": 813,
      "ლ": 814,
      "მ": 815,
      "ნ": 816,
      "ო": 817,
      "პ": 818,
      "რ": 819,
      "ს": 820,
      "ტ": 821,
      "უ": 822,
      "ფ": 823,
      "ქ": 824,
      "ყ": 825,
      "შ": 826,
      "ჩ": 827,
      "ც": 828,
      "ძ": 829,
      "ჭ": 830,
      "ხ": 831,
      "ჰ": 832,
      "ᇁ": 833,
      "ህ": 834,
      "ል": 835,
      "ም": 836,
      "ር": 837,
      "ስ": 838,
      "ሽ": 839,
      "ቅ": 840,
      "ቍ": 841,
      "ቕ": 842,
      "ቝ": 843,
      "ብ": 844,
      "ቭ": 845,
      "ት": 846,
      "ች": 847,
      "ኍ": 848,
      "ን": 849,
      "ኝ": 850,
      "እ": 851,
      "ክ": 852,
      "ኵ": 853,
      "ኽ": 854,
      "ዅ": 855,
      "ው": 856,
      "ዝ": 857,
      "ዥ": 858,
      "ይ": 859,
      "ድ": 860,
      "ዽ": 861,
      "ጅ": 862,
      "ግ": 863,
      "ጕ": 864,
      "ጝ": 865,
      "ጥ": 866,
      "ጭ": 867,
      "ጵ": 868,
      "ጽ": 869,
      "ፍ": 870,
      "ፕ": 871,
      "ፘ": 872,
      "ᎆ": 873,
      "ᏼ": 874,
      "ᑕ": 875,
      "ᑖ": 876,
      "ᑭ": 877,
      "ᓕ": 878,
      "ᕋ": 879,
      "ᕐ": 880,
      "ᖅ": 881,
      "ᠠ": 882,
      "ᠤ": 883,
      "ᠨ": 884,
      "ᠪ": 885,
      "ᠭ": 886,
      "ᠯ": 887,
      "ᠲ": 888,
      "ᠷ": 889,
      "ᴀ": 890,
      "ᴋ": 891,
      "ᴍ": 892,
      "ᴛ": 893,
      "‿": 894,
      "ⁿ": 895,
      "ℑ": 896,
      "ℓ": 897,
      "ℕ": 898,
      "ℜ": 899,
      "ℝ": 900,
      "ℤ": 901,
      "ⲇ": 902,
      "ⲓ": 903,
      "ⲡ": 904,
      "ⴰ": 905,
      "ⴱ": 906,
      "ⴳ": 907,
      "ⴷ": 908,
      "ⴻ": 909,
      "ⴼ": 910,
      "ⵉ": 911,
      "ⵍ": 912,
      "ⵎ": 913,
      "ⵏ": 914,
      "ⵓ": 915,
      "ⵔ": 916,
      "ⵖ": 917,
      "ⵙ": 918,
      "ⵜ": 919,
      "ⵢ": 920,
      "ⵣ": 921,
      "あ": 922,
      "い": 923,
      "う": 924,
      "え": 925,
      "お": 926,
      "か": 927,
      "き": 928,
      "く": 929,
      "け": 930,
      "こ": 931,
      "さ": 932,
      "し": 933,
      "す": 934,
      "せ": 935,
      "そ": 936,
      "た": 937,
      "ち": 938,
      "つ": 939,
      "て": 940,
      "と": 941,
      "な": 942,
      "に": 943,
      "の": 944,
      "は": 945,
      "ひ": 946,
      "ふ": 947,
      "へ": 948,
      "ほ": 949,
      "ま": 950,
      "み": 951,
      "も": 952,
      "ょ": 953,
      "よ": 954,
      "ら": 955,
      "り": 956,
      "る": 957,
      "れ": 958,
      "わ": 959,
      "を": 960,
      "ん": 961,
      "ア": 962,
      "ィ": 963,
      "イ": 964,
      "ゥ": 965,
      "ウ": 966,
      "エ": 967,
      "オ": 968,
      "カ": 969,
      "キ": 970,
      "ク": 971,
      "ケ": 972,
      "コ": 973,
      "サ": 974,
      "シ": 975,
      "ス": 976,
      "セ": 977,
      "ソ": 978,
      "タ": 979,
      "チ": 980,
      "ッ": 981,
      "ツ": 982,
      "テ": 983,
      "ト": 984,
      "ナ": 985,
      "ニ": 986,
      "ネ": 987,
      "ハ": 988,
      "ヒ": 989,
      "フ": 990,
      "ヘ": 991,
      "ホ": 992,
      "マ": 993,
      "ム": 994,
      "メ": 995,
      "モ": 996,
      "ヤ": 997,
      "ョ": 998,
      "ヨ": 999,
      "ラ": 1000,
      "リ": 1001,
      "ル": 1002,
      "レ": 1003,
      "ロ": 1004,
      "ワ": 1005,
      "ン": 1006,
      "ー": 1007,
      "ㄱ": 1008,
      "ㄷ": 1009,
      "ㄹ": 1010,
      "ㅂ": 1011,
      "ㅇ": 1012,
      "ㅈ": 1013,
      "一": 1014,
      "丁": 1015,
      "七": 1016,
      "万": 1017,
      "三": 1018,
      "上": 1019,
      "下": 1020,
      "不": 1021,
      "与": 1022,
      "专": 1023,
      "世": 1024,
      "东": 1025,
      "两": 1026,
      "严": 1027,
      "中": 1028,
      "丰": 1029,
      "丹": 1030,
      "主": 1031,
      "义": 1032,
      "之": 1033,
      "乌": 1034,
      "九": 1035,
      "书": 1036,
      "争": 1037,
      "事": 1038,
      "二": 1039,
      "云": 1040,
      "五": 1041,
      "亚": 1042,
      "亜": 1043,
      "京": 1044,
      "人": 1045,
      "仁": 1046,
      "今": 1047,
      "仏": 1048,
      "仙": 1049,
      "代": 1050,
      "令": 1051,
      "仲": 1052,
      "任": 1053,
      "伊": 1054,
      "伍": 1055,
      "伏": 1056,
      "会": 1057,
      "伝": 1058,
      "伟": 1059,
      "伦": 1060,
      "伯": 1061,
      "体": 1062,
      "何": 1063,
      "作": 1064,
      "佺": 1065,
      "例": 1066,
      "供": 1067,
      "侠": 1068,
      "俊": 1069,
      "信": 1070,
      "們": 1071,
      "倫": 1072,
      "健": 1073,
      "偶": 1074,
      "偿": 1075,
      "傳": 1076,
      "儒": 1077,
      "儿": 1078,
      "兄": 1079,
      "兆": 1080,
      "光": 1081,
      "兎": 1082,
      "兒": 1083,
      "兖": 1084,
      "全": 1085,
      "八": 1086,
      "公": 1087,
      "六": 1088,
      "兰": 1089,
      "共": 1090,
      "内": 1091,
      "円": 1092,
      "写": 1093,
      "农": 1094,
      "分": 1095,
      "刑": 1096,
      "列": 1097,
      "刘": 1098,
      "判": 1099,
      "利": 1100,
      "剌": 1101,
      "剑": 1102,
      "剛": 1103,
      "剣": 1104,
      "劉": 1105,
      "办": 1106,
      "加": 1107,
      "务": 1108,
      "労": 1109,
      "勉": 1110,
      "勤": 1111,
      "包": 1112,
      "化": 1113,
      "北": 1114,
      "匠": 1115,
      "匡": 1116,
      "十": 1117,
      "华": 1118,
      "南": 1119,
      "博": 1120,
      "印": 1121,
      "原": 1122,
      "厦": 1123,
      "参": 1124,
      "友": 1125,
      "双": 1126,
      "发": 1127,
      "取": 1128,
      "口": 1129,
      "古": 1130,
      "只": 1131,
      "可": 1132,
      "台": 1133,
      "史": 1134,
      "叶": 1135,
      "司": 1136,
      "各": 1137,
      "合": 1138,
      "吉": 1139,
      "同": 1140,
      "名": 1141,
      "向": 1142,
      "君": 1143,
      "吠": 1144,
      "启": 1145,
      "吳": 1146,
      "吴": 1147,
      "员": 1148,
      "周": 1149,
      "和": 1150,
      "品": 1151,
      "哈": 1152,
      "哥": 1153,
      "哲": 1154,
      "商": 1155,
      "善": 1156,
      "喋": 1157,
      "喾": 1158,
      "嚴": 1159,
      "四": 1160,
      "団": 1161,
      "国": 1162,
      "國": 1163,
      "園": 1164,
      "土": 1165,
      "在": 1166,
      "地": 1167,
      "坊": 1168,
      "坎": 1169,
      "垒": 1170,
      "城": 1171,
      "執": 1172,
      "基": 1173,
      "堂": 1174,
      "堅": 1175,
      "塔": 1176,
      "塞": 1177,
      "墨": 1178,
      "壁": 1179,
      "士": 1180,
      "壬": 1181,
      "处": 1182,
      "复": 1183,
      "外": 1184,
      "夜": 1185,
      "夢": 1186,
      "大": 1187,
      "天": 1188,
      "太": 1189,
      "夫": 1190,
      "头": 1191,
      "奈": 1192,
      "女": 1193,
      "好": 1194,
      "如": 1195,
      "妹": 1196,
      "始": 1197,
      "姜": 1198,
      "威": 1199,
      "娃": 1200,
      "婉": 1201,
      "婷": 1202,
      "嫩": 1203,
      "嬴": 1204,
      "子": 1205,
      "孔": 1206,
      "字": 1207,
      "孙": 1208,
      "季": 1209,
      "学": 1210,
      "孫": 1211,
      "宁": 1212,
      "宇": 1213,
      "安": 1214,
      "宋": 1215,
      "宗": 1216,
      "官": 1217,
      "宜": 1218,
      "宝": 1219,
      "客": 1220,
      "宣": 1221,
      "宮": 1222,
      "家": 1223,
      "密": 1224,
      "富": 1225,
      "寒": 1226,
      "寧": 1227,
      "射": 1228,
      "尊": 1229,
      "小": 1230,
      "少": 1231,
      "尔": 1232,
      "尧": 1233,
      "尹": 1234,
      "尼": 1235,
      "居": 1236,
      "屋": 1237,
      "屬": 1238,
      "山": 1239,
      "岛": 1240,
      "岢": 1241,
      "峯": 1242,
      "峰": 1243,
      "島": 1244,
      "崎": 1245,
      "川": 1246,
      "州": 1247,
      "己": 1248,
      "巴": 1249,
      "市": 1250,
      "布": 1251,
      "师": 1252,
      "希": 1253,
      "帝": 1254,
      "帶": 1255,
      "常": 1256,
      "幌": 1257,
      "平": 1258,
      "年": 1259,
      "广": 1260,
      "庄": 1261,
      "庆": 1262,
      "庖": 1263,
      "庚": 1264,
      "庠": 1265,
      "度": 1266,
      "庭": 1267,
      "康": 1268,
      "廑": 1269,
      "延": 1270,
      "建": 1271,
      "弗": 1272,
      "张": 1273,
      "張": 1274,
      "強": 1275,
      "弾": 1276,
      "归": 1277,
      "彩": 1278,
      "彼": 1279,
      "徐": 1280,
      "得": 1281,
      "御": 1282,
      "復": 1283,
      "徳": 1284,
      "德": 1285,
      "徽": 1286,
      "心": 1287,
      "志": 1288,
      "念": 1289,
      "性": 1290,
      "怪": 1291,
      "总": 1292,
      "恆": 1293,
      "恨": 1294,
      "恩": 1295,
      "您": 1296,
      "情": 1297,
      "想": 1298,
      "愈": 1299,
      "意": 1300,
      "愛": 1301,
      "感": 1302,
      "憲": 1303,
      "成": 1304,
      "我": 1305,
      "戦": 1306,
      "所": 1307,
      "扃": 1308,
      "手": 1309,
      "才": 1310,
      "托": 1311,
      "批": 1312,
      "承": 1313,
      "拓": 1314,
      "拳": 1315,
      "拾": 1316,
      "指": 1317,
      "挺": 1318,
      "据": 1319,
      "探": 1320,
      "摩": 1321,
      "操": 1322,
      "改": 1323,
      "政": 1324,
      "敏": 1325,
      "教": 1326,
      "敬": 1327,
      "數": 1328,
      "文": 1329,
      "斎": 1330,
      "斬": 1331,
      "斯": 1332,
      "新": 1333,
      "方": 1334,
      "旅": 1335,
      "旗": 1336,
      "无": 1337,
      "日": 1338,
      "旧": 1339,
      "早": 1340,
      "时": 1341,
      "昆": 1342,
      "昊": 1343,
      "昌": 1344,
      "明": 1345,
      "星": 1346,
      "映": 1347,
      "春": 1348,
      "昭": 1349,
      "時": 1350,
      "晏": 1351,
      "晓": 1352,
      "景": 1353,
      "暂": 1354,
      "曜": 1355,
      "書": 1356,
      "曹": 1357,
      "替": 1358,
      "月": 1359,
      "望": 1360,
      "朝": 1361,
      "期": 1362,
      "木": 1363,
      "未": 1364,
      "本": 1365,
      "札": 1366,
      "朱": 1367,
      "朴": 1368,
      "李": 1369,
      "杜": 1370,
      "条": 1371,
      "杭": 1372,
      "東": 1373,
      "杵": 1374,
      "林": 1375,
      "柏": 1376,
      "柔": 1377,
      "查": 1378,
      "柳": 1379,
      "树": 1380,
      "校": 1381,
      "格": 1382,
      "桀": 1383,
      "桂": 1384,
      "梅": 1385,
      "检": 1386,
      "棚": 1387,
      "棠": 1388,
      "森": 1389,
      "植": 1390,
      "楊": 1391,
      "楚": 1392,
      "楠": 1393,
      "極": 1394,
      "構": 1395,
      "槐": 1396,
      "樂": 1397,
      "樊": 1398,
      "横": 1399,
      "樹": 1400,
      "橋": 1401,
      "橙": 1402,
      "機": 1403,
      "欧": 1404,
      "欽": 1405,
      "歌": 1406,
      "正": 1407,
      "武": 1408,
      "歴": 1409,
      "死": 1410,
      "殖": 1411,
      "段": 1412,
      "殺": 1413,
      "母": 1414,
      "毛": 1415,
      "民": 1416,
      "気": 1417,
      "水": 1418,
      "永": 1419,
      "汉": 1420,
      "汕": 1421,
      "江": 1422,
      "池": 1423,
      "沃": 1424,
      "沈": 1425,
      "沙": 1426,
      "沟": 1427,
      "沪": 1428,
      "河": 1429,
      "泄": 1430,
      "泉": 1431,
      "法": 1432,
      "波": 1433,
      "泥": 1434,
      "泪": 1435,
      "泰": 1436,
      "泽": 1437,
      "洋": 1438,
      "津": 1439,
      "洲": 1440,
      "流": 1441,
      "济": 1442,
      "浙": 1443,
      "浦": 1444,
      "浩": 1445,
      "海": 1446,
      "涿": 1447,
      "淄": 1448,
      "深": 1449,
      "添": 1450,
      "渡": 1451,
      "渤": 1452,
      "温": 1453,
      "港": 1454,
      "湖": 1455,
      "湘": 1456,
      "湛": 1457,
      "湯": 1458,
      "湾": 1459,
      "滑": 1460,
      "滨": 1461,
      "漢": 1462,
      "漪": 1463,
      "漳": 1464,
      "潮": 1465,
      "潽": 1466,
      "澎": 1467,
      "澤": 1468,
      "澳": 1469,
      "濠": 1470,
      "火": 1471,
      "灵": 1472,
      "炎": 1473,
      "為": 1474,
      "烟": 1475,
      "無": 1476,
      "焦": 1477,
      "然": 1478,
      "煐": 1479,
      "煞": 1480,
      "照": 1481,
      "熊": 1482,
      "熱": 1483,
      "燕": 1484,
      "爱": 1485,
      "父": 1486,
      "爾": 1487,
      "牛": 1488,
      "牟": 1489,
      "物": 1490,
      "牺": 1491,
      "犀": 1492,
      "犬": 1493,
      "独": 1494,
      "猪": 1495,
      "猫": 1496,
      "猿": 1497,
      "玉": 1498,
      "王": 1499,
      "现": 1500,
      "玲": 1501,
      "珊": 1502,
      "珍": 1503,
      "現": 1504,
      "球": 1505,
      "理": 1506,
      "琪": 1507,
      "瑟": 1508,
      "璠": 1509,
      "璧": 1510,
      "環": 1511,
      "瓔": 1512,
      "瓦": 1513,
      "甘": 1514,
      "生": 1515,
      "産": 1516,
      "用": 1517,
      "甫": 1518,
      "甬": 1519,
      "田": 1520,
      "甲": 1521,
      "男": 1522,
      "画": 1523,
      "略": 1524,
      "當": 1525,
      "疆": 1526,
      "疏": 1527,
      "登": 1528,
      "白": 1529,
      "的": 1530,
      "皇": 1531,
      "皋": 1532,
      "皖": 1533,
      "盆": 1534,
      "盛": 1535,
      "盧": 1536,
      "目": 1537,
      "直": 1538,
      "相": 1539,
      "真": 1540,
      "石": 1541,
      "磁": 1542,
      "礼": 1543,
      "祖": 1544,
      "神": 1545,
      "祥": 1546,
      "票": 1547,
      "福": 1548,
      "禦": 1549,
      "禮": 1550,
      "秀": 1551,
      "私": 1552,
      "秋": 1553,
      "科": 1554,
      "秘": 1555,
      "秦": 1556,
      "稽": 1557,
      "空": 1558,
      "立": 1559,
      "章": 1560,
      "竹": 1561,
      "笑": 1562,
      "第": 1563,
      "筆": 1564,
      "策": 1565,
      "節": 1566,
      "篇": 1567,
      "米": 1568,
      "粤": 1569,
      "粵": 1570,
      "精": 1571,
      "約": 1572,
      "素": 1573,
      "細": 1574,
      "統": 1575,
      "經": 1576,
      "綺": 1577,
      "綽": 1578,
      "総": 1579,
      "緑": 1580,
      "縞": 1581,
      "约": 1582,
      "纪": 1583,
      "纵": 1584,
      "线": 1585,
      "统": 1586,
      "罗": 1587,
      "罚": 1588,
      "罪": 1589,
      "羅": 1590,
      "羊": 1591,
      "美": 1592,
      "群": 1593,
      "義": 1594,
      "羲": 1595,
      "羽": 1596,
      "翊": 1597,
      "耀": 1598,
      "老": 1599,
      "考": 1600,
      "耆": 1601,
      "耳": 1602,
      "聿": 1603,
      "肃": 1604,
      "肉": 1605,
      "肖": 1606,
      "肥": 1607,
      "育": 1608,
      "胆": 1609,
      "胶": 1610,
      "臘": 1611,
      "自": 1612,
      "舒": 1613,
      "舜": 1614,
      "船": 1615,
      "色": 1616,
      "艸": 1617,
      "节": 1618,
      "芜": 1619,
      "芬": 1620,
      "花": 1621,
      "芳": 1622,
      "苏": 1623,
      "苓": 1624,
      "英": 1625,
      "茂": 1626,
      "茶": 1627,
      "草": 1628,
      "荣": 1629,
      "莆": 1630,
      "莱": 1631,
      "華": 1632,
      "菲": 1633,
      "营": 1634,
      "萧": 1635,
      "葛": 1636,
      "蒲": 1637,
      "蓝": 1638,
      "蓟": 1639,
      "蓮": 1640,
      "蔡": 1641,
      "蕭": 1642,
      "薇": 1643,
      "藏": 1644,
      "蘭": 1645,
      "虎": 1646,
      "虫": 1647,
      "蛇": 1648,
      "蝴": 1649,
      "蝶": 1650,
      "蠻": 1651,
      "血": 1652,
      "衆": 1653,
      "行": 1654,
      "術": 1655,
      "街": 1656,
      "表": 1657,
      "裁": 1658,
      "西": 1659,
      "覧": 1660,
      "親": 1661,
      "觀": 1662,
      "記": 1663,
      "許": 1664,
      "詩": 1665,
      "話": 1666,
      "誕": 1667,
      "語": 1668,
      "説": 1669,
      "論": 1670,
      "謎": 1671,
      "謝": 1672,
      "謹": 1673,
      "譚": 1674,
      "让": 1675,
      "议": 1676,
      "话": 1677,
      "语": 1678,
      "诸": 1679,
      "谭": 1680,
      "豚": 1681,
      "象": 1682,
      "豢": 1683,
      "豪": 1684,
      "貝": 1685,
      "貫": 1686,
      "買": 1687,
      "賈": 1688,
      "贵": 1689,
      "贾": 1690,
      "赔": 1691,
      "赣": 1692,
      "赤": 1693,
      "趙": 1694,
      "跆": 1695,
      "跡": 1696,
      "路": 1697,
      "身": 1698,
      "軍": 1699,
      "轮": 1700,
      "轼": 1701,
      "辛": 1702,
      "辣": 1703,
      "農": 1704,
      "辽": 1705,
      "达": 1706,
      "运": 1707,
      "远": 1708,
      "迦": 1709,
      "迪": 1710,
      "通": 1711,
      "連": 1712,
      "逸": 1713,
      "道": 1714,
      "達": 1715,
      "遷": 1716,
      "邦": 1717,
      "邯": 1718,
      "郎": 1719,
      "郑": 1720,
      "部": 1721,
      "郭": 1722,
      "郷": 1723,
      "都": 1724,
      "酒": 1725,
      "重": 1726,
      "野": 1727,
      "金": 1728,
      "鉉": 1729,
      "銀": 1730,
      "銘": 1731,
      "錯": 1732,
      "鏡": 1733,
      "鐵": 1734,
      "钱": 1735,
      "铁": 1736,
      "铜": 1737,
      "锦": 1738,
      "镜": 1739,
      "長": 1740,
      "长": 1741,
      "門": 1742,
      "閔": 1743,
      "门": 1744,
      "间": 1745,
      "阪": 1746,
      "阳": 1747,
      "阵": 1748,
      "阿": 1749,
      "陀": 1750,
      "陇": 1751,
      "陈": 1752,
      "降": 1753,
      "陕": 1754,
      "陛": 1755,
      "陰": 1756,
      "陸": 1757,
      "陽": 1758,
      "隆": 1759,
      "際": 1760,
      "雄": 1761,
      "雅": 1762,
      "集": 1763,
      "雍": 1764,
      "雙": 1765,
      "雨": 1766,
      "雪": 1767,
      "雯": 1768,
      "雲": 1769,
      "雷": 1770,
      "霑": 1771,
      "露": 1772,
      "青": 1773,
      "非": 1774,
      "面": 1775,
      "韓": 1776,
      "韜": 1777,
      "韦": 1778,
      "韩": 1779,
      "韶": 1780,
      "順": 1781,
      "頊": 1782,
      "領": 1783,
      "顓": 1784,
      "顺": 1785,
      "顿": 1786,
      "風": 1787,
      "食": 1788,
      "飲": 1789,
      "飾": 1790,
      "首": 1791,
      "香": 1792,
      "馬": 1793,
      "騎": 1794,
      "騏": 1795,
      "马": 1796,
      "高": 1797,
      "魂": 1798,
      "魏": 1799,
      "魚": 1800,
      "鮮": 1801,
      "鰐": 1802,
      "鱷": 1803,
      "鳥": 1804,
      "鶏": 1805,
      "鷗": 1806,
      "鹰": 1807,
      "鹿": 1808,
      "麒": 1809,
      "麟": 1810,
      "麻": 1811,
      "黃": 1812,
      "黄": 1813,
      "黎": 1814,
      "黑": 1815,
      "黒": 1816,
      "黔": 1817,
      "黙": 1818,
      "鼠": 1819,
      "齊": 1820,
      "齐": 1821,
      "龍": 1822,
      "龙": 1823,
      "龜": 1824,
      "ꜜ": 1825,
      "ꜣ": 1826,
      "ꜹ": 1827,
      "ꭰ": 1828,
      "ꭶ": 1829,
      "ꭷ": 1830,
      "ꭹ": 1831,
      "ꭿ": 1832,
      "ꮃ": 1833,
      "ꮉ": 1834,
      "ꮒ": 1835,
      "ꮝ": 1836,
      "ꮧ": 1837,
      "ꮳ": 1838,
      "ꮻ": 1839,
      "ꮼ": 1840,
      "ꮿ": 1841,
      "가": 1842,
      "감": 1843,
      "강": 1844,
      "갱": 1845,
      "건": 1846,
      "게": 1847,
      "견": 1848,
      "경": 1849,
      "계": 1850,
      "고": 1851,
      "곱": 1852,
      "공": 1853,
      "과": 1854,
      "교": 1855,
      "구": 1856,
      "국": 1857,
      "군": 1858,
      "그": 1859,
      "글": 1860,
      "금": 1861,
      "기": 1862,
      "까": 1863,
      "깨": 1864,
      "꽃": 1865,
      "끼": 1866,
      "나": 1867,
      "남": 1868,
      "내": 1869,
      "너": 1870,
      "네": 1871,
      "넷": 1872,
      "녁": 1873,
      "년": 1874,
      "념": 1875,
      "녕": 1876,
      "노": 1877,
      "누": 1878,
      "눈": 1879,
      "뉴": 1880,
      "느": 1881,
      "는": 1882,
      "니": 1883,
      "님": 1884,
      "다": 1885,
      "닦": 1886,
      "달": 1887,
      "당": 1888,
      "대": 1889,
      "덟": 1890,
      "도": 1891,
      "독": 1892,
      "동": 1893,
      "되": 1894,
      "둘": 1895,
      "드": 1896,
      "든": 1897,
      "들": 1898,
      "디": 1899,
      "라": 1900,
      "람": 1901,
      "랑": 1902,
      "래": 1903,
      "러": 1904,
      "레": 1905,
      "로": 1906,
      "록": 1907,
      "룡": 1908,
      "루": 1909,
      "르": 1910,
      "륵": 1911,
      "른": 1912,
      "를": 1913,
      "리": 1914,
      "립": 1915,
      "마": 1916,
      "만": 1917,
      "말": 1918,
      "맙": 1919,
      "망": 1920,
      "매": 1921,
      "메": 1922,
      "면": 1923,
      "명": 1924,
      "모": 1925,
      "목": 1926,
      "무": 1927,
      "문": 1928,
      "물": 1929,
      "미": 1930,
      "민": 1931,
      "바": 1932,
      "박": 1933,
      "반": 1934,
      "발": 1935,
      "방": 1936,
      "백": 1937,
      "베": 1938,
      "별": 1939,
      "보": 1940,
      "본": 1941,
      "부": 1942,
      "북": 1943,
      "불": 1944,
      "비": 1945,
      "빨": 1946,
      "사": 1947,
      "삭": 1948,
      "산": 1949,
      "삼": 1950,
      "상": 1951,
      "생": 1952,
      "서": 1953,
      "석": 1954,
      "선": 1955,
      "설": 1956,
      "섯": 1957,
      "성": 1958,
      "세": 1959,
      "셋": 1960,
      "셰": 1961,
      "소": 1962,
      "송": 1963,
      "수": 1964,
      "순": 1965,
      "쉰": 1966,
      "스": 1967,
      "습": 1968,
      "시": 1969,
      "식": 1970,
      "신": 1971,
      "십": 1972,
      "쌀": 1973,
      "아": 1974,
      "안": 1975,
      "애": 1976,
      "야": 1977,
      "양": 1978,
      "어": 1979,
      "에": 1980,
      "여": 1981,
      "연": 1982,
      "열": 1983,
      "영": 1984,
      "예": 1985,
      "오": 1986,
      "온": 1987,
      "요": 1988,
      "우": 1989,
      "운": 1990,
      "울": 1991,
      "월": 1992,
      "위": 1993,
      "유": 1994,
      "육": 1995,
      "윤": 1996,
      "율": 1997,
      "은": 1998,
      "을": 1999,
      "음": 2000,
      "의": 2001,
      "이": 2002,
      "인": 2003,
      "일": 2004,
      "잉": 2005,
      "자": 2006,
      "작": 2007,
      "장": 2008,
      "재": 2009,
      "저": 2010,
      "적": 2011,
      "전": 2012,
      "점": 2013,
      "제": 2014,
      "조": 2015,
      "존": 2016,
      "죄": 2017,
      "죠": 2018,
      "주": 2019,
      "죽": 2020,
      "중": 2021,
      "즈": 2022,
      "즘": 2023,
      "지": 2024,
      "직": 2025,
      "징": 2026,
      "차": 2027,
      "참": 2028,
      "천": 2029,
      "철": 2030,
      "청": 2031,
      "체": 2032,
      "총": 2033,
      "축": 2034,
      "치": 2035,
      "친": 2036,
      "칠": 2037,
      "카": 2038,
      "칸": 2039,
      "커": 2040,
      "코": 2041,
      "쿄": 2042,
      "크": 2043,
      "키": 2044,
      "탄": 2045,
      "탕": 2046,
      "터": 2047,
      "토": 2048,
      "투": 2049,
      "트": 2050,
      "특": 2051,
      "티": 2052,
      "파": 2053,
      "팔": 2054,
      "페": 2055,
      "평": 2056,
      "폐": 2057,
      "포": 2058,
      "프": 2059,
      "피": 2060,
      "하": 2061,
      "한": 2062,
      "할": 2063,
      "합": 2064,
      "해": 2065,
      "향": 2066,
      "헌": 2067,
      "현": 2068,
      "형": 2069,
      "호": 2070,
      "혼": 2071,
      "홉": 2072,
      "화": 2073,
      "활": 2074,
      "흔": 2075,
      "희": 2076,
      "히": 2077,
      "ﷲ": 2078,
      "ﷺ": 2079,
      "ﺀ": 2080,
      "ﺍ": 2081,
      "ﺎ": 2082,
      "ﺏ": 2083,
      "ﺐ": 2084,
      "ﺑ": 2085,
      "ﺞ": 2086,
      "ﺡ": 2087,
      "ﺩ": 2088,
      "ﺮ": 2089,
      "ﺯ": 2090,
      "ﺷ": 2091,
      "ﺼ": 2092,
      "ﺽ": 2093,
      "ﻄ": 2094,
      "ﻋ": 2095,
      "ﻓ": 2096,
      "ﻗ": 2097,
      "ﻟ": 2098,
      "ﻠ": 2099,
      "ﻤ": 2100,
      "ﻥ": 2101,
      "ﻧ": 2102,
      "ﻬ": 2103,
      "ﻲ": 2104,
      "ﻳ": 2105,
      "ﻴ": 2106,
      "ｚ": 2107,
      "𐌌": 2108,
      "𐌐": 2109,
      "𐌑": 2110,
      "𐌚": 2111,
      "𐎢": 2112,
      "𐎤": 2113,
      "𐎽": 2114,
      "𐏁": 2115,
      "𐤀": 2116,
      "𐤁": 2117,
      "𐤃": 2118,
      "𐤊": 2119,
      "𐤋": 2120,
      "𐤌": 2121,
      "𐤍": 2122,
      "𐤏": 2123,
      "𐤔": 2124,
      "𐦡": 2125,
      "𐦲": 2126,
      "𐦴": 2127,
      "𐦷": 2128,
      "𒄀": 2129,
      "𒅗": 2130,
      "𒈾": 2131,
      "𒌷": 2132,
      "𓅓": 2133,
      "𓅖": 2134,
      "𓆎": 2135,
      "𓇌": 2136,
      "𓊖": 2137,
      "𓎡": 2138,
      "𓏏": 2139,
      "𓏛": 2140,
      "𝘢": 2141,
      "𝘦": 2142,
      "𝘪": 2143,
      "𝘭": 2144,
      "𝘰": 2145,
      "𝘱": 2146,
      "𞤢": 2147,
      "𞤣": 2148,
      "𞤤": 2149,
      "𞤦": 2150,
      "𞤪": 2151,
      "𞤫": 2152,
      "𞤭": 2153,
      "𞤳": 2154,
      "𞤴": 2155,
      "𞤵": 2156,
      "𞤷": 2157,
      "𞤼": 2158,
      "an": 2159,
      "in": 2160,
      "ar": 2161,
      "wa": 2162,
      "on": 2163,
      "er": 2164,
      "ti": 2165,
      "ma": 2166,
      "ka": 2167,
      "en": 2168,
      "le": 2169,
      "da": 2170,
      "ya": 2171,
      "ta": 2172,
      "un": 2173,
      "la": 2174,
      "li": 2175,
      "es": 2176,
      "is": 2177,
      "ba": 2178,
      "or": 2179,
      "th": 2180,
      "na": 2181,
      "de": 2182,
      "ku": 2183,
      "sa": 2184,
      "ha": 2185,
      "ni": 2186,
      "to": 2187,
      "re": 2188,
      "si": 2189,
      "እን": 2190,
      "ki": 2191,
      "te": 2192,
      "sh": 2193,
      "ur": 2194,
      "the": 2195,
      "di": 2196,
      "bi": 2197,
      "ko": 2198,
      "mi": 2199,
      "ch": 2200,
      "ga": 2201,
      "ri": 2202,
      "lo": 2203,
      "se": 2204,
      "ምን": 2205,
      "ra": 2206,
      "ara": 2207,
      "al": 2208,
      "ይም": 2209,
      "of": 2210,
      "won": 2211,
      "om": 2212,
      "ብር": 2213,
      "ምር": 2214,
      "ci": 2215,
      "ce": 2216,
      "su": 2217,
      "ke": 2218,
      "ስት": 2219,
      "za": 2220,
      "fi": 2221,
      "me": 2222,
      "ji": 2223,
      "ስል": 2224,
      "pa": 2225,
      "ህን": 2226,
      "ብት": 2227,
      "be": 2228,
      "ana": 2229,
      "mu": 2230,
      "ro": 2231,
      "and": 2232,
      "tu": 2233,
      "lu": 2234,
      "ne": 2235,
      "po": 2236,
      "ይን": 2237,
      "mo": 2238,
      "hi": 2239,
      "እንድ": 2240,
      "ent": 2241,
      "ግር": 2242,
      "ንው": 2243,
      "ing": 2244,
      "ani": 2245,
      "ብል": 2246,
      "ይት": 2247,
      "tion": 2248,
      "je": 2249,
      "pe": 2250,
      "ari": 2251,
      "ድር": 2252,
      "ይእ": 2253,
      "ja": 2254,
      "fa": 2255,
      "du": 2256,
      "qu": 2257,
      "ልት": 2258,
      "awon": 2259,
      "ትር": 2260,
      "bo": 2261,
      "ye": 2262,
      "so": 2263,
      "ge": 2264,
      "st": 2265,
      "eri": 2266,
      "bu": 2267,
      "ስር": 2268,
      "gi": 2269,
      "ere": 2270,
      "kin": 2271,
      "ንት": 2272,
      "ልም": 2273,
      "vi": 2274,
      "kan": 2275,
      "እም": 2276,
      "gu": 2277,
      "jo": 2278,
      "tan": 2279,
      "am": 2280,
      "ክል": 2281,
      "ina": 2282,
      "ችው": 2283,
      "kar": 2284,
      "yan": 2285,
      "au": 2286,
      "zi": 2287,
      "ክት": 2288,
      "kwa": 2289,
      "ori": 2290,
      "are": 2291,
      "co": 2292,
      "et": 2293,
      "les": 2294,
      "yi": 2295,
      "ve": 2296,
      "dun": 2297,
      "wan": 2298,
      "go": 2299,
      "do": 2300,
      "hu": 2301,
      "ca": 2302,
      "yo": 2303,
      "ብም": 2304,
      "she": 2305,
      "ju": 2306,
      "ልይ": 2307,
      "dan": 2308,
      "ጥር": 2309,
      "ter": 2310,
      "san": 2311,
      "ግም": 2312,
      "ውን": 2313,
      "ምስል": 2314,
      "ትን": 2315,
      "ውች": 2316,
      "wo": 2317,
      "des": 2318,
      "gba": 2319,
      "shi": 2320,
      "no": 2321,
      "we": 2322,
      "as": 2323,
      "pi": 2324,
      "wi": 2325,
      "ይል": 2326,
      "con": 2327,
      "ክር": 2328,
      "ini": 2329,
      "yar": 2330,
      "እል": 2331,
      "ts": 2332,
      "ግን": 2333,
      "ati": 2334,
      "res": 2335,
      "mar": 2336,
      "ran": 2337,
      "ስን": 2338,
      "kati": 2339,
      "kuma": 2340,
      "እር": 2341,
      "man": 2342,
      "ንግ": 2343,
      "us": 2344,
      "par": 2345,
      "ali": 2346,
      "at": 2347,
      "for": 2348,
      "ብዝ": 2349,
      "ንብር": 2350,
      "ግል": 2351,
      "he": 2352,
      "ግዝ": 2353,
      "fe": 2354,
      "ፍር": 2355,
      "fu": 2356,
      "que": 2357,
      "ይው": 2358,
      "ይስ": 2359,
      "ly": 2360,
      "ብእ": 2361,
      "ine": 2362,
      "ment": 2363,
      "toka": 2364,
      "com": 2365,
      "ru": 2366,
      "ban": 2367,
      "ውድ": 2368,
      "yin": 2369,
      "ver": 2370,
      "እስ": 2371,
      "ይህ": 2372,
      "cha": 2373,
      "ምል": 2374,
      "ll": 2375,
      "ise": 2376,
      "war": 2377,
      "ho": 2378,
      "it": 2379,
      "har": 2380,
      "est": 2381,
      "ile": 2382,
      "waka": 2383,
      "il": 2384,
      "ፍል": 2385,
      "ድም": 2386,
      "ውስ": 2387,
      "gbe": 2388,
      "nin": 2389,
      "ስም": 2390,
      "wali": 2391,
      "ህር": 2392,
      "kun": 2393,
      "ግኝ": 2394,
      "af": 2395,
      "ቅር": 2396,
      "fun": 2397,
      "ፍት": 2398,
      "ውል": 2399,
      "kara": 2400,
      "chi": 2401,
      "kuwa": 2402,
      "ትይ": 2403,
      "tun": 2404,
      "ቅን": 2405,
      "ልል": 2406,
      "mba": 2407,
      "oni": 2408,
      "ክን": 2409,
      "ብብ": 2410,
      "pro": 2411,
      "ber": 2412,
      "tar": 2413,
      "ውር": 2414,
      "uni": 2415,
      "lan": 2416,
      "daga": 2417,
      "cikin": 2418,
      "son": 2419,
      "ad": 2420,
      "ai": 2421,
      "isi": 2422,
      "odun": 2423,
      "ይእምር": 2424,
      "pu": 2425,
      "ግብ": 2426,
      "sun": 2427,
      "cin": 2428,
      "ድን": 2429,
      "ትርግም": 2430,
      "ምት": 2431,
      "katika": 2432,
      "zo": 2433,
      "ty": 2434,
      "ጥቅ": 2435,
      "mwaka": 2436,
      "ede": 2437,
      "gh": 2438,
      "ይር": 2439,
      "ትይጵ": 2440,
      "yu": 2441,
      "el": 2442,
      "eni": 2443,
      "tsa": 2444,
      "ግድ": 2445,
      "his": 2446,
      "ala": 2447,
      "ስብ": 2448,
      "um": 2449,
      "ዝር": 2450,
      "ይእምርኝ": 2451,
      "aka": 2452,
      "far": 2453,
      "mai": 2454,
      "ted": 2455,
      "gun": 2456,
      "per": 2457,
      "ይህን": 2458,
      "omo": 2459,
      "ውቅ": 2460,
      "sar": 2461,
      "ct": 2462,
      "cu": 2463,
      "ili": 2464,
      "jeri": 2465,
      "ዝምን": 2466,
      "ስው": 2467,
      "rin": 2468,
      "ክም": 2469,
      "sha": 2470,
      "ol": 2471,
      "jeriya": 2472,
      "ውስጥ": 2473,
      "don": 2474,
      "gbo": 2475,
      "ትይጵይ": 2476,
      "itoka": 2477,
      "ትል": 2478,
      "lati": 2479,
      "ጅምር": 2480,
      "ኝው": 2481,
      "shekar": 2482,
      "lin": 2483,
      "ችን": 2484,
      "itokasi": 2485,
      "zu": 2486,
      "ada": 2487,
      "pin": 2488,
      "tes": 2489,
      "wen": 2490,
      "ces": 2491,
      "bar": 2492,
      "ክትም": 2493,
      "ninu": 2494,
      "hai": 2495,
      "ብ0": 2496,
      "ou": 2497,
      "ንድ": 2498,
      "ene": 2499,
      "nan": 2500,
      "ድስ": 2501,
      "orile": 2502,
      "ris": 2503,
      "ጥን": 2504,
      "han": 2505,
      "mp": 2506,
      "ጥል": 2507,
      "fin": 2508,
      "ዝህ": 2509,
      "ita": 2510,
      "bin": 2511,
      "ጽህ": 2512,
      "can": 2513,
      "ምንግ": 2514,
      "ቅል": 2515,
      "afri": 2516,
      "by": 2517,
      "oro": 2518,
      "ህል": 2519,
      "fo": 2520,
      "din": 2521,
      "mata": 2522,
      "gan": 2523,
      "was": 2524,
      "une": 2525,
      "iya": 2526,
      "rom": 2527,
      "ምድ": 2528,
      "mon": 2529,
      "der": 2530,
      "ስህን": 2531,
      "ድርስ": 2532,
      "ap": 2533,
      "sta": 2534,
      "gb": 2535,
      "ria": 2536,
      "ንግስ": 2537,
      "እምት": 2538,
      "ten": 2539,
      "shekara": 2540,
      "min": 2541,
      "olo": 2542,
      "shin": 2543,
      "ምንግስት": 2544,
      "ojo": 2545,
      "lle": 2546,
      "olu": 2547,
      "ልጅ": 2548,
      "ex": 2549,
      "che": 2550,
      "wana": 2551,
      "ትም": 2552,
      "እክል": 2553,
      "ብን": 2554,
      "ir": 2555,
      "ይዝ": 2556,
      "ፕር": 2557,
      "ድርግ": 2558,
      "shekarar": 2559,
      "ትርክ": 2560,
      "os": 2561,
      "bel": 2562,
      "wanda": 2563,
      "ብስ": 2564,
      "ibi": 2565,
      "nai": 2566,
      "ed": 2567,
      "ele": 2568,
      "lar": 2569,
      "ውይም": 2570,
      "ilu": 2571,
      "najeriya": 2572,
      "እስክ": 2573,
      "እት": 2574,
      "gra": 2575,
      "እይ": 2576,
      "cal": 2577,
      "ክፍል": 2578,
      "ብህር": 2579,
      "yana": 2580,
      "dis": 2581,
      "gar": 2582,
      "እግር": 2583,
      "tions": 2584,
      "kutoka": 2585,
      "ኍል": 2586,
      "orileede": 2587,
      "fan": 2588,
      "tin": 2589,
      "asa": 2590,
      "ac": 2591,
      "naa": 2592,
      "ph": 2593,
      "ck": 2594,
      "ther": 2595,
      "liwa": 2596,
      "lla": 2597,
      "ab": 2598,
      "ስይ": 2599,
      "ብይ": 2600,
      "with": 2601,
      "qui": 2602,
      "asi": 2603,
      "ምስር": 2604,
      "ameri": 2605,
      "por": 2606,
      "kama": 2607,
      "uri": 2608,
      "lia": 2609,
      "እእ": 2610,
      "ምስ": 2611,
      "tra": 2612,
      "ብኍል": 2613,
      "ይቅ": 2614,
      "dans": 2615,
      "ድል": 2616,
      "pre": 2617,
      "mis": 2618,
      "tare": 2619,
      "ክስ": 2620,
      "cor": 2621,
      "ትርትን": 2622,
      "jihar": 2623,
      "naiji": 2624,
      "ትው": 2625,
      "ድግም": 2626,
      "naijiria": 2627,
      "pen": 2628,
      "tur": 2629,
      "ዝብ": 2630,
      "pres": 2631,
      "idi": 2632,
      "ld": 2633,
      "isa": 2634,
      "pan": 2635,
      "va": 2636,
      "ንግር": 2637,
      "gen": 2638,
      "ጽህፍ": 2639,
      "mes": 2640,
      "matsa": 2641,
      "ire": 2642,
      "ጥንት": 2643,
      "men": 2644,
      "shu": 2645,
      "ariki": 2646,
      "ይልት": 2647,
      "sur": 2648,
      "tt": 2649,
      "ይምን": 2650,
      "ብቅ": 2651,
      "ipin": 2652,
      "kuu": 2653,
      "maka": 2654,
      "bir": 2655,
      "ingi": 2656,
      "nchi": 2657,
      "osu": 2658,
      "maa": 2659,
      "ጥት": 2660,
      "lon": 2661,
      "kon": 2662,
      "ut": 2663,
      "wor": 2664,
      "ውት": 2665,
      "ers": 2666,
      "ania": 2667,
      "ቅስ": 2668,
      "ልው": 2669,
      "zar": 2670,
      "eko": 2671,
      "walio": 2672,
      "ste": 2673,
      "mare": 2674,
      "zuwa": 2675,
      "fran": 2676,
      "ክ0": 2677,
      "ሽን": 2678,
      "from": 2679,
      "wasan": 2680,
      "እልት": 2681,
      "እስት": 2682,
      "pia": 2683,
      "fir": 2684,
      "ipinle": 2685,
      "sti": 2686,
      "one": 2687,
      "mma": 2688,
      "baada": 2689,
      "wani": 2690,
      "ds": 2691,
      "ry": 2692,
      "den": 2693,
      "bab": 2694,
      "land": 2695,
      "vo": 2696,
      "mb": 2697,
      "ant": 2698,
      "ህድ": 2699,
      "ችውን": 2700,
      "that": 2701,
      "gwa": 2702,
      "ይች": 2703,
      "urs": 2704,
      "ቅም": 2705,
      "ako": 2706,
      "nobel": 2707,
      "gaba": 2708,
      "ፍን": 2709,
      "kana": 2710,
      "tro": 2711,
      "matsayin": 2712,
      "ser": 2713,
      "ክርስት": 2714,
      "zaliwa": 2715,
      "ህልት": 2716,
      "pour": 2717,
      "ren": 2718,
      "ህም": 2719,
      "wenye": 2720,
      "fer": 2721,
      "ture": 2722,
      "moja": 2723,
      "እክልብ": 2724,
      "watan": 2725,
      "ይእትይጵይ": 2726,
      "plu": 2727,
      "oru": 2728,
      "ction": 2729,
      "amba": 2730,
      "ክእ": 2731,
      "ida": 2732,
      "sy": 2733,
      "tic": 2734,
      "cent": 2735,
      "ምልት": 2736,
      "tri": 2737,
      "jan": 2738,
      "aye": 2739,
      "afrika": 2740,
      "mer": 2741,
      "mana": 2742,
      "nu": 2743,
      "ii": 2744,
      "ger": 2745,
      "cho": 2746,
      "yake": 2747,
      "sion": 2748,
      "ron": 2749,
      "mas": 2750,
      "ልክ": 2751,
      "jin": 2752,
      "ጥም": 2753,
      "kani": 2754,
      "ጅር": 2755,
      "tori": 2756,
      "bli": 2757,
      "ይንት": 2758,
      "ብድ": 2759,
      "sin": 2760,
      "ዝን": 2761,
      "car": 2762,
      "jami": 2763,
      "ጭር": 2764,
      "ቍን": 2765,
      "suka": 2766,
      "sance": 2767,
      "hun": 2768,
      "hin": 2769,
      "እንግል": 2770,
      "ken": 2771,
      "tana": 2772,
      "dar": 2773,
      "ቅጥ": 2774,
      "bayan": 2775,
      "una": 2776,
      "ux": 2777,
      "ok": 2778,
      "ses": 2779,
      "new": 2780,
      "ብች": 2781,
      "ውልድ": 2782,
      "gre": 2783,
      "ple": 2784,
      "ques": 2785,
      "ast": 2786,
      "inter": 2787,
      "mbo": 2788,
      "risto": 2789,
      "ale": 2790,
      "orin": 2791,
      "asar": 2792,
      "እልም": 2793,
      "mor": 2794,
      "lli": 2795,
      "ቍንቍ": 2796,
      "kasa": 2797,
      "ድግ": 2798,
      "zama": 2799,
      "ero": 2800,
      "igba": 2801,
      "isha": 2802,
      "ብርት": 2803,
      "geri": 2804,
      "nation": 2805,
      "gha": 2806,
      "mia": 2807,
      "ijo": 2808,
      "mun": 2809,
      "pla": 2810,
      "mili": 2811,
      "agba": 2812,
      "ƙasar": 2813,
      "ቅጥር": 2814,
      "ልን": 2815,
      "ble": 2816,
      "loka": 2817,
      "ton": 2818,
      "እክ": 2819,
      "whi": 2820,
      "እንግልዝ": 2821,
      "jer": 2822,
      "gin": 2823,
      "ven": 2824,
      "waliozaliwa": 2825,
      "uru": 2826,
      "tre": 2827,
      "yen": 2828,
      "ምክ": 2829,
      "vya": 2830,
      "abu": 2831,
      "papa": 2832,
      "ben": 2833,
      "pelu": 2834,
      "ፍጥር": 2835,
      "tele": 2836,
      "nor": 2837,
      "phi": 2838,
      "ms": 2839,
      "ይብል": 2840,
      "kristo": 2841,
      "waliof": 2842,
      "amerika": 2843,
      "wu": 2844,
      "ges": 2845,
      "tuzo": 2846,
      "ይምግኝ": 2847,
      "marekani": 2848,
      "kasance": 2849,
      "agbe": 2850,
      "ona": 2851,
      "fara": 2852,
      "waliofariki": 2853,
      "cre": 2854,
      "hii": 2855,
      "osere": 2856,
      "ze": 2857,
      "bri": 2858,
      "tta": 2859,
      "sai": 2860,
      "od": 2861,
      "mber": 2862,
      "ary": 2863,
      "bwa": 2864,
      "zarta": 2865,
      "bia": 2866,
      "ብልው": 2867,
      "vu": 2868,
      "mutan": 2869,
      "ንችው": 2870,
      "use": 2871,
      "ig": 2872,
      "ይልትትርግም": 2873,
      "dia": 2874,
      "manazarta": 2875,
      "ስትር": 2876,
      "bun": 2877,
      "mani": 2878,
      "bra": 2879,
      "gaban": 2880,
      "len": 2881,
      "ishi": 2882,
      "ስውች": 2883,
      "nigeri": 2884,
      "sini": 2885,
      "mji": 2886,
      "ብዝህ": 2887,
      "lugha": 2888,
      "ውይን": 2889,
      "sou": 2890,
      "kis": 2891,
      "matu": 2892,
      "ብህ": 2893,
      "kubwa": 2894,
      "wn": 2895,
      "husu": 2896,
      "ምድብ": 2897,
      "ence": 2898,
      "ንግስት": 2899,
      "plus": 2900,
      "esi": 2901,
      "gbon": 2902,
      "yii": 2903,
      "shindi": 2904,
      "arin": 2905,
      "up": 2906,
      "ese": 2907,
      "ጥቅም": 2908,
      "bor": 2909,
      "farko": 2910,
      "ƙa": 2911,
      "llon": 2912,
      "tor": 2913,
      "እዝ": 2914,
      "lor": 2915,
      "እምር": 2916,
      "eniyan": 2917,
      "ንር": 2918,
      "nom": 2919,
      "ation": 2920,
      "bur": 2921,
      "hadi": 2922,
      "ድት": 2923,
      "tari": 2924,
      "king": 2925,
      "hali": 2926,
      "ziki": 2927,
      "ranar": 2928,
      "cri": 2929,
      "duniya": 2930,
      "ls": 2931,
      "suna": 2932,
      "እው": 2933,
      "karne": 2934,
      "yya": 2935,
      "lai": 2936,
      "eneo": 2937,
      "tabi": 2938,
      "watu": 2939,
      "masu": 2940,
      "tai": 2941,
      "kai": 2942,
      "lokacin": 2943,
      "uro": 2944,
      "ምንት": 2945,
      "thi": 2946,
      "lori": 2947,
      "gege": 2948,
      "mshindi": 2949,
      "ins": 2950,
      "dara": 2951,
      "fal": 2952,
      "babban": 2953,
      "ክዝ": 2954,
      "univer": 2955,
      "ys": 2956,
      "pas": 2957,
      "ልቅ": 2958,
      "gy": 2959,
      "kio": 2960,
      "ijoba": 2961,
      "shen": 2962,
      "ህዝብ": 2963,
      "birnin": 2964,
      "ግስ": 2965,
      "pri": 2966,
      "oba": 2967,
      "ጭምር": 2968,
      "yau": 2969,
      "ይክ": 2970,
      "soci": 2971,
      "wata": 2972,
      "ogun": 2973,
      "publi": 2974,
      "parti": 2975,
      "ny": 2976,
      "kasar": 2977,
      "ፍርን": 2978,
      "ግት": 2979,
      "und": 2980,
      "national": 2981,
      "bre": 2982,
      "dha": 2983,
      "ave": 2984,
      "my": 2985,
      "ɗan": 2986,
      "haife": 2987,
      "ssi": 2988,
      "cer": 2989,
      "tanz": 2990,
      "yawan": 2991,
      "kum": 2992,
      "ርስ": 2993,
      "ura": 2994,
      "ግብር": 2995,
      "እብ": 2996,
      "aux": 2997,
      "ምጥ": 2998,
      "orun": 2999,
      "ይግኝ": 3000,
      "tanzania": 3001,
      "ውም": 3002,
      "ይምል": 3003,
      "dom": 3004,
      "giyar": 3005,
      "kini": 3006,
      "eyi": 3007,
      "biyu": 3008,
      "ህርት": 3009,
      "tara": 3010,
      "ህንም": 3011,
      "chini": 3012,
      "ግዝት": 3013,
      "chu": 3014,
      "nigba": 3015,
      "bon": 3016,
      "iwe": 3017,
      "tal": 3018,
      "kwai": 3019,
      "gro": 3020,
      "chan": 3021,
      "mna": 3022,
      "gua": 3023,
      "ምስርት": 3024,
      "ጅምርይ": 3025,
      "avec": 3026,
      "bara": 3027,
      "sul": 3028,
      "mbali": 3029,
      "alikuwa": 3030,
      "matukio": 3031,
      "visi": 3032,
      "shugaban": 3033,
      "universi": 3034,
      "ምክን": 3035,
      "ክዝህ": 3036,
      "ክፍት": 3037,
      "ata": 3038,
      "hari": 3039,
      "nes": 3040,
      "mul": 3041,
      "እርብ": 3042,
      "ድርጅ": 3043,
      "val": 3044,
      "jina": 3045,
      "ght": 3046,
      "uli": 3047,
      "ves": 3048,
      "cy": 3049,
      "ቅድም": 3050,
      "karan": 3051,
      "tive": 3052,
      "bere": 3053,
      "ንትን": 3054,
      "which": 3055,
      "faran": 3056,
      "this": 3057,
      "ስልም": 3058,
      "ens": 3059,
      "siku": 3060,
      "ard": 3061,
      "histori": 3062,
      "usa": 3063,
      "laya": 3064,
      "pr": 3065,
      "ፕን": 3066,
      "ምዝ": 3067,
      "aiki": 3068,
      "xi": 3069,
      "ይምት": 3070,
      "እስር": 3071,
      "እእእ": 3072,
      "her": 3073,
      "wannan": 3074,
      "tho": 3075,
      "jen": 3076,
      "duni": 3077,
      "mwana": 3078,
      "ውቅት": 3079,
      "kari": 3080,
      "mw": 3081,
      "sont": 3082,
      "ɗa": 3083,
      "opo": 3084,
      "ልች": 3085,
      "tawa": 3086,
      "gir": 3087,
      "uti": 3088,
      "gine": 3089,
      "kali": 3090,
      "ፍስ": 3091,
      "egbe": 3092,
      "makala": 3093,
      "kwenye": 3094,
      "እንግልዝኝ": 3095,
      "ይምር": 3096,
      "lara": 3097,
      "ƙwa": 3098,
      "mutu": 3099,
      "mara": 3100,
      "ዝም": 3101,
      "kwan": 3102,
      "ake": 3103,
      "hen": 3104,
      "kuna": 3105,
      "him": 3106,
      "hn": 3107,
      "ዝንድ": 3108,
      "ul": 3109,
      "ቅድስ": 3110,
      "spe": 3111,
      "ብሽ": 3112,
      "ereza": 3113,
      "waki": 3114,
      "ting": 3115,
      "ስስት": 3116,
      "እይንት": 3117,
      "ጽፍ": 3118,
      "ክርስትይን": 3119,
      "ቅድ": 3120,
      "ome": 3121,
      "sep": 3122,
      "ingereza": 3123,
      "mutane": 3124,
      "tte": 3125,
      "dau": 3126,
      "cul": 3127,
      "ንስ": 3128,
      "inda": 3129,
      "iso": 3130,
      "vyo": 3131,
      "cewa": 3132,
      "ding": 3133,
      "እድ": 3134,
      "ብልይ": 3135,
      "its": 3136,
      "ak": 3137,
      "ami": 3138,
      "ክው": 3139,
      "pon": 3140,
      "ይንብር": 3141,
      "were": 3142,
      "nijeriya": 3143,
      "ህይል": 3144,
      "kafa": 3145,
      "tique": 3146,
      "university": 3147,
      "pata": 3148,
      "ብዝምን": 3149,
      "nigeria": 3150,
      "gue": 3151,
      "ብእትይጵይ": 3152,
      "ቅጥጥር": 3153,
      "ojoibi": 3154,
      "poli": 3155,
      "ish": 3156,
      "oc": 3157,
      "id": 3158,
      "fon": 3159,
      "fil": 3160,
      "lement": 3161,
      "nipa": 3162,
      "fasi": 3163,
      "ade": 3164,
      "sara": 3165,
      "abo": 3166,
      "ስጥ": 3167,
      "ኝች": 3168,
      "tran": 3169,
      "lakini": 3170,
      "ይእር": 3171,
      "mpi": 3172,
      "sile": 3173,
      "ትብል": 3174,
      "keji": 3175,
      "ይምይ": 3176,
      "med": 3177,
      "iba": 3178,
      "inahusu": 3179,
      "ምክክል": 3180,
      "kusini": 3181,
      "ግድም": 3182,
      "zan": 3183,
      "ክብ": 3184,
      "int": 3185,
      "mkuu": 3186,
      "sana": 3187,
      "ትክት": 3188,
      "ምልክት": 3189,
      "እንድህም": 3190,
      "ans": 3191,
      "sed": 3192,
      "eto": 3193,
      "samu": 3194,
      "lam": 3195,
      "eshi": 3196,
      "afir": 3197,
      "ker": 3198,
      "ይትር": 3199,
      "seri": 3200,
      "faransa": 3201,
      "afirka": 3202,
      "fre": 3203,
      "cla": 3204,
      "ብትን": 3205,
      "first": 3206,
      "john": 3207,
      "ola": 3208,
      "apa": 3209,
      "wake": 3210,
      "ይድ": 3211,
      "ትልቅ": 3212,
      "plan": 3213,
      "agbegbe": 3214,
      "ምው": 3215,
      "sen": 3216,
      "ded": 3217,
      "hemu": 3218,
      "stra": 3219,
      "yankin": 3220,
      "sis": 3221,
      "oun": 3222,
      "ments": 3223,
      "julo": 3224,
      "ስፍ": 3225,
      "ውችን": 3226,
      "rayu": 3227,
      "maji": 3228,
      "akoko": 3229,
      "ይብ": 3230,
      "minis": 3231,
      "roma": 3232,
      "ohun": 3233,
      "lamu": 3234,
      "d0": 3235,
      "ምህን": 3236,
      "clu": 3237,
      "daya": 3238,
      "baba": 3239,
      "but": 3240,
      "ምህ": 3241,
      "ህግር": 3242,
      "ቅት": 3243,
      "kamar": 3244,
      "indi": 3245,
      "ስርት": 3246,
      "ይችልል": 3247,
      "makaran": 3248,
      "anci": 3249,
      "ግብጽ": 3250,
      "እይት": 3251,
      "sehemu": 3252,
      "ውጥ": 3253,
      "ay": 3254,
      "lowo": 3255,
      "ብልት": 3256,
      "mwa": 3257,
      "mita": 3258,
      "እጅ": 3259,
      "low": 3260,
      "arewa": 3261,
      "nje": 3262,
      "saba": 3263,
      "mari": 3264,
      "had": 3265,
      "bro": 3266,
      "van": 3267,
      "ƙwallon": 3268,
      "ስስ": 3269,
      "other": 3270,
      "may": 3271,
      "እጽ": 3272,
      "ይሽ": 3273,
      "bru": 3274,
      "wasu": 3275,
      "oko": 3276,
      "ምድር": 3277,
      "cro": 3278,
      "duk": 3279,
      "kam": 3280,
      "ህንት": 3281,
      "lea": 3282,
      "uran": 3283,
      "እድስ": 3284,
      "jamiar": 3285,
      "kale": 3286,
      "vie": 3287,
      "ምስት": 3288,
      "እርት": 3289,
      "dake": 3290,
      "has": 3291,
      "ይጥ": 3292,
      "hasa": 3293,
      "ors": 3294,
      "እፍ": 3295,
      "dur": 3296,
      "እብብ": 3297,
      "ore": 3298,
      "umani": 3299,
      "binrin": 3300,
      "ይልው": 3301,
      "ግብት": 3302,
      "ድው": 3303,
      "ምርት": 3304,
      "እትይጵይ": 3305,
      "ምይ": 3306,
      "ግጅ": 3307,
      "die": 3308,
      "jerumani": 3309,
      "imo": 3310,
      "ፕርት": 3311,
      "aki": 3312,
      "dari": 3313,
      "awar": 3314,
      "also": 3315,
      "pamoja": 3316,
      "dio": 3317,
      "cs": 3318,
      "ችል": 3319,
      "ውሽ": 3320,
      "ድስት": 3321,
      "liki": 3322,
      "comme": 3323,
      "falme": 3324,
      "ዝድ": 3325,
      "cen": 3326,
      "not": 3327,
      "hon": 3328,
      "char": 3329,
      "omi": 3330,
      "katifu": 3331,
      "dda": 3332,
      "op": 3333,
      "ef": 3334,
      "yoru": 3335,
      "ልንድ": 3336,
      "እጥ": 3337,
      "ጭርሽ": 3338,
      "anti": 3339,
      "fani": 3340,
      "tant": 3341,
      "oruko": 3342,
      "bk": 3343,
      "premi": 3344,
      "ምንጭ": 3345,
      "እምትት": 3346,
      "wakati": 3347,
      "prin": 3348,
      "ቅርብ": 3349,
      "wakazi": 3350,
      "ato": 3351,
      "cra": 3352,
      "fina": 3353,
      "mto": 3354,
      "ska": 3355,
      "ጥርንት": 3356,
      "bila": 3357,
      "jamaa": 3358,
      "yoruba": 3359,
      "elle": 3360,
      "gener": 3361,
      "gbogbo": 3362,
      "እብር": 3363,
      "dai": 3364,
      "ons": 3365,
      "sau": 3366,
      "tarehe": 3367,
      "zina": 3368,
      "ved": 3369,
      "gne": 3370,
      "dy": 3371,
      "ungu": 3372,
      "phy": 3373,
      "ang": 3374,
      "aikin": 3375,
      "vita": 3376,
      "cation": 3377,
      "kere": 3378,
      "ይፍ": 3379,
      "ምክንይት": 3380,
      "leyin": 3381,
      "selu": 3382,
      "mala": 3383,
      "huku": 3384,
      "coun": 3385,
      "loni": 3386,
      "janu": 3387,
      "miaka": 3388,
      "mafi": 3389,
      "ምንም": 3390,
      "ልይይ": 3391,
      "aare": 3392,
      "anan": 3393,
      "እድርግ": 3394,
      "yyar": 3395,
      "popu": 3396,
      "bili": 3397,
      "nove": 3398,
      "bai": 3399,
      "እንት": 3400,
      "ስርው": 3401,
      "ግዝእ": 3402,
      "meta": 3403,
      "ምጽህፍ": 3404,
      "muha": 3405,
      "ear": 3406,
      "peri": 3407,
      "ss": 3408,
      "dif": 3409,
      "እክብብ": 3410,
      "ህት": 3411,
      "እንድት": 3412,
      "kwanza": 3413,
      "cou": 3414,
      "እብት": 3415,
      "ally": 3416,
      "ag": 3417,
      "musi": 3418,
      "ምልስ": 3419,
      "kasu": 3420,
      "ልስ": 3421,
      "gwamna": 3422,
      "bn": 3423,
      "ልልች": 3424,
      "arun": 3425,
      "ክፍ": 3426,
      "ƙafa": 3427,
      "ይግኝል": 3428,
      "ቅጥል": 3429,
      "ንን": 3430,
      "stru": 3431,
      "world": 3432,
      "trans": 3433,
      "scho": 3434,
      "pande": 3435,
      "ግዝእብህር": 3436,
      "uve": 3437,
      "city": 3438,
      "produ": 3439,
      "owo": 3440,
      "led": 3441,
      "garin": 3442,
      "bii": 3443,
      "mais": 3444,
      "zili": 3445,
      "እውር": 3446,
      "ይብልል": 3447,
      "ስልጥን": 3448,
      "sise": 3449,
      "kawa": 3450,
      "ጅርምን": 3451,
      "iko": 3452,
      "ይስር": 3453,
      "ይንር": 3454,
      "kungiyar": 3455,
      "gasar": 3456,
      "port": 3457,
      "ትምህርት": 3458,
      "እርስ": 3459,
      "bay": 3460,
      "kea": 3461,
      "ስፍር": 3462,
      "ብእንድ": 3463,
      "ingila": 3464,
      "lie": 3465,
      "maja": 3466,
      "iran": 3467,
      "gom": 3468,
      "hara": 3469,
      "historia": 3470,
      "school": 3471,
      "velo": 3472,
      "regi": 3473,
      "rand": 3474,
      "uis": 3475,
      "እቅጥጥር": 3476,
      "state": 3477,
      "tani": 3478,
      "dani": 3479,
      "stitu": 3480,
      "vent": 3481,
      "septe": 3482,
      "siya": 3483,
      "ƙasa": 3484,
      "ምልክ": 3485,
      "mash": 3486,
      "ብፍት": 3487,
      "ግልጽ": 3488,
      "musul": 3489,
      "tter": 3490,
      "ፍርንስይ": 3491,
      "ይውት": 3492,
      "htt": 3493,
      "ብዝት": 3494,
      "ክፍትኝ": 3495,
      "ogra": 3496,
      "ክብር": 3497,
      "jade": 3498,
      "እንጅ": 3499,
      "ars": 3500,
      "mal": 3501,
      "eti": 3502,
      "ite": 3503,
      "እቅ": 3504,
      "ofin": 3505,
      "see": 3506,
      "who": 3507,
      "ውህ": 3508,
      "ድይ": 3509,
      "ግርክ": 3510,
      "leo": 3511,
      "bla": 3512,
      "fici": 3513,
      "aro": 3514,
      "meji": 3515,
      "ህግ": 3516,
      "ትምር": 3517,
      "baya": 3518,
      "እይን": 3519,
      "lation": 3520,
      "akan": 3521,
      "ete": 3522,
      "haka": 3523,
      "ፍልግ": 3524,
      "eng": 3525,
      "koo": 3526,
      "all": 3527,
      "ima": 3528,
      "abi": 3529,
      "develo": 3530,
      "ሽር": 3531,
      "gas": 3532,
      "tres": 3533,
      "andishi": 3534,
      "eta": 3535,
      "ድንግ": 3536,
      "ila": 3537,
      "zini": 3538,
      "ድድር": 3539,
      "ምንግድ": 3540,
      "tangu": 3541,
      "sannan": 3542,
      "ora": 3543,
      "ይብር": 3544,
      "vol": 3545,
      "have": 3546,
      "tain": 3547,
      "entre": 3548,
      "ks": 3549,
      "ling": 3550,
      "ቅይ": 3551,
      "ጽህፍት": 3552,
      "pp": 3553,
      "እፍር": 3554,
      "ይግ": 3555,
      "teur": 3556,
      "ውንዝ": 3557,
      "ክትምች": 3558,
      "stu": 3559,
      "lili": 3560,
      "colle": 3561,
      "biyar": 3562,
      "kyau": 3563,
      "ንግስትት": 3564,
      "fim": 3565,
      "ንጽ": 3566,
      "shine": 3567,
      "oju": 3568,
      "ይትውቅ": 3569,
      "langua": 3570,
      "kno": 3571,
      "eye": 3572,
      "del": 3573,
      "yawa": 3574,
      "ክልል": 3575,
      "mta": 3576,
      "ይንስ": 3577,
      "ጥንትው": 3578,
      "wengi": 3579,
      "day": 3580,
      "ይህም": 3581,
      "rais": 3582,
      "time": 3583,
      "dogo": 3584,
      "km": 3585,
      "kudu": 3586,
      "እይስ": 3587,
      "sci": 3588,
      "ግድል": 3589,
      "ibile": 3590,
      "core": 3591,
      "part": 3592,
      "eli": 3593,
      "non": 3594,
      "mawa": 3595,
      "musa": 3596,
      "lima": 3597,
      "gos": 3598,
      "para": 3599,
      "majali": 3600,
      "ይልል": 3601,
      "euro": 3602,
      "italia": 3603,
      "febru": 3604,
      "ua": 3605,
      "cour": 3606,
      "ትች": 3607,
      "zaidi": 3608,
      "some": 3609,
      "gon": 3610,
      "im": 3611,
      "ner": 3612,
      "amma": 3613,
      "ww": 3614,
      "tam": 3615,
      "ful": 3616,
      "kaska": 3617,
      "ghana": 3618,
      "gida": 3619,
      "ous": 3620,
      "ps": 3621,
      "ጥልይን": 3622,
      "ah": 3623,
      "ure": 3624,
      "toba": 3625,
      "tawala": 3626,
      "ብትር": 3627,
      "yoyin": 3628,
      "ime": 3629,
      "dire": 3630,
      "ምም": 3631,
      "kuto": 3632,
      "fuata": 3633,
      "dre": 3634,
      "iwo": 3635,
      "ኵስ": 3636,
      "0th": 3637,
      "cle": 3638,
      "hada": 3639,
      "africa": 3640,
      "kaskazini": 3641,
      "giri": 3642,
      "ot": 3643,
      "ትውቅ": 3644,
      "uta": 3645,
      "mashariki": 3646,
      "ውርድ": 3647,
      "apri": 3648,
      "ue": 3649,
      "uku": 3650,
      "ይድር": 3651,
      "ungo": 3652,
      "yamma": 3653,
      "logi": 3654,
      "ብልን": 3655,
      "yun": 3656,
      "ብጥ": 3657,
      "nchini": 3658,
      "ƙar": 3659,
      "ስምን": 3660,
      "lopo": 3661,
      "ትቅ": 3662,
      "ipa": 3663,
      "upande": 3664,
      "hili": 3665,
      "ago": 3666,
      "ትክ": 3667,
      "kuan": 3668,
      "ክትምው": 3669,
      "ሽም": 3670,
      "gari": 3671,
      "እርግ": 3672,
      "lf": 3673,
      "mbe": 3674,
      "makarantar": 3675,
      "muhamma": 3676,
      "ler": 3677,
      "shiri": 3678,
      "jini": 3679,
      "ብትል": 3680,
      "bc": 3681,
      "imu": 3682,
      "aba": 3683,
      "tech": 3684,
      "zaji": 3685,
      "dro": 3686,
      "their": 3687,
      "ጅምርይው": 3688,
      "bisa": 3689,
      "amfani": 3690,
      "kanin": 3691,
      "imp": 3692,
      "bert": 3693,
      "act": 3694,
      "እንድም": 3695,
      "cce": 3696,
      "እንድህ": 3697,
      "aga": 3698,
      "wadan": 3699,
      "kula": 3700,
      "united": 3701,
      "fami": 3702,
      "take": 3703,
      "viungo": 3704,
      "ende": 3705,
      "ham": 3706,
      "deux": 3707,
      "ይህንስ": 3708,
      "puis": 3709,
      "syste": 3710,
      "ኝንት": 3711,
      "ስትን": 3712,
      "abin": 3713,
      "jam": 3714,
      "inu": 3715,
      "bahari": 3716,
      "after": 3717,
      "ced": 3718,
      "ይቅር": 3719,
      "ፕልት": 3720,
      "ዝርዝር": 3721,
      "ath": 3722,
      "ving": 3723,
      "koa": 3724,
      "gor": 3725,
      "huri": 3726,
      "ብብር": 3727,
      "ስርእት": 3728,
      "cam": 3729,
      "sie": 3730,
      "run": 3731,
      "lis": 3732,
      "ob": 3733,
      "posi": 3734,
      "dra": 3735,
      "ህይ": 3736,
      "ይህል": 3737,
      "shiga": 3738,
      "dini": 3739,
      "ስልል": 3740,
      "juu": 3741,
      "sama": 3742,
      "rd0": 3743,
      "cette": 3744,
      "dou": 3745,
      "geor": 3746,
      "እልቅ": 3747,
      "hausa": 3748,
      "kafin": 3749,
      "እይር": 3750,
      "ድቅ": 3751,
      "jia": 3752,
      "kenya": 3753,
      "ግልግል": 3754,
      "ሽንፍ": 3755,
      "sia": 3756,
      "secon": 3757,
      "europe": 3758,
      "ቭር": 3759,
      "ትስ": 3760,
      "dition": 3761,
      "itan": 3762,
      "ውጥት": 3763,
      "sho": 3764,
      "ብህል": 3765,
      "ጽም": 3766,
      "ዝርይ": 3767,
      "eno": 3768,
      "shekaru": 3769,
      "jir": 3770,
      "tory": 3771,
      "most": 3772,
      "ብምል": 3773,
      "ምክር": 3774,
      "sunan": 3775,
      "vers": 3776,
      "ልጅች": 3777,
      "rubu": 3778,
      "gidan": 3779,
      "ውግን": 3780,
      "amur": 3781,
      "ግኝት": 3782,
      "odo": 3783,
      "ብግ": 3784,
      "kopa": 3785,
      "ipo": 3786,
      "majalisar": 3787,
      "sauran": 3788,
      "oktoba": 3789,
      "ee": 3790,
      "inclu": 3791,
      "zaman": 3792,
      "jari": 3793,
      "yor": 3794,
      "temp": 3795,
      "ጥቅልይ": 3796,
      "wilaya": 3797,
      "forma": 3798,
      "ጅን": 3799,
      "augu": 3800,
      "def": 3801,
      "ምንል": 3802,
      "pele": 3803,
      "iru": 3804,
      "mag": 3805,
      "cau": 3806,
      "kamfan": 3807,
      "ይስጥ": 3808,
      "ayyu": 3809,
      "main": 3810,
      "nibi": 3811,
      "adu": 3812,
      "ብክ": 3813,
      "kata": 3814,
      "ered": 3815,
      "ury": 3816,
      "hiyo": 3817,
      "ብጥም": 3818,
      "ብትች": 3819,
      "buga": 3820,
      "hivyo": 3821,
      "ifa": 3822,
      "international": 3823,
      "kili": 3824,
      "ውንት": 3825,
      "ድብብ": 3826,
      "keta": 3827,
      "ልብ": 3828,
      "llo": 3829,
      "demo": 3830,
      "air": 3831,
      "ውብ": 3832,
      "kia": 3833,
      "ይእልም": 3834,
      "ano": 3835,
      "miji": 3836,
      "okan": 3837,
      "tation": 3838,
      "asili": 3839,
      "እንዝህ": 3840,
      "ach": 3841,
      "maso": 3842,
      "karatun": 3843,
      "rou": 3844,
      "kano": 3845,
      "american": 3846,
      "they": 3847,
      "bee": 3848,
      "red": 3849,
      "prof": 3850,
      "ትውልድ": 3851,
      "game": 3852,
      "dune": 3853,
      "stan": 3854,
      "yanzu": 3855,
      "develop": 3856,
      "hy": 3857,
      "taka": 3858,
      "ong": 3859,
      "iliyo": 3860,
      "aji": 3861,
      "gina": 3862,
      "ujerumani": 3863,
      "ክዝይ": 3864,
      "sse": 3865,
      "dhi": 3866,
      "ብድን": 3867,
      "ትርክው": 3868,
      "hukumar": 3869,
      "em": 3870,
      "uingereza": 3871,
      "zwa": 3872,
      "ilikuwa": 3873,
      "hanyar": 3874,
      "sabo": 3875,
      "akwai": 3876,
      "ብህን": 3877,
      "ይይ": 3878,
      "ጥፍ": 3879,
      "sala": 3880,
      "kira": 3881,
      "ብምህን": 3882,
      "more": 3883,
      "ንም": 3884,
      "daban": 3885,
      "toliki": 3886,
      "ፍርስ": 3887,
      "num": 3888,
      "pra": 3889,
      "era": 3890,
      "itwa": 3891,
      "line": 3892,
      "ስልስ": 3893,
      "ters": 3894,
      "yara": 3895,
      "leur": 3896,
      "than": 3897,
      "ents": 3898,
      "logun": 3899,
      "alla": 3900,
      "yali": 3901,
      "ልምስል": 3902,
      "wato": 3903,
      "ይምጥ": 3904,
      "pha": 3905,
      "እንድህን": 3906,
      "ዝድንት": 3907,
      "ህስብ": 3908,
      "ችውም": 3909,
      "ክትል": 3910,
      "tso": 3911,
      "vin": 3912,
      "koso": 3913,
      "tou": 3914,
      "wasa": 3915,
      "lish": 3916,
      "bet": 3917,
      "visiwa": 3918,
      "grand": 3919,
      "kila": 3920,
      "sub": 3921,
      "ፕል": 3922,
      "ትክል": 3923,
      "karamar": 3924,
      "sami": 3925,
      "alum": 3926,
      "tsakanin": 3927,
      "film": 3928,
      "way": 3929,
      "magh": 3930,
      "dama": 3931,
      "ctor": 3932,
      "amurka": 3933,
      "ብምን": 3934,
      "gbaju": 3935,
      "ስብስብ": 3936,
      "ongo": 3937,
      "kiya": 3938,
      "iwa": 3939,
      "ይጥቅ": 3940,
      "ድች": 3941,
      "comm": 3942,
      "anna": 3943,
      "anne": 3944,
      "enne": 3945,
      "kekere": 3946,
      "fiimu": 3947,
      "lagos": 3948,
      "ድብ": 3949,
      "ፕርዝድንት": 3950,
      "ley": 3951,
      "ውግ": 3952,
      "enti": 3953,
      "mur": 3954,
      "usu": 3955,
      "south": 3956,
      "ethi": 3957,
      "win": 3958,
      "ches": 3959,
      "ስልዝህ": 3960,
      "gal": 3961,
      "saboda": 3962,
      "ife": 3963,
      "ures": 3964,
      "african": 3965,
      "girma": 3966,
      "ቍም": 3967,
      "mahai": 3968,
      "ልቅስ": 3969,
      "huru": 3970,
      "ግርት": 3971,
      "vari": 3972,
      "baki": 3973,
      "tour": 3974,
      "ቍንቍውች": 3975,
      "ህይምን": 3976,
      "willi": 3977,
      "isan": 3978,
      "ምርክ": 3979,
      "sor": 3980,
      "lles": 3981,
      "zia": 3982,
      "ople": 3983,
      "ምጥን": 3984,
      "ቅምጥ": 3985,
      "mpa": 3986,
      "igb": 3987,
      "እህን": 3988,
      "እብል": 3989,
      "sig": 3990,
      "jar": 3991,
      "been": 3992,
      "pada": 3993,
      "nyingi": 3994,
      "ff": 3995,
      "wri": 3996,
      "kumbu": 3997,
      "mwi": 3998,
      "ምጅምርይ": 3999,
      "tex": 4000,
      "medi": 4001,
      "afi": 4002,
      "ውስን": 4003,
      "ብትልይ": 4004,
      "oloselu": 4005,
      "asia": 4006,
      "እልው": 4007,
      "china": 4008,
      "juli": 4009,
      "dola": 4010,
      "ibadan": 4011,
      "ences": 4012,
      "under": 4013,
      "yes": 4014,
      "ውጭ": 4015,
      "orodha": 4016,
      "cti": 4017,
      "okun": 4018,
      "refer": 4019,
      "iro": 4020,
      "ƙun": 4021,
      "wacce": 4022,
      "እምልክ": 4023,
      "kasuwan": 4024,
      "kisi": 4025,
      "muziki": 4026,
      "aja": 4027,
      "cep": 4028,
      "pati": 4029,
      "እልፍ": 4030,
      "rus": 4031,
      "jamhuri": 4032,
      "እንድንድ": 4033,
      "region": 4034,
      "yayin": 4035,
      "two": 4036,
      "pli": 4037,
      "william": 4038,
      "speci": 4039,
      "ጭን": 4040,
      "emp": 4041,
      "aribi": 4042,
      "ክርም": 4043,
      "ግልግ": 4044,
      "ilimi": 4045,
      "cur": 4046,
      "reli": 4047,
      "france": 4048,
      "kuta": 4049,
      "av": 4050,
      "lau": 4051,
      "org": 4052,
      "over": 4053,
      "ties": 4054,
      "ብርስ": 4055,
      "alif": 4056,
      "magharibi": 4057,
      "out": 4058,
      "ate": 4059,
      "used": 4060,
      "http": 4061,
      "awo": 4062,
      "guda": 4063,
      "ርም": 4064,
      "samar": 4065,
      "ይምይስ": 4066,
      "ብግር": 4067,
      "ይምስ": 4068,
      "franca": 4069,
      "oye": 4070,
      "ምህብር": 4071,
      "kee": 4072,
      "mkoa": 4073,
      "york": 4074,
      "gres": 4075,
      "ɗin": 4076,
      "kilo": 4077,
      "koloni": 4078,
      "gudan": 4079,
      "las": 4080,
      "ይስት": 4081,
      "differ": 4082,
      "mfalme": 4083,
      "austra": 4084,
      "kand": 4085,
      "wer": 4086,
      "century": 4087,
      "mwandishi": 4088,
      "ዝፍ": 4089,
      "sugbon": 4090,
      "sing": 4091,
      "jour": 4092,
      "mbi": 4093,
      "ክምን": 4094,
      "astero": 4095,
      "serikali": 4096,
      "ብእር": 4097,
      "art": 4098,
      "manyan": 4099,
      "ase": 4100,
      "wood": 4101,
      "kerin": 4102,
      "ille": 4103,
      "gudanar": 4104,
      "ologi": 4105,
      "sababu": 4106,
      "elect": 4107,
      "chris": 4108,
      "mbalimbali": 4109,
      "fri": 4110,
      "west": 4111,
      "zikia": 4112,
      "fes": 4113,
      "ሽል": 4114,
      "sous": 4115,
      "kir": 4116,
      "0ኝው": 4117,
      "wara": 4118,
      "tatta": 4119,
      "fizikia": 4120,
      "ውርር": 4121,
      "ft": 4122,
      "irin": 4123,
      "london": 4124,
      "alex": 4125,
      "iri": 4126,
      "lake": 4127,
      "dunia": 4128,
      "ይእን": 4129,
      "people": 4130,
      "ምንስትር": 4131,
      "omin": 4132,
      "tarihi": 4133,
      "mulkin": 4134,
      "titi": 4135,
      "arabu": 4136,
      "nuna": 4137,
      "person": 4138,
      "east": 4139,
      "ulaya": 4140,
      "ግንብት": 4141,
      "cher": 4142,
      "site": 4143,
      "ብትስብ": 4144,
      "lui": 4145,
      "እርፍ": 4146,
      "tus": 4147,
      "domin": 4148,
      "language": 4149,
      "into": 4150,
      "als": 4151,
      "aso": 4152,
      "wiki": 4153,
      "here": 4154,
      "ይትስ": 4155,
      "ode": 4156,
      "ingine": 4157,
      "koko": 4158,
      "gree": 4159,
      "ክልን": 4160,
      "high": 4161,
      "many": 4162,
      "lly": 4163,
      "ander": 4164,
      "ይትውቅል": 4165,
      "mtakatifu": 4166,
      "bari": 4167,
      "ክርት": 4168,
      "mali": 4169,
      "fiya": 4170,
      "mbia": 4171,
      "pes": 4172,
      "ክልት": 4173,
      "ethio": 4174,
      "princi": 4175,
      "yoo": 4176,
      "ብትም": 4177,
      "gover": 4178,
      "vile": 4179,
      "bis": 4180,
      "toire": 4181,
      "voir": 4182,
      "siasa": 4183,
      "kwamba": 4184,
      "yuni": 4185,
      "anza": 4186,
      "ont": 4187,
      "august": 4188,
      "asteroidi": 4189,
      "ምጭርሽ": 4190,
      "እምን": 4191,
      "try": 4192,
      "ctions": 4193,
      "lina": 4194,
      "ልምት": 4195,
      "public": 4196,
      "ileeko": 4197,
      "siyasa": 4198,
      "ምቅ": 4199,
      "ክይ": 4200,
      "filamu": 4201,
      "book": 4202,
      "gano": 4203,
      "ain": 4204,
      "jes": 4205,
      "pal": 4206,
      "katoliki": 4207,
      "ado": 4208,
      "ህንው": 4209,
      "aussi": 4210,
      "jose": 4211,
      "ምትር": 4212,
      "ውንድም": 4213,
      "vis": 4214,
      "when": 4215,
      "gram": 4216,
      "ጽር": 4217,
      "ስርውት": 4218,
      "ebun": 4219,
      "fito": 4220,
      "yao": 4221,
      "group": 4222,
      "ልምን": 4223,
      "ይእምርክ": 4224,
      "smi": 4225,
      "masa": 4226,
      "samun": 4227,
      "kh": 4228,
      "such": 4229,
      "እትይጵ": 4230,
      "ined": 4231,
      "ምች": 4232,
      "kemia": 4233,
      "party": 4234,
      "there": 4235,
      "kokin": 4236,
      "awa": 4237,
      "unci": 4238,
      "ክትር": 4239,
      "maeneo": 4240,
      "fanya": 4241,
      "eya": 4242,
      "pita": 4243,
      "states": 4244,
      "clo": 4245,
      "lee": 4246,
      "duna": 4247,
      "abe": 4248,
      "ance": 4249,
      "mama": 4250,
      "premier": 4251,
      "sanya": 4252,
      "college": 4253,
      "sani": 4254,
      "ይውር": 4255,
      "well": 4256,
      "offici": 4257,
      "ልምድ": 4258,
      "mad": 4259,
      "gbajumo": 4260,
      "net": 4261,
      "pani": 4262,
      "ብልል": 4263,
      "ውንድ": 4264,
      "eria": 4265,
      "aliye": 4266,
      "wur": 4267,
      "mat": 4268,
      "fasa": 4269,
      "rayuwa": 4270,
      "gomina": 4271,
      "yenye": 4272,
      "kamfanin": 4273,
      "life": 4274,
      "እድር": 4275,
      "እይል": 4276,
      "ይርስ": 4277,
      "mutanen": 4278,
      "gene": 4279,
      "fol": 4280,
      "fait": 4281,
      "mus": 4282,
      "tement": 4283,
      "wipe": 4284,
      "known": 4285,
      "jeshi": 4286,
      "maza": 4287,
      "sup": 4288,
      "kuku": 4289,
      "tazama": 4290,
      "tz": 4291,
      "commun": 4292,
      "ክክል": 4293,
      "tumia": 4294,
      "ፕልትክ": 4295,
      "age": 4296,
      "mwan": 4297,
      "ግዥ": 4298,
      "dont": 4299,
      "ishwa": 4300,
      "wom": 4301,
      "fore": 4302,
      "og": 4303,
      "refu": 4304,
      "wajen": 4305,
      "depen": 4306,
      "iii": 4307,
      "obinrin": 4308,
      "yayi": 4309,
      "shara": 4310,
      "tsarin": 4311,
      "history": 4312,
      "cade": 4313,
      "ብፍ": 4314,
      "meme": 4315,
      "mini": 4316,
      "ግጥ": 4317,
      "alth": 4318,
      "ክርስትስ": 4319,
      "ɗaya": 4320,
      "br": 4321,
      "ira": 4322,
      "እንቅ": 4323,
      "paris": 4324,
      "ይውይን": 4325,
      "dece": 4326,
      "planeti": 4327,
      "ganda": 4328,
      "name": 4329,
      "tsi": 4330,
      "እሽ": 4331,
      "እግዝእብህር": 4332,
      "ኽን": 4333,
      "allah": 4334,
      "spa": 4335,
      "kes": 4336,
      "ning": 4337,
      "ብክል": 4338,
      "ዝቅ": 4339,
      "ፍው": 4340,
      "zai": 4341,
      "tala": 4342,
      "nombre": 4343,
      "ubu": 4344,
      "cus": 4345,
      "gis": 4346,
      "iye": 4347,
      "sch": 4348,
      "ምስርይ": 4349,
      "during": 4350,
      "amo": 4351,
      "litta": 4352,
      "muhammad": 4353,
      "ይትልይይ": 4354,
      "english": 4355,
      "mataifa": 4356,
      "oorun": 4357,
      "farkon": 4358,
      "bes": 4359,
      "cted": 4360,
      "oke": 4361,
      "tish": 4362,
      "warar": 4363,
      "ብችው": 4364,
      "እክት": 4365,
      "ምንጭች": 4366,
      "erre": 4367,
      "culture": 4368,
      "ህስ": 4369,
      "enu": 4370,
      "dant": 4371,
      "oper": 4372,
      "ated": 4373,
      "ግጽ": 4374,
      "koma": 4375,
      "ufaransa": 4376,
      "machi": 4377,
      "yadda": 4378,
      "ፍርእን": 4379,
      "opolopo": 4380,
      "ama": 4381,
      "ame": 4382,
      "inayo": 4383,
      "bayyana": 4384,
      "pti": 4385,
      "ብቅል": 4386,
      "rayuwar": 4387,
      "ስግ": 4388,
      "ይንግር": 4389,
      "ree": 4390,
      "kananan": 4391,
      "volu": 4392,
      "ayo": 4393,
      "yon": 4394,
      "wadanda": 4395,
      "ይትብል": 4396,
      "ይህንል": 4397,
      "work": 4398,
      "mei": 4399,
      "associ": 4400,
      "kuanzia": 4401,
      "cts": 4402,
      "tiba": 4403,
      "weza": 4404,
      "kaduna": 4405,
      "hes": 4406,
      "ቅቅ": 4407,
      "ብስት": 4408,
      "ብትጭምር": 4409,
      "ign": 4410,
      "ville": 4411,
      "ህይውት": 4412,
      "ቅኝ": 4413,
      "ቅንት": 4414,
      "ጥጥ": 4415,
      "ጭው": 4416,
      "bal": 4417,
      "squ": 4418,
      "ብምር": 4419,
      "ግንዝብ": 4420,
      "giga": 4421,
      "igbaja": 4422,
      "kutokana": 4423,
      "እይድ": 4424,
      "ford": 4425,
      "ይቅን": 4426,
      "teurs": 4427,
      "ambayo": 4428,
      "kazi": 4429,
      "nitori": 4430,
      "ይምስር": 4431,
      "nigerian": 4432,
      "eu": 4433,
      "ws": 4434,
      "ይዝር": 4435,
      "ጥብቅ": 4436,
      "ምትውስ": 4437,
      "mman": 4438,
      "jirgin": 4439,
      "peu": 4440,
      "ጅም": 4441,
      "ይምልው": 4442,
      "ster": 4443,
      "agosti": 4444,
      "januari": 4445,
      "january": 4446,
      "endelea": 4447,
      "gran": 4448,
      "tics": 4449,
      "እድም": 4450,
      "ክድ": 4451,
      "ንግርች": 4452,
      "vision": 4453,
      "ይጥር": 4454,
      "ጭት": 4455,
      "biashara": 4456,
      "pataki": 4457,
      "pho": 4458,
      "gbara": 4459,
      "these": 4460,
      "rich": 4461,
      "juni": 4462,
      "ስልምን": 4463,
      "ትርር": 4464,
      "zamani": 4465,
      "hata": 4466,
      "ይስን": 4467,
      "ግርም": 4468,
      "flu": 4469,
      "came": 4470,
      "upe": 4471,
      "pays": 4472,
      "እድግ": 4473,
      "wahili": 4474,
      "ety": 4475,
      "እምርክ": 4476,
      "gaji": 4477,
      "ብእልም": 4478,
      "ቅርጽ": 4479,
      "tumo": 4480,
      "ainsi": 4481,
      "ልትን": 4482,
      "contin": 4483,
      "ileise": 4484,
      "karibu": 4485,
      "utili": 4486,
      "fur": 4487,
      "ጅች": 4488,
      "kiti": 4489,
      "ስልት": 4490,
      "fasiti": 4491,
      "birni": 4492,
      "cture": 4493,
      "ክህን": 4494,
      "ውርፕ": 4495,
      "cis": 4496,
      "tis": 4497,
      "tical": 4498,
      "tribu": 4499,
      "ይድርግ": 4500,
      "ድምጽ": 4501,
      "hau": 4502,
      "ory": 4503,
      "consi": 4504,
      "ndani": 4505,
      "ال": 4506,
      "shirin": 4507,
      "ፍድል": 4508,
      "እስትድድር": 4509,
      "ትዝ": 4510,
      "abdu": 4511,
      "julai": 4512,
      "zin": 4513,
      "ክስት": 4514,
      "mil": 4515,
      "manu": 4516,
      "ይስው": 4517,
      "met": 4518,
      "amin": 4519,
      "ብእንግልዝኝ": 4520,
      "arti": 4521,
      "ንውን": 4522,
      "ምርይም": 4523,
      "dese": 4524,
      "presen": 4525,
      "dor": 4526,
      "ጥብ": 4527,
      "waɗan": 4528,
      "dec": 4529,
      "aust": 4530,
      "huko": 4531,
      "ajo": 4532,
      "iv": 4533,
      "bas": 4534,
      "ይህዝብ": 4535,
      "waje": 4536,
      "suke": 4537,
      "hisp": 4538,
      "ግጥም": 4539,
      "saint": 4540,
      "comple": 4541,
      "mbu": 4542,
      "ልድ": 4543,
      "musulunci": 4544,
      "ller": 4545,
      "sake": 4546,
      "obi": 4547,
      "ስይን": 4548,
      "kina": 4549,
      "december": 4550,
      "depar": 4551,
      "ይምጅምርይው": 4552,
      "long": 4553,
      "ide": 4554,
      "ልህ": 4555,
      "ween": 4556,
      "እልትት": 4557,
      "centra": 4558,
      "uhuru": 4559,
      "terri": 4560,
      "gabatar": 4561,
      "tarihin": 4562,
      "iden": 4563,
      "tofa": 4564,
      "common": 4565,
      "idadi": 4566,
      "between": 4567,
      "hispania": 4568,
      "ክብብ": 4569,
      "list": 4570,
      "mission": 4571,
      "mwe": 4572,
      "ምንር": 4573,
      "kwale": 4574,
      "ክርስ": 4575,
      "sto": 4576,
      "tat": 4577,
      "nouve": 4578,
      "north": 4579,
      "igbe": 4580,
      "zon": 4581,
      "እግልግ": 4582,
      "kimi": 4583,
      "kanisa": 4584,
      "general": 4585,
      "guusu": 4586,
      "jana": 4587,
      "ይልም": 4588,
      "0s": 4589,
      "wakristo": 4590,
      "sil": 4591,
      "mika": 4592,
      "gizaji": 4593,
      "ጥኝ": 4594,
      "digiri": 4595,
      "lt": 4596,
      "gues": 4597,
      "inte": 4598,
      "nk": 4599,
      "awards": 4600,
      "ምጽህፍት": 4601,
      "aika": 4602,
      "gawa": 4603,
      "year": 4604,
      "haifa": 4605,
      "utawala": 4606,
      "tv": 4607,
      "ይትክል": 4608,
      "ድርጅት": 4609,
      "bs": 4610,
      "mary": 4611,
      "zari": 4612,
      "tr": 4613,
      "ይምስልል": 4614,
      "kundi": 4615,
      "ቅርስ": 4616,
      "ህይምንት": 4617,
      "ule": 4618,
      "kuli": 4619,
      "hindi": 4620,
      "bata": 4621,
      "america": 4622,
      "ayyukan": 4623,
      "adugbo": 4624,
      "apo": 4625,
      "form": 4626,
      "feder": 4627,
      "fuat": 4628,
      "gwamnatin": 4629,
      "ky": 4630,
      "where": 4631,
      "very": 4632,
      "ውድድር": 4633,
      "fannin": 4634,
      "ይምንር": 4635,
      "mace": 4636,
      "cess": 4637,
      "እንግድ": 4638,
      "እርም": 4639,
      "waju": 4640,
      "james": 4641,
      "adhi": 4642,
      "ውትድር": 4643,
      "waye": 4644,
      "fai": 4645,
      "yote": 4646,
      "comp": 4647,
      "0ኝ": 4648,
      "open": 4649,
      "ብእል": 4650,
      "zungu": 4651,
      "gent": 4652,
      "semb": 4653,
      "september": 4654,
      "ይግር": 4655,
      "dali": 4656,
      "chagu": 4657,
      "sive": 4658,
      "dri": 4659,
      "ስይህን": 4660,
      "ንግድ": 4661,
      "forme": 4662,
      "appe": 4663,
      "ndi": 4664,
      "kamma": 4665,
      "ruwa": 4666,
      "ብምት": 4667,
      "fasihi": 4668,
      "moder": 4669,
      "law": 4670,
      "gali": 4671,
      "hom": 4672,
      "about": 4673,
      "kammala": 4674,
      "score": 4675,
      "tak": 4676,
      "ስትች": 4677,
      "ship": 4678,
      "እጅግ": 4679,
      "laarin": 4680,
      "agbaye": 4681,
      "iki": 4682,
      "ልድት": 4683,
      "island": 4684,
      "ግድይ": 4685,
      "cest": 4686,
      "sco": 4687,
      "place": 4688,
      "ውው": 4689,
      "ፕብል": 4690,
      "ብምስ": 4691,
      "tena": 4692,
      "ብህርው": 4693,
      "kats": 4694,
      "orisi": 4695,
      "ይግብ": 4696,
      "ondo": 4697,
      "years": 4698,
      "እምስት": 4699,
      "fiyar": 4700,
      "desemba": 4701,
      "hukuma": 4702,
      "onu": 4703,
      "እንድን": 4704,
      "march": 4705,
      "ውስድ": 4706,
      "tiques": 4707,
      "miiran": 4708,
      "only": 4709,
      "ምዝግብ": 4710,
      "ዝምች": 4711,
      "glo": 4712,
      "chake": 4713,
      "aprili": 4714,
      "ህብርት": 4715,
      "ይጽ": 4716,
      "legas": 4717,
      "shir": 4718,
      "mla": 4719,
      "yika": 4720,
      "ija": 4721,
      "kwaikwa": 4722,
      "second": 4723,
      "kilomita": 4724,
      "ttle": 4725,
      "hukum": 4726,
      "lambar": 4727,
      "isbn": 4728,
      "cibiyar": 4729,
      "techni": 4730,
      "katsina": 4731,
      "oli": 4732,
      "spi": 4733,
      "ጥብብ": 4734,
      "ጭውት": 4735,
      "ethiopia": 4736,
      "እይድልም": 4737,
      "tru": 4738,
      "hukumomin": 4739,
      "constitu": 4740,
      "ይክር": 4741,
      "ይምጅምርይ": 4742,
      "alakoso": 4743,
      "octo": 4744,
      "septemba": 4745,
      "mpaka": 4746,
      "lead": 4747,
      "atlan": 4748,
      "number": 4749,
      "ብው": 4750,
      "ብስን": 4751,
      "ጥው": 4752,
      "ትንግር": 4753,
      "if": 4754,
      "via": 4755,
      "fois": 4756,
      "kongo": 4757,
      "award": 4758,
      "edi": 4759,
      "ክሽ": 4760,
      "ይይዝ": 4761,
      "ough": 4762,
      "press": 4763,
      "ይንብርው": 4764,
      "later": 4765,
      "tanga": 4766,
      "ፍጽም": 4767,
      "ይእይር": 4768,
      "ብ0ኝው": 4769,
      "ዝል": 4770,
      "british": 4771,
      "kal": 4772,
      "ega": 4773,
      "ብይን": 4774,
      "ችም": 4775,
      "ይትን": 4776,
      "ብሽት": 4777,
      "nal": 4778,
      "kuhusu": 4779,
      "ርድ": 4780,
      "onimo": 4781,
      "ilimin": 4782,
      "roman": 4783,
      "mutum": 4784,
      "ህልም": 4785,
      "ምግብ": 4786,
      "davi": 4787,
      "acade": 4788,
      "mic": 4789,
      "wote": 4790,
      "union": 4791,
      "tab": 4792,
      "fia": 4793,
      "ምሽ": 4794,
      "times": 4795,
      "present": 4796,
      "ብድብብ": 4797,
      "george": 4798,
      "tofauti": 4799,
      "ምጥቅ": 4800,
      "saka": 4801,
      "ked": 4802,
      "quil": 4803,
      "philo": 4804,
      "kasuwanci": 4805,
      "econ": 4806,
      "wari": 4807,
      "ምስርቅ": 4808,
      "servi": 4809,
      "etre": 4810,
      "position": 4811,
      "olorin": 4812,
      "fano": 4813,
      "asalin": 4814,
      "february": 4815,
      "ፍልም": 4816,
      "you": 4817,
      "tia": 4818,
      "play": 4819,
      "ል0": 4820,
      "ኵን": 4821,
      "bali": 4822,
      "stand": 4823,
      "masara": 4824,
      "jerin": 4825,
      "halar": 4826,
      "presid": 4827,
      "masana": 4828,
      "lus": 4829,
      "november": 4830,
      "mwigizaji": 4831,
      "anz": 4832,
      "unda": 4833,
      "hala": 4834,
      "milli": 4835,
      "ክድን": 4836,
      "ጥይቅ": 4837,
      "tokea": 4838,
      "ned": 4839,
      "musamman": 4840,
      "utar": 4841,
      "four": 4842,
      "februari": 4843,
      "hor": 4844,
      "base": 4845,
      "ይእግር": 4846,
      "web": 4847,
      "maj": 4848,
      "ariwa": 4849,
      "rd0score": 4850,
      "rd0score0": 4851,
      "able": 4852,
      "malla": 4853,
      "ung": 4854,
      "dam": 4855,
      "say": 4856,
      "ibn": 4857,
      "uk": 4858,
      "sas": 4859,
      "logy": 4860,
      "usi": 4861,
      "ጽልት": 4862,
      "annabi": 4863,
      "eme": 4864,
      "ibu": 4865,
      "ይእስር": 4866,
      "ይእምት": 4867,
      "tuna": 4868,
      "uwa": 4869,
      "impor": 4870,
      "mwenye": 4871,
      "sele": 4872,
      "binci": 4873,
      "ward": 4874,
      "bbc": 4875,
      "kya": 4876,
      "isele": 4877,
      "apres": 4878,
      "novemba": 4879,
      "plo": 4880,
      "dent": 4881,
      "alors": 4882,
      "australia": 4883,
      "oyo": 4884,
      "archi": 4885,
      "kiyar": 4886,
      "lodun": 4887,
      "early": 4888,
      "goma": 4889,
      "pili": 4890,
      "ቅስቅስ": 4891,
      "suc": 4892,
      "እምንት": 4893,
      "ምርጅ": 4894,
      "ብትክርስትይን": 4895,
      "peut": 4896,
      "ይእስ": 4897,
      "bimo": 4898,
      "pose": 4899,
      "karatu": 4900,
      "olori": 4901,
      "ኝን": 4902,
      "institu": 4903,
      "govern": 4904,
      "tch": 4905,
      "bawa": 4906,
      "tovu": 4907,
      "ግግር": 4908,
      "pekee": 4909,
      "ጥቅት": 4910,
      "mtu": 4911,
      "mea": 4912,
      "deri": 4913,
      "ልህን": 4914,
      "እንድግን": 4915,
      "ቭርስት": 4916,
      "dge": 4917,
      "wal": 4918,
      "ziwa": 4919,
      "huwa": 4920,
      "francais": 4921,
      "jeo": 4922,
      "ርፕብል": 4923,
      "umar": 4924,
      "httpww": 4925,
      "lafiya": 4926,
      "andi": 4927,
      "ange": 4928,
      "ትንሽ": 4929,
      "ስምት": 4930,
      "stri": 4931,
      "blo": 4932,
      "ይክት": 4933,
      "face": 4934,
      "merin": 4935,
      "sent": 4936,
      "ዝፍን": 4937,
      "ቅርን": 4938,
      "kashin": 4939,
      "roya": 4940,
      "gwam": 4941,
      "ƙungiyar": 4942,
      "ose": 4943,
      "india": 4944,
      "democra": 4945,
      "ምእርብ": 4946,
      "ስይም": 4947,
      "ይግዝ": 4948,
      "jagor": 4949,
      "ብስምን": 4950,
      "phie": 4951,
      "mulki": 4952,
      "amu": 4953,
      "shed": 4954,
      "pwani": 4955,
      "maana": 4956,
      "kusa": 4957,
      "ቅልት": 4958,
      "ia": 4959,
      "pt": 4960,
      "karni": 4961,
      "charles": 4962,
      "kayan": 4963,
      "rasmi": 4964,
      "chin": 4965,
      "ክልብ": 4966,
      "mungu": 4967,
      "japan": 4968,
      "male": 4969,
      "star": 4970,
      "ብእን": 4971,
      "ist": 4972,
      "እግርት": 4973,
      "kisiwa": 4974,
      "py": 4975,
      "labe": 4976,
      "vre": 4977,
      "oluilu": 4978,
      "ibere": 4979,
      "እውንት": 4980,
      "population": 4981,
      "idan": 4982,
      "band": 4983,
      "paul": 4984,
      "end": 4985,
      "kita": 4986,
      "cas": 4987,
      "egy": 4988,
      "july": 4989,
      "labar": 4990,
      "tsohon": 4991,
      "lun": 4992,
      "nau": 4993,
      "ፍርድ": 4994,
      "ግኝው": 4995,
      "ይቅድም": 4996,
      "partie": 4997,
      "president": 4998,
      "mkubwa": 4999,
      "geesi": 5000,
      "tano": 5001,
      "oluko": 5002,
      "limi": 5003,
      "october": 5004,
      "az": 5005,
      "tout": 5006,
      "miwa": 5007,
      "ብርክት": 5008,
      "ይንግስ": 5009,
      "hakan": 5010,
      "ጕድ": 5011,
      "ምስትውሽ": 5012,
      "ምንልብት": 5013,
      "manin": 5014,
      "idije": 5015,
      "marejeo": 5016,
      "watakatifu": 5017,
      "ib": 5018,
      "ito": 5019,
      "uld": 5020,
      "hawa": 5021,
      "ይንቭርስት": 5022,
      "formation": 5023,
      "sp": 5024,
      "yunifasiti": 5025,
      "rika": 5026,
      "ግርይን": 5027,
      "karun": 5028,
      "egalement": 5029,
      "gur": 5030,
      "shar": 5031,
      "physi": 5032,
      "bour": 5033,
      "philoso": 5034,
      "latin": 5035,
      "alu": 5036,
      "situ": 5037,
      "chur": 5038,
      "kwallon": 5039,
      "harshen": 5040,
      "ቅብል": 5041,
      "ዝምት": 5042,
      "isho": 5043,
      "shari": 5044,
      "ልምስ": 5045,
      "bles": 5046,
      "dina": 5047,
      "ብህንም": 5048,
      "pari": 5049,
      "bakan": 5050,
      "kiingereza": 5051,
      "lou": 5052,
      "elebun": 5053,
      "tattalin": 5054,
      "ርት": 5055,
      "ብርህን": 5056,
      "sour": 5057,
      "throu": 5058,
      "civi": 5059,
      "lokaci": 5060,
      "mpire": 5061,
      "fulani": 5062,
      "agu": 5063,
      "yay": 5064,
      "huo": 5065,
      "ufu": 5066,
      "ድድ": 5067,
      "ፍች": 5068,
      "biran": 5069,
      "እብይ": 5070,
      "origin": 5071,
      "black": 5072,
      "gbi": 5073,
      "gori": 5074,
      "ችግር": 5075,
      "ክስን": 5076,
      "igbo": 5077,
      "lashe": 5078,
      "ህው": 5079,
      "ብጅ": 5080,
      "ብህልት": 5081,
      "ትሽ": 5082,
      "ይምብል": 5083,
      "ብእህን": 5084,
      "kua": 5085,
      "ikan": 5086,
      "town": 5087,
      "court": 5088,
      "fle": 5089,
      "እብዝ": 5090,
      "ክምት": 5091,
      "ድንድ": 5092,
      "ይህንን": 5093,
      "best": 5094,
      "kw": 5095,
      "mand": 5096,
      "kuro": 5097,
      "sinima": 5098,
      "kwalejin": 5099,
      "ibe": 5100,
      "ume": 5101,
      "wed": 5102,
      "june": 5103,
      "gri": 5104,
      "iku": 5105,
      "ƴan": 5106,
      "tima": 5107,
      "zed": 5108,
      "ምህርት": 5109,
      "ብብዝት": 5110,
      "kuji": 5111,
      "sal": 5112,
      "term": 5113,
      "baadaye": 5114,
      "kwaikwayo": 5115,
      "government": 5116,
      "arac": 5117,
      "sir": 5118,
      "ምርን": 5119,
      "ይውጭ": 5120,
      "ity": 5121,
      "dhaa": 5122,
      "haifaf": 5123,
      "nada": 5124,
      "kifo": 5125,
      "ዝግ": 5126,
      "ይጅ": 5127,
      "sasa": 5128,
      "dili": 5129,
      "ይእፍር": 5130,
      "house": 5131,
      "taifa": 5132,
      "would": 5133,
      "gabas": 5134,
      "duniani": 5135,
      "risi": 5136,
      "እሽንፍ": 5137,
      "ውዝ": 5138,
      "kabi": 5139,
      "emi": 5140,
      "boolu": 5141,
      "hel": 5142,
      "ብብል": 5143,
      "ብውን": 5144,
      "talla": 5145,
      "ይትል": 5146,
      "nia": 5147,
      "ild": 5148,
      "ንች": 5149,
      "nasara": 5150,
      "ciki": 5151,
      "ይስም": 5152,
      "yammacin": 5153,
      "ምጥቅሽ": 5154,
      "waa": 5155,
      "dies": 5156,
      "love": 5157,
      "peti": 5158,
      "ologun": 5159,
      "ችይን": 5160,
      "ምልእክት": 5161,
      "ature": 5162,
      "tobi": 5163,
      "misha": 5164,
      "arewacin": 5165,
      "ged": 5166,
      "karkashin": 5167,
      "እብይት": 5168,
      "april": 5169,
      "ike": 5170,
      "umoja": 5171,
      "mfu": 5172,
      "shing": 5173,
      "እንድንብር": 5174,
      "njia": 5175,
      "kofin": 5176,
      "hudu": 5177,
      "ctive": 5178,
      "ppe": 5179,
      "ento": 5180,
      "recor": 5181,
      "ምርቅስ": 5182,
      "ምልይን": 5183,
      "prote": 5184,
      "proje": 5185,
      "thern": 5186,
      "mjini": 5187,
      "made": 5188,
      "pere": 5189,
      "ስእል": 5190,
      "እግኝ": 5191,
      "ግዝው": 5192,
      "ምንግስትት": 5193,
      "እቅፍ": 5194,
      "ክልንድር": 5195,
      "nkan": 5196,
      "benin": 5197,
      "ብድር": 5198,
      "ብብዝ": 5199,
      "ግዝም": 5200,
      "ፍልስ": 5201,
      "news": 5202,
      "እውርፕ": 5203,
      "magana": 5204,
      "ርፕብልክ": 5205,
      "fra": 5206,
      "tif": 5207,
      "profes": 5208,
      "tiki": 5209,
      "kiswahili": 5210,
      "mark": 5211,
      "like": 5212,
      "nel": 5213,
      "abubu": 5214,
      "fren": 5215,
      "jean": 5216,
      "viron": 5217,
      "ብምብል": 5218,
      "adam": 5219,
      "እዝዝ": 5220,
      "akin": 5221,
      "wes": 5222,
      "bakar": 5223,
      "miran": 5224,
      "igbimo": 5225,
      "christi": 5226,
      "ika": 5227,
      "ብምልት": 5228,
      "ይህድ": 5229,
      "chama": 5230,
      "ball": 5231,
      "mahaifin": 5232,
      "lors": 5233,
      "ስምንት": 5234,
      "keo": 5235,
      "pedia": 5236,
      "እህ": 5237,
      "again": 5238,
      "yansi": 5239,
      "milima": 5240,
      "ምርውች": 5241,
      "ብምስር": 5242,
      "kta": 5243,
      "uchu": 5244,
      "tee": 5245,
      "mito": 5246,
      "then": 5247,
      "off": 5248,
      "poly": 5249,
      "while": 5250,
      "kor": 5251,
      "ትት": 5252,
      "nee": 5253,
      "ይትድ": 5254,
      "constru": 5255,
      "istan": 5256,
      "particu": 5257,
      "cine": 5258,
      "nis": 5259,
      "departement": 5260,
      "ክንግ": 5261,
      "ጽን": 5262,
      "እስይ": 5263,
      "bunge": 5264,
      "science": 5265,
      "cause": 5266,
      "three": 5267,
      "pupo": 5268,
      "mie": 5269,
      "andre": 5270,
      "uganda": 5271,
      "ትንይ": 5272,
      "ፕንይ": 5273,
      "zote": 5274,
      "economi": 5275,
      "ርው": 5276,
      "ፍንት": 5277,
      "lib": 5278,
      "እግርች": 5279,
      "river": 5280,
      "ንጥር": 5281,
      "ብእምር": 5282,
      "ምልክእ": 5283,
      "ትምስ": 5284,
      "ውይንም": 5285,
      "takar": 5286,
      "islamu": 5287,
      "respon": 5288,
      "nyingine": 5289,
      "finai": 5290,
      "kyautar": 5291,
      "cana": 5292,
      "eka": 5293,
      "ድጅ": 5294,
      "nature": 5295,
      "called": 5296,
      "patikana": 5297,
      "haifaffun": 5298,
      "ትውል": 5299,
      "haki": 5300,
      "ክልክል": 5301,
      "filin": 5302,
      "ils": 5303,
      "classi": 5304,
      "annees": 5305,
      "french": 5306,
      "contro": 5307,
      "large": 5308,
      "ongozi": 5309,
      "ቭን": 5310,
      "yabo": 5311,
      "esta": 5312,
      "cali": 5313,
      "ንብርት": 5314,
      "እግልግልት": 5315,
      "akole": 5316,
      "iroyin": 5317,
      "became": 5318,
      "ግንኝ": 5319,
      "uses": 5320,
      "ክንእን": 5321,
      "sans": 5322,
      "oselu": 5323,
      "yoyi": 5324,
      "indepen": 5325,
      "kur": 5326,
      "sus": 5327,
      "ክዝይም": 5328,
      "ambao": 5329,
      "sikukuu": 5330,
      "radio": 5331,
      "point": 5332,
      "joseph": 5333,
      "ebi": 5334,
      "lewo": 5335,
      "diri": 5336,
      "mataima": 5337,
      "fli": 5338,
      "dest": 5339,
      "viet": 5340,
      "fm": 5341,
      "kra": 5342,
      "koro": 5343,
      "tsu": 5344,
      "ሽህ": 5345,
      "ጥስ": 5346,
      "ይትንስ": 5347,
      "vide": 5348,
      "voi": 5349,
      "data": 5350,
      "llar": 5351,
      "taniya": 5352,
      "sel": 5353,
      "tsun": 5354,
      "series": 5355,
      "ቅብ": 5356,
      "muda": 5357,
      "ችውል": 5358,
      "pile": 5359,
      "ስምች": 5360,
      "taire": 5361,
      "ston": 5362,
      "cations": 5363,
      "premiere": 5364,
      "hwa": 5365,
      "depuis": 5366,
      "super": 5367,
      "media": 5368,
      "jiji": 5369,
      "babbar": 5370,
      "fira": 5371,
      "muhi": 5372,
      "bank": 5373,
      "moro": 5374,
      "ines": 5375,
      "huwar": 5376,
      "abuja": 5377,
      "langue": 5378,
      "ክብት": 5379,
      "uchumi": 5380,
      "lat": 5381,
      "guine": 5382,
      "gwamnati": 5383,
      "ቅው": 5384,
      "እቅም": 5385,
      "ግይር": 5386,
      "mode": 5387,
      "ings": 5388,
      "music": 5389,
      "religi": 5390,
      "fiel": 5391,
      "tarayyar": 5392,
      "defini": 5393,
      "ይ0": 5394,
      "ግምት": 5395,
      "kunan": 5396,
      "ክፍልች": 5397,
      "julikana": 5398,
      "ብግርግርይን": 5399,
      "royal": 5400,
      "logbon": 5401,
      "mpya": 5402,
      "yayyun": 5403,
      "gare": 5404,
      "mbili": 5405,
      "ስድ": 5406,
      "uki": 5407,
      "lewa": 5408,
      "great": 5409,
      "ክፕ": 5410,
      "ድብር": 5411,
      "date": 5412,
      "habi": 5413,
      "ምስትውሽውች": 5414,
      "anta": 5415,
      "yama": 5416,
      "table": 5417,
      "tains": 5418,
      "them": 5419,
      "zake": 5420,
      "kare": 5421,
      "round": 5422,
      "view": 5423,
      "sieurs": 5424,
      "ልእል": 5425,
      "ኝውን": 5426,
      "ይፕ": 5427,
      "arm": 5428,
      "ብልብት": 5429,
      "ድግፍ": 5430,
      "oludari": 5431,
      "plusieurs": 5432,
      "kawaida": 5433,
      "gold": 5434,
      "quel": 5435,
      "cutar": 5436,
      "ይንግርል": 5437,
      "waɗanda": 5438,
      "cc": 5439,
      "edu": 5440,
      "tha": 5441,
      "llywood": 5442,
      "bene": 5443,
      "ksi": 5444,
      "maaika": 5445,
      "sation": 5446,
      "soko": 5447,
      "itace": 5448,
      "gwamnan": 5449,
      "ትድርግ": 5450,
      "ክህድ": 5451,
      "ጭውች": 5452,
      "ጽብይ": 5453,
      "order": 5454,
      "እንድል": 5455,
      "nyu": 5456,
      "rayayyun": 5457,
      "mnamo": 5458,
      "ድስን": 5459,
      "academy": 5460,
      "nement": 5461,
      "odu": 5462,
      "uka": 5463,
      "wazi": 5464,
      "saa": 5465,
      "ይጥንት": 5466,
      "cir": 5467,
      "እምብ": 5468,
      "berg": 5469,
      "sud": 5470,
      "sty": 5471,
      "muhimu": 5472,
      "bina": 5473,
      "los": 5474,
      "member": 5475,
      "bul": 5476,
      "pendant": 5477,
      "david": 5478,
      "ዝግጅ": 5479,
      "ep": 5480,
      "desig": 5481,
      "lais": 5482,
      "alim": 5483,
      "ology": 5484,
      "zabe": 5485,
      "ይልውን": 5486,
      "ክርክር": 5487,
      "ዝምንው": 5488,
      "rashin": 5489,
      "addin": 5490,
      "sarkin": 5491,
      "fasaha": 5492,
      "nun": 5493,
      "bien": 5494,
      "vir": 5495,
      "wala": 5496,
      "yaani": 5497,
      "እንስት": 5498,
      "ብርን": 5499,
      "ልውጥ": 5500,
      "እፍርክ": 5501,
      "matan": 5502,
      "death": 5503,
      "fic": 5504,
      "rubuta": 5505,
      "ብስር": 5506,
      "erie": 5507,
      "ይልቅ": 5508,
      "ewe": 5509,
      "ism": 5510,
      "oly": 5511,
      "zation": 5512,
      "ርን": 5513,
      "ንሽ": 5514,
      "ane": 5515,
      "lex": 5516,
      "late": 5517,
      "lif": 5518,
      "reali": 5519,
      "neman": 5520,
      "histoire": 5521,
      "nord": 5522,
      "devi": 5523,
      "kiarabu": 5524,
      "digi": 5525,
      "barai": 5526,
      "aracter": 5527,
      "ibra": 5528,
      "any": 5529,
      "fice": 5530,
      "fron": 5531,
      "maisha": 5532,
      "labarai": 5533,
      "japani": 5534,
      "mwanamuziki": 5535,
      "eg": 5536,
      "ህብት": 5537,
      "ern": 5538,
      "kusan": 5539,
      "marubu": 5540,
      "howe": 5541,
      "kistan": 5542,
      "follow": 5543,
      "kiran": 5544,
      "set": 5545,
      "mlima": 5546,
      "ምእክል": 5547,
      "ብጭ": 5548,
      "masha": 5549,
      "mwisho": 5550,
      "gs": 5551,
      "ox": 5552,
      "esin": 5553,
      "raba": 5554,
      "multi": 5555,
      "alexander": 5556,
      "volution": 5557,
      "kk": 5558,
      "oga": 5559,
      "maria": 5560,
      "ስእት": 5561,
      "ይብት": 5562,
      "cours": 5563,
      "shida": 5564,
      "menti": 5565,
      "ይቅርል": 5566,
      "haifi": 5567,
      "hanyoyin": 5568,
      "duro": 5569,
      "anga": 5570,
      "iste": 5571,
      "fili": 5572,
      "different": 5573,
      "ይግም": 5574,
      "hat": 5575,
      "ምህንን": 5576,
      "mah": 5577,
      "nile": 5578,
      "kiri": 5579,
      "lls": 5580,
      "damu": 5581,
      "however": 5582,
      "ትግኝ": 5583,
      "indu": 5584,
      "isra": 5585,
      "ክንድ": 5586,
      "church": 5587,
      "ape": 5588,
      "tude": 5589,
      "kanta": 5590,
      "kasashen": 5591,
      "rai": 5592,
      "chuo": 5593,
      "sof": 5594,
      "ውይ": 5595,
      "wao": 5596,
      "zaben": 5597,
      "እልችው": 5598,
      "ክንም": 5599,
      "igbesi": 5600,
      "aina": 5601,
      "tent": 5602,
      "family": 5603,
      "lehin": 5604,
      "sayen": 5605,
      "mid": 5606,
      "atre": 5607,
      "delta": 5608,
      "ብቅር": 5609,
      "ይውን": 5610,
      "lian": 5611,
      "ምርጥ": 5612,
      "ይትብልው": 5613,
      "area": 5614,
      "ውርቅ": 5615,
      "ክፍልግር": 5616,
      "ƙi": 5617,
      "tenis": 5618,
      "pun": 5619,
      "roni": 5620,
      "thema": 5621,
      "burg": 5622,
      "finafinai": 5623,
      "takri": 5624,
      "soke": 5625,
      "compu": 5626,
      "ፍቅድ": 5627,
      "ጥቅምት": 5628,
      "sant": 5629,
      "wujo": 5630,
      "born": 5631,
      "ije": 5632,
      "being": 5633,
      "less": 5634,
      "ምብት": 5635,
      "ይፍርንስይ": 5636,
      "child": 5637,
      "ውድጅ": 5638,
      "sions": 5639,
      "halarci": 5640,
      "til": 5641,
      "suf": 5642,
      "portu": 5643,
      "system": 5644,
      "tradition": 5645,
      "kingdom": 5646,
      "ibrahim": 5647,
      "sea": 5648,
      "tary": 5649,
      "temps": 5650,
      "ስንት": 5651,
      "power": 5652,
      "ይብህር": 5653,
      "mexi": 5654,
      "notam": 5655,
      "ግንኝንት": 5656,
      "ትክትይ": 5657,
      "ስይንስው": 5658,
      "compo": 5659,
      "elles": 5660,
      "notamment": 5661,
      "ngu": 5662,
      "bakwai": 5663,
      "cast": 5664,
      "team": 5665,
      "ብትልይይ": 5666,
      "ይትርክ": 5667,
      "consid": 5668,
      "edo": 5669,
      "ክብድ": 5670,
      "arts": 5671,
      "waya": 5672,
      "robert": 5673,
      "ልእ": 5674,
      "ቅብር": 5675,
      "ango": 5676,
      "ብርግ": 5677,
      "atta": 5678,
      "jamii": 5679,
      "jamiyyar": 5680,
      "እይስስ": 5681,
      "arch": 5682,
      "tayi": 5683,
      "kiko": 5684,
      "kura": 5685,
      "jimbo": 5686,
      "techno": 5687,
      "sosai": 5688,
      "ስንድ": 5689,
      "including": 5690,
      "yer": 5691,
      "ƙin": 5692,
      "kungi": 5693,
      "woran": 5694,
      "organ": 5695,
      "paa": 5696,
      "እድል": 5697,
      "ክስም": 5698,
      "eran": 5699,
      "jua": 5700,
      "ዝህም": 5701,
      "ይምንግር": 5702,
      "center": 5703,
      "abubakar": 5704,
      "zinazo": 5705,
      "shirya": 5706,
      "cole": 5707,
      "dangan": 5708,
      "through": 5709,
      "ዝምድ": 5710,
      "ጅት": 5711,
      "suite": 5712,
      "እምል": 5713,
      "col": 5714,
      "dp": 5715,
      "dr": 5716,
      "kunrin": 5717,
      "central": 5718,
      "sayensi": 5719,
      "bayar": 5720,
      "represen": 5721,
      "biya": 5722,
      "oma": 5723,
      "ብስም": 5724,
      "እግ": 5725,
      "ይግል": 5726,
      "sayansi": 5727,
      "ይምግብ": 5728,
      "before": 5729,
      "ክርን": 5730,
      "compan": 5731,
      "etait": 5732,
      "micha": 5733,
      "dubu": 5734,
      "martin": 5735,
      "moni": 5736,
      "osun": 5737,
      "dex": 5738,
      "zaɓ": 5739,
      "official": 5740,
      "ምህር": 5741,
      "ጥእት": 5742,
      "ፍቅር": 5743,
      "shor": 5744,
      "cia": 5745,
      "pale": 5746,
      "pris": 5747,
      "samo": 5748,
      "cika": 5749,
      "zilizo": 5750,
      "development": 5751,
      "ttu": 5752,
      "organi": 5753,
      "aje": 5754,
      "ትግብር": 5755,
      "bau": 5756,
      "kudan": 5757,
      "ምርው": 5758,
      "ትርን": 5759,
      "ክርይ": 5760,
      "agbelewo": 5761,
      "ei": 5762,
      "unga": 5763,
      "jimi": 5764,
      "found": 5765,
      "nuwa": 5766,
      "auth": 5767,
      "ይልን": 5768,
      "እስም": 5769,
      "ይምትውቅ": 5770,
      "momi": 5771,
      "tural": 5772,
      "ghu": 5773,
      "mfano": 5774,
      "ልብል": 5775,
      "ድህ": 5776,
      "arziki": 5777,
      "fifa": 5778,
      "mole": 5779,
      "ይትው": 5780,
      "ኝውም": 5781,
      "moins": 5782,
      "conne": 5783,
      "nifi": 5784,
      "masanaan": 5785,
      "addinin": 5786,
      "ችልም": 5787,
      "ifi": 5788,
      "itumo": 5789,
      "rana": 5790,
      "mathema": 5791,
      "nijar": 5792,
      "pope": 5793,
      "sanin": 5794,
      "kabila": 5795,
      "micro": 5796,
      "contra": 5797,
      "tsar": 5798,
      "exemp": 5799,
      "olympi": 5800,
      "louis": 5801,
      "turai": 5802,
      "dhidi": 5803,
      "back": 5804,
      "eres": 5805,
      "lic": 5806,
      "kuru": 5807,
      "tel": 5808,
      "self": 5809,
      "descri": 5810,
      "developpe": 5811,
      "ትህ": 5812,
      "ይእንድ": 5813,
      "leurs": 5814,
      "liber": 5815,
      "ስትፍ": 5816,
      "ይንግ": 5817,
      "ንብርው": 5818,
      "tini": 5819,
      "same": 5820,
      "god": 5821,
      "wurin": 5822,
      "tage": 5823,
      "husi": 5824,
      "tle": 5825,
      "dawo": 5826,
      "mizi": 5827,
      "ብምጭርሽ": 5828,
      "እልን": 5829,
      "ino": 5830,
      "ɗu": 5831,
      "tie": 5832,
      "ess": 5833,
      "did": 5834,
      "resul": 5835,
      "type": 5836,
      "orisirisi": 5837,
      "takriban": 5838,
      "possi": 5839,
      "amani": 5840,
      "ይርም": 5841,
      "bihi": 5842,
      "jira": 5843,
      "alaisi": 5844,
      "mont": 5845,
      "basi": 5846,
      "kadhaa": 5847,
      "wonyi": 5848,
      "both": 5849,
      "ጥርት": 5850,
      "ብእድስ": 5851,
      "ውድቅ": 5852,
      "lled": 5853,
      "nam": 5854,
      "rama": 5855,
      "communi": 5856,
      "mahali": 5857,
      "maduni": 5858,
      "tatu": 5859,
      "bou": 5860,
      "harkokin": 5861,
      "miliyan": 5862,
      "company": 5863,
      "ቭል": 5864,
      "maan": 5865,
      "daut": 5866,
      "ጥቅስ": 5867,
      "gabar": 5868,
      "els": 5869,
      "itage": 5870,
      "accor": 5871,
      "wun": 5872,
      "ይጅርምን": 5873,
      "kimataifa": 5874,
      "kimanin": 5875,
      "bijin": 5876,
      "patri": 5877,
      "ክልልች": 5878,
      "ክምፕ": 5879,
      "tarayya": 5880,
      "zane": 5881,
      "zanzi": 5882,
      "ግይርግስ": 5883,
[...]
