{
  "version": "1.0",
  "truncation": null,
  "padding": null,
  "added_tokens": [],
  "normalizer": {
    "type": "NFC"
  },
  "pre_tokenizer": {
    "type": "ByteLevel",
    "add_prefix_space": false,
    "trim_offsets": true,
    "use_regex": false
  },
  "post_processor": null,
  "decoder": {
    "type": "ByteLevel",
    "add_prefix_space": true,
    "trim_offsets": true,
    "use_regex": true
  },
  "model": {
    "type": "BPE",
    "dropout": null,
    "unk_token": null,
    "continuing_subword_prefix": null,
    "end_of_word_suffix": null,
    "fuse_unk": false,
    "byte_fallback": false,
    "ignore_merges": false,
    "vocab": {
      "!": 0,
      "\"": 1,
      "#": 2,
      "$": 3,
      "%": 4,
      "&": 5,
      "'": 6,
      "(": 7,
      ")": 8,
      "*": 9,
      "+": 10,
      ",": 11,
      "-": 12,
      ".": 13,
      "/": 14,
      "0": 15,
      "1": 16,
      "2": 17,
      "3": 18,
      "4": 19,
      "5": 20,
      "6": 21,
      "7": 22,
      "8": 23,
      "9": 24,
      ":": 25,
      ";": 26,
      "<": 27,
      "=": 28,
      ">": 29,
      "?": 30,
      "@": 31,
      "A": 32,
      "B": 33,
      "C": 34,
      "D": 35,
      "E": 36,
      "F": 37,
      "G": 38,
      "H": 39,
      "I": 40,
      "J": 41,
      "K": 42,
      "L": 43,
      "M": 44,
      "N": 45,
      "O": 46,
      "P": 47,
      "Q": 48,
      "R": 49,
      "S": 50,
      "T": 51,
      "U": 52,
      "V": 53,
      "W": 54,
      "X": 55,
      "Y": 56,
      "Z": 57,
      "[": 58,
      "\\": 59,
      "]": 60,
      "^": 61,
      "_": 62,
      "`": 63,
      "a": 64,
      "b": 65,
      "c": 66,
      "d": 67,
      "e": 68,
      "f": 69,
      "g": 70,
      "h": 71,
      "i": 72,
      "j": 73,
      "k": 74,
      "l": 75,
      "m": 76,
      "n": 77,
      "o": 78,
      "p": 79,
      "q": 80,
      "r": 81,
      "s": 82,
      "t": 83,
      "u": 84,
      "v": 85,
      "w": 86,
      "x": 87,
      "y": 88,
      "z": 89,
      "{": 90,
      "|": 91,
      "}": 92,
      "~": 93,
      "¡": 94,
      "¢": 95,
      "£": 96,
      "¤": 97,
      "¥": 98,
      "¦": 99,
      "§": 100,
      "¨": 101,
      "©": 102,
      "ª": 103,
      "«": 104,
      "¬": 105,
      "®": 106,
      "¯": 107,
      "°": 108,
      "±": 109,
      "²": 110,
      "³": 111,
      "´": 112,
      "µ": 113,
      "¶": 114,
      "·": 115,
      "¸": 116,
      "¹": 117,
      "º": 118,
      "»": 119,
      "¼": 120,
      "½": 121,
      "¾": 122,
      "¿": 123,
      "À": 124,
      "Á": 125,
      "Â": 126,
      "Ã": 127,
      "Ä": 128,
      "Å": 129,
      "Æ": 130,
      "Ç": 131,
      "È": 132,
      "É": 133,
      "Ê": 134,
      "Ë": 135,
      "Ì": 136,
      "Í": 137,
      "Î": 138,
      "Ï": 139,
      "Ð": 140,
      "Ñ": 141,
      "Ò": 142,
      "Ó": 143,
      "Ô": 144,
      "Õ": 145,
      "Ö": 146,
      "×": 147,
      "Ø": 148,
      "Ù": 149,
      "Ú": 150,
      "Û": 151,
      "Ü": 152,
      "Ý": 153,
      "Þ": 154,
      "ß": 155,
      "à": 156,
      "á": 157,
      "â": 158,
      "ã": 159,
      "ä": 160,
      "å": 161,
      "æ": 162,
      "ç": 163,
      "è": 164,
      "é": 165,
      "ê": 166,
      "ë": 167,
      "ì": 168,
      "í": 169,
      "î": 170,
      "ï": 171,
      "ð": 172,
      "ñ": 173,
      "ò": 174,
      "ó": 175,
      "ô": 176,
      "õ": 177,
      "ö": 178,
      "÷": 179,
      "ø": 180,
      "ù": 181,
      "ú": 182,
      "û": 183,
      "ü": 184,
      "ý": 185,
      "þ": 186,
      "ÿ": 187,
      "Ā": 188,
      "ā": 189,
      "Ă": 190,
      "ă": 191,
      "Ą": 192,
      "ą": 193,
      "Ć": 194,
      "ć": 195,
      "Ĉ": 196,
      "ĉ": 197,
      "Ċ": 198,
      "ċ": 199,
      "Č": 200,
      "č": 201,
      "Ď": 202,
      "ď": 203,
      "Đ": 204,
      "đ": 205,
      "Ē": 206,
      "ē": 207,
      "Ĕ": 208,
      "ĕ": 209,
      "Ė": 210,
      "ė": 211,
      "Ę": 212,
      "ę": 213,
      "Ě": 214,
      "ě": 215,
      "Ĝ": 216,
      "ĝ": 217,
      "Ğ": 218,
      "ğ": 219,
      "Ġ": 220,
      "ġ": 221,
      "Ģ": 222,
      "ģ": 223,
      "Ĥ": 224,
      "ĥ": 225,
      "Ħ": 226,
      "ħ": 227,
      "Ĩ": 228,
      "ĩ": 229,
      "Ī": 230,
      "ī": 231,
      "Ĭ": 232,
      "ĭ": 233,
      "Į": 234,
      "į": 235,
      "İ": 236,
      "ı": 237,
      "Ĳ": 238,
      "ĳ": 239,
      "Ĵ": 240,
      "ĵ": 241,
      "Ķ": 242,
      "ķ": 243,
      "ĸ": 244,
      "Ĺ": 245,
      "ĺ": 246,
      "Ļ": 247,
      "ļ": 248,
      "Ľ": 249,
      "ľ": 250,
      "Ŀ": 251,
      "ŀ": 252,
      "Ł": 253,
      "ł": 254,
      "Ń": 255,
      "áĪ": 256,
      "Ġá": 257,
      "aĠ": 258,
      "áī": 259,
      "áĬ": 260,
      "áĭ": 261,
      "nĠ": 262,
      "eĠ": 263,
      "iĠ": 264,
      "áĮ": 265,
      "Ġáĭ": 266,
      "ĠáĬ": 267,
      "ar": 268,
      "an": 269,
      "ĠáĪ": 270,
      "áį": 271,
      "áĬķ": 272,
      "Ġáī": 273,
      ",Ġ": 274,
      "áīµ": 275,
      "áĪŃ": 276,
      "in": 277,
      "sĠ": 278,
      "»į": 279,
      "ÃŃ": 280,
      "at": 281,
      "oĠ": 282,
      "al": 283,
      "Ġáĭ¨": 284,
      "áĭį": 285,
      "er": 286,
      "á»į": 287,
      "łáĪ": 288,
      "Ãł": 289,
      "inĠ": 290,
      "º¹": 291,
      "am": 292,
      "áĪĿ": 293,
      "waĠ": 294,
      "áĪį": 295,
      "yaĠ": 296,
      "áĪµ": 297,
      "uĠ": 298,
      "as": 299,
      "áº¹": 300,
      "anĠ": 301,
      "ak": 302,
      "daĠ": 303,
      "en": 304,
      "Ã©": 305,
      "il": 306,
      "or": 307,
      "arĠ": 308,
      "ik": 309,
      "on": 310,
      "is": 311,
      "áį¢": 312,
      "tĠ": 313,
      "áº¹Ì": 314,
      "Ã¬": 315,
      "áĬĵ": 316,
      "Ġáīł": 317,
      "áī°": 318,
      "ku": 319,
      "ÃŃĠ": 320,
      "áĭ«": 321,
      "áĪĪ": 322,
      "ĠáĮ": 323,
      "it": 324,
      "Ã¡": 325,
      "áĭŃ": 326,
      "áĪĺ": 327,
      "naĠ": 328,
      "ĠáĬ¥": 329,
      "áī½": 330,
      "dĠ": 331,
      "th": 332,
      "ab": 333,
      "ĠáĬł": 334,
      "á»įÌ": 335,
      "ir": 336,
      "un": 337,
      "ur": 338,
      "áĭ°": 339,
      "áĬĲ": 340,
      "Ãº": 341,
      "áī¥": 342,
      "19": 343,
      "áĪ¨": 344,
      "áĮĪ": 345,
      "sh": 346,
      "onĠ": 347,
      "áĭµ": 348,
      "taĠ": 349,
      "ch": 350,
      "ay": 351,
      "áĪĭ": 352,
      "ĠáĬĲ": 353,
      "áĮį": 354,
      "el": 355,
      "Ã³": 356,
      "es": 357,
      "esĠ": 358,
      "ĠáĪĺ": 359,
      ".Ġ": 360,
      "gb": 361,
      "om": 362,
      "áīł": 363,
      "Ã¨": 364,
      "áĪ«": 365,
      "ad": 366,
      "áī³": 367,
      "ol": 368,
      "ĠáĬ¨": 369,
      "im": 370,
      "áĬŃ": 371,
      "of": 372,
      "Ġ(": 373,
      "20": 374,
      "áº¹ÌĢ": 375,
      "áĪĽ": 376,
      "áº¹Ìģ": 377,
      "áĪ³": 378,
      "áī£": 379,
      "á»įÌģ": 380,
      "yĠ": 381,
      "niĠ": 382,
      "em": 383,
      "Ġáį": 384,
      "iy": 385,
      "ag": 386,
      "deĠ": 387,
      "ic": 388,
      "unĠ": 389,
      "us": 390,
      "¹£": 391,
      "áĬĽ": 392,
      "Ġáī°": 393,
      ")Ġ": 394,
      "theĠ": 395,
      "áĪª": 396,
      "ĠáĭŃ": 397,
      "ĠáīłáĪ": 398,
      "tiĠ": 399,
      "Ġáĭ¨áĪ": 400,
      "ul": 401,
      "aĠm": 402,
      "Ã²": 403,
      "ok": 404,
      "a,Ġ": 405,
      "ĠáĬłáĪ": 406,
      "ÃłĠ": 407,
      "áĪħ": 408,
      "wá»į": 409,
      "áĮ¥": 410,
      "áĬ¨": 411,
      "áį£": 412,
      "ĠáĪĿ": 413,
      "Ã©Ġ": 414,
      "Ġáĭ¨áĬ": 415,
      "ing": 416,
      "iaĠ": 417,
      "af": 418,
      "um": 419,
      "ĠáĭĪ": 420,
      "áį¡": 421,
      "aj": 422,
      "âĢ": 423,
      "ofĠ": 424,
      "enĠ": 425,
      "áįį": 426,
      "áĭ³": 427,
      "ĠáĬĲáĭį": 428,
      "ek": 429,
      "áīĢ": 430,
      "ali": 431,
      "áĭ¨": 432,
      "wan": 433,
      "ac": 434,
      "aĠk": 435,
      "ut": 436,
      "Ã¹": 437,
      "ĠáĬ¥áĬķ": 438,
      "áĭĪ": 439,
      "erĠ": 440,
      "Ã³Ġ": 441,
      "Ġá»į": 442,
      "ai": 443,
      "a.": 444,
      "aw": 445,
      "áĪ°": 446,
      "áīħ": 447,
      "ap": 448,
      "uk": 449,
      "á¹£": 450,
      "edĠ": 451,
      "áĪĮ": 452,
      "áĬ«": 453,
      "tr": 454,
      "ĠáĪĪ": 455,
      "wá»įnĠ": 456,
      "ig": 457,
      "ah": 458,
      "ib": 459,
      "áĬł": 460,
      "laĠ": 461,
      "e,Ġ": 462,
      "ati": 463,
      "id": 464,
      "ĠáĬĲáĭįáį¢": 465,
      "toĠ": 466,
      "leĠ": 467,
      "ĠáĪµ": 468,
      "áī¸": 469,
      "os": 470,
      "Ġáĭ«": 471,
      "tÃŃĠ": 472,
      "re": 473,
      "áº¹ÌĢĠ": 474,
      "kum": 475,
      "á»įÌĢ": 476,
      "áĪī": 477,
      "aiĠ": 478,
      "Ġáĭĵ": 479,
      "az": 480,
      "qu": 481,
      "andĠ": 482,
      "akaĠ": 483,
      "áīłáĪ": 484,
      "áĭĬ": 485,
      "ti": 486,
      "áĭĭ": 487,
      "áĪ®": 488,
      "áī±": 489,
      "İáī½": 490,
      "araĠ": 491,
      "áī¸áĭį": 492,
      "áįĪ": 493,
      "Ã¡Ġ": 494,
      "Ġáĭ¨áĪļ": 495,
      "iĠyaĠ": 496,
      "baĠ": 497,
      "ro": 498,
      "áĭĿ": 499,
      "áĮ£": 500,
      "áĪįáį¢": 501,
      "áĪĨ": 502,
      "ĠáĪĽ": 503,
      "ÆĻ": 504,
      "nÃŃĠ": 505,
      ":Ġ": 506,
      "áº¹ÌģĠ": 507,
      "-Ġ": 508,
      "áĭļ": 509,
      "ÃºĠ": 510,
      "áī¶": 511,
      "ish": 512,
      "alĠ": 513,
      "ÃºnĠ": 514,
      "áĪ³áĪĮ": 515,
      "áĮł": 516,
      "ÃĢ": 517,
      "áĮī": 518,
      "ceĠ": 519,
      "anaĠ": 520,
      "neĠ": 521,
      "áĮĭ": 522,
      "á»įĠ": 523,
      "isĠ": 524,
      "op": 525,
      "ĠáīłáĬ": 526,
      "áĭ®": 527,
      "ug": 528,
      "ĠáĪĿáĪ³áĪĮ": 529,
      "nÃŃ": 530,
      "le": 531,
      "18": 532,
      "ang": 533,
      "i,Ġ": 534,
      "asĠ": 535,
      "ĠáĪ²": 536,
      "áĭ²": 537,
      "Ã¨Ġ": 538,
      "áĬķáĭµ": 539,
      "entĠ": 540,
      "ĠáĮį": 541,
      "200": 542,
      "ip": 543,
      "Ġáīµ": 544,
      "shek": 545,
      "iĠwaĠ": 546,
      "áĭİáī½": 547,
      "zaĠ": 548,
      "ec": 549,
      "ot": 550,
      "Ġáĭĺ": 551,
      "uwaĠ": 552,
      "kumaĠ": 553,
      "áĪ¥": 554,
      "ikaĠ": 555,
      "iv": 556,
      "áīĥ": 557,
      "ash": 558,
      "201": 559,
      "iyaĠ": 560,
      "og": 561,
      "et": 562,
      "all": 563,
      "áĬĸ": 564,
      "áĪŀ": 565,
      "áĭĺ": 566,
      "Al": 567,
      "ob": 568,
      "Ġáĭ¨áī°": 569,
      "etĠ": 570,
      "if": 571,
      "ist": 572,
      "Th": 573,
      "ĠáĬ¥áĬĵ": 574,
      "ingĠ": 575,
      "Ġk": 576,
      "ent": 577,
      "tok": 578,
      "iĠk": 579,
      "áĬĲáīµ": 580,
      "ĠáĪ°": 581,
      "Ġáī¥": 582,
      "áĬ¥": 583,
      "áĪĬ": 584,
      "ikinĠ": 585,
      "áĪ©": 586,
      "ub": 587,
      "fr": 588,
      "Ġáĭį": 589,
      "áĪĻ": 590,
      "akeĠ": 591,
      "and": 592,
      "e.": 593,
      "ÌĢ": 594,
      "áĬķáĮį": 595,
      "ud": 596,
      "i.": 597,
      "aniĠ": 598,
      "ĠáīĢ": 599,
      "oj": 600,
      "Ã²Ġ": 601,
      "ih": 602,
      "ij": 603,
      "ow": 604,
      "pr": 605,
      "Ã¬Ġ": 606,
      "st": 607,
      "áīłáĪŃ": 608,
      "Ġáĭ°": 609,
      "ĭáĭŃ": 610,
      "00": 611,
      "ĠáĬ¥áĬķáĭ°": 612,
      "iĠm": 613,
      "wat": 614,
      "áĭĽ": 615,
      "amaĠ": 616,
      "ÃĮ": 617,
      "Ġáĭ¨áĬłáĪ": 618,
      "ou": 619,
      "od": 620,
      "amb": 621,
      "áĪļ": 622,
      "lÃ¡": 623,
      "ed": 624,
      "Ġáº¹": 625,
      "av": 626,
      "ĠáĬŃ": 627,
      "áĪİ": 628,
      "atiĠ": 629,
      "kas": 630,
      "áĮħ": 631,
      "áī²": 632,
      "áī¢": 633,
      "AĠ": 634,
      "for": 635,
      "áĬĳ": 636,
      "eĠd": 637,
      "ant": 638,
      "áįĭ": 639,
      "ĠáĪį": 640,
      "ung": 641,
      "rÃŃ": 642,
      "agaĠ": 643,
      "Ġá¹£": 644,
      "cikinĠ": 645,
      "Am": 646,
      "Ch": 647,
      "áĬĿ": 648,
      "áĪ±": 649,
      "jeĠ": 650,
      "wakaĠ": 651,
      "áį¤": 652,
      "au": 653,
      "áĪĨáĬķ": 654,
      "áº¹Ġ": 655,
      "Mar": 656,
      "á»įÌģĠ": 657,
      "áĪ½": 658,
      "á»įÌĢĠ": 659,
      "ew": 660,
      "áĮİ": 661,
      "Ãłwá»įnĠ": 662,
      "ĠáĪĭáĭŃ": 663,
      "áĭ«áĬķ": 664,
      "ov": 665,
      "iz": 666,
      "áĪĪáĭį": 667,
      "lesĠ": 668,
      "Ġáī³": 669,
      "areĠ": 670,
      "Â«": 671,
      "Ġáĭµ": 672,
      "nd": 673,
      "),Ġ": 674,
      "ep": 675,
      "áĪŃáĬĽ": 676,
      "ts": 677,
      "our": 678,
      "ikiĠ": 679,
      "áĭ±": 680,
      "áĪģ": 681,
      "Ġáī£": 682,
      "anc": 683,
      "ans": 684,
      "199": 685,
      "ind": 686,
      "con": 687,
      "ann": 688,
      "elĠ": 689,
      "áĭļáĪħ": 690,
      "¢áīµ": 691,
      "ter": 692,
      "oc": 693,
      "ĽáĪŃáĬĽ": 694,
      "¢áīµáĭ®": 695,
      "ark": 696,
      "áĮµ": 697,
      "áĬĴ": 698,
      "áĭķ": 699,
      "0Ġ": 700,
      "áīĨ": 701,
      "o,Ġ": 702,
      "Â»": 703,
      "áĮĢ": 704,
      "adaĠ": 705,
      "ĠáīłáĪĺ": 706,
      "¢áīµáĭ®áĮµ": 707,
      "TheĠ": 708,
      "ĵĠ": 709,
      "oĠyaĠ": 710,
      "up": 711,
      "auĠ": 712,
      "iĠnaĠ": 713,
      "shekar": 714,
      "Ġá»įd": 715,
      "dagaĠ": 716,
      "ÃĢwá»įnĠ": 717,
      "áĪĪáīµ": 718,
      "ÉĹ": 719,
      "áĮ½": 720,
      "ng": 721,
      "áĮĪáĪŃ": 722,
      "áĪ¬": 723,
      "ÅĦ": 724,
      "usĠ": 725,
      "oy": 726,
      "ÃłtiĠ": 727,
      "aĠyaĠ": 728,
      "was": 729,
      "áī¡": 730,
      "áĪµáĮ¥": 731,
      "á»įÌģnĠ": 732,
      "¢áīµáĭ®áĮµáĭ«": 733,
      "com": 734,
      "Ġáĭ¨áĬłáĪĽáĪŃáĬĽ": 735,
      "ĠA": 736,
      "uw": 737,
      "áĪ¨áīµ": 738,
      "bÃŃĠ": 739,
      "ain": 740,
      "ation": 741,
      "gaĠ": 742,
      "estĠ": 743,
      "waĠm": 744,
      "ĠáĪĿáĪ³áĪĮĠáĬĲáĭįáį¢": 745,
      "oh": 746,
      "anz": 747,
      "Sh": 748,
      "tÃŃĠÃ³Ġ": 749,
      "áīłáīµ": 750,
      "Ġáĭ¨áĬłáĪĽáĪŃáĬĽĠáĪĿáĪ³áĪĮĠáĬĲáĭįáį¢": 751,
      "iyarĠ": 752,
      "ĠáĬĲáīłáĪŃ": 753,
      "jáº¹ÌģĠ": 754,
      "áĭľ": 755,
      "ĠáĮ¥": 756,
      "aĠh": 757,
      "áĪĺáĬķ": 758,
      "pl": 759,
      "ÃłnĠ": 760,
      "e-": 761,
      "l'": 762,
      "amm": 763,
      "atĠ": 764,
      "aĠnaĠ": 765,
      "ion": 766,
      "áĪ»": 767,
      "Ġ1": 768,
      "aif": 769,
      "âĢĻ": 770,
      "ĠáĭĪáĭ°": 771,
      "ĠáĪĨ": 772,
      "a.Ġ": 773,
      "ĠáĮĪ": 774,
      "áĪµáīµ": 775,
      "ĠáĬ¨áī°": 776,
      "láº¹ÌĢĠ": 777,
      "1Ġ": 778,
      "a'": 779,
      "áī»": 780,
      "ationĠ": 781,
      "ayaĠ": 782,
      "waĠk": 783,
      "wen": 784,
      "ĠáĬķ": 785,
      "iniĠ": 786,
      "ej": 787,
      ";Ġ": 788,
      "shiĠ": 789,
      "uz": 790,
      "5Ġ": 791,
      "ev": 792,
      "aĠs": 793,
      "áĭ©": 794,
      "2Ġ": 795,
      "198": 796,
      "daĠk": 797,
      "ers": 798,
      "Ġd": 799,
      "áĭĵ": 800,
      "áįĬ": 801,
      "uĠm": 802,
      ").": 803,
      "eg": 804,
      "ariĠ": 805,
      "áĭįáĬķ": 806,
      "áī¶áī½": 807,
      "hĠ": 808,
      "Wali": 809,
      "atikaĠ": 810,
      "art": 811,
      "ats": 812,
      "ĠáĬ¥áĪµ": 813,
      "awaĠ": 814,
      "ong": 815,
      "ĠáĭįáĪµáĮ¥": 816,
      "kanĠ": 817,
      "ráº¹ÌĢĠ": 818,
      "ĠáĬłáĭŃ": 819,
      "wak": 820,
      "áĪŃáĮī": 821,
      "ataĠ": 822,
      ",Ġm": 823,
      "ex": 824,
      "eb": 825,
      "su": 826,
      "Ġá»įdÃºnĠ": 827,
      "eĠm": 828,
      "kutok": 829,
      "sÃŃĠ": 830,
      "Ĭáĭľ": 831,
      "ofĠtheĠ": 832,
      "áĮłáĪ": 833,
      "ajer": 834,
      "inaĠ": 835,
      "áĪªáĭ«": 836,
      "áĬĶ": 837,
      "ank": 838,
      "197": 839,
      "áīĭ": 840,
      "ĠáĪģ": 841,
      "áĭ¶": 842,
      "end": 843,
      "Ã©r": 844,
      "wá»įn": 845,
      "196": 846,
      "siĠ": 847,
      "6Ġ": 848,
      "áĪ²": 849,
      "ill": 850,
      "áĬĽáĭį": 851,
      "7Ġ": 852,
      "4Ġ": 853,
      "áĬłáĪ": 854,
      "arĠdaĠ": 855,
      "áī¦": 856,
      "hu": 857,
      "lÃºĠ": 858,
      "Ã¨d": 859,
      "áĭŃáĪĿ": 860,
      "asiĠ": 861,
      "ez": 862,
      "3Ġ": 863,
      "icĠ": 864,
      "Ã¬j": 865,
      "Najer": 866,
      "Ab": 867,
      "Itok": 868,
      "shekaraĠ": 869,
      "áĪŃáĪµ": 870,
      "ich": 871,
      "áĬ¤": 872,
      "ineĠ": 873,
      "áĪľ": 874,
      "reĠ": 875,
      "ÃŃn": 876,
      "Ġáīłáī°": 877,
      "ionĠ": 878,
      "ach": 879,
      "áĪĲ": 880,
      "áĭĻ": 881,
      "áĬ®": 882,
      "Ar": 883,
      "Ã¹Ġ": 884,
      "áī¤": 885,
      "Ġáīħ": 886,
      "shekararĠ": 887,
      "asarĠ": 888,
      "aĠdaĠ": 889,
      "air": 890,
      "ĠáĬłáĪµ": 891,
      "ĠáĪ¥": 892,
      "Ġáī¤": 893,
      "pro": 894,
      "eh": 895,
      "iwaĠ": 896,
      "ĠáĬ«": 897,
      "s,Ġ": 898,
      "ĠáīµáĪŃáĮī": 899,
      "Ġáĭ¨áĪĺ": 900,
      "áĬ©": 901,
      "orĠ": 902,
      "ĠáĮįáĬķ": 903,
      "sam": 904,
      "áĪªáĬŃ": 905,
      "wá»įÌģnĠ": 906,
      "any": 907,
      "ĠáĬ¥áĬķáĭ²": 908,
      "ileĠ": 909,
      "Afr": 910,
      "uc": 911,
      "Ã¨dÃ¨Ġ": 912,
      "und": 913,
      "ĠÂ«": 914,
      "oz": 915,
      "ayinĠ": 916,
      "ĠáĮĭ": 917,
      "Ġáĭ¨áĬł": 918,
      "áīģ": 919,
      "áĮ¨": 920,
      "nch": 921,
      "ef": 922,
      "ani": 923,
      "queĠ": 924,
      "»Į": 925,
      "áī¹": 926,
      "ikuwaĠ": 927,
      "yiĠ": 928,
      "anceĠ": 929,
      "ass": 930,
      "áīłáĪ¨": 931,
      "ĠáĪ²áĪĨáĬķ": 932,
      "uh": 933,
      "áį¡áį¡": 934,
      "ĭáĪĭ": 935,
      "áĮĥ": 936,
      "áĬŃáĪį": 937,
      ".ĠM": 938,
      "St": 939,
      "yÃ¬": 940,
      "o.": 941,
      "áĪĥ": 942,
      "»áį": 943,
      "asaĠ": 944,
      "oĠk": 945,
      "naĠm": 946,
      "ĠáīµáĪŃáĮīáĪĻ": 947,
      "ĠáĬĲáīłáĪŃáį¢": 948,
      "nÃ¡": 949,
      "kutokaĠ": 950,
      "oĠm": 951,
      "ĠáīłáĬł": 952,
      "rÃ©": 953,
      "ĠáĬłáĬķ": 954,
      "áĪ´": 955,
      ".áĪĿ": 956,
      "lÃ³": 957,
      "nÃŃn": 958,
      "wandaĠ": 959,
      "ÅĦĠ": 960,
      "Ad": 961,
      "aĠb": 962,
      "agb": 963,
      "ĠáĪ³": 964,
      "²áį": 965,
      "áī´": 966,
      "emb": 967,
      "arinĠ": 968,
      "eĠs": 969,
      "abb": 970,
      "ess": 971,
      "áĮŃ": 972,
      "ĠáĪĺáĬķáĮį": 973,
      "ell": 974,
      "Ġáĭ¨áĬłáĪĽáĪŃáĬĽĠáĪĿáĪ³áĪĮĠáĬĲáĭįáį¢ĠáīµáĪŃáĮīáĪĻ": 975,
      "Ã¹nĠ": 976,
      "ĠáĮĬáĭľ": 977,
      "ĠáīĢáĬķ": 978,
      "\"Ġ": 979,
      "ĠáĭĪáĭŃáĪĿ": 980,
      "Ġáĭĭ": 981,
      "aĠcikinĠ": 982,
      "An": 983,
      "áī³áīµ": 984,
      "ansĠ": 985,
      "Ġ-": 986,
      "iharĠ": 987,
      "antĠ": 988,
      "Ġáĭĵ.áĪĿ": 989,
      "shekaraĠtaĠ": 990,
      "aur": 991,
      "inc": 992,
      "uĠyaĠ": 993,
      "9Ġ": 994,
      "yeĠ": 995,
      "láº¹ÌĢ": 996,
      "áĪªáĬ«": 997,
      "Ġáº¹ÌĢ": 998,
      "ItokasiĠ": 999,
      "wasĠ": 1000,
      "ereĠ": 1001,
      "ioĠ": 1002,
      "iá¹£": 1003,
      "âĢĵĠ": 1004,
      "tar": 1005,
      "aĠd": 1006,
      "ni": 1007,
      "wam": 1008,
      "ĠáĪµáĪĪ": 1009,
      "ĠáĬłáĪĪ": 1010,
      "8Ġ": 1011,
      "ementĠ": 1012,
      "orÃŃ": 1013,
      "ĠáĬĵ": 1014,
      "195": 1015,
      "desĠ": 1016,
      "áĪ¨áīµáĬĵ": 1017,
      "tÃ³Ġ": 1018,
      "áĮ»": 1019,
      "ĠáĪĬ": 1020,
      "In": 1021,
      "daĠs": 1022,
      "Ġáī¢": 1023,
      "ĠáįĪ": 1024,
      "omĠ": 1025,
      "u,Ġ": 1026,
      "meĠ": 1027,
      "ĠáĬ¥áĪµáĬ¨": 1028,
      "áĪĪáĪĿ": 1029,
      "yaĠK": 1030,
      "xĠ": 1031,
      "itaĠ": 1032,
      "wa": 1033,
      "ĠáīłáĬĭáĪĭ": 1034,
      "áĪ¨áīµáĬĵĠáĪĿáĪ³áĪĮ": 1035,
      "ĠáĬķáĮī": 1036,
      "aut": 1037,
      "Ġá¹£eĠ": 1038,
      "est": 1039,
      "kar": 1040,
      "fÃºnĠ": 1041,
      "rinĠ": 1042,
      "áĪ¥áīµ": 1043,
      "bay": 1044,
      "áį»áį": 1045,
      "uf": 1046,
      "ĠáĭŃáĪħ": 1047,
      "aĠtaĠ": 1048,
      "ilĠ": 1049,
      "biĠ": 1050,
      "Un": 1051,
      "Jam": 1052,
      "ran": 1053,
      "ĠáĭĺáĪĺáĬķ": 1054,
      "es,Ġ": 1055,
      "gbÃłĠ": 1056,
      "áĪ¨áĪµ": 1057,
      "war": 1058,
      "wh": 1059,
      "áĬķáĪĿ": 1060,
      "urĠ": 1061,
      "17": 1062,
      "ugh": 1063,
      "Ġá»įm": 1064,
      "aninĠ": 1065,
      "ĠáĬŃáįį": 1066,
      "áĪ®áī½": 1067,
      "uneĠ": 1068,
      "áĪķ": 1069,
      "ieĠ": 1070,
      "áĮ«": 1071,
      "sÃŃ": 1072,
      "Ġáī°áĪ¨áīµáĬĵĠáĪĿáĪ³áĪĮ": 1073,
      "ĠáĬ¨áī°áĪĽ": 1074,
      "ny": 1075,
      "ÃŃrÃŃ": 1076,
      "zuwaĠ": 1077,
      "Ġá»įÌĢ": 1078,
      "Nob": 1079,
      "itĠ": 1080,
      "aliĠ": 1081,
      "Il": 1082,
      "gbaĠ": 1083,
      "wit": 1084,
      "iw": 1085,
      "áĮĪáĬ": 1086,
      "áĭİ": 1087,
      "byĠ": 1088,
      "par": 1089,
      "Ġá»Į": 1090,
      "atik": 1091,
      "tak": 1092,
      "ĠáĭĵáĪĺ": 1093,
      "sÃ¬Ġ": 1094,
      "fir": 1095,
      "eri": 1096,
      "16": 1097,
      "NobelĠ": 1098,
      "15": 1099,
      "jam": 1100,
      "Ãłk": 1101,
      "acinĠ": 1102,
      "áĪŃáĭ«": 1103,
      "Mak": 1104,
      "ĠáĪĪáĪĺ": 1105,
      "áįĵ": 1106,
      "Ġáĭķ": 1107,
      "áĮĢáĪĺ": 1108,
      "forĠ": 1109,
      "awonĠ": 1110,
      "aĠf": 1111,
      "áī°áĬĽ": 1112,
      "ond": 1113,
      "aĠy": 1114,
      "kĠ": 1115,
      "ityĠ": 1116,
      "ha": 1117,
      "áĭ´": 1118,
      "Ġáĭĵ.áĪĿ.": 1119,
      "ersĠ": 1120,
      "anĠk": 1121,
      "anĠm": 1122,
      "uĠk": 1123,
      "d'": 1124,
      "raĠ": 1125,
      "Kar": 1126,
      "áĮįáĪŀ": 1127,
      "194": 1128,
      "NÃł": 1129,
      "erÃ©Ġ": 1130,
      "aadaĠ": 1131,
      "atsayinĠ": 1132,
      "iiĠ": 1133,
      "eng": 1134,
      "Ġá»įj": 1135,
      "u.": 1136,
      "Br": 1137,
      "áį¦": 1138,
      "s.": 1139,
      "nÃŃnÃºĠ": 1140,
      "haif": 1141,
      "Ġáĭ«áĪį": 1142,
      "thĠ": 1143,
      "ciĠ": 1144,
      "|Ġ": 1145,
      "NÃłÃ¬j": 1146,
      "aliwaĠ": 1147,
      "'sĠ": 1148,
      "áĭµáĪŃ": 1149,
      "har": 1150,
      "Ã¬n": 1151,
      "imb": 1152,
      "ká»įÌģĠ": 1153,
      "aĠg": 1154,
      "tur": 1155,
      "bÃŃ": 1156,
      "aĠku": 1157,
      "NÃłÃ¬jÃŃrÃŃ": 1158,
      "As": 1159,
      "ĠáĮĢ": 1160,
      "Ol": 1161,
      "áĪ¶": 1162,
      "iliĠ": 1163,
      "att": 1164,
      "ĠáĬĲáĮĪ": 1165,
      "Fr": 1166,
      "y,Ġ": 1167,
      "Ġáįį": 1168,
      "Pr": 1169,
      "eoĠ": 1170,
      "Ãłn": 1171,
      "ĠáĬ¢": 1172,
      "suĠ": 1173,
      "dÃ©": 1174,
      "Ã¬y": 1175,
      "áī³áĭĪ": 1176,
      "ewaĠ": 1177,
      "watanĠ": 1178,
      "wall": 1179,
      "Ġáīģ": 1180,
      "daĠm": 1181,
      "rÃŃĠ": 1182,
      "áīµáĬķ": 1183,
      "ĠáĪķ": 1184,
      "duĠ": 1185,
      "Ãºn": 1186,
      "ĠáĮĭáĪŃ": 1187,
      "ĠáīłáĪĽ": 1188,
      "eĠdeĠ": 1189,
      "eĠ(": 1190,
      "aĠl": 1191,
      "por": 1192,
      "áĬŃáĪįáīł": 1193,
      "Ġáį¡": 1194,
      "arr": 1195,
      "amarĠ": 1196,
      "áĪīáį¢": 1197,
      "II": 1198,
      "áīĤ": 1199,
      "ĠáĭĵáĬŃáĪįáīł": 1200,
      "áĪİáī½": 1201,
      "Ã¬d": 1202,
      "áĮ¡": 1203,
      "wonĠ": 1204,
      "Nig": 1205,
      "áĭ°áĪ¨": 1206,
      "NajeriyaĠ": 1207,
      "daĠy": 1208,
      "ph": 1209,
      "amĠ": 1210,
      "ĠáĪļ": 1211,
      "¦áĪŃ": 1212,
      "Ġáĭ°áĮįáĪŀ": 1213,
      "unaĠ": 1214,
      "ĠáĬłáĬķáĭµ": 1215,
      "ais": 1216,
      "ÃĵĠ": 1217,
      "lÃ©": 1218,
      "áĭ°áĪŃ": 1219,
      "a-": 1220,
      "ĠáĬłáĪį": 1221,
      "áī°áĪ¨": 1222,
      "mĠ": 1223,
      "áĪĺáĬĲ": 1224,
      "wakaĠwaĠ": 1225,
      "áĮĪáĬĿ": 1226,
      "Man": 1227,
      "ens": 1228,
      "áĪŃáīµ": 1229,
      "Ã¨r": 1230,
      "Walioz": 1231,
      "AnĠ": 1232,
      "bir": 1233,
      "ayeĠ": 1234,
      "tionĠ": 1235,
      "áĬķáīµ": 1236,
      "ibiĠ": 1237,
      "nanĠ": 1238,
      "..": 1239,
      "yaĠk": 1240,
      "lyĠ": 1241,
      "lÃ¡tiĠ": 1242,
      "Ġáĭ¨áĬ¢áīµáĭ®áĮµáĭ«": 1243,
      "ĠáĪĺáĬķáĮįáĪ¥áīµ": 1244,
      "áĬķáĪµ": 1245,
      "áĪĶ": 1246,
      "fiĠ": 1247,
      "193": 1248,
      "wal": 1249,
      "uĠwaĠ": 1250,
      "irĠ": 1251,
      "aĠwaĠ": 1252,
      "nÃ¡ÃłĠ": 1253,
      "ĠáĪĪáĪĽ": 1254,
      "Ã©t": 1255,
      "oĠwaĠ": 1256,
      "Ġ2": 1257,
      "áīłáĪ©": 1258,
      "ofar": 1259,
      "Is": 1260,
      "áĬķáīĭ": 1261,
      "utan": 1262,
      "kuwaĠ": 1263,
      "parĠ": 1264,
      "áī½áĬķ": 1265,
      "ourĠ": 1266,
      "aĠmatsayinĠ": 1267,
      "áĬª": 1268,
      "artaĠ": 1269,
      "ugab": 1270,
      "áĪĭáĪįáį¢": 1271,
      "aryĠ": 1272,
      "lá»įÌģ": 1273,
      "ĠáĪĨáĬĲ": 1274,
      "Ġáĭ¨áĬĲ": 1275,
      "ayy": 1276,
      "áĬĵáīµ": 1277,
      "wali": 1278,
      "10": 1279,
      "withĠ": 1280,
      "14": 1281,
      "Waliofar": 1282,
      "uzoĠyaĠ": 1283,
      "aĠt": 1284,
      "ĠáĪįáĮħ": 1285,
      "ÆĻasarĠ": 1286,
      "funĠ": 1287,
      "e.Ġ": 1288,
      "ins": 1289,
      "pÃŃn": 1290,
      "inĠm": 1291,
      "inĠtheĠ": 1292,
      "diĠ": 1293,
      "Kan": 1294,
      "pe": 1295,
      "TuzoĠyaĠ": 1296,
      "láº¹ÌĢ-": 1297,
      "ari": 1298,
      "ĠáĭµáĪ¨áĪµ": 1299,
      "Ib": 1300,
      "daĠkumaĠ": 1301,
      "ĠáĭĿ": 1302,
      "apaĠ": 1303,
      "áĭļáĭ«": 1304,
      "olog": 1305,
      "áįī": 1306,
      "gab": 1307,
      "Ã¬t": 1308,
      "asuĠ": 1309,
      "shir": 1310,
      "ĠáĭĵáĬŃáĪįáīł.": 1311,
      "Marek": 1312,
      "Ġáĭ«áĪįáī°": 1313,
      "to": 1314,
      "ÃĴ": 1315,
      "edeĠ": 1316,
      "ey": 1317,
      "ath": 1318,
      "bÃ¡Ġ": 1319,
      "ayĠ": 1320,
      "yaĠm": 1321,
      "ontĠ": 1322,
      "chaĠ": 1323,
      "oun": 1324,
      "áĭ°áī¥": 1325,
      "had": 1326,
      "gr": 1327,
      "áī°áĪ¨áĮİ": 1328,
      "ta": 1329,
      "ateĠ": 1330,
      "Ãłr": 1331,
      "oĠniĠ": 1332,
      "cl": 1333,
      "Ã¬lÃºĠ": 1334,
      "ĠâĢ": 1335,
      "amf": 1336,
      "aceĠ": 1337,
      "tÃŃĠwá»įÌģnĠ": 1338,
      "fark": 1339,
      "ĠáĪħ": 1340,
      "deĠlaĠ": 1341,
      "shind": 1342,
      "áĮĬ": 1343,
      "umb": 1344,
      "fromĠ": 1345,
      "áī£áĪį": 1346,
      "ĠáĬ¤": 1347,
      "Ġáĭ¨áĬ¥": 1348,
      "Ġáīĭ": 1349,
      "ĠáĪµáĪĿ": 1350,
      "daĠkeĠ": 1351,
      "ĠáĪĮ": 1352,
      "áĪ£": 1353,
      "áĪĨáĬĳ": 1354,
      "áĪ¸": 1355,
      "ard": 1356,
      "ĠáĬłáĮĪ": 1357,
      "ĠáīłáĬ¥": 1358,
      "ĠáĪĢ": 1359,
      "²áį±": 1360,
      "áī¸áĭįáį¢": 1361,
      "pos": 1362,
      "cr": 1363,
      "áĬķáĭ«": 1364,
      "yanaĠ": 1365,
      "Amer": 1366,
      "iki": 1367,
      "láº¹ÌĢ-Ã¨dÃ¨Ġ": 1368,
      "ĠáĪĽáĪĪáīµ": 1369,
      "alis": 1370,
      "áĪĬáĭĿ": 1371,
      "chĠ": 1372,
      "TuzoĠyaĠNobelĠ": 1373,
      "aisĠ": 1374,
      "Ġá»įmá»įĠ": 1375,
      "an,Ġ": 1376,
      "istor": 1377,
      "áĪłáĪ": 1378,
      "ĠáĪĥ": 1379,
      "áī¸áĭįáĬķ": 1380,
      "anĠs": 1381,
      "lá»įĠ": 1382,
      "ninĠ": 1383,
      "ĠáĬķáĮīáĪ¥": 1384,
      "áĬ¨áī°": 1385,
      "maiĠ": 1386,
      "aĠ(": 1387,
      "áī±áĬķ": 1388,
      "áĪµáī°": 1389,
      "ilim": 1390,
      "áĭįáĭ«áĬķ": 1391,
      "te": 1392,
      "jiharĠ": 1393,
      "áįķ": 1394,
      "âĢĿ": 1395,
      "Ak": 1396,
      "waniĠ": 1397,
      "12": 1398,
      "biy": 1399,
      "seĠ": 1400,
      "áī°áĪ¨áĮİáĪĺ": 1401,
      "Ġáĭ¨áĪļáĭ«": 1402,
      "wÃłĠ": 1403,
      "áĪĢ": 1404,
      "es.": 1405,
      "ien": 1406,
      "tareĠ": 1407,
      "áī£áī¢": 1408,
      "neĠyaĠ": 1409,
      "uj": 1410,
      "ĠáĬłáĪĺ": 1411,
      "fil": 1412,
      "Ġáī³áĪªáĬŃ": 1413,
      "sab": 1414,
      "se": 1415,
      "thatĠ": 1416,
      "amuĠ": 1417,
      "áĬķáĮ": 1418,
      "ĠM": 1419,
      "ĠáīłáĬłáĪ": 1420,
      "Ġáĭ«áĪįáī°áī°áĪ¨áĮİáĪĺ": 1421,
      "Ġáĭ«áĪįáī°áī°áĪ¨áĮİáĪĺĠáĪĿáĪ³áĪĮ": 1422,
      "²áį±áį»áį": 1423,
      "rist": 1424,
      "shindiĠwaĠ": 1425,
      "ile-": 1426,
      "ht": 1427,
      "Ã²á¹£": 1428,
      "arÃ¡Ġ": 1429,
      "WaliozaliwaĠ": 1430,
      "fin": 1431,
      "ya": 1432,
      "Ġá»įjá»įÌģ": 1433,
      "er,Ġ": 1434,
      "áĪĦ": 1435,
      "ivers": 1436,
      "ĠáĮī": 1437,
      "ĠáĪ°áĭį": 1438,
      "13": 1439,
      "yÃŃĠ": 1440,
      "áĭĽáīµ": 1441,
      "ĠáīĭáĬķáīĭ": 1442,
      "adĠ": 1443,
      "Ġáĭ¨áĬłáĪĽáĪŃáĬĽĠáĪĿáĪ³áĪĮĠáĬĲáĭįáį¢ĠáīµáĪŃáĮīáĪĻĠáĭ«áĪįáī°áī°áĪ¨áĮİáĪĺĠáĪĿáĪ³áĪĮ": 1444,
      "aĠshekaraĠtaĠ": 1445,
      "inuĠ": 1446,
      "bu": 1447,
      "áĪŀáī½": 1448,
      "aus": 1449,
      "Yor": 1450,
      "yan": 1451,
      "donĠ": 1452,
      "oá¹£": 1453,
      "iqu": 1454,
      "áĮ¥áĪŃ": 1455,
      "Nij": 1456,
      "vyaĠ": 1457,
      "omb": 1458,
      "org": 1459,
      "soĠ": 1460,
      "áĪ«áīµ": 1461,
      "per": 1462,
      "tion": 1463,
      "Ġáĭ³": 1464,
      "ezaĠ": 1465,
      "atuk": 1466,
      "Ġáį£": 1467,
      "gbÃł": 1468,
      "áī£áīµ": 1469,
      "áī¥áĪŃ": 1470,
      "BaadaĠ": 1471,
      "ĠáĬłáĬ«": 1472,
      "sunĠ": 1473,
      "áĪł": 1474,
      "inĠk": 1475,
      "áĪįáĬŃ": 1476,
      "iĠ(": 1477,
      "/áĪĿ": 1478,
      "Ġáĭ¨áĪĽ": 1479,
      "aĠM": 1480,
      "Or": 1481,
      "abuĠ": 1482,
      "nam": 1483,
      "âĢĵ": 1484,
      "áĭĭáĪįáį¢": 1485,
      "Ġáī¥áĭĻ": 1486,
      "cor": 1487,
      "jir": 1488,
      "Ãłwá»įn": 1489,
      "Ã¹n": 1490,
      "sonĠ": 1491,
      "áĪĭáīµ": 1492,
      "ĠáĭŃáĮĪ": 1493,
      "koĠ": 1494,
      "áĬ¨áĪį": 1495,
      "áĪĿáĪ®": 1496,
      "kub": 1497,
      "iláº¹ÌĢĠ": 1498,
      "teĠ": 1499,
      "ili": 1500,
      "iá¹£áº¹ÌģĠ": 1501,
      "Wak": 1502,
      "pÃ©Ġ": 1503,
      "zam": 1504,
      "shindiĠwaĠTuzoĠyaĠNobelĠ": 1505,
      "Ġáĭĵ/áĪĿ": 1506,
      "Ã¨n": 1507,
      "anaĠnaĠ": 1508,
      "paĠ": 1509,
      "ĠáĪŀ": 1510,
      "ranarĠ": 1511,
      "Tar": 1512,
      "iya.": 1513,
      "áĪĭáĪį": 1514,
      "ĠáĮł": 1515,
      "áĪ³áĭŃ": 1516,
      "ageĠ": 1517,
      "WaliofarikiĠ": 1518,
      "tÃł": 1519,
      "láº¹Ìģ": 1520,
      "far": 1521,
      "Jan": 1522,
      "Ã¬w": 1523,
      "192": 1524,
      "ĠáĪĻ": 1525,
      "oĠnaĠ": 1526,
      "wasanĠ": 1527,
      "olÃ³": 1528,
      "Ok": 1529,
      "ouĠ": 1530,
      "áī³áĭĬ": 1531,
      "embaĠ": 1532,
      "ia": 1533,
      "umĠ": 1534,
      "Rom": 1535,
      "ĠáĬłáĪµáī°": 1536,
      "eur": 1537,
      "áĪĿáĪħ": 1538,
      "aid": 1539,
      "áĮĤ": 1540,
      "ĠáĮ½": 1541,
      "okacinĠ": 1542,
      "pÃŃnláº¹ÌĢĠ": 1543,
      "osĠ": 1544,
      "Ã©-": 1545,
      "wallonĠ": 1546,
      "alikuwaĠ": 1547,
      "ĠáĮİ": 1548,
      "oll": 1549,
      "ewĠ": 1550,
      "Tanz": 1551,
      "ká»įĠ": 1552,
      "áĪĺáĪŃ": 1553,
      "abbanĠ": 1554,
      "in,Ġ": 1555,
      "Ã²r": 1556,
      "awá»įnĠ": 1557,
      "ľáĪªáĬ«": 1558,
      "haifeĠ": 1559,
      "aniaĠ": 1560,
      "ĠáĪ³áĭŃ": 1561,
      "má»įÌĢĠ": 1562,
      "dun": 1563,
      "quiĠ": 1564,
      "ĠáĬ¥áĬķáĭ³": 1565,
      "ear": 1566,
      "iss": 1567,
      "áĬķáĭ³": 1568,
      "It": 1569,
      "ĠáĭĭáĬĵ": 1570,
      "hal": 1571,
      "ĠáĬ®": 1572,
      "sÃ¬": 1573,
      "áĮĨ": 1574,
      "ĠáīłáĪļ": 1575,
      "Mus": 1576,
      "áĭ²áĪµ": 1577,
      "ÃĪ": 1578,
      "uku": 1579,
      "ask": 1580,
      "ouv": 1581,
      "lÃ©Ġ": 1582,
      ".áĬł": 1583,
      "ahĠ": 1584,
      "aleĠ": 1585,
      "ogb": 1586,
      "áĮįáĪŃ": 1587,
      "uwarĠ": 1588,
      "hisĠ": 1589,
      "ĠáĪĺáĬķ": 1590,
      "ĠáĪĺáĪµ": 1591,
      ").ĠM": 1592,
      "áī·": 1593,
      "i'": 1594,
      "uĠmwakaĠ": 1595,
      "form": 1596,
      "san": 1597,
      "189": 1598,
      "imĠ": 1599,
      ",00": 1600,
      "Ãł.": 1601,
      "yarĠ": 1602,
      "afiĠ": 1603,
      "áĮłáĪŃ": 1604,
      "Ġáī¤áī°": 1605,
      "annanĠ": 1606,
      "orÃŃláº¹ÌĢ-Ã¨dÃ¨Ġ": 1607,
      "Ġáį¢": 1608,
      "áĭĿáī¥": 1609,
      "Ã¡n": 1610,
      "áĪĭáĭŃ": 1611,
      "yakeĠ": 1612,
      "PapaĠ": 1613,
      "aĠaĠ": 1614,
      "asi": 1615,
      "ajiĠ": 1616,
      "áĮĪáĬĺ": 1617,
      "comm": 1618,
      "Ki": 1619,
      "áĪĿĠáīł": 1620,
      "tor": 1621,
      "ser": 1622,
      "áįĸ": 1623,
      "be": 1624,
      "inger": 1625,
      "piaĠ": 1626,
      "ri": 1627,
      "ĠáĪģáĪī": 1628,
      "fĠ": 1629,
      "akiĠ": 1630,
      "Ġáĭ¨áĪĨ": 1631,
      "áĭī": 1632,
      "AfrikaĠ": 1633,
      "jer": 1634,
      "aziĠ": 1635,
      "Ġ:": 1636,
      "man": 1637,
      "ĠáįĬ": 1638,
      "=Ġ": 1639,
      "o-": 1640,
      "ern": 1641,
      "áĬŀ": 1642,
      "ukaĠ": 1643,
      "atiĠyaĠ": 1644,
      "atikaĠm": 1645,
      "wenyeĠ": 1646,
      "icalĠ": 1647,
      "aĠkar": 1648,
      "li": 1649,
      "int": 1650,
      "iya,Ġ": 1651,
      "itt": 1652,
      "Ã¹Ġk": 1653,
      "ĠáĬłáĪĿ": 1654,
      "áĮĢáĪĺáĪªáĭ«": 1655,
      "Ġáĭ¨áĪĿ": 1656,
      "aul": 1657,
      "kus": 1658,
      "à¤": 1659,
      "azartaĠ": 1660,
      "tanaĠ": 1661,
      "ÃĢwá»įn": 1662,
      "áĪŃáĪµáī²": 1663,
      "tern": 1664,
      "Com": 1665,
      "oth": 1666,
      "áĪĨáĬĲ": 1667,
      "arg": 1668,
      "the": 1669,
      "ĠáĪĺáĭ°áī¥": 1670,
      "--": 1671,
      "indaĠ": 1672,
      "esh": 1673,
      ".ĠItokasiĠ": 1674,
      "áĪ«áĭĬ": 1675,
      "oriĠ": 1676,
      "Gu": 1677,
      "Joh": 1678,
      "OĠ": 1679,
      "sunaĠ": 1680,
      "fic": 1681,
      "ris": 1682,
      "Ġáĭ¨áĬłáĪĽáĪŃáĬĽĠáĪĿáĪ³áĪĮĠáĬĲáĭįáį¢ĠáīµáĪŃáĮīáĪĻĠáĭ«áĪįáī°áī°áĪ¨áĮİáĪĺĠáĪĿáĪ³áĪĮĠáī°áĪ¨áīµáĬĵĠáĪĿáĪ³áĪĮ": 1683,
      "ationalĠ": 1684,
      "Ã¬á¹£": 1685,
      "ĠáĪ°áĭİáī½": 1686,
      "ahus": 1687,
      "Ã¬yÃłnĠ": 1688,
      "iiĠin": 1689,
      "190": 1690,
      "entr": 1691,
      "antaĠ": 1692,
      "º¸": 1693,
      "otĠ": 1694,
      "latiĠ": 1695,
      "afinĠ": 1696,
      "Afir": 1697,
      "áī½áį¢": 1698,
      "danĠ": 1699,
      "eĠofĠ": 1700,
      "stĠ": 1701,
      "Ind": 1702,
      "eĠdaĠ": 1703,
      "Nijer": 1704,
      "ile-edeĠ": 1705,
      "Univers": 1706,
      "kÃ³": 1707,
      "waj": 1708,
      "Ġáī¦": 1709,
      "ĠáĬĲáĮĪáĪŃ": 1710,
      "áįİ": 1711,
      "kasanceĠ": 1712,
      "Ãª": 1713,
      "eĠk": 1714,
      "dansĠ": 1715,
      "alÃ¡": 1716,
      "Ġáīłáĭĺ": 1717,
      "emi": 1718,
      "oci": 1719,
      "waĠnaĠ": 1720,
      "uĠnaĠ": 1721,
      "eaĠ": 1722,
      "áĬķáĮįáĪĬáĭĿ": 1723,
      "res": 1724,
      "enc": 1725,
      "áº¹Ìģg": 1726,
      "tareĠdaĠ": 1727,
      "andaĠ": 1728,
      "aĠkwaĠ": 1729,
      "alaĠh": 1730,
      "áī°áĭį": 1731,
      "Ġáī°áĪĺ": 1732,
      "áī¦áī½": 1733,
      "abiĠ": 1734,
      "urk": 1735,
      "1.": 1736,
      "on,Ġ": 1737,
      "áĪĿáį¢": 1738,
      "lugh": 1739,
      "0.": 1740,
      "áĮ¸": 1741,
      "aitĠ": 1742,
      "lá»į": 1743,
      "áīµĠáĭ¨": 1744,
      "ju": 1745,
      "nchiĠ": 1746,
      "wad": 1747,
      "bÃ¡": 1748,
      "pourĠ": 1749,
      "pá»įÌĢĠ": 1750,
      "áĬķĠáĬł": 1751,
      "icanĠ": 1752,
      "áį¥": 1753,
      "terĠ": 1754,
      "áĮłáīĢ": 1755,
      "di": 1756,
      "aĠn": 1757,
      "iriĠ": 1758,
      "El": 1759,
      "áĪĽáĪª": 1760,
      "ĠáīĨ": 1761,
      "oĠ(": 1762,
      "risto": 1763,
      "Ġáĭ¨áĪļáĮĪáĬĿ": 1764,
      "Ã©eĠ": 1765,
      "part": 1766,
      "iliy": 1767,
      "amp": 1768,
      "hak": 1769,
      "ashinĠ": 1770,
      "1,Ġ": 1771,
      "kut": 1772,
      "ichĠ": 1773,
      "CĠ": 1774,
      "JiharĠ": 1775,
      "ráº¹ÌĢ": 1776,
      "ru": 1777,
      "sĠ(": 1778,
      "way": 1779,
      "NÃŃ": 1780,
      "ĠáĭĵáĪĺáīµ": 1781,
      "MakalaĠh": 1782,
      "iiĠinahus": 1783,
      "áĪ¨áĭį": 1784,
      "ĠáĭĵáĪĿ": 1785,
      "ept": 1786,
      "páº¹ÌĢ": 1787,
      "ianĠ": 1788,
      "sp": 1789,
      "MakalaĠhiiĠinahus": 1790,
      "MakalaĠhiiĠinahusuĠmwakaĠ": 1791,
      "ool": 1792,
      "eu": 1793,
      "En": 1794,
      "shindiĠwaĠTuzoĠyaĠNobelĠyaĠ": 1795,
      "gu": 1796,
      "ma": 1797,
      "angu": 1798,
      "áĮĵ": 1799,
      "atukioĠ": 1800,
      "IĠ": 1801,
      "áĭŀ": 1802,
      "ord": 1803,
      "edĠtoĠ": 1804,
      "ĠáĬª": 1805,
      "áį£Ġáĭ¨": 1806,
      "we": 1807,
      "ustr": 1808,
      "áĮįáī¥": 1809,
      "mÃ¡": 1810,
      "ankinĠ": 1811,
      "enceĠ": 1812,
      "awanĠ": 1813,
      "atif": 1814,
      "sĠofĠ": 1815,
      "ĠáĪĿáĬŃ": 1816,
      "egb": 1817,
      "áĬ¢": 1818,
      "áĭ±áĪµ": 1819,
      "shugab": 1820,
      "Afirk": 1821,
      "áĬķĠáīł": 1822,
      "ehem": 1823,
      "dÃ¡": 1824,
      "ĠáĬ¥áĭ¨": 1825,
      "rit": 1826,
      "ĠáĪĺáĭ°áī¥Ġ:": 1827,
      "ayiĠ": 1828,
      "yÃ¬nĠ": 1829,
      "a)Ġ": 1830,
      "yaĠKristo": 1831,
      "Ã¨nÃ¬yÃłnĠ": 1832,
      ".áĬ¤": 1833,
      "kÃ²Ġ": 1834,
      "áĪĭáĬķáĭµ": 1835,
      "áĬĸáī½": 1836,
      "tel": 1837,
      "rap": 1838,
      "Jul": 1839,
      "ous": 1840,
      "áįĴ": 1841,
      "anĠhaifeĠ": 1842,
      "akar": 1843,
      "farkoĠ": 1844,
      "lin": 1845,
      "fi": 1846,
      "yaĠKristo).ĠM": 1847,
      "Ġ(BaadaĠ": 1848,
      "dagaĠcikinĠ": 1849,
      "gaĠwatanĠ": 1850,
      "yÃ¬ÃŃĠ": 1851,
      "aik": 1852,
      "Ġ(BaadaĠyaĠKristo).ĠM": 1853,
      "dh": 1854,
      "orile-edeĠ": 1855,
      "ĠáĪĭ": 1856,
      "ousĠ": 1857,
      "áĮĮ": 1858,
      "áĭ³áĬķ": 1859,
      "áĬ¥áĬķ": 1860,
      "áĮ¨áĪ¨": 1861,
      "Ġ3": 1862,
      "weng": 1863,
      "uat": 1864,
      "Ġáīĥ": 1865,
      "add": 1866,
      "mat": 1867,
      "asar": 1868,
      "gbÃ©": 1869,
      "ra": 1870,
      "áī³áī¸áĭį": 1871,
      "áĬłáī¥": 1872,
      "áīµĠáīł": 1873,
      "lak": 1874,
      "kÃł": 1875,
      "1-": 1876,
      "áĭŃáĪħ": 1877,
      "Wa": 1878,
      "yinĠ": 1879,
      "Sch": 1880,
      "ĠáĪĺáĬ«": 1881,
      "Col": 1882,
      "edĠbyĠ": 1883,
      "tunĠ": 1884,
      "birninĠ": 1885,
      "Ing": 1886,
      "áĮ¦": 1887,
      "áĪ¨áĮĥ": 1888,
      "ardĠ": 1889,
      "ubl": 1890,
      "áĪ¨áĬķ": 1891,
      "nÃŃĠá»įdÃºnĠ": 1892,
      "emberĠ": 1893,
      "báº¹ÌĢ": 1894,
      "oul": 1895,
      "áĪĿáĬĵ": 1896,
      "ĠáĪĲ": 1897,
      "olaĠ": 1898,
      "i.Ġ": 1899,
      "abil": 1900,
      "niĠm": 1901,
      "ishaĠ": 1902,
      "auk": 1903,
      "iesĠ": 1904,
      "pam": 1905,
      "InĠ": 1906,
      "ĠáĬ¨áĬł": 1907,
      "eriaĠ": 1908,
      "zin": 1909,
      "áĪĪáĭ«": 1910,
      "áī°áĪŃ": 1911,
      "Ġáī°áīĢ": 1912,
      "jáº¹Ìģ": 1913,
      "Ac": 1914,
      "ÆĻwallonĠ": 1915,
      "ninuĠ": 1916,
      "ĠáĬĲáīłáĪ¨": 1917,
      "sun": 1918,
      "yanĠ": 1919,
      "ilikuwaĠ": 1920,
      "áĭįĠáĭ¨": 1921,
      "Ã¬l": 1922,
      "áīµáĬĵ": 1923,
      "tÃºnĠ": 1924,
      "áĮĪáĭµ": 1925,
      "áīĨáĮ£": 1926,
      "\".": 1927,
      "Vi": 1928,
      "ĠáĪĨáĬĸ": 1929,
      "Ag": 1930,
      "deĠl'": 1931,
      ")ĠjeĠ": 1932,
      "comp": 1933,
      "daĠd": 1934,
      "vi": 1935,
      "áĪĺáĬĵ": 1936,
      "andeĠ": 1937,
      "Con": 1938,
      "Mat": 1939,
      "shiĠneĠ": 1940,
      "ĠáīłáĪµ": 1941,
      "tÃŃ": 1942,
      "áĪ¨áĭ³": 1943,
      "Nigeri": 1944,
      "mar": 1945,
      "rel": 1946,
      "str": 1947,
      "bayanĠ": 1948,
      "ĠáīłáĬ¢áīµáĭ®áĮµáĭ«": 1949,
      ".áĬ¤.áĬł": 1950,
      "ign": 1951,
      "an.": 1952,
      "áĬĲáĭļáĪħ": 1953,
      "aĠshekararĠ": 1954,
      "áĪĺáĪµ": 1955,
      "áĪĶáĪŃ": 1956,
      "peĠ": 1957,
      "áīħáĪĿ": 1958,
      "wÃ¡": 1959,
      "áĪĽáĭĬ": 1960,
      "ĠáĬĵáī¸áĭįáį¢": 1961,
      "áĪ°áī¥": 1962,
      "anoĠ": 1963,
      "ĠáĪ´": 1964,
      "Ġáįķ": 1965,
      "oteĠ": 1966,
      "bi": 1967,
      "áīª": 1968,
      "Ġ(BaadaĠyaĠKristo).ĠMatukioĠ": 1969,
      "mÃ©": 1970,
      "ĠáĭĺáĬķáĭµ": 1971,
      "weny": 1972,
      "0,Ġ": 1973,
      "áĪ°áĭį": 1974,
      "áįħ": 1975,
      "Ġáĭ¨áĪ°": 1976,
      "áĮĪáĬĻ": 1977,
      "ĠáĮ¨": 1978,
      "ĠáĬłáī¥": 1979,
      "Ġáī£áĪĪ": 1980,
      "wor": 1981,
      "ĠáĮĢáĪĿáĪ®": 1982,
      "Ġáī¤áīµ": 1983,
      "mentĠ": 1984,
      "já»įĠ": 1985,
      "manĠ": 1986,
      "ne": 1987,
      "áĭ¥": 1988,
      "bal": 1989,
      "ĠáĪ«": 1990,
      "áĮ½áĪĲ": 1991,
      "kul": 1992,
      "atur": 1993,
      "ayanĠ": 1994,
      "ia,Ġ": 1995,
      "inĠdaĠ": 1996,
      "Ġáĭ«áĪĪ": 1997,
      "aikiĠ": 1998,
      "Éĵ": 1999,
      "áĪŃáĪ±": 2000,
      "Ġáįĵ": 2001,
      "zamaĠ": 2002,
      "áĬķĠáĬ¨": 2003,
      "áįĬáīµ": 2004,
      "iqueĠ": 2005,
      "uniĠ": 2006,
      "All": 2007,
      "ĠS": 2008,
      "Ã©sĠ": 2009,
      "ulk": 2010,
      "ĠáĬ¢áīµáĭ®áĮµáĭ«": 2011,
      "ement": 2012,
      "ast": 2013,
      "áº¹Ìģgáº¹ÌģĠ": 2014,
      "antarĠ": 2015,
      "plusĠ": 2016,
      "pÃł": 2017,
      "2.": 2018,
      "2,Ġ": 2019,
      "omoĠ": 2020,
      "ĠáĬłáī£": 2021,
      "ĠáĮ¦áĪŃ": 2022,
      "anciĠ": 2023,
      "taĠk": 2024,
      "BK": 2025,
      "maĠ": 2026,
      "iseĠ": 2027,
      "jÃ¡": 2028,
      "po": 2029,
      "y.": 2030,
      "alinĠ": 2031,
      "áĭ¨áĪŃ": 2032,
      "Ġáĭ«áĪĪáĭį": 2033,
      "áī¡áī¥": 2034,
      "ia.": 2035,
      "ĠáĬłáĮĪáĪŃ": 2036,
      "okoĠ": 2037,
      "ĠáĮ¸": 2038,
      "Ed": 2039,
      "Ġáī¥áī»": 2040,
      "áĪĿĠáĭ¨": 2041,
      "min": 2042,
      "sy": 2043,
      "áº¹Ìģr": 2044,
      "Mal": 2045,
      "arab": 2046,
      "áī£áĪĪ": 2047,
      "5,Ġ": 2048,
      "tiv": 2049,
      "áĬ¤áĪį": 2050,
      "eheĠ": 2051,
      "Ġáī°áĭĪ": 2052,
      "ect": 2053,
      "NÃłÃ¬jÃŃrÃŃÃłĠ": 2054,
      "Ø§": 2055,
      "Ben": 2056,
      "á»įbaĠ": 2057,
      "áĪłáĪ¨": 2058,
      "gir": 2059,
      "áĪįáĮ£": 2060,
      "ber": 2061,
      "jáº¹Ġ": 2062,
      "saĠ": 2063,
      "beĠ": 2064,
      "ĥáĭŃ": 2065,
      "6,Ġ": 2066,
      "iraĠ": 2067,
      "tiĠoĠ": 2068,
      "áĭĭáĪį": 2069,
      "kwaĠ": 2070,
      "KarneĠyaĠ": 2071,
      "ojaĠnaĠ": 2072,
      "ĠáĪĺáĪį": 2073,
      "ko": 2074,
      "toĠtheĠ": 2075,
      "áį£Ġáīł": 2076,
      "ishĠ": 2077,
      "gbÃ©Ġ": 2078,
      "áĪīáīµ": 2079,
      "áī³áĪįáį¢": 2080,
      "áĪĭáī¸áĭį": 2081,
      "hur": 2082,
      "Le": 2083,
      "jÃºĠ": 2084,
      "itsĠ": 2085,
      "áº¹r": 2086,
      "ÆĻaf": 2087,
      "Tr": 2088,
      "eneoĠ": 2089,
      "Ùİ": 2090,
      "kÃŃĠ": 2091,
      "ĠáĬ¦": 2092,
      "ashar": 2093,
      "áĪĿĠáĬ¨": 2094,
      "ahar": 2095,
      "NewĠ": 2096,
      "Ġáī°áĬ¨": 2097,
      "lu": 2098,
      "odĠ": 2099,
      "nying": 2100,
      "laĠm": 2101,
      "omaĠ": 2102,
      "Ġ\"": 2103,
      "oniĠ": 2104,
      "land": 2105,
      "oá¹£Ã¹Ġk": 2106,
      "Ingil": 2107,
      "ww": 2108,
      "Gr": 2109,
      "áį²áį±áį»áį": 2110,
      "áº¹ÌģrÃŃ": 2111,
      "ĠáĬ¥áĬķáĭ²áĪģ": 2112,
      "lat": 2113,
      "áĬħ": 2114,
      "port": 2115,
      "Ge": 2116,
      "istr": 2117,
      "alaĠ": 2118,
      "7,Ġ": 2119,
      "MarekaniĠ": 2120,
      "áĭįáĪ®": 2121,
      "tsak": 2122,
      "ĠáĬ¥.áĬ¤.áĬł": 2123,
      "áĭµáĬķ": 2124,
      "LeĠ": 2125,
      "áĪļáĭ«": 2126,
      "2019": 2127,
      "ÙĦ": 2128,
      "akinĠ": 2129,
      "hukum": 2130,
      "ĠáīģáĮ¥áĪŃ": 2131,
      "intaĠ": 2132,
      "ÃĮpÃŃnláº¹ÌĢĠ": 2133,
      "Amáº¹ÌģrÃŃ": 2134,
      "ail": 2135,
      "adh": 2136,
      "5.": 2137,
      "waiĠ": 2138,
      "ishiĠ": 2139,
      "prÃ©": 2140,
      "ÆĻwallonĠÆĻaf": 2141,
      "Gh": 2142,
      "orinĠ": 2143,
      "a:Ġ": 2144,
      "4.": 2145,
      "Wat": 2146,
      "ĠáĪī": 2147,
      "ĠáĪ¥áĪŃ": 2148,
      "Far": 2149,
      "mon": 2150,
      "Janu": 2151,
      "acc": 2152,
      "Em": 2153,
      "ManazartaĠ": 2154,
      "sik": 2155,
      "ominĠ": 2156,
      "ivy": 2157,
      "aĠmwakaĠwaĠ": 2158,
      "woĠ": 2159,
      "Par": 2160,
      "daĠsuk": 2161,
      "ust": 2162,
      "whichĠ": 2163,
      "áĬĵáĪį": 2164,
      "Ġáĭ¨áĪĨáĬĲ": 2165,
      "lÃ¨Ġ": 2166,
      "ÃŃá¹£": 2167,
      "4,Ġ": 2168,
      "Ġáĭ®": 2169,
      "aliy": 2170,
      "Dun": 2171,
      "si": 2172,
      "vis": 2173,
      "dar": 2174,
      "áĪ¥áī³áīµ": 2175,
      "igh": 2176,
      "Har": 2177,
      "dakeĠ": 2178,
      "ĠáĭĪáĬķ": 2179,
      "áĪŃáĬŃ": 2180,
      "ĠáĮ£": 2181,
      "oir": 2182,
      "ait": 2183,
      "kÃ³Ġ": 2184,
      "Ãły": 2185,
      "ĠáīłáĪĿ": 2186,
      "áī¢áĭ«": 2187,
      "ĠáĬłáīł": 2188,
      "elleĠ": 2189,
      "ÃĮt": 2190,
      "áĬķĠáĭ«": 2191,
      "ationsĠ": 2192,
      "6.": 2193,
      "áĬ¦": 2194,
      "ĠB": 2195,
      "âĢľ": 2196,
      "cewaĠ": 2197,
      "lokacinĠ": 2198,
      "wamn": 2199,
      "7.": 2200,
      "isaĠ": 2201,
      "2018": 2202,
      "áĮ¨áĪ¨áĪ»": 2203,
      ").Ġ": 2204,
      "áĮłáĪ«": 2205,
      "ĠáĪĺáĭ°áī¥Ġ:Ġáī°áĪ¨áīµáĬĵĠáĪĿáĪ³áĪĮ": 2206,
      "áĮ¤": 2207,
      "áĭµáĪĿ": 2208,
      "mwan": 2209,
      "ĠáĭµáĪŃ": 2210,
      "ert": 2211,
      "ĠáĪľ": 2212,
      "áĬķĠáĪĺ": 2213,
      "ÃŃr": 2214,
      "suk": 2215,
      "áīµĠáĪĺ": 2216,
      "ĠáĬ¨áįį": 2217,
      "na": 2218,
      "ká»įÌĢ": 2219,
      "iluĠ": 2220,
      "At": 2221,
      "Nov": 2222,
      "kubwaĠ": 2223,
      "ilÃ©-": 2224,
      "ray": 2225,
      "Ġáī¡": 2226,
      "ĠáĪĺáĬ«áĬ¨áĪį": 2227,
      "fit": 2228,
      "áĬķáĬĵ": 2229,
      "áĬķĠáĭ¨": 2230,
      "ĠáīłáĪĭáĭŃ": 2231,
      "outĠ": 2232,
      "eĠdesĠ": 2233,
      "áĭİáī¹": 2234,
      "kÃłĠ": 2235,
      "lim": 2236,
      "ne,Ġ": 2237,
      "áĮįáĭļ": 2238,
      "ĠáīłáĭĺáĪĺáĬĲ": 2239,
      "UniversityĠ": 2240,
      "Ãłm": 2241,
      "áĬķáĮī": 2242,
      "bo": 2243,
      "áĪĺáĪĪ": 2244,
      "fal": 2245,
      "eth": 2246,
      "áĬ³": 2247,
      "Ãł,Ġ": 2248,
      "tit": 2249,
      "shig": 2250,
      "á»įÌģkas": 2251,
      "i-": 2252,
      "wÃ¡Ġ": 2253,
      "Ã¬r": 2254,
      "iĠkwaĠ": 2255,
      "abaĠ": 2256,
      "faraĠ": 2257,
      "ele": 2258,
      "ĠáīłáĪ°": 2259,
      "188": 2260,
      "langu": 2261,
      "Gre": 2262,
      "adeĠ": 2263,
      ",ĠandĠ": 2264,
      "kasarĠ": 2265,
      "avec": 2266,
      "áī¥áĪ¨": 2267,
      "Ã¨t": 2268,
      "áīħáĪŃ": 2269,
      "ĠáĬŃáįįáĪĪ": 2270,
      "áĪĽáĭŃ": 2271,
      "áĪħáĪį": 2272,
      "ialĠ": 2273,
      "pol": 2274,
      "ueĠ": 2275,
      "in.": 2276,
      "00Ġ": 2277,
      "miĠ": 2278,
      "ian": 2279,
      "itÃ©Ġ": 2280,
      "Ã¬m": 2281,
      "ativ": 2282,
      "Ãºr": 2283,
      "aun": 2284,
      "ĠáĬ¥áĪµáĬ¨Ġ": 2285,
      "áĪĿáĪħáĪŃáīµ": 2286,
      "iteĠ": 2287,
      "wakeĠ": 2288,
      "allyĠ": 2289,
      "3.": 2290,
      "igb": 2291,
      "ajiĠwaĠ": 2292,
      "kuf": 2293,
      "páº¹ÌĢlÃºĠ": 2294,
      "gáº¹Ìģgáº¹ÌģĠ": 2295,
      "sĠandĠ": 2296,
      "áĭŃáĭĪ": 2297,
      "col": 2298,
      "áįĥ": 2299,
      "tan": 2300,
      "Um": 2301,
      "yĠofĠ": 2302,
      "áīĦ": 2303,
      "Â«Ġ": 2304,
      "obaĠ": 2305,
      "áīµáį¢": 2306,
      "áĬķáĮįáĪĬáĭĿáĬĽ": 2307,
      "abar": 2308,
      "Ġáº¹gb": 2309,
      "ras": 2310,
      "yáº¹Ġ": 2311,
      "ÆĻar": 2312,
      "ananĠ": 2313,
      "3,Ġ": 2314,
      "wannanĠ": 2315,
      "yar": 2316,
      "uwanĠ": 2317,
      "uwan": 2318,
      "NĠ": 2319,
      "áĬķĠáĭŃ": 2320,
      "auxĠ": 2321,
      "áīĨáĮ£áĮłáĪŃ": 2322,
      "pel": 2323,
      "oĠvyaĠ": 2324,
      "uli": 2325,
      "Ã¨sĠ": 2326,
      "ĠáĪ½": 2327,
      "oĠh": 2328,
      "pin": 2329,
      "áĪµáī³": 2330,
      "Ãłw": 2331,
      "Ken": 2332,
      "ĠâĢľ": 2333,
      "Pro": 2334,
      "eĠd'": 2335,
      "sin": 2336,
      "oneĠ": 2337,
      "Ġáī¦áī³": 2338,
      "áĮįáĭļáĬłáī¥": 2339,
      "atedĠ": 2340,
      "Ã©n": 2341,
      "ĠáĬłáĪŃ": 2342,
      ")Ġ(": 2343,
      "áĭįáį¢": 2344,
      "áī¥áĪ«": 2345,
      "áĮģ": 2346,
      "Ph": 2347,
      "Ã©esĠ": 2348,
      "biyuĠ": 2349,
      "inĠs": 2350,
      "yak": 2351,
      "ingĠtheĠ": 2352,
      "itedĠ": 2353,
      "tp": 2354,
      "jama'": 2355,
      "//": 2356,
      "jiĠ": 2357,
      "ilÃ©Ġ": 2358,
      "kun": 2359,
      "gud": 2360,
      "Ray": 2361,
      "Ã¨reĠ": 2362,
      "Austr": 2363,
      "gbogb": 2364,
      "Ġ(BaadaĠyaĠKristo).ĠMatukioĠWaliozaliwaĠ": 2365,
      "Cl": 2366,
      "ambaĠ": 2367,
      "eĠduĠ": 2368,
      "20Ġ": 2369,
      "aĠranarĠ": 2370,
      "olÃ¹": 2371,
      "Af": 2372,
      "áĬŀáī½": 2373,
      "ajalis": 2374,
      "uv": 2375,
      "Feb": 2376,
      "sehem": 2377,
      "pamojaĠnaĠ": 2378,
      "Sept": 2379,
      "ĠáĬĲáīłáĪ©": 2380,
      "Histor": 2381,
      "áĪµáĬĵ": 2382,
      "Ã§": 2383,
      "áĭ¬": 2384,
      "áĮĨáī½": 2385,
      "Muh": 2386,
      "loĠ": 2387,
      "áĪ³áīµ": 2388,
      "aĠkatikaĠ": 2389,
      "Ġá»įmá»į": 2390,
      "Ġáĭ¨áīĢ": 2391,
      "Nor": 2392,
      "Ġáī°áī¥": 2393,
      "áĪŃáĪµáī²áĭ«áĬķ": 2394,
      "idĠ": 2395,
      "otoĠ": 2396,
      "e)Ġ": 2397,
      "sÃ¡": 2398,
      "Ġáīħáĭ±áĪµ": 2399,
      "bas": 2400,
      "yp": 2401,
      "áĭķáĪ«": 2402,
      "Bir": 2403,
      "TanzaniaĠ": 2404,
      "ten": 2405,
      "aim": 2406,
      "áĮįáĭļáĬłáī¥áĪĶáĪŃ": 2407,
      "kung": 2408,
      "i'arĠ": 2409,
      "act": 2410,
      "ĠáĭŃáĮĪáĬĽ": 2411,
      "astĠ": 2412,
      "rub": 2413,
      "Ġáº¸": 2414,
      "http": 2415,
      "saiĠ": 2416,
      "ancinĠ": 2417,
      "³áĪµ": 2418,
      "áĪµáĪ«": 2419,
      "babbanĠ": 2420,
      "ar,Ġ": 2421,
      "Ġáĭĵ/áĪĿĠ-": 2422,
      "shekararĠ201": 2423,
      "atifuĠ": 2424,
      "://": 2425,
      "idanĠ": 2426,
      "wasanĠÆĻwallonĠÆĻaf": 2427,
      "ĠáĪĿáĬŃáĬķáĭ«": 2428,
      "Kis": 2429,
      "ĠáĪ¨": 2430,
      "Sp": 2431,
      "áĭ¶áī½": 2432,
      "hany": 2433,
      "iaĠyaĠ": 2434,
      "ĠáĬ¨áĪĺ": 2435,
      "Nai": 2436,
      "áĪº": 2437,
      "ĠáīłáĭļáĪħ": 2438,
      "essĠ": 2439,
      "áī£áĪĪáĭį": 2440,
      "áĮ¥áĬķ": 2441,
      "Febru": 2442,
      "Ã©g": 2443,
      "ĠáĬłáĪī": 2444,
      "ba": 2445,
      "za": 2446,
      "arĠm": 2447,
      ",Ġmwan": 2448,
      "Ãī": 2449,
      "áĮ£áĪį": 2450,
      "allĠ": 2451,
      "tÃ¬": 2452,
      "daĠakaĠ": 2453,
      "tÃłbÃŃĠ": 2454,
      "áī¤áīµ": 2455,
      "je": 2456,
      "tun": 2457,
      "áĬķáĬķ": 2458,
      "utĠ": 2459,
      "áĮĪáĬĵ": 2460,
      "áĮįáĪ«": 2461,
      "gbÃ¡": 2462,
      "Im": 2463,
      "idaĠ": 2464,
      "Ġáĭ¨áĭĪ": 2465,
      "Ã©k": 2466,
      "an-": 2467,
      "RD": 2468,
      "áĬŃáīµ": 2469,
      "raph": 2470,
      "kup": 2471,
      "oph": 2472,
      "a,Ġm": 2473,
      "50": 2474,
      "iaĠm": 2475,
      "irinĠ": 2476,
      "jiĠm": 2477,
      "wanzaĠ": 2478,
      "Ang": 2479,
      "edĠtheĠ": 2480,
      "áĮĪáī£": 2481,
      "amil": 2482,
      "amfaniĠ": 2483,
      "leg": 2484,
      "Ma": 2485,
      "%Ġ": 2486,
      "Ġáĭ¨áĬĲáīłáĪ¨": 2487,
      "ĠáĬ¥.áĬ¤.áĬł.": 2488,
      "itionĠ": 2489,
      "Ay": 2490,
      "iniĠyaĠ": 2491,
      "JohnĠ": 2492,
      "\",Ġ": 2493,
      "áĬĴáĭ«": 2494,
      "akanĠ": 2495,
      "áī³áĭŃ": 2496,
      "ĠáĬŃáįįáĪį": 2497,
      "fÃŃ": 2498,
      "gbaj": 2499,
      "ohunĠ": 2500,
      "aveĠ": 2501,
      "áĬĸáĪŃ": 2502,
      "'Ġ": 2503,
      "utaneĠ": 2504,
      "áĪľáĬķ": 2505,
      "Ãłd": 2506,
      "shenĠ": 2507,
      "LesĠ": 2508,
      "11": 2509,
      "oĠch": 2510,
      "zil": 2511,
      "á»Į": 2512,
      "utaĠ": 2513,
      "Ġáĭ²": 2514,
      "fer": 2515,
      "cons": 2516,
      "ĠáĪŃ": 2517,
      "ĠáĭŃáī£": 2518,
      "sontĠ": 2519,
      "surĠ": 2520,
      "eseĠ": 2521,
      "uĠ(": 2522,
      "yĠ(": 2523,
      "avecĠ": 2524,
      "oyinĠ": 2525,
      "ith": 2526,
      "áĪĪáī°": 2527,
      "ĠáĬłáĬ«áī£áī¢": 2528,
      "dÃºnĠ": 2529,
      "ĠáĬ¥áĬķáĮį": 2530,
      "Ġá»ĮÌĢ": 2531,
      "áĭ°áĪ¨áĮĪ": 2532,
      "áĮ½áĪĲáįį": 2533,
      "riĠ": 2534,
      "Ã¬bÃŃĠ": 2535,
      "egbeĠ": 2536,
      "ownĠ": 2537,
      "anninĠ": 2538,
      "TaĠ": 2539,
      "ukĠ": 2540,
      "odunĠ": 2541,
      "Ġáįĸ": 2542,
      "ukoĠ": 2543,
      "áĬķáį¡": 2544,
      "asoĠ": 2545,
      "áĪ«áĪį": 2546,
      "aĠmaiĠ": 2547,
      "Ã©,Ġ": 2548,
      "lec": 2549,
      "Jap": 2550,
      "wah": 2551,
      "ym": 2552,
      "Viung": 2553,
      "áī£áĭŃ": 2554,
      "Om": 2555,
      "Bar": 2556,
      "cent": 2557,
      "áĪįáīħ": 2558,
      "dÃŃ": 2559,
      "Ã¬k": 2560,
      "ashenĠ": 2561,
      "Oá¹£": 2562,
      "vit": 2563,
      "jerum": 2564,
      "ĠáĬłáīĨáĮ£áĮłáĪŃ": 2565,
      "Eng": 2566,
      "Intern": 2567,
      "8,Ġ": 2568,
      "bur": 2569,
      "anj": 2570,
      "cul": 2571,
      "sak": 2572,
      "áĬķáĮĭ": 2573,
      "áĮĪáĬķ": 2574,
      "Ġá»įdunĠ": 2575,
      "ĠáĬłáĬķáĭ±": 2576,
      "ViungoĠvyaĠ": 2577,
      "omin": 2578,
      "uch": 2579,
      "áĪ¨áĮį": 2580,
      "dig": 2581,
      "kud": 2582,
      "atunĠ": 2583,
      "áĪŃáĭĿ": 2584,
      "áĮłáīĥ": 2585,
      "ĠáĮįáĭĽáīµ": 2586,
      "Ãłká»įÌģ": 2587,
      "hadiĠ": 2588,
      "ĠáĬ¥áĭ«": 2589,
      "jin": 2590,
      "Ġ/": 2591,
      "eĠnaĠ": 2592,
      "áīĢáĪŃ": 2593,
      "áįĪáĪŃ": 2594,
      "niĠk": 2595,
      "ÉĹanĠ": 2596,
      "lakiniĠ": 2597,
      "Naijir": 2598,
      "gam": 2599,
      "adiĠ": 2600,
      "wá»įÌģ": 2601,
      "-ĠM": 2602,
      "áĭµáĪŀ": 2603,
      "áī³áĪį": 2604,
      "ograph": 2605,
      "lÃ¡Ġ": 2606,
      "Pe": 2607,
      "tim": 2608,
      "áĮĪáĪĪ": 2609,
      "heĠ": 2610,
      "ani.": 2611,
      "ition": 2612,
      "nÃŃgbÃłĠ": 2613,
      "áĮİáĪŃ": 2614,
      "ĠáĬ¨áī°áĪŀáī½": 2615,
      "ĠáĬłáĪĭ": 2616,
      "oĠlaĠ": 2617,
      "onn": 2618,
      "9.": 2619,
      "áįĢ": 2620,
      "ongĠ": 2621,
      "áį£ĠáĬ¨": 2622,
      "ĠáĬ¥áĬķáĭ°áĪļ": 2623,
      "9,Ġ": 2624,
      "áĭŃáĬĵ": 2625,
      "áīµáĪŃ": 2626,
      "Lag": 2627,
      "rec": 2628,
      "ĠáĪ¶": 2629,
      "áĭ°áīµ": 2630,
      "ingerezaĠ": 2631,
      "ĠáĬĥáĭŃ": 2632,
      "emp": 2633,
      "cinĠ": 2634,
      "School": 2635,
      "báº¹ÌĢráº¹ÌĢĠ": 2636,
      "dis": 2637,
      "finĠ": 2638,
      "nchiniĠ": 2639,
      "al'": 2640,
      "5)Ġ": 2641,
      "áĬĺ": 2642,
      "andĠtheĠ": 2643,
      "iaĠk": 2644,
      "YorÃ¹": 2645,
      "Qu": 2646,
      "harĠ": 2647,
      "watuĠ": 2648,
      "áī¥áĪµ": 2649,
      "áĪĽáĬĸ": 2650,
      "Shugab": 2651,
      "Sal": 2652,
      "ItokasiĠÃĢwá»įnĠ": 2653,
      "lor": 2654,
      "ort": 2655,
      "Des": 2656,
      "ĠáĭŃáī½": 2657,
      "ĠáĪĽáĪŃ": 2658,
      "ĠáĪģáĪĪáīµ": 2659,
      "áĪĪáĭ«áĭ©": 2660,
      "niĠÃ³Ġ": 2661,
      "ÃłrÃ¹nĠ": 2662,
      "Ur": 2663,
      "jinaĠ": 2664,
      "wo": 2665,
      "Wor": 2666,
      "wasanĠÆĻwallonĠÆĻafaĠtaĠ": 2667,
      "áĪı": 2668,
      "áĪĳ": 2669,
      "áĪ°áĪ«": 2670,
      "Wá»įÌģnĠ": 2671,
      "ikoĠ": 2672,
      "áīµĠáĬ¨": 2673,
      "de": 2674,
      "Itokasi": 2675,
      "kir": 2676,
      "Ã¨yÃŃĠ": 2677,
      "aĠkanĠ": 2678,
      "áĬ¬": 2679,
      "áĬŃáĪµ": 2680,
      "ĠáĭĺáĪĺ": 2681,
      "Og": 2682,
      "tÃ³": 2683,
      "chiĠ": 2684,
      "LaĠ": 2685,
      "máº¹Ìģ": 2686,
      "al-": 2687,
      "ĠáĪ¸": 2688,
      "oisĠ": 2689,
      "qu'": 2690,
      "ĠáĪĿáĬķáĮ": 2691,
      "Ul": 2692,
      "ilayaĠ": 2693,
      "áĭĸ": 2694,
      "Ġáī´": 2695,
      "Ġáĭ©": 2696,
      "eleĠ": 2697,
      "ihiĠ": 2698,
      "áĭ¨áīµ": 2699,
      "ack": 2700,
      "Tur": 2701,
      "dayaĠ": 2702,
      "wasanĠÆĻwallonĠÆĻafaĠtaĠÆĻasarĠ": 2703,
      "áĪĪáĭŃ": 2704,
      "áį¦Ġ": 2705,
      "ĠáĬłáīłáī£": 2706,
      "IS": 2707,
      "lâĢĻ": 2708,
      "iceĠ": 2709,
      "ajalisarĠ": 2710,
      "dab": 2711,
      "ofinĠ": 2712,
      "iya": 2713,
      "ĠáĪĮáĪĭ": 2714,
      "duc": 2715,
      "euxĠ": 2716,
      "Pol": 2717,
      "Fas": 2718,
      "umm": 2719,
      "Ujerum": 2720,
      "edĠinĠ": 2721,
      "stit": 2722,
      "kur": 2723,
      "ostĠ": 2724,
      "ĠáĭĪáīħ": 2725,
      "ĠáĭĺáĪĺáĬĲ": 2726,
      "Ã¬gbÃł": 2727,
      "Bl": 2728,
      "esĠdeĠ": 2729,
      "adar": 2730,
      "ound": 2731,
      "uaĠ": 2732,
      "Will": 2733,
      "rew": 2734,
      "ilit": 2735,
      "8.": 2736,
      "³áį": 2737,
      "áīµĠáĬł": 2738,
      "áĪĿáĪŃ": 2739,
      "Ã¡nĠ": 2740,
      "áĪĺáĪ¨": 2741,
      "áĭ°áĪį": 2742,
      "ungiyarĠ": 2743,
      "wasuĠ": 2744,
      "áī±áĪĿ": 2745,
      "ĠáĭĵáĪĺáī³áīµ": 2746,
      "ĠáĪĥáĭŃ": 2747,
      "ĠofĠ": 2748,
      "ĠáĮ¦áĪŃáĬĲáīµ": 2749,
      "Amurk": 2750,
      "áĮįáī£": 2751,
      "ĠáĬ¥áĬĵĠáĭ¨": 2752,
      "is,Ġ": 2753,
      "|ĠRD": 2754,
      "Sc": 2755,
      "wereĠ": 2756,
      "áĪŃáĪĺáĬķ": 2757,
      "áĪįáĮį": 2758,
      "ĠáĪµáĪ«": 2759,
      "áĪªáĬ«áĭĬ": 2760,
      "Ìģ": 2761,
      "Car": 2762,
      "akwaiĠ": 2763,
      "ká»įÌģ": 2764,
      "ĠáĪµáĪŃ": 2765,
      "Ġáĭ¨áĪĺáĮĢáĪĺáĪªáĭ«": 2766,
      "iĠkatikaĠ": 2767,
      "Muhamm": 2768,
      "o.Ġ": 2769,
      "áº¹l": 2770,
      "Ik": 2771,
      "Mag": 2772,
      "ĠáĪ²áĭ«": 2773,
      "ĠáĬłáĭŃáĬĲáīµ": 2774,
      "ĠáĬłáĪ¨": 2775,
      "áĪĲáĬķáĪµ": 2776,
      "187": 2777,
      "butĠ": 2778,
      "Ġá»įjá»įÌģÃ¬bÃŃĠ": 2779,
      "shineĠ": 2780,
      "áĪĭáĪĪ": 2781,
      "áĮłáĪ¨": 2782,
      "NigeriaĠ": 2783,
      "aneĠ": 2784,
      "áĪŃáĭµ": 2785,
      "áĪįáĭµ": 2786,
      "ĠáĬĲáīłáĪ¨áį¢": 2787,
      "iveĠ": 2788,
      "lam": 2789,
      "áīłáī¥": 2790,
      "ĠáĭŃáī³": 2791,
      "áĭ®áĬķ": 2792,
      "jáº¹": 2793,
      "AĠcikinĠ": 2794,
      "cont": 2795,
      "ráº¹Ġ": 2796,
      "sc": 2797,
      "ĠáĭĽ": 2798,
      "áĭįĠáīł": 2799,
      "afaĠ": 2800,
      "autarĠ": 2801,
      "anĠhaifeĠshiĠ": 2802,
      "Awar": 2803,
      "elop": 2804,
      "Haus": 2805,
      "iyoĠ": 2806,
      "samuĠ": 2807,
      "rik": 2808,
      "reg": 2809,
      "May": 2810,
      "atol": 2811,
      "aliaĠ": 2812,
      "áĭĵáĪĪáĪĿ": 2813,
      "kuuĠwaĠ": 2814,
      "áĪĿáį¡": 2815,
      "contr": 2816,
      "áĬĲáĮĪáĪŃ": 2817,
      "Ġáį²áį±áį»áį": 2818,
      "áįįáĪ«": 2819,
      "áĭįáĪ®áįĵ": 2820,
      "ainĠ": 2821,
      "aá¹£": 2822,
      "Ã¬s": 2823,
      "naĠk": 2824,
      "Ã¬wÃ©Ġ": 2825,
      "186": 2826,
      "dÃ¡Ġ": 2827,
      "WaliofarikiĠKarneĠyaĠ": 2828,
      "âĢĺ": 2829,
      "4)Ġ": 2830,
      "10Ġ": 2831,
      "http://": 2832,
      "weĠ": 2833,
      "ĠáĬ¥áĪŃ": 2834,
      "pá»įÌĢ": 2835,
      "ĠáĭĪáĪŃ": 2836,
      "pad": 2837,
      "Ã²k": 2838,
      "iĠdaĠ": 2839,
      "Ġáº¹ÌĢká»įÌģĠ": 2840,
      "vol": 2841,
      "usuĠ": 2842,
      "ĠáĬĲáĮĪáĪ¥áī³áīµ": 2843,
      "Ãģ": 2844,
      "ĠáĪłáĪ": 2845,
      "áĮĢáĪĺáĪŃáĭ«": 2846,
      "ĠáĪĮáĪİáī½": 2847,
      "Fil": 2848,
      "ableĠ": 2849,
      "ĠáĬ³áĪµ": 2850,
      "ĠáĬ¥áĮħ": 2851,
      "tob": 2852,
      "aĠzaĠ": 2853,
      "acceĠ": 2854,
      "wandaĠyaĠ": 2855,
      "istĠ": 2856,
      "Ap": 2857,
      "Bo": 2858,
      "cour": 2859,
      "notĠ": 2860,
      ",ĠmshindiĠwaĠTuzoĠyaĠNobelĠyaĠ": 2861,
      "eyĠ": 2862,
      "áĪĭáĪĿ": 2863,
      "orn": 2864,
      "Ġá»įjá»įÌģĠk": 2865,
      "(200": 2866,
      "ĠáĪĽáĪµ": 2867,
      "jÃ¹": 2868,
      "owoĠ": 2869,
      "upandeĠ": 2870,
      "ĠáĬ©": 2871,
      "Ã¨gb": 2872,
      "áĭĮ": 2873,
      "ech": 2874,
      "zab": 2875,
      "gbogboĠ": 2876,
      "áīµáį£": 2877,
      "ine": 2878,
      "ĠáĪĽáĪĪáīµĠáĬĲáĭįáį¢": 2879,
      "Us": 2880,
      "ahaif": 2881,
      "6)Ġ": 2882,
      "he": 2883,
      "2-": 2884,
      "zaĠm": 2885,
      "alsoĠ": 2886,
      "ayÃ©Ġ": 2887,
      "trans": 2888,
      "Georg": 2889,
      "®áī½": 2890,
      "7)Ġ": 2891,
      "Afric": 2892,
      "njeĠ": 2893,
      "iliĠyaĠ": 2894,
      "ĠáĪĿáĭµáĪŃ": 2895,
      "Ġ-Ġ": 2896,
      "alam": 2897,
      "emiĠ": 2898,
      "áĭ°áī¡áī¥": 2899,
      "áīłáĪĭ": 2900,
      "ĠáĪįáĭ©": 2901,
      "tareheĠ": 2902,
      "lÃ³Ġ": 2903,
      "Bur": 2904,
      "rah": 2905,
      "sĠdeĠ": 2906,
      "áĬĵĠáĭ¨": 2907,
      "áĪªáĭİáī½": 2908,
      "áįĪáĪ¨áĬķ": 2909,
      "serv": 2910,
      "zaĠk": 2911,
      "áĪµáĪĪ": 2912,
      "áĮ£áĪĿ": 2913,
      "Was": 2914,
      "Jami'arĠ": 2915,
      "sá»įĠ": 2916,
      "imuĠ": 2917,
      "owĠ": 2918,
      "ÃłĠlaĠ": 2919,
      "firstĠ": 2920,
      "ubaĠ": 2921,
      "wÃ²Ġ": 2922,
      "oreĠ": 2923,
      "ett": 2924,
      "láº¹ÌĢĠÃ¨dÃ¨Ġ": 2925,
      "Mon": 2926,
      "asheĠ": 2927,
      "Eur": 2928,
      "áī¶áĪµ": 2929,
      "lÃ³rÃŃĠ": 2930,
      "30": 2931,
      "Id": 2932,
      "jÃ¡Ġ": 2933,
      "Agb": 2934,
      "áĬĵĠáīł": 2935,
      "idiĠ": 2936,
      "ĠáĪĿáĬķ": 2937,
      "out": 2938,
      "25": 2939,
      "eurĠ": 2940,
      "ĠáĭķáĪĪáīµ": 2941,
      "UnitedĠ": 2942,
      "Brit": 2943,
      "áīĢáīµ": 2944,
      "lex": 2945,
      "Tanzani": 2946,
      "iakaĠ": 2947,
      "Ġáĭľ": 2948,
      "ĠáĭĻ": 2949,
      "áĬ¨áĭļáĪħ": 2950,
      "tobaĠ": 2951,
      "áĭ²áĪµĠáĬłáīłáī£": 2952,
      "enyeĠ": 2953,
      "áī²áĬ«": 2954,
      "áĮ¨áĪĽáĪª": 2955,
      "nchiĠyaĠ": 2956,
      "IlĠ": 2957,
      "áĭ«áĭį": 2958,
      "áĭĪáĭ°": 2959,
      "Ãºká»įĠ": 2960,
      "otherĠ": 2961,
      "Ã´": 2962,
      "ĠáĬłáĭį": 2963,
      "Ã¬dÃ¬": 2964,
      "áĭİáĪµ": 2965,
      "shugabanĠ": 2966,
      "Me": 2967,
      "And": 2968,
      "aikinĠ": 2969,
      "sannanĠ": 2970,
      "aĠK": 2971,
      "esĠ(": 2972,
      "akarĠ": 2973,
      "anaĠk": 2974,
      "ys": 2975,
      "atiĠwaĠ": 2976,
      "Ġá»įjá»įÌģÃ¬bÃŃĠnÃŃĠ": 2977,
      "bar": 2978,
      "áĪĭáīħ": 2979,
      "oroĠ": 2980,
      "shekaruĠ": 2981,
      "3)Ġ": 2982,
      "áĮ¢": 2983,
      "mus": 2984,
      "For": 2985,
      "ĠáĪĽáĭķ": 2986,
      "Marekani": 2987,
      "áĪ¹": 2988,
      "aÉĹ": 2989,
      "aĠkas": 2990,
      "ipaĠ": 2991,
      "landĠ": 2992,
      "mÃ¡aĠ": 2993,
      "ijiĠ": 2994,
      "áĬ¨áĪĪ": 2995,
      "ejiĠ": 2996,
      "wakaziĠ": 2997,
      "inter": 2998,
      "ĠáīĥáĪį": 2999,
      "bug": 3000,
      "dÃ©Ġ": 3001,
      "ashiĠ": 3002,
      "ener": 3003,
      "gwamn": 3004,
      "OktobaĠ": 3005,
      "oke": 3006,
      "ment": 3007,
      "lik": 3008,
      "áĪĭáĭĬ": 3009,
      "Ġáī¥áĪİ": 3010,
      "ĠáĬ¨áįįáī°áĬĽ": 3011,
      "Ġ4": 3012,
      "eke": 3013,
      "histor": 3014,
      "alm": 3015,
      "roup": 3016,
      "ĠáĬłáĪµáī°áĭ³": 3017,
      "utuĠ": 3018,
      "kunĠ": 3019,
      "áĪĭáĬŃ": 3020,
      "áīłáĪį": 3021,
      "áĮįáĪŃĠáĬ³áĪµ": 3022,
      "pop": 3023,
      "soci": 3024,
      "áĬ¢áīµáĭ®áĮµáĭ«": 3025,
      "báº¹Ìģ": 3026,
      "lÃŃ": 3027,
      "atuĠ": 3028,
      "ogoĠ": 3029,
      "áī«": 3030,
      "áĭ°áĪĿ": 3031,
      "gar": 3032,
      "Ã¨rÃ©Ġ": 3033,
      "bayaĠ": 3034,
      "ani,Ġ": 3035,
      "ene": 3036,
      "21": 3037,
      "áī¨": 3038,
      "Ġáīłáī¥": 3039,
      "ĠáīµáĪĿáĪħáĪŃáīµ": 3040,
      "ĠáĭĭáĬĵĠáĬ¨áī°áĪĽ": 3041,
      "itiĠ": 3042,
      "aka": 3043,
      "Kus": 3044,
      "daĠt": 3045,
      "áīµĠáį": 3046,
      "áĬĵĠáĪĺ": 3047,
      "áīłáĭļáĪħ": 3048,
      "Wan": 3049,
      "ĠáĬłáĪ«": 3050,
      "áīĢáĪĺ": 3051,
      "ĠáĪĪáĪĿ": 3052,
      "bin": 3053,
      "Ã²á¹£Ã¨": 3054,
      "wur": 3055,
      "wá»įÌģĠ": 3056,
      ".ĠÃĢwá»įnĠ": 3057,
      "Ġáī°áĪ«": 3058,
      "Ġáī£áĪħ": 3059,
      "áīĢáĭį": 3060,
      "áĪĬáĭ«": 3061,
      ",000": 3062,
      "sit": 3063,
      "Ġáĭ¨áĮį": 3064,
      "cesĠ": 3065,
      "ush": 3066,
      "Ã¬nrinĠ": 3067,
      "Ġáº¹gbáº¹ÌģĠ": 3068,
      "19Ġ": 3069,
      "lÃ³g": 3070,
      "Tang": 3071,
      "ÃłĠl'": 3072,
      "áįĮ": 3073,
      "áĭ®áī½": 3074,
      "enn": 3075,
      "ayoĠ": 3076,
      "Sou": 3077,
      "alit": 3078,
      "Ġ(áĬ¨": 3079,
      "Min": 3080,
      "ar.": 3081,
      "Franc": 3082,
      "br": 3083,
      "wacceĠ": 3084,
      "tonĠ": 3085,
      "ireĠ": 3086,
      "\"Ġ(": 3087,
      "ciĠgab": 3088,
      "NiĠ": 3089,
      "waĠkwaĠ": 3090,
      "balimb": 3091,
      "Oro": 3092,
      "ĠáĪĦ": 3093,
      "Ġáĭ®áĪĲáĬķáĪµ": 3094,
      "Hu": 3095,
      "yÃŃ": 3096,
      "endele": 3097,
      "tsakaninĠ": 3098,
      "er.": 3099,
      "aduĠ": 3100,
      "uleĠ": 3101,
      "ink": 3102,
      "azin": 3103,
      "Ùħ": 3104,
      "ĠáĬłáįį": 3105,
      "áĭĪáĮ£": 3106,
      "ogunĠ": 3107,
      "apoĠ": 3108,
      "Mas": 3109,
      "awoĠ": 3110,
      "ldĠ": 3111,
      "arenĠ": 3112,
      "áīłáĪ«": 3113,
      "Ã¨gbÃ¨Ġ": 3114,
      "áī³áĭį": 3115,
      "Kam": 3116,
      "kumaĠtaĠ": 3117,
      "Itali": 3118,
      "Ij": 3119,
      "erĠ(": 3120,
      "hadĠ": 3121,
      "áĮĬáĭľ": 3122,
      "Ġ(áĬ¥": 3123,
      "us,Ġ": 3124,
      "EnĠ": 3125,
      "ĠáĬłáĪĽ": 3126,
      "Ġáī¥áĪŃ": 3127,
      "omeĠ": 3128,
      "Ġáį¡áį¡": 3129,
      "en,Ġ": 3130,
      "ristoĠ": 3131,
      "áº¹ÌĢká»įÌģĠ": 3132,
      "ukanĠ": 3133,
      "Ã¬já»įbaĠ": 3134,
      "car": 3135,
      "vil": 3136,
      "ĠáĬ¨áĪļ": 3137,
      "áīłáī°": 3138,
      "áĪ³áĭĬ": 3139,
      "ĠáĭŃáī³áĭĪ": 3140,
      "atinĠ": 3141,
      "amfaninĠ": 3142,
      "NÃŃĠá»įdÃºnĠ": 3143,
      "Willi": 3144,
      "HeĠ": 3145,
      "áĬĸáĪµ": 3146,
      "rá»įÌĢĠ": 3147,
      "bec": 3148,
      "Ã³nĠ": 3149,
      "ric": 3150,
      "onĠtheĠ": 3151,
      "Ser": 3152,
      "ĠáĪ¥áĪ«": 3153,
      "alif": 3154,
      "23": 3155,
      "Re": 3156,
      "inay": 3157,
      "áĪĿáį£": 3158,
      "áĪ«áĪ±": 3159,
      "uss": 3160,
      "esĠetĠ": 3161,
      "ĠáĬ£": 3162,
      "Ãłti": 3163,
      "Ġ(áĭ¨": 3164,
      "iusĠ": 3165,
      "nom": 3166,
      "azamaĠ": 3167,
      "wÃŃ": 3168,
      "áĪ³áī¥": 3169,
      ")Ġáĭ¨": 3170,
      "áĮĪáĪ©": 3171,
      "Leg": 3172,
      "iyanĠ": 3173,
      "bÃŃiĠ": 3174,
      "Ã©kerÃ©Ġ": 3175,
      "áĬķáī²": 3176,
      "áī£áī¸áĭį": 3177,
      "ĠáĬ¥áĬķáĭ²áĪģáĪĿ": 3178,
      "Ç¹": 3179,
      "ingerez": 3180,
      "laf": 3181,
      "LÃ¡": 3182,
      "isp": 3183,
      "gbá»įÌģnĠ": 3184,
      "ĠáīĭáĬķáīĭáĭİáī½": 3185,
      "If": 3186,
      "fur": 3187,
      "row": 3188,
      "aÆĻ": 3189,
      "farans": 3190,
      "n.": 3191,
      "áĭĪáĪ°": 3192,
      "Farans": 3193,
      "Orodh": 3194,
      "io": 3195,
      "omiĠ": 3196,
      "iop": 3197,
      "fromĠtheĠ": 3198,
      "hanyarĠ": 3199,
      "ĠáĪ±": 3200,
      "i)Ġ": 3201,
      "odaĠ": 3202,
      "ilaĠ": 3203,
      "imm": 3204,
      "Kik": 3205,
      "ÃłÃ¡": 3206,
      "embaĠ-Ġ": 3207,
      "2)Ġ": 3208,
      "uuĠ": 3209,
      "mag": 3210,
      "enti": 3211,
      "Ã©d": 3212,
      "iyyarĠ": 3213,
      "wasanĠÆĻwallonĠÆĻafaĠtaĠÆĻasarĠIngil": 3214,
      "Ger": 3215,
      "Ġáĭ¶": 3216,
      "Ãłt": 3217,
      "ai,Ġ": 3218,
      "Eb": 3219,
      "Od": 3220,
      "wÃ©Ġ": 3221,
      "sur": 3222,
      "áĪįáĪµ": 3223,
      "Bab": 3224,
      "áĭĲ": 3225,
      "ĠáĬ¨áĭļáĭ«": 3226,
      "Pl": 3227,
      "Char": 3228,
      "Gab": 3229,
      "ĠáĬłáĪľáĪªáĬ«": 3230,
      "ĠáĭĪáĬķáĭµ": 3231,
      "ĠáĪĪáĬł": 3232,
      "áĬĸáĪ©": 3233,
      "1)Ġ": 3234,
      "yÃ©Ġ": 3235,
      "áĭŃáĬķ": 3236,
      "ĠáĪĺáĮł": 3237,
      "Paul": 3238,
      ",ĠÃ³Ġ": 3239,
      "nÃŃĠÃ¬": 3240,
      "jag": 3241,
      "Oc": 3242,
      "ĠáĪª": 3243,
      "Ġáº¹láº¹Ìģ": 3244,
      "ther": 3245,
      "iyas": 3246,
      "Ġáī½": 3247,
      "kuj": 3248,
      "áįĪáĭį": 3249,
      "Ġáĭ°áĪ¨áĮĥ": 3250,
      "aniĠyaĠ": 3251,
      "haÉĹ": 3252,
      "Ã®": 3253,
      "ĠáĬłáĭµáĪŃ": 3254,
      "Ġáĭ¨áĪħ": 3255,
      "áĪ¬áīµ": 3256,
      ".ĠMan": 3257,
      "unĠm": 3258,
      "Lond": 3259,
      "i:Ġ": 3260,
      "Ãłp": 3261,
      "NÃłÃ¬jÃŃrÃŃÃł.": 3262,
      "ĠáĪĨáĬĲáį¢": 3263,
      "atesĠ": 3264,
      "ĠáĭĵáĬŃáĪįáīł.ĠáĮį": 3265,
      "Jos": 3266,
      "aĠc": 3267,
      "já»į": 3268,
      "aoĠ": 3269,
      "iyeĠ": 3270,
      "arib": 3271,
      "ĠáĪĺáĪ°": 3272,
      "Ġáĭ«áĪµ": 3273,
      "VĠ": 3274,
      "anzaĠ": 3275,
      "Ts": 3276,
      "áįĲ": 3277,
      "Ġáĭ¨áĬ¤": 3278,
      "áįĭáīµ": 3279,
      "ĠáĪ¥áĬĲ": 3280,
      "lo": 3281,
      "awal": 3282,
      "pres": 3283,
      "á»įÌģkasÃŃĠ": 3284,
      "mb": 3285,
      "áįįáīµ": 3286,
      "áīĥáĪµ": 3287,
      "áĪĬáĬŃ": 3288,
      "12Ġ": 3289,
      "niĠnaĠ": 3290,
      "okac": 3291,
      "tsoh": 3292,
      "iwaĠnaĠ": 3293,
      "anis": 3294,
      "15Ġ": 3295,
      "áĬķáį£": 3296,
      "áĪĪáĭ°": 3297,
      "Ipin": 3298,
      "nÃłĠ": 3299,
      "publ": 3300,
      "yad": 3301,
      "OrodhaĠyaĠ": 3302,
      "áĬĻ": 3303,
      "ilip": 3304,
      "áĪŃáĪµáī¶áĪµ": 3305,
      "ĠáĭĪáĬķáĭĿ": 3306,
      "Mad": 3307,
      "ham": 3308,
      "lÃ¡n": 3309,
      "Wh": 3310,
      "Lib": 3311,
      "áº¹Ìģrá»įÌģ": 3312,
      "gáº¹Ìģgáº¹ÌģĠbÃŃĠ": 3313,
      "âĢİ": 3314,
      "Ã¡st": 3315,
      "ÆĻas": 3316,
      "lughaĠyaĠ": 3317,
      "Ir": 3318,
      "osh": 3319,
      "baadaĠ": 3320,
      "BKĠ(BaadaĠyaĠKristo).ĠMatukioĠWaliozaliwaĠ": 3321,
      "Ã¡stáº¹Ìģrá»įÌģ": 3322,
      "Dec": 3323,
      "lĠ": 3324,
      "áĪĿáĬĲáīµ": 3325,
      ",000Ġ": 3326,
      "NijeriyaĠ": 3327,
      "itaĠceĠ": 3328,
      "Ġáī°áī¥áĪİ": 3329,
      "ojo": 3330,
      "Najeriya.": 3331,
      "áĭĭáīĤ": 3332,
      "err": 3333,
      "ĠáīłáīĢ": 3334,
      "ĠáĪįáĮĨáī½": 3335,
      "pÃ¨Ġ": 3336,
      "me": 3337,
      "áĬĲáĭį": 3338,
      "ĠáĬĲáīłáĪ©áį¢": 3339,
      "War": 3340,
      "hasĠ": 3341,
      "eursĠ": 3342,
      "BabbanĠ": 3343,
      "ĠáĮ¥áīħáĪĿ": 3344,
      "ĠáĭĿáĪŃáĭĿ": 3345,
      "ult": 3346,
      "premi": 3347,
      "áĪįáį£": 3348,
      "Musul": 3349,
      "emĠ": 3350,
      "kungiyarĠ": 3351,
      "tÃ¬Ġk": 3352,
      "treĠ": 3353,
      "commeĠ": 3354,
      "wá»įÌĢ": 3355,
      "ĠáīłáĮį": 3356,
      "áĪĪáĪĽ": 3357,
      "ĠáĮŃ": 3358,
      "Ã¹ĠK": 3359,
      "AmerikaĠ": 3360,
      "ĠáĬŃáįįáĪĪĠáĭĺáĪĺáĬķ": 3361,
      "Di": 3362,
      "Europ": 3363,
      "mÃŃ": 3364,
      "ustĠ": 3365,
      "kumaĠm": 3366,
      "Jamhur": 3367,
      "áīŃ": 3368,
      "DagaĠ": 3369,
      "60": 3370,
      "2Ġáĭĵ.áĪĿ.": 3371,
      "ĠØ": 3372,
      "áĪ¥áĪ«": 3373,
      "sÃŃláº¹ÌĢĠ": 3374,
      "mÃ©j": 3375,
      "Amáº¹ÌģrÃŃkÃł": 3376,
      "30Ġ": 3377,
      "Ġáĭ¨áĭį": 3378,
      "áĮĪáĪ«": 3379,
      "áĭĵáīµ": 3380,
      "ackĠ": 3381,
      "Ã²á¹£Ã¨rÃ©Ġ": 3382,
      "]Ġ": 3383,
      "isiĠ": 3384,
      "ĠáĮįáī¥": 3385,
      "ĠÂ«áĭ¨": 3386,
      "yanz": 3387,
      "onÃŃ": 3388,
      "kund": 3389,
      "iya.Ġ": 3390,
      "ughĠ": 3391,
      "Tib": 3392,
      "mÃ¬n": 3393,
      "áĭŃáīµ": 3394,
      "ĠáĪĺáĬķáĮĪáĭµ": 3395,
      "yaw": 3396,
      "aĠS": 3397,
      "niĠwá»įÌģnĠ": 3398,
      "nÃŃĠibiĠ": 3399,
      "áĪĪáī²áĬ«": 3400,
      "áĪĺáīµ": 3401,
      "Ġáĭ¨áĬ¢": 3402,
      "Ġáī¥áĪĶ": 3403,
      "áĪ½áĬķ": 3404,
      "áĭŃáĭĪáīµ": 3405,
      "azart": 3406,
      "Kas": 3407,
      "tÃ¬Ġ": 3408,
      "daĠtaĠ": 3409,
      "áĮłáīħ": 3410,
      "ĠáĮ¥áĬĵáīµ": 3411,
      "ight": 3412,
      "occ": 3413,
      "táº¹Ìģ": 3414,
      "áĭĪáī½": 3415,
      "ĠáĮ¥áĬķ": 3416,
      "Be": 3417,
      "Ah": 3418,
      "ĠáĬłáĪģ": 3419,
      "L'": 3420,
      "áĪµáįĭ": 3421,
      "tang": 3422,
      "ĠáĪĺáĮ½áĪĲáįį": 3423,
      "áĪ®áĪµ": 3424,
      "áĬĶáī³": 3425,
      "áĪĺáĬĵáĭĬ": 3426,
      "utanenĠ": 3427,
      "jÃº": 3428,
      "yankinĠ": 3429,
      "Ã¡stáº¹Ìģrá»įÌģÃ¬dÃ¬": 3430,
      "pat": 3431,
      "ameĠ": 3432,
      "áĪĭáĭį": 3433,
      "mas": 3434,
      "ÃłkÃ³": 3435,
      "jih": 3436,
      "sec": 3437,
      "ina": 3438,
      "ĠáĪ®": 3439,
      "Ã¬má»įÌĢĠ": 3440,
      "ĠáĬ¨áĬĲ": 3441,
      "áĭĺáĮĭ": 3442,
      "say": 3443,
      "185": 3444,
      "40": 3445,
      "tal": 3446,
      "amaĠm": 3447,
      "old": 3448,
      "Ob": 3449,
      "áĪŁ": 3450,
      "ÙĬ": 3451,
      "bÃ¹nĠ": 3452,
      "ci": 3453,
      "s'": 3454,
      "Ãĵ": 3455,
      "ĠáĪīáīĥáĪµ": 3456,
      "Igb": 3457,
      "Mis": 3458,
      "jáº¹ÌģĠp": 3459,
      "14Ġ": 3460,
      "Eth": 3461,
      "garinĠ": 3462,
      "áĪ¾": 3463,
      "Ġáī°áĪ°": 3464,
      "NewĠYor": 3465,
      "Kad": 3466,
      "áĬĲáĪ³": 3467,
      "áĪ¨áĪĿ": 3468,
      "...": 3469,
      "17Ġ": 3470,
      "NationalĠ": 3471,
      "Ufarans": 3472,
      "ĠáĬłáįĪ": 3473,
      "Ġáĭ¨áĪķ": 3474,
      "Kir": 3475,
      "áĪ«áĬķ": 3476,
      "áĭķáĪ«áī¥": 3477,
      "arch": 3478,
      "9)Ġ": 3479,
      "arĠk": 3480,
      "falmeĠ": 3481,
      "ĠApr": 3482,
      "lamb": 3483,
      "let": 3484,
      "ĠáīłáįĬáīµ": 3485,
      "áįĪáĪį": 3486,
      "Ġáĭ¨áĬłáĪľáĪªáĬ«": 3487,
      "la": 3488,
      "al,Ġ": 3489,
      "2020": 3490,
      "baĠdaĠ": 3491,
      "ĠáīħáĪŃ": 3492,
      "ĠáĭŃáī£áĪĭáĪįáį¢": 3493,
      "Kim": 3494,
      "Ã¢": 3495,
      "zaid": 3496,
      "wajenĠ": 3497,
      "Ã¨tÃ²Ġ": 3498,
      "IpinleĠ": 3499,
      "wig": 3500,
      "áįİáī½": 3501,
      "áĪįáĪĿ": 3502,
      "ĠáĬ¥áĬķáĮĤ": 3503,
      "prÃ©s": 3504,
      "des": 3505,
      "dr": 3506,
      "okinĠ": 3507,
      "ĠáĪģáĪĪ": 3508,
      "wÃłĠnÃŃĠ": 3509,
      "och": 3510,
      "Ġáĭ¨áĪļáĪĪáĭį": 3511,
      "27": 3512,
      "ref": 3513,
      "abl": 3514,
      "ĠáĬłáīĢ": 3515,
      "ĠáĭĪáĭŃ": 3516,
      "Yun": 3517,
      "kÃ²": 3518,
      "áī³áĪªáĬŃ": 3519,
      "ĠáĮīáĭ³": 3520,
      "akarantarĠ": 3521,
      "Mor": 3522,
      "orsĠ": 3523,
      "ĠáĬŃáĪį": 3524,
      "lÃ¡náº¹Ìģ": 3525,
      "ojoibiĠ": 3526,
      "ightĠ": 3527,
      "jÃ¡deĠ": 3528,
      "haveĠ": 3529,
      "nÃŃpaĠ": 3530,
      "iyaĠtaĠ": 3531,
      "lá»įĠsÃŃĠ": 3532,
      "koaĠwaĠ": 3533,
      "mak": 3534,
      "ĠáīłáĪŃ": 3535,
      "áī¥áĪ¨áīµ": 3536,
      "ĠáĬķáĮį": 3537,
      "já»įÌģ": 3538,
      "atarĠdaĠ": 3539,
      "iĠh": 3540,
      "/Ġ": 3541,
      "ká»į": 3542,
      "Ġáį²áį": 3543,
      "ĠáĪĽáĬķ": 3544,
      "On": 3545,
      "28": 3546,
      "ĠáĮĮ": 3547,
      "ĠáĬ¥áĬķáĭ²áĪħ": 3548,
      "dev": 3549,
      "iĠniĠ": 3550,
      "ĠáīµáĬķ": 3551,
      "Ã¬gb": 3552,
      "áĬĲáī±": 3553,
      "áĪĽáīµ": 3554,
      "ĠáįķáĪ¬": 3555,
      "WorldĠ": 3556,
      "co": 3557,
      "uhur": 3558,
      "orÃŃláº¹ÌĢĠÃ¨dÃ¨Ġ": 3559,
      "Ã¬gbÃłjÃ¡Ġ": 3560,
      "ilom": 3561,
      "ondĠ": 3562,
      "ĠáĪķáĭĿáī¥": 3563,
      "thisĠ": 3564,
      "sel": 3565,
      "as,Ġ": 3566,
      "tÃ¬ĠkÃ©kerÃ©Ġ": 3567,
      "azarta": 3568,
      "bl": 3569,
      "e:Ġ": 3570,
      "w.": 3571,
      "áĬŃáĪī": 3572,
      "Ġáī³áĪªáĬ«áĭĬ": 3573,
      "ĠáĭŃáī³áĭĪáīĥ": 3574,
      "ĠáĪĺáĪłáĪ¨": 3575,
      "icsĠ": 3576,
      "etteĠ": 3577,
      "lÃ¡náº¹ÌģtÃ¬ĠkÃ©kerÃ©Ġ": 3578,
      "áĪĪáĬķ": 3579,
      "ĠáĬ¨áĬ¥": 3580,
      "áĪĺáĭµ": 3581,
      "du": 3582,
      "16Ġ": 3583,
      "cut": 3584,
      "Ã¬gbÃłĠ": 3585,
      "tele.Ġ": 3586,
      "ilis": 3587,
      "Part": 3588,
      "wÃ²": 3589,
      "Ġ5": 3590,
      "áĪ¨áĪ°": 3591,
      "yl": 3592,
      "ÙĨ": 3593,
      "ukuĠ": 3594,
      "ful": 3595,
      "nj": 3596,
      "shiry": 3597,
      "nÃŃĠibiĠÃ¬gbÃłjÃ¡Ġ": 3598,
      "áĪŃáī²": 3599,
      "iyyaĠ": 3600,
      "Ex": 3601,
      "dif": 3602,
      "gin": 3603,
      "ulik": 3604,
      "Ã©tÃ©Ġ": 3605,
      "áĪĺáĪį": 3606,
      "3-": 3607,
      "lÃ¡náº¹ÌģtÃ¬ĠkÃ©kerÃ©ĠnÃŃĠibiĠÃ¬gbÃłjÃ¡Ġ": 3608,
      "Abd": 3609,
      "atĠtheĠ": 3610,
      "Her": 3611,
      "fÃºn": 3612,
      "aliĠyaĠ": 3613,
      "uĠzaĠ": 3614,
      "ĠáĬ¨áĭļáĪħ": 3615,
      "ĠáĬĲáĭįáį¡áį¡": 3616,
      "ojÃºĠ": 3617,
      "ionsĠ": 3618,
      "ĠáĬĵáī¸áĭį": 3619,
      "AfricanĠ": 3620,
      "theirĠ": 3621,
      "takatifuĠ": 3622,
      "ĠáĭĿáĪŃáĭĿáĪŃ": 3623,
      "oĠl": 3624,
      "ĠAg": 3625,
      "Sec": 3626,
      "ars": 3627,
      "BayanĠ": 3628,
      "Rob": 3629,
      "ĠF": 3630,
      "áĭļáĪģ": 3631,
      "oĠtaĠ": 3632,
      "elyĠ": 3633,
      "¶áį": 3634,
      "daĠyaĠ": 3635,
      "kumaĠyaĠ": 3636,
      "ĠáĬ¥áĬĵĠáīł": 3637,
      "áĬ¨áī°áĪĽ": 3638,
      "jáº¹ÌģĠplÃ¡náº¹ÌģtÃ¬ĠkÃ©kerÃ©ĠnÃŃĠibiĠÃ¬gbÃłjÃ¡Ġ": 3639,
      "fl": 3640,
      "kan": 3641,
      "fáº¹ÌģĠ": 3642,
      "i,Ġm": 3643,
      "áĭ«áĭĬ": 3644,
      "overn": 3645,
      "kaĠ": 3646,
      "jirg": 3647,
      "akaĠm": 3648,
      "áĬĵáī¸áĭį": 3649,
      "ĠáīłáĬ©": 3650,
      "ĠáĪģáĬĶáī³": 3651,
      "24": 3652,
      "erg": 3653,
      "forĠtheĠ": 3654,
      "AmericanĠ": 3655,
      ")Ġáīł": 3656,
      "MataĠ": 3657,
      "Æĺ": 3658,
      "eny": 3659,
      "áĬĵáĪįáį¢": 3660,
      "ĠáĮĬ": 3661,
      "áīłáĬł": 3662,
      "awa,Ġ": 3663,
      "daĠyawanĠ": 3664,
      "www.": 3665,
      "Lugh": 3666,
      "nunaĠ": 3667,
      "jáº¹ÌģĠplÃ¡náº¹ÌģtÃ¬ĠkÃ©kerÃ©ĠnÃŃĠibiĠÃ¬gbÃłjÃ¡ĠÃ¡stáº¹Ìģrá»įÌģÃ¬dÃ¬": 3668,
      "áī¤áī°": 3669,
      "bor": 3670,
      "áĪ«áĪ²": 3671,
      "ĠáĭŃáīĢ": 3672,
      "áĬ¨áīµ": 3673,
      "Mach": 3674,
      "aireĠ": 3675,
      "áĮĦ": 3676,
      "Ġáī»": 3677,
      "lÃ¡raĠ": 3678,
      "oleĠ": 3679,
      "naĠku": 3680,
      "11Ġ": 3681,
      "áī¥áīµ": 3682,
      "ĠáĬĲáĮ»": 3683,
      "Bal": 3684,
      "anyaĠ": 3685,
      "on.": 3686,
      "184": 3687,
      "Afrik": 3688,
      "red": 3689,
      "Pop": 3690,
      "Ġáī±": 3691,
      "lÃ¡ti": 3692,
      "wasanĠk": 3693,
      "ivyoĠ": 3694,
      "dauk": 3695,
      "áĪĪáī½": 3696,
      "quesĠ": 3697,
      "Colleg": 3698,
      "Dr": 3699,
      "cap": 3700,
      "áĬĲáīłáĪ¨": 3701,
      "ĠáĬ¨áĬłáĪ": 3702,
      "áĪ¶áī½": 3703,
      "ĠáĪļáĬĴ": 3704,
      "Kud": 3705,
      "sup": 3706,
      "resĠ": 3707,
      "Ġáĭ¨áĪµ": 3708,
      "Ġ17": 3709,
      "ĠáįĪáĪŃ": 3710,
      "Comm": 3711,
      "stitut": 3712,
      "aká»į": 3713,
      "keĠ": 3714,
      "iong": 3715,
      "áº¸": 3716,
      ",ĠtheĠ": 3717,
      "ĠáĪĺáĮ¨áĪ¨áĪ»": 3718,
      "áĭļáīĥ": 3719,
      "YorÃ¹bÃ¡Ġ": 3720,
      "King": 3721,
      "isi": 3722,
      "ostiĠ": 3723,
      "filamuĠ": 3724,
      "100": 3725,
      "áĭ°áĭį": 3726,
      "ĠáĬŃáĪŃáĪµáī²áĭ«áĬķ": 3727,
      "ce,Ġ": 3728,
      "má»įÌģĠ": 3729,
      "kal": 3730,
      "yÃłĠ": 3731,
      "utum": 3732,
      "Ku": 3733,
      "rem": 3734,
      "Ã¡r": 3735,
      "Ġáįĭ": 3736,
      "ationĠofĠ": 3737,
      "lab": 3738,
      "UniversityĠofĠ": 3739,
      "áĪĿáĬķ": 3740,
      "ĠáĬĲáĮĪáĪ®áī½": 3741,
      "eraĠ": 3742,
      "ta,Ġ": 3743,
      "áī´áĭİáĪµ": 3744,
      "NÃłÃ¬jÃŃrÃŃÃł": 3745,
      "sesĠ": 3746,
      "popul": 3747,
      "ideĠ": 3748,
      "k.": 3749,
      "áĬ¸": 3750,
      "Ġáī¢áĪĨáĬķ": 3751,
      "áĮĪáĬĺáĭį": 3752,
      "ouldĠ": 3753,
      "26": 3754,
      "not": 3755,
      "1,": 3756,
      "NÃŃĠ": 3757,
      "Ãłá¹£": 3758,
      "ĠáĭĺáĪŃ": 3759,
      "centur": 3760,
      "ayarĠ": 3761,
      "sch": 3762,
      "aud": 3763,
      "alementĠ": 3764,
      "áĪĺáĮ£": 3765,
      "áī»áī¸áĭį": 3766,
      "Ġáĭ¨áĪĽáĭŃ": 3767,
      "InternationalĠ": 3768,
      "Fiz": 3769,
      "tabiĠ": 3770,
      "wana": 3771,
      "Aug": 3772,
      "imoĠ": 3773,
      "21Ġ": 3774,
      "samunĠ": 3775,
      "Er": 3776,
      "Ã©.": 3777,
      "Ann": 3778,
      "wambaĠ": 3779,
      "harib": 3780,
      "áĮĪáĭ°": 3781,
      "ĠáĭŃáĮĪáĬĽáĪįáį¢": 3782,
      "ertĠ": 3783,
      "13Ġ": 3784,
      "SĠ": 3785,
      "eĠniĠ": 3786,
      "ananĠhukum": 3787,
      "New": 3788,
      "'Y": 3789,
      "áĪĤ": 3790,
      "ĠáĬłáīµ": 3791,
      "lÃº": 3792,
      "entsĠ": 3793,
      "litt": 3794,
      "istanĠ": 3795,
      "He": 3796,
      "&Ġ": 3797,
      "pers": 3798,
      "jáº¹ÌģĠplÃ¡náº¹ÌģtÃ¬ĠkÃ©kerÃ©ĠnÃŃĠibiĠÃ¬gbÃłjÃ¡ĠÃ¡stáº¹Ìģrá»įÌģÃ¬dÃ¬.ĠItokasiĠ": 3799,
      "ĠáĪ¦": 3800,
      "kunaĠ": 3801,
      "ĠáīłáĪĻ": 3802,
      "áĪ±áĪµ": 3803,
      "ĠáĭµáĪŃáĮħ": 3804,
      "8)Ġ": 3805,
      "Op": 3806,
      "fas": 3807,
      "taĠyiĠ": 3808,
      "gbajÃº": 3809,
      "aaĠ": 3810,
      "áįĶ": 3811,
      "áĪĺáĭį": 3812,
      "áī·áĪįáį¢": 3813,
      "gudan": 3814,
      "Dis": 3815,
      "unanĠ": 3816,
      "Ky": 3817,
      "áĭĭáĬĵ": 3818,
      "áĮĢáĪŃáĪĺáĬķ": 3819,
      "¹¢": 3820,
      "Sain": 3821,
      "ĠáĬ¡": 3822,
      "áĪĺáĪ°": 3823,
      "ĠáĬ¥áĬĲ": 3824,
      "-áĬł": 3825,
      "áĭ°áĬķ": 3826,
      "ellĠ": 3827,
      "ĠáĪĿáĬŃáĬķáĭ«áīµ": 3828,
      "als": 3829,
      "ship": 3830,
      "mÃºĠ": 3831,
      "Ġ(áīł": 3832,
      "áįĪáĮ¥": 3833,
      "Aj": 3834,
      "Iá¹£": 3835,
      "jiĠwaĠ": 3836,
      "áĬķáĭ±": 3837,
      "agesĠ": 3838,
      "ĠáĪĿáĬķáĮ®áī½": 3839,
      "MwakaĠ": 3840,
      "atarĠ": 3841,
      "Mashar": 3842,
      "ĠáīłáĪ½": 3843,
      "ĠáĪĿáĬķáĪĿ": 3844,
      "un,Ġ": 3845,
      "80": 3846,
      "áĪµáĭ«": 3847,
      "má»įÌģ": 3848,
      "IIĠ": 3849,
      "áĪ·": 3850,
      "ortĠ": 3851,
      "Ġáĭĭáī¢": 3852,
      "Cr": 3853,
      "Se": 3854,
      "mod": 3855,
      "pasĠ": 3856,
      "yab": 3857,
      "áĪĭáĪ´": 3858,
      "eauĠ": 3859,
      "zaiĠ": 3860,
      "ime": 3861,
      "dom": 3862,
      "18Ġ": 3863,
      "orÃºká»įĠ": 3864,
      "áĮĪáĪį": 3865,
      "ĠáĪĿáĪŃ": 3866,
      "Najeriya,Ġ": 3867,
      "ÃłgbÃ©": 3868,
      "kuwaĠm": 3869,
      "scor": 3870,
      "ĠáĪł": 3871,
      "Ġáĭ¨áĬ«": 3872,
      "Ġáĭ¨áī°áĪ°": 3873,
      "kutokaĠMarekani": 3874,
      "anb": 3875,
      "katikaĠ": 3876,
      "hab": 3877,
      "TazamaĠ": 3878,
      "lokac": 3879,
      "·áį": 3880,
      "Ãºgb": 3881,
      "ĠáĪĺáĪŃ": 3882,
      "ĠáĪĺáĪįáĬŃ": 3883,
      "áĬŃáĪŃ": 3884,
      "áīłáĪĪ": 3885,
      "JulaiĠ": 3886,
      "GhanaĠ": 3887,
      "eniĠ": 3888,
      "iaĠ(": 3889,
      "osoĠ": 3890,
      "Ug": 3891,
      "cess": 3892,
      "ver": 3893,
      "áĭ²áĭ«": 3894,
      "Bay": 3895,
      "chang": 3896,
      "áīłáĪĺ": 3897,
      "nÃŃbiĠ": 3898,
      "Fiziki": 3899,
      "Dav": 3900,
      "t,Ġ": 3901,
      "ikeĠ": 3902,
      "chiniĠyaĠ": 3903,
      "áīĨáĪµ": 3904,
      "ĠáĮ½áĪĳ": 3905,
      "áĬ¥áĬķáĭ°": 3906,
      "wa.": 3907,
      "kamarĠ": 3908,
      "Ã¬nĠ": 3909,
      "sÃ¬nĠ": 3910,
      "áĪĭáĪĽ": 3911,
      "tab": 3912,
      "AwonĠ": 3913,
      "tsĠ": 3914,
      "áĭĪáĪŃ": 3915,
      "ectĠ": 3916,
      "sol": 3917,
      "JanuariĠ": 3918,
      "Gir": 3919,
      "áĪİáīµ": 3920,
      "beenĠ": 3921,
      "uĠniĠ": 3922,
      "ĠáĪµáĪĻ": 3923,
      "sheĠ": 3924,
      "Med": 3925,
      "canĠ": 3926,
      "kiĠ": 3927,
      "ĠáĮłáĪ": 3928,
      "Ġáįª": 3929,
      "áĭ³áĪŃ": 3930,
      "ĠáĪłáĪ«": 3931,
      "áĬĵáĭĬ": 3932,
      "anĠhaifeĠshiĠaĠshekaraĠtaĠ": 3933,
      "anti": 3934,
      "ĠáĬħ": 3935,
      "ĠáĪ¥áĪŃáĭĪ": 3936,
      "22Ġ": 3937,
      "wish": 3938,
      "ĠáĭŃáĪĨ": 3939,
      "Ġáĭ°áĪ´": 3940,
      "wakil": 3941,
      "arwaĠ": 3942,
      "ony": 3943,
      "oseĠ": 3944,
      "AareĠ": 3945,
      "25Ġ": 3946,
      "ĠáĪĤ": 3947,
      "ĠáĬ¥áĮįáĪŃĠáĬ³áĪµ": 3948,
      "ĠáĬłáĪ³": 3949,
      "áĮłáĭį": 3950,
      "ativeĠ": 3951,
      "Award": 3952,
      "8-": 3953,
      "S.": 3954,
      "n,Ġ": 3955,
      "aĠjiharĠ": 3956,
      "eanĠ": 3957,
      "fÃ©r": 3958,
      "ureĠ": 3959,
      "Ġáĭ¨áĪ¥": 3960,
      "ĠáĪĿáĪįáĬŃ": 3961,
      "NigerianĠ": 3962,
      "Engl": 3963,
      "Ek": 3964,
      "dag": 3965,
      "ĠáĬłáĭ«": 3966,
      "áĭĪáīħ": 3967,
      "áįĪáĪ¨áĬķáĪ³áĭŃ": 3968,
      "AN": 3969,
      "sim": 3970,
      "ÙĪ": 3971,
      "iĠ-Ġ": 3972,
      "iĠkar": 3973,
      "waik": 3974,
      "áĪµáįĵ": 3975,
      "entreĠ": 3976,
      "áĪ¡": 3977,
      "ĠdinĠ": 3978,
      "waÉĹ": 3979,
      "e,Ġm": 3980,
      "unc": 3981,
      "áĭķáĪį": 3982,
      "Kh": 3983,
      "rÃ©g": 3984,
      "Go": 3985,
      "má»įÌĢ": 3986,
      "yamm": 3987,
      "áĪ¯": 3988,
      "ĠáĬĴ": 3989,
      "ĠáĬĸ": 3990,
      "inat": 3991,
      "akaĠk": 3992,
      "áī¥áĭĻ": 3993,
      "ĠáĭĪáĪ¨áĭ³": 3994,
      "ĠáĬłáĪĪáīĥ": 3995,
      "Fir": 3996,
      "Of": 3997,
      "ori": 3998,
      "áĪĽáĬķ": 3999,
      "umeĠ": 4000,
      "âĢĶ": 4001,
      "áĭĭáĬķ": 4002,
      "áĪłáĪ«": 4003,
      "0)Ġ": 4004,
      "waĠniĠ": 4005,
      "ibiyarĠ": 4006,
      "oundĠ": 4007,
      "waikway": 4008,
      "gunĠ": 4009,
      "ĠáĮħ": 4010,
      "aâĢĻ": 4011,
      "yÃ³": 4012,
      "oryĠ": 4013,
      "itwaĠ": 4014,
      "taĠkasanceĠ": 4015,
      "aisĠwaĠ": 4016,
      "Ethiop": 4017,
      "Co": 4018,
      "Uk": 4019,
      "hadaĠ": 4020,
      "kn": 4021,
      "osel": 4022,
      "áĭİáī½áĬķ": 4023,
      "Yar": 4024,
      "uoĠ": 4025,
      "uataĠ": 4026,
      "amin": 4027,
      "daĠakeĠ": 4028,
      "onc": 4029,
      "á¹£Ã¨": 4030,
      "áī°áĬķ": 4031,
      "áĪĪáī½áį¢": 4032,
      "Ġáį¤": 4033,
      "ĠáĬłáĪ¸": 4034,
      "áĭ¨áĪĿ": 4035,
      "1892Ġáĭĵ.áĪĿ.": 4036,
      "Â»Ġ": 4037,
      "ier": 4038,
      "ISB": 4039,
      "'y": 4040,
      ")áį£": 4041,
      "ĠáĭŃáĪĺáĪµ": 4042,
      "áĭ¨áĬł": 4043,
      "ed.": 4044,
      "ĠáĭķáĪĪ": 4045,
      "jÃ¹lá»įĠ": 4046,
      "áĭĳ": 4047,
      "áĪĺáĪ«": 4048,
      "ĠáĪĺáĮĢáĪĺáĪŃáĭ«": 4049,
      "ocr": 4050,
      "alikuwaĠm": 4051,
      "Atl": 4052,
      "etaĠ": 4053,
      "serik": 4054,
      "iĠneĠ": 4055,
      "áĬĵĠáĬ¨": 4056,
      "alib": 4057,
      "áĮįáī¥áĮ½": 4058,
      "ihinĠ": 4059,
      "ĠáīłáĮ£áĪĿ": 4060,
      "áĮĪáī¥": 4061,
      "Ġáī³áĭĭáīĤ": 4062,
      "Ġáīłáī°áĪĪáĭŃ": 4063,
      "Az": 4064,
      "gÃŃ": 4065,
      "isiwaĠ": 4066,
      "Sar": 4067,
      "ĠáĪº": 4068,
      "ĠáĬ¥áĭį": 4069,
      "áĮĪáīł": 4070,
      "ull": 4071,
      "áĭ²áĪħ": 4072,
      "áĭĺáĪŃ": 4073,
      "áĬ®áī½": 4074,
      "unt": 4075,
      "taf": 4076,
      "tatt": 4077,
      "'yanĠ": 4078,
      "en.": 4079,
      "girm": 4080,
      "áĮ¦áĪŃ": 4081,
      "iti": 4082,
      "áĭ°áĮį": 4083,
      "ĠáīłáĪĮ": 4084,
      "ĠáĬŃáįįáĪĭ": 4085,
      "hakaĠ": 4086,
      "rad": 4087,
      "Ã©l": 4088,
      "agbÃ¨gbÃ¨Ġ": 4089,
      "6-": 4090,
      "offic": 4091,
      "Awá»įnĠ": 4092,
      "orig": 4093,
      "Uch": 4094,
      "iĠyaĠK": 4095,
      "gudaĠ": 4096,
      "áĬ¹": 4097,
      "áĪ³áī¸áĭį": 4098,
      "áĭĬáīµ": 4099,
      "áįĪáĪµ": 4100,
      "áĮ£áīµ": 4101,
      "ĠáĬłáĭŃáĭ°": 4102,
      "ararĠ": 4103,
      "áĮ¥áĪ¨": 4104,
      "tureĠ": 4105,
      "tionsĠ": 4106,
      "áĪįáĮ£áĬķ": 4107,
      "adinĠ": 4108,
      "anzish": 4109,
      "báº¹Ìģáº¹ÌĢĠ": 4110,
      ".Ġ(": 4111,
      "cel": 4112,
      "famil": 4113,
      "wigiz": 4114,
      "ywo": 4115,
      "orÃŃĠ": 4116,
      "commun": 4117,
      "Ã©m": 4118,
      "ÃĮj": 4119,
      "áĪĺáī±": 4120,
      "áĮįáĪį": 4121,
      "ĠáīłáĪģ": 4122,
      "ĠáīĢáĮ¥": 4123,
      "áĪķáĪŃ": 4124,
      "Äģ": 4125,
      "score": 4126,
      "iaĠnaĠ": 4127,
      "ViungoĠvyaĠnjeĠ": 4128,
      "atolikiĠ": 4129,
      "37": 4130,
      "áįĳ": 4131,
      "áĪ¨áī¥": 4132,
      "samiĠ": 4133,
      "áīłáĪ©áīµ": 4134,
      "hasaĠ": 4135,
      "produc": 4136,
      "Ã¬dÃŃ": 4137,
      "uisĠ": 4138,
      "áĭµáĪ¨áĮį": 4139,
      "iĠwaĠm": 4140,
      "Os": 4141,
      "so": 4142,
      "waf": 4143,
      "ÃłgbÃłĠ": 4144,
      "rib": 4145,
      "u.Ġ": 4146,
      "ĠáĪ»": 4147,
      "áĭįáĪĿ": 4148,
      "áĪĿáĪħáĪŃ": 4149,
      "ĠáĬ¥áĬķáĮįáĪĬáĭĿ": 4150,
      "kuh": 4151,
      "ĠAgostiĠ": 4152,
      "Sik": 4153,
      "áĬĽáį¦Ġ": 4154,
      "áĭĪáĪ¨": 4155,
      "áĮłáĪ©": 4156,
      "ĠáĬłáĮĪáĪįáĮį": 4157,
      "nuĠ": 4158,
      ")ĠniĠ": 4159,
      "oyÃ¨Ġ": 4160,
      "juuĠyaĠ": 4161,
      "ewarĠ": 4162,
      "KwaĠ": 4163,
      "áĪ¨áĮĭ": 4164,
      "ÉĹayaĠ": 4165,
      "ĠáĬ¥áĭ¨áī°": 4166,
      "AS": 4167,
      "Ġ'": 4168,
      "gid": 4169,
      "Ã¬b": 4170,
      "hum": 4171,
      "amuz": 4172,
      "umaĠ": 4173,
      "bayyanaĠ": 4174,
      "ĠáĪĺáĪĨáĬĳ": 4175,
      "29": 4176,
      "Kib": 4177,
      "áĬĵáĬķ": 4178,
      "A.": 4179,
      "iĠyaĠk": 4180,
      "iĠmaiĠ": 4181,
      "Chin": 4182,
      "áĭ®áĪµ": 4183,
      "ĠáĬłáĪĺáīµ": 4184,
      "kÃłn": 4185,
      "rin": 4186,
      "iter": 4187,
      "erĠofĠ": 4188,
      "áĬĹ": 4189,
      "âĢº": 4190,
      "withĠtheĠ": 4191,
      "DuniyaĠ": 4192,
      "ItĠ": 4193,
      "Ġ(200": 4194,
      "alifĠ": 4195,
      "adem": 4196,
      "180": 4197,
      "Ãłráº¹Ġ": 4198,
      "duniyaĠ": 4199,
      "ĠáĪĥáĭŃáĪĽáĬĸ": 4200,
      "Wal": 4201,
      "oin": 4202,
      "pre": 4203,
      "yawanĠ": 4204,
      "le-": 4205,
      "watoĠ": 4206,
      "asĠtheĠ": 4207,
      "ĠáĭĪáīħáīµ": 4208,
      "OrÃŃ": 4209,
      "yank": 4210,
      "Ġkm": 4211,
      "Cor": 4212,
      "kaf": 4213,
      "wa,Ġ": 4214,
      "4-": 4215,
      "din": 4216,
      "ĠáĬ¥áĬĲáĭļáĪħ": 4217,
      "áī£áĪŃ": 4218,
      "sikuĠ": 4219,
      "Are": 4220,
      "Ø±": 4221,
      "incl": 4222,
      "Ber": 4223,
      "áĬĥ": 4224,
      "yayinĠ": 4225,
      "oĠsiĠ": 4226,
      "The": 4227,
      "walej": 4228,
      "babb": 4229,
      "sub": 4230,
      "áī£áĭĬ": 4231,
      "whoĠ": 4232,
      "iĠnaĠm": 4233,
      "tÃŃĠÃ³ĠsÃ¬Ġ": 4234,
      ".ĠItokasiĠÃĢwá»įnĠ": 4235,
      "ThisĠ": 4236,
      "Pres": 4237,
      "24Ġ": 4238,
      "Dem": 4239,
      "nor": 4240,
      "áį²áį": 4241,
      "ĠáĭŃáĭĺ": 4242,
      "aff": 4243,
      "ĠáĪĽáī´áĭİáĪµ": 4244,
      "Nd": 4245,
      "Alex": 4246,
      "JuniĠ": 4247,
      "´áį": 4248,
      "ĠáĬ¬": 4249,
      "eralĠ": 4250,
      "asil": 4251,
      "ĠáĪµáīµ": 4252,
      "áĮĭáĪį": 4253,
      "Ġáĭįáĭµ": 4254,
      "áĪģáĬķ": 4255,
      "partic": 4256,
      "|ĠRD1-": 4257,
      "ton": 4258,
      "ai.": 4259,
      "ye": 4260,
      "usiĠ": 4261,
      "Ãłká»įÌģká»įÌģĠ": 4262,
      "ģáĬĳ": 4263,
      "Ġáĭ´": 4264,
      "ation,Ġ": 4265,
      "fran": 4266,
      "kutokaĠMarekaniĠ": 4267,
      "Pap": 4268,
      "San": 4269,
      "ĠáĭķáĪĪáī³áīµ": 4270,
      "ÃłmÃ¬": 4271,
      "Del": 4272,
      "lÃ¹": 4273,
      "áĪ«áĪīáį¢": 4274,
      "inf": 4275,
      "amiĠ": 4276,
      "Mich": 4277,
      "pÃ©": 4278,
      "peke": 4279,
      "sunanĠ": 4280,
      "jagor": 4281,
      "áĮįáĬķ": 4282,
      "áĭ¨áĪ±áĪµ": 4283,
      "Per": 4284,
      "ÃłwonĠ": 4285,
      "iki.": 4286,
      "Ø§ÙĦ": 4287,
      "(201": 4288,
      "91": 4289,
      "ginaĠ": 4290,
      "aih": 4291,
      "awalaĠ": 4292,
      "anyanĠ": 4293,
      "aĠlokacinĠ": 4294,
      "conc": 4295,
      "âĢ¢": 4296,
      "Ni": 4297,
      "dang": 4298,
      "kÃ¹n": 4299,
      "portĠ": 4300,
      "arm": 4301,
      "áĮłáĬĵ": 4302,
      "ĠáĮ¥áĬķáī³áĭĬ": 4303,
      "dishiĠ": 4304,
      "wÃŃpÃ©Ġ": 4305,
      "polit": 4306,
      "ĠáĭŃáĪ°": 4307,
      "Oy": 4308,
      "23Ġ": 4309,
      "year": 4310,
      "inn": 4311,
      "awarĠ": 4312,
      "CO": 4313,
      "má»į": 4314,
      "áī³áĭ°": 4315,
      "áĪĽáī½": 4316,
      "áĪħáĬķ": 4317,
      "nÃŃĠÃ¬lÃºĠ": 4318,
      "ĠáīĢáĬĵáīµ": 4319,
      "stat": 4320,
      "padÃłĠ": 4321,
      "dok": 4322,
      "pakaĠ": 4323,
      "sÃ³": 4324,
      "oá¹£Ã¹Ġkáº¹": 4325,
      "ÃŃrÃłnĠ": 4326,
      "LagosĠ": 4327,
      "29Ġ": 4328,
      "wilayaĠ": 4329,
      "áĮĪáĪª": 4330,
      "Ġáĭ¨áĪĻ": 4331,
      "áĭ®áĪŃ": 4332,
      "ungu": 4333,
      "áĪ»áĭİáī½": 4334,
      "ĠáĭŃáĪħáĬķ": 4335,
      "wanz": 4336,
      "lÃ³rÃŃ": 4337,
      "a-fin": 4338,
      "baadaĠyaĠ": 4339,
      "Pet": 4340,
      "EĠ": 4341,
      "mÃ¬": 4342,
      "áĪ«áĪµ": 4343,
      "Rep": 4344,
      "ourn": 4345,
      "peluĠ": 4346,
      "Ġ7": 4347,
      "etĠdeĠ": 4348,
      "Sam": 4349,
      "De": 4350,
      "a;Ġ": 4351,
      "ĠáĪĿáĪµ": 4352,
      "ĠáĭĵáĪĪáĪĿ": 4353,
      "samarĠdaĠ": 4354,
      "ĠáīłáĬłáĬķáĭµ": 4355,
      "ayyarĠ": 4356,
      "esĠofĠ": 4357,
      "90": 4358,
      "dur": 4359,
      "Â°": 4360,
      "thro": 4361,
      "aĠgasarĠ": 4362,
      "sign": 4363,
      "áĭ¨áī°": 4364,
      "áī»áĭŃáĬĵ": 4365,
      "ĠáįĵáĪŃáī²": 4366,
      "autiĠ": 4367,
      "áĪłĠáĬĲáĮĪ": 4368,
      "syst": 4369,
      "sehemuĠyaĠ": 4370,
      "FebruariĠ": 4371,
      "UjerumaniĠ": 4372,
      "are": 4373,
      "usi": 4374,
      "Ġáĭ«áĪħáĪį": 4375,
      "áĪŃáĪµáī²áĭ«": 4376,
      "adiĠyaĠ": 4377,
      "aĠmat": 4378,
      "saur": 4379,
      "Gb": 4380,
      "||": 4381,
      "ĪáĪĿ": 4382,
      "áįĦ": 4383,
      "taĠnaĠ": 4384,
      "áĪĽáĪŃ": 4385,
      "ĠáĭĪáĪ¨": 4386,
      "áįĪáĪĪ": 4387,
      "aĠdun": 4388,
      "awan": 4389,
      "Â»Ġ(": 4390,
      "parti": 4391,
      "má»įĠ": 4392,
      "gbá»įÌĢ": 4393,
      "áĪįáĭ°": 4394,
      "áī³áī¸áĭįáĬķ": 4395,
      "ĠáĬłáĬķáĭ³": 4396,
      "ĠáĪ´áīµ": 4397,
      "alb": 4398,
      "ven": 4399,
      "ShugabanĠ": 4400,
      "Ã²á¹£Ã¨rÃ©": 4401,
      "eĠdansĠ": 4402,
      "ext": 4403,
      "ĠáīĢáĬķĠáīłáĬ¢áīµáĭ®áĮµáĭ«": 4404,
      "kasuwan": 4405,
      "sabodaĠ": 4406,
      "ongoĠ": 4407,
      "egeĠ": 4408,
      "incip": 4409,
      "áĪĵ": 4410,
      "ĠáĪĺáĬķáĮįáĪµáīµ": 4411,
      "5-": 4412,
      "ubuĠ": 4413,
      "amfaniĠdaĠ": 4414,
      "NaijiriaĠ": 4415,
      "wasanĠkwaikway": 4416,
      "has": 4417,
      "ĠáĪĺáĪª": 4418,
      "opleĠ": 4419,
      "eĠdeĠlaĠ": 4420,
      "ensĠ": 4421,
      "ost": 4422,
      "tron": 4423,
      "ammal": 4424,
      "wenyeĠm": 4425,
      "yn": 4426,
      "áĮ¹": 4427,
      "ĠáĪĺáĭµ": 4428,
      "umbaĠ": 4429,
      "asharaĠ": 4430,
      "ĠáĪ¥áĪŃáĭĪĠáĪĺáĬķáĮįáĪ¥áīµ": 4431,
      ".Ġ-": 4432,
      "WakristoĠ": 4433,
      "UlayaĠ": 4434,
      "Kats": 4435,
      "antsĠ": 4436,
      "illĠ": 4437,
      "Bah": 4438,
      "fac": 4439,
      "Ġáī¥áĪĪáĭį": 4440,
      "Ġáĭ°áī¡áī¥": 4441,
      "ejÃ¬Ġ": 4442,
      "kÃ³paĠ": 4443,
      "Bel": 4444,
      "kÃ¡": 4445,
      "shaw": 4446,
      "aĠkamaĠ": 4447,
      "prof": 4448,
      "ax": 4449,
      "maj": 4450,
      "endĠ": 4451,
      "http://www.": 4452,
      "YaĠ": 4453,
      "MuhammadĠ": 4454,
      "okĠ": 4455,
      "aĠkwaĠm": 4456,
      "sinim": 4457,
      "ÙĲ": 4458,
      "gw": 4459,
      "áĪ°áĬķ": 4460,
      "Kal": 4461,
      "anziaĠ": 4462,
      "lÃ³gÃºnĠ": 4463,
      "Octob": 4464,
      "28Ġ": 4465,
      "Sab": 4466,
      "atom": 4467,
      "una": 4468,
      "unĠniĠ": 4469,
      "nyingiĠ": 4470,
      "lakeĠ": 4471,
      "ternĠ": 4472,
      "StateĠ": 4473,
      "oĠdaĠ": 4474,
      "alip": 4475,
      "já»įÌģĠ": 4476,
      "5Ġ-Ġ": 4477,
      "áīº": 4478,
      "áĪĮáĬŃáīµ": 4479,
      "ĠáĭµáĪĿ": 4480,
      "ĠáĬķáĮīáĪµ": 4481,
      "ĠáĬłáĬ«áĪį": 4482,
      "ĠáįĪáĪŃáĭĸ": 4483,
      "183": 4484,
      "áĪĪáī¥": 4485,
      "áĬĲáīłáĪŃ": 4486,
      "áĬĲáī¶áī½": 4487,
      "esp": 4488,
      "hukumarĠ": 4489,
      "n'": 4490,
      "anyĠ": 4491,
      "2,": 4492,
      "NchiĠ": 4493,
      "Yamm": 4494,
      "áī¼": 4495,
      "yaĠkasanceĠ": 4496,
      "visiwaĠ": 4497,
      "ilÃ©-áº¹ÌĢká»įÌģĠ": 4498,
      "dayaĠdagaĠcikinĠ": 4499,
      "27Ġ": 4500,
      "ia.Ġ": 4501,
      "97": 4502,
      "Waliozali": 4503,
      "asiasaĠ": 4504,
      "-ĠMtakatifuĠ": 4505,
      "amad": 4506,
      "áĪĭáĪīáį¢": 4507,
      "Ġ10": 4508,
      "Ibad": 4509,
      "Kit": 4510,
      "ishiĠwaĠ": 4511,
      "fÃŃÃ¬m": 4512,
      "vid": 4513,
      "arz": 4514,
      "aseĠ": 4515,
      "day": 4516,
      "akosoĠ": 4517,
      "áĪŃáĭ«áĪĿ": 4518,
      "Amerik": 4519,
      "PĠ": 4520,
      "gĠ": 4521,
      "epend": 4522,
      "Ahm": 4523,
      "lÃ²Ġ": 4524,
      "enoĠ": 4525,
      "áįĪáīµ": 4526,
      "Ġáĭ¨áĪļáĪį": 4527,
      "áĮłáīĥáĪĭáĭŃ": 4528,
      "enz": 4529,
      "yr": 4530,
      "taĠm": 4531,
      "juĠ": 4532,
      "kuk": 4533,
      "umiaĠ": 4534,
      "Ġá»įjá»įÌģĠ": 4535,
      "JanuaryĠ": 4536,
      "iâĢĻ": 4537,
      "agu": 4538,
      "áĬ¨áĪ«": 4539,
      "ock": 4540,
      "adil": 4541,
      "tech": 4542,
      "KatikaĠ": 4543,
      "UingerezaĠ": 4544,
      "taraĠ": 4545,
      "anĠhaifeĠtaĠ": 4546,
      "upandeĠwaĠ": 4547,
      "vir": 4548,
      "Mil": 4549,
      "áĪįáį¡áį¡": 4550,
      "ĠáĪĺáĬĲ": 4551,
      "afterĠ": 4552,
      "suchĠ": 4553,
      "Ġáĭ¨áĪĿáīµ": 4554,
      "lÃł": 4555,
      "aĠÆĻasarĠ": 4556,
      "Ġáº¹láº¹ÌģbÃ¹nĠ": 4557,
      "dir": 4558,
      "Coun": 4559,
      "bab": 4560,
      "vari": 4561,
      "group": 4562,
      "anniĠ": 4563,
      "ĠáĬ¥áĬķáĪµ": 4564,
      "áĬ©áĪį": 4565,
      "u-": 4566,
      "aĠniĠ": 4567,
      "ed,Ġ": 4568,
      "ĠdesĠ": 4569,
      "tĠofĠ": 4570,
      "iá¹£áº¹Ġ": 4571,
      "iny": 4572,
      "áĪįáįį": 4573,
      "áĪĪáĭ±": 4574,
      "ĠáĬłáĮ¥": 4575,
      "áĮĪáĭį": 4576,
      "Ġáī°áĬĲ": 4577,
      "OnĠ": 4578,
      "includ": 4579,
      "Ġ200": 4580,
      "tÃŃĠÃłwá»įnĠ": 4581,
      "Ġáº¹niĠ": 4582,
      "indiĠ": 4583,
      "áĪĦáĭµ": 4584,
      "ĠáĪ³áĭŃáĪĨáĬķ": 4585,
      "pay": 4586,
      "taĠhanyarĠ": 4587,
      "Ã¹gbá»įÌģnĠ": 4588,
      "Ġáº¸ÌĢ": 4589,
      "imat": 4590,
      "Eg": 4591,
      "Haif": 4592,
      "jim": 4593,
      "amak": 4594,
      "ilion": 4595,
      "áĭ°áĮĭ": 4596,
      "Ð°": 4597,
      "Kil": 4598,
      "oldĠ": 4599,
      "yÃ¬ÃŃ": 4600,
      "jinaĠlaĠ": 4601,
      "ĠáĪĺáĭĿ": 4602,
      "ĠáĪĽáĪħ": 4603,
      "ĠáĬŃáĪįáĪį": 4604,
      "Bib": 4605,
      "cik": 4606,
      "iĠkamaĠ": 4607,
      "kusin": 4608,
      "babbanĠbirninĠ": 4609,
      "ainsĠ": 4610,
      "vo": 4611,
      "áī¬": 4612,
      "áĮ³": 4613,
      "ĠáĭĪáĮĪáĬķ": 4614,
      "áĮłáįĭ": 4615,
      "Ġáĭ¨áī°áĪĪáĭ«áĭ©": 4616,
      "Ġáī³áĪĭáīħ": 4617,
      "tsarinĠ": 4618,
      "al.": 4619,
      "ISBNĠ": 4620,
      "BCĠ": 4621,
      "ĠáĬĳ": 4622,
      "Ġáĭ¨áīµ": 4623,
      "ick": 4624,
      "wá»įĠ": 4625,
      "ĠáĪĪáĭį": 4626,
      "Ġ16": 4627,
      "ĠáĪĽáĪµáī³áĭĪ": 4628,
      "áĪµáī±": 4629,
      "pÃŃ": 4630,
      "franÃ§": 4631,
      "Apr": 4632,
      "Bank": 4633,
      "o:Ġ": 4634,
      "ĠáĪ²áĪĨáĬķĠáĭŃáĪħ": 4635,
      "Ġáĭ¨áĬłáĪĽáĪŃáĬĽĠáĪĿáĪ³áĪĮĠáĬĲáĭįáį¢ĠáīµáĪŃáĮīáĪĻĠáĪĺáĭ°áī¥Ġ:Ġáī°áĪ¨áīµáĬĵĠáĪĿáĪ³áĪĮ": 4636,
      "ĠáīłáĬ¥áĬķáĮįáĪĬáĭĿáĬĽ": 4637,
      "bet": 4638,
      "anĠ(": 4639,
      "kamaĠ": 4640,
      "ĠáĭĲ": 4641,
      "tÃŃĠÃ³ĠtiĠ": 4642,
      "µáį": 4643,
      "Riv": 4644,
      "elsĠ": 4645,
      "Ilim": 4646,
      "iweĠ": 4647,
      "nomb": 4648,
      "coun": 4649,
      "ity,Ġ": 4650,
      "le.": 4651,
      "BC": 4652,
      "Ãłj": 4653,
      "áĭ³áĪĿ": 4654,
      "neĠdagaĠ": 4655,
      "JinaĠ": 4656,
      "MwakaĠwaĠ": 4657,
      "Ġ6": 4658,
      "alim": 4659,
      "Bi": 4660,
      "warĠ": 4661,
      "ĠáĪ©": 4662,
      "áĪŃáĮį": 4663,
      "ĠáĬĲáĭįáį¢Ġáĭ¨": 4664,
      "áĮłáĪį": 4665,
      "ĠáĪĢáĮĪáĪŃ": 4666,
      "mwakaĠ": 4667,
      "theyĠ": 4668,
      ".ĠManazartaĠ": 4669,
      "yanzuĠ": 4670,
      "walejinĠ": 4671,
      "ific": 4672,
      "Pat": 4673,
      "fim": 4674,
      "yÃłnĠ": 4675,
      "aĠma": 4676,
      "áīłáĪĮ": 4677,
      "ejÃ¬": 4678,
      "áĮ¥áĬķáī³áĭĬ": 4679,
      "aĠr": 4680,
      "Wah": 4681,
      "itu": 4682,
      "ne.": 4683,
      "áĬķĠ(": 4684,
      "onsĠ": 4685,
      "áī½áĭį": 4686,
      "Ġáĭ¨áī°áī£áĪĪáĭį": 4687,
      "eziĠ": 4688,
      "DecemberĠ": 4689,
      "Hen": 4690,
      "Ä«": 4691,
      "ifuat": 4692,
      "Marej": 4693,
      "ÃĢwá»įnĠÃ¬t": 4694,
      "wakatiĠwaĠ": 4695,
      "pá»įÌĢlá»į": 4696,
      "lil": 4697,
      "Arab": 4698,
      "nem": 4699,
      "áĬķáĭ°": 4700,
      "áĬķĠáĪĪ": 4701,
      "áĬķĠáĪµáĪĿ": 4702,
      "áį¢Ġáīł": 4703,
      "áī°áĭĭáĪįáį¢": 4704,
      "áĬĲáĮĪ": 4705,
      "áĪĭáĪī": 4706,
      "Ġáĭ¨áĪĮ": 4707,
      "Mart": 4708,
      "áĬĽáĭįĠáĬŃáįįáĪĪĠáĭĺáĪĺáĬķ": 4709,
      "ĠáĭĻáĪªáĭ«": 4710,
      "Láº¹Ìģ": 4711,
      "iakaĠm": 4712,
      "jar": 4713,
      "aĠwatanĠ": 4714,
      "ikub": 4715,
      "iziĠ": 4716,
      "raf": 4717,
      "vy": 4718,
      "áĭ«áĪµ": 4719,
      "reeĠ": 4720,
      "áī¶áī¹": 4721,
      "ĠáĪĨáĬĲáĭį": 4722,
      "ĠáĬ¥áĮħáĮį": 4723,
      "vers": 4724,
      "Gl": 4725,
      "Tim": 4726,
      "TanaĠ": 4727,
      "Ùı": 4728,
      "Al-": 4729,
      "taim": 4730,
      "zinaz": 4731,
      "Hot": 4732,
      "ĠáĮĨ": 4733,
      "áĭŃáĬĲáīµ": 4734,
      "áī½áĪį": 4735,
      "áĬŃáĪĪ": 4736,
      "áī¨áĪŃ": 4737,
      "ini": 4738,
      "udiĠ": 4739,
      "JamesĠ": 4740,
      "Lov": 4741,
      "ayyaĠ": 4742,
      "affunĠ": 4743,
      "ananĠhukumominĠ": 4744,
      "kuz": 4745,
      "awai": 4746,
      "áĭĺáī¥": 4747,
      "risti": 4748,
      "0-": 4749,
      "oĠkatikaĠ": 4750,
      "aĠkasanceĠ": 4751,
      "tsohonĠ": 4752,
      "Wom": 4753,
      "nau": 4754,
      "utiĠ": 4755,
      "wÃ³nĠ": 4756,
      "ĠK": 4757,
      "áī½áĪģ": 4758,
      "áĮĪáĬĽ": 4759,
      "áĬ¨áĪŃ": 4760,
      "áĬ«áī£áī¢": 4761,
      "ungan": 4762,
      "ammanĠ": 4763,
      "yÃ³Ã²Ġ": 4764,
      "MĠ": 4765,
      "Waz": 4766,
      "Hukum": 4767,
      "utt": 4768,
      "wararr": 4769,
      "aĠsh": 4770,
      "áĮĪáĬĲ": 4771,
      "áĪªáī³": 4772,
      "ĠáĬ«áĪį": 4773,
      "atib": 4774,
      "ki": 4775,
      "muĠ": 4776,
      "ing,Ġ": 4777,
      "resp": 4778,
      "ce": 4779,
      "loriĠ": 4780,
      ":ĠTheĠ": 4781,
      "áį¤Ġáīł": 4782,
      "KenyaĠ": 4783,
      "esab": 4784,
      "okeaĠ": 4785,
      "daĠsaur": 4786,
      "gbajÃºmá»įÌĢĠ": 4787,
      "Es": 4788,
      "DĠ": 4789,
      "áĬŃáĪŃáĪµáī²áĭ«áĬķ": 4790,
      "ĠáĪĽáĮ£": 4791,
      "AĠwatanĠ": 4792,
      "isaĠgaĠ": 4793,
      "with": 4794,
      "26Ġ": 4795,
      "a)": 4796,
      "áº¹Ìģká»įÌĢ": 4797,
      "HaifaffunĠ": 4798,
      "Ġáĭ¨áĭĵ": 4799,
      "áī£áĪįáį¢": 4800,
      "áįįáĪªáĬ«": 4801,
      "áĭ¨áĪĺ": 4802,
      "áī²áĬŃ": 4803,
      "pap": 4804,
      "yaĠKemi": 4805,
      "ÃĢwá»įnĠáº¹láº¹ÌģbÃ¹nĠ": 4806,
      "á»įÌģkasÃŃ": 4807,
      "gameĠdaĠ": 4808,
      "oseluĠ": 4809,
      "45": 4810,
      "DolaĠ": 4811,
      "okuwaĠ": 4812,
      "ÃłrÃŃ": 4813,
      "eff": 4814,
      "Waliofariki": 4815,
      "shindiĠwaĠTuzoĠyaĠNobelĠyaĠKemi": 4816,
      "Ã²rÃ¹nĠ": 4817,
      "eneoĠlaĠ": 4818,
      "ba.": 4819,
      "iwaĠk": 4820,
      "nÃ¡Ãł.": 4821,
      "sababuĠ": 4822,
      "áī¥áĪŃáĪĥ": 4823,
      "ĠáĭŃáī½áĪĭáĪįáį¢": 4824,
      "rom": 4825,
      "ojaĠ": 4826,
      "Hisp": 4827,
      "páº¹l": 4828,
      "iĠyaĠm": 4829,
      "ÃĢÃłráº¹Ġ": 4830,
      "uguĠ": 4831,
      "ipoĠ": 4832,
      "nÃŃnuĠ": 4833,
      "ĠApriliĠ": 4834,
      "lambarĠ": 4835,
      "Waliozaliwa": 4836,
      "Cap": 4837,
      "Ro": 4838,
      "Ġáĭ¨áī³": 4839,
      "áĪ³áī°": 4840,
      "Ġáī°áįĪ": 4841,
      "ĠáīłáĪį": 4842,
      "Roma,Ġ": 4843,
      "ĠáĭĵáĬŃáĪįáīł.ĠáĮįáĭµáĪĿ": 4844,
      "ĠáĭŃáī³áĭĪáīĥáĪįáį¢": 4845,
      "tÃłĠ": 4846,
      "ism": 4847,
      "utilis": 4848,
      "new": 4849,
      "áĬ½": 4850,
      "áĬĭáĪĭ": 4851,
      "áĪŃ-": 4852,
      "ĠáĬ¥áĭµ": 4853,
      "áĪ«áī¸áĭį": 4854,
      "áīĥáĪį": 4855,
      "ĠáĬ¥áĬķáĭ°áĪĨáĬĲ": 4856,
      "FAĠ": 4857,
      "sukaĠ": 4858,
      "ikanĠ": 4859,
      "Ã¬f": 4860,
      "elec": 4861,
      "aĠkasarĠ": 4862,
      "ijobaĠ": 4863,
      "kask": 4864,
      "Alexand": 4865,
      "áĬ¾": 4866,
      "Ãłg": 4867,
      "ĠáĬłáĭ²áĪµ": 4868,
      "âĢ¦": 4869,
      "Ġáĭ¨áĪĨáĬĳ": 4870,
      "Ġáĭ¨áĬĲáīłáĪ¨áĭį": 4871,
      "áĪĪáī°áĬĽáĭį": 4872,
      "Ġáĭ©áĬĴ": 4873,
      "nolog": 4874,
      "hiyoĠ": 4875,
      ".ĠK": 4876,
      "arkonĠ": 4877,
      "ziliz": 4878,
      "Fin": 4879,
      "áĭ«áĭ«": 4880,
      "áī¥áĪĬáĬŃ": 4881,
      "áī£áĪī": 4882,
      "áĬĳáĪµ": 4883,
      "cin": 4884,
      "daiĠ": 4885,
      "laĠk": 4886,
      "uĠK": 4887,
      "Sark": 4888,
      "rá»įĠ": 4889,
      "Ãłb": 4890,
      "atikaĠk": 4891,
      "men": 4892,
      "áĬķáĮ«": 4893,
      "áīłáĬĽ": 4894,
      "Ġáī°áīĭ": 4895,
      "ĠáĭŃáī»": 4896,
      "ĠáĭŃáĮłáīĢ": 4897,
      "therĠ": 4898,
      "Ng": 4899,
      "uelĠ": 4900,
      "VI": 4901,
      "uĠmasoĠ": 4902,
      "áĬłáĪĿ": 4903,
      "aussiĠ": 4904,
      "loc": 4905,
      "mi": 4906,
      "akk": 4907,
      "dâĢĻ": 4908,
      "sĠinĠ": 4909,
      "uĠM": 4910,
      "trav": 4911,
      "dukĠ": 4912,
      "tiĠwonĠ": 4913,
      "ÃĮb": 4914,
      "1Ġ-Ġ": 4915,
      "wandaĠakaĠ": 4916,
      "áĬ¡": 4917,
      "aticĠ": 4918,
      "áī£áĪħ": 4919,
      "áĬ«áĪį": 4920,
      "Ġáĭ«áĪī": 4921,
      "ungeĠ": 4922,
      "ĠáĬ«áĪĮ": 4923,
      "AllahĠ": 4924,
      "opoĠ": 4925,
      "AĠranarĠ": 4926,
      "ÅĦĠá¹£": 4927,
      "Stat": 4928,
      "bel": 4929,
      "okeĠ": 4930,
      "ĠáĪĪáĬ¥": 4931,
      "áĭĽáĪ¬": 4932,
      "áĪ±áĪĿ": 4933,
      "addin": 4934,
      "Kiswah": 4935,
      "GeorgeĠ": 4936,
      "d,Ġ": 4937,
      "nÃ¬": 4938,
      "áĮ¼": 4939,
      "Ġáĭ¨áī°áĬŃáĪī": 4940,
      "áīģáĪŃ": 4941,
      "ĠáĪ«áĪµ": 4942,
      "ajiĠwaĠfilamuĠ": 4943,
      "35": 4944,
      "Aw": 4945,
      "sal": 4946,
      "Ã©p": 4947,
      "anaĠnaĠm": 4948,
      "Ãłwá»įnĠá»įjá»įÌģÃ¬bÃŃĠnÃŃĠ": 4949,
      "alÃ¡Ã¬": 4950,
      ")ĠáĬ¨": 4951,
      "ĠáĭįáĪµáĮ¥Ġáĭ¨áĪļáĮĪáĬĿ": 4952,
      "Vol": 4953,
      "dro": 4954,
      "t-": 4955,
      "Ã¼": 4956,
      "larg": 4957,
      "ariĠwaĠ": 4958,
      "Ã³mÃ¬n": 4959,
      "age": 4960,
      "idayarĠ": 4961,
      "daĠsukaĠ": 4962,
      "mÃ¡aĠÅĦĠ": 4963,
      "Comp": 4964,
      "áĮĪáĭĽ": 4965,
      "ĠáĪŀáīµ": 4966,
      "3,": 4967,
      "nÃŃnÃºĠerÃ©Ġ": 4968,
      "Up": 4969,
      "takeĠ": 4970,
      "uriĠ": 4971,
      "áī³áī½áĬķ": 4972,
      "nÃŃĠÃĮpÃŃnláº¹ÌĢĠ": 4973,
      "Abub": 4974,
      "nÃŃnÃº": 4975,
      "áĭ°áĪ¨áĮī": 4976,
      "ÃĴg": 4977,
      "gÃ©n": 4978,
      "struc": 4979,
      "ItaĠ": 4980,
      "ron": 4981,
      "anenĠ": 4982,
      "sÃŃĠnÃŃĠ": 4983,
      "Ã©ri": 4984,
      "TazamaĠpiaĠ": 4985,
      "FI": 4986,
      "lav": 4987,
      "tuĠ": 4988,
      "ĠáīłáĪ¨": 4989,
      "áĬłáĪį": 4990,
      "ĠáĭĵáĪĺáī±": 4991,
      "ĠáīłáĬ©áĪį": 4992,
      "Rayayy": 4993,
      "EbunĠ": 4994,
      "Josep": 4995,
      "duk": 4996,
      "onlyĠ": 4997,
      "ientĠ": 4998,
      "nas": 4999,
      "áĭįáĪµ": 5000,
      "áĭµáĪµáīµ": 5001,
      "olon": 5002,
      "áĬĿáĬĲáīµ": 5003,
      "ĠáĮĪáī¥": 5004,
      "áĮłáĪĭ": 5005,
      "Ġáī¤áī°ĠáĬŃáĪŃáĪµáī²áĭ«áĬķ": 5006,
      "Maj": 5007,
      "aguz": 5008,
      "daĠkar": 5009,
      "sikuĠyaĠ": 5010,
      "Fasih": 5011,
      "SeptemberĠ": 5012,
      "9-": 5013,
      ".,Ġ": 5014,
      "Uingerez": 5015,
      "masuĠ": 5016,
      "áĭ£": 5017,
      "Ġáĭ±": 5018,
      "ana'": 5019,
      "á»įÌģá»įÌĢ": 5020,
      "tÃŃĠaĠ": 5021,
      "Soci": 5022,
      "icaĠ": 5023,
      "iedĠ": 5024,
      "erc": 5025,
      "weenĠ": 5026,
      "dominĠ": 5027,
      "mulk": 5028,
      "ĠáĬłáĪ°": 5029,
      "ĠáīµáĪįáīħ": 5030,
      "ĠáĪľáīµáĪŃ": 5031,
      "awak": 5032,
      "Dar": 5033,
      "fimĠ": 5034,
      "kÃŃ": 5035,
      "sáº¹ÌĢĠ": 5036,
      "arkashinĠ": 5037,
      "Amáº¹ÌģrÃŃkÃłĠ": 5038,
      "jama'aĠ": 5039,
      "ollywo": 5040,
      "Lak": 5041,
      "bang": 5042,
      "áĬķáĭ²": 5043,
      "áĭįáĪį": 5044,
      "áĪĪáĪģ": 5045,
      "áĪ©áīµ": 5046,
      "áĪİáĬķ": 5047,
      "Makar": 5048,
      "ĠáĪķáĭĿ": 5049,
      "ĠáįķáĪ¬áĭļ": 5050,
      "MajalisarĠ": 5051,
      "odeĠ": 5052,
      "pÃ¡": 5053,
      "FebruaryĠ": 5054,
      "digir": 5055,
      "rang": 5056,
      "Pas": 5057,
      "otaĠ": 5058,
      "twoĠ": 5059,
      "ĠH": 5060,
      "MkoaĠwaĠ": 5061,
      "gidanĠ": 5062,
      "entom": 5063,
      "ĠáĭįáĮ¤": 5064,
      "over": 5065,
      "Ġáĭ¨áĪ°áĭį": 5066,
      "ĠáīłáĭĺáĪĺáĬĲĠáĭ®áĪĲáĬķáĪµ": 5067,
      "iranĠ": 5068,
      "tre": 5069,
      "aux": 5070,
      "ĠáĪ¥áĪĭáĪ´": 5071,
      "WilliamĠ": 5072,
      "yst": 5073,
      "ifeĠ": 5074,
      "-áº¹ÌĢ": 5075,
      "36": 5076,
      "aniĠdaĠ": 5077,
      "unguĠ": 5078,
      "aĠyaĠk": 5079,
      "pÃ¨ĠnÃŃĠ": 5080,
      "Ġáĭŀ": 5081,
      "ĠáįĢ": 5082,
      "áīĢáĪį": 5083,
      "áīĢáĭµáĪŀ": 5084,
      "áīħáĪµ": 5085,
      "ĠáĮ½áĪĳáįį": 5086,
      "34": 5087,
      "akatifuĠ": 5088,
      "Ã¬bÃŃ": 5089,
      "ojaĠwaĠ": 5090,
      "hukumaĠ": 5091,
      "wenyew": 5092,
      "'YanĠ": 5093,
      "binĠ": 5094,
      "mill": 5095,
      "áĬ¨áįį": 5096,
      "áĬķáĭ³áĪŃ": 5097,
      "ĠáĮįáī¥áĮ½": 5098,
      "''": 5099,
      "saf": 5100,
      "kuuĠ": 5101,
      "ott": 5102,
      "9Ġ-Ġ": 5103,
      "birniĠ": 5104,
      "danĠwasanĠÆĻwallonĠÆĻafaĠtaĠÆĻasarĠIngil": 5105,
      "gbeĠ": 5106,
      "áĭķáĭĿ": 5107,
      "22": 5108,
      "doĠ": 5109,
      "isionĠ": 5110,
      "ingu": 5111,
      "ĠáĭŃáĪħáĪĿ": 5112,
      "áĬ¨áī°áĪĪáĭį": 5113,
      "arÃ¡ĠAmáº¹ÌģrÃŃkÃł": 5114,
      "work": 5115,
      "imp": 5116,
      "7-": 5117,
      "ation.": 5118,
      "á»įnĠ": 5119,
      "Ã¬pÃŃnláº¹ÌĢĠ": 5120,
      "ojÃº": 5121,
      "áĪµáī°áĬĽ": 5122,
      "Ġáīłáĭ¨": 5123,
      "ĠáĬłáĬĲ": 5124,
      "ĠáĬłáĭµ": 5125,
      "áĭ³áĮħ": 5126,
      "ĠáĭµáĬķ": 5127,
      "ĠáīģáĮ¥": 5128,
      "ikiaĠ": 5129,
      "onĠ(": 5130,
      "OlÃ³": 5131,
      "Ã²unĠ": 5132,
      "wamnanĠ": 5133,
      "Ã¬tÃłnĠ": 5134,
      "âĢĿĠ": 5135,
      "nadaĠ": 5136,
      "ĠáĬ¥áĬķáĭ°áī°": 5137,
      "ĠáīłáĪĺáĪĨáĬĳ": 5138,
      "orunĠ": 5139,
      "ole": 5140,
      "ilomitaĠ": 5141,
      "Lou": 5142,
      "trad": 5143,
      "fus": 5144,
      "iev": 5145,
      "un.": 5146,
      "mÃŃĠ": 5147,
      "enez": 5148,
      "áĬ¨áī¥": 5149,
      "áĪ¥áī±": 5150,
      "ráº¹ÌĢ.": 5151,
      "áĮİáĪŃáĮİáĪŃ": 5152,
      "iongoz": 5153,
      "oloj": 5154,
      "ifÃ¡": 5155,
      "overĠ": 5156,
      "WilayaĠ": 5157,
      "jiniĠ": 5158,
      "aĠB": 5159,
      "intoĠ": 5160,
      "Ã²g": 5161,
      "Ã²yÃ¬nĠ": 5162,
      "torÃŃĠ": 5163,
      "áĭ³áĬķáīµ": 5164,
      "ĠáĪµáĪĪáĭļáĪħ": 5165,
      "ĠáĪħáĭĿáī¥": 5166,
      "Cong": 5167,
      "alil": 5168,
      "akoĠ": 5169,
      "Adam": 5170,
      "Port": 5171,
      "ĠkwaĠ": 5172,
      "aĠfanninĠ": 5173,
      "sanyaĠ": 5174,
      "dat": 5175,
      "oot": 5176,
      "áĬķĠáĪĪáĪĺ": 5177,
      "daĠh": 5178,
      "ĠáĪĺáĪ¨áĮĥ": 5179,
      "áį¡áĭ¨": 5180,
      "áĭĭáīµ": 5181,
      "ĠáĪĿáĬķáĮŃ": 5182,
      "div": 5183,
      "ĠR": 5184,
      "unciĠ": 5185,
      "aliz": 5186,
      "plac": 5187,
      "class": 5188,
      "ba,Ġ": 5189,
      "sar": 5190,
      "conn": 5191,
      "Can": 5192,
      "áī§": 5193,
      ",ĠM": 5194,
      "ÃłÃły": 5195,
      "ĠáīłáĮ¥": 5196,
      "ĠáĬłáī£áĪį": 5197,
      "áī£áī¥": 5198,
      "Ġáĭ¨áĬĸ": 5199,
      "ĠáĬŃáĪŃáĪµáī¶áĪµ": 5200,
      "suc": 5201,
      "BaadaĠyaĠ": 5202,
      "ĠáįĬáĭ°áĪį": 5203,
      "iliyanĠ": 5204,
      "ĠáįķáĪ®": 5205,
      "áįĪáĮ¥áĪ®": 5206,
      "páº¹luĠ": 5207,
      "ÙĴ": 5208,
      "binc": 5209,
      "áº¹ÌĢáº¹Ìģ": 5210,
      "ÃĢwá»įnĠáº¹láº¹ÌģbÃ¹nĠNobelĠ": 5211,
      "pir": 5212,
      "áĮ¾": 5213,
      "Ã©c": 5214,
      "ĠáīłáĪĨ": 5215,
      "ĠáĬ¥áĬķáĬ³": 5216,
      "press": 5217,
      "áĬªáĭ«": 5218,
      "Ibrah": 5219,
      "ĠáĬłáĭŃáĭ°áĪĪáĪĿ": 5220,
      "kulaĠ": 5221,
      "AlÃ¡": 5222,
      "shekararĠ200": 5223,
      "láº¹ÌģyÃ¬nĠ": 5224,
      "ĠáīłáĪ«": 5225,
      "ĠáĬłáĬķáĭ³áĬķáĭµ": 5226,
      "'yarĠ": 5227,
      "deuxĠ": 5228,
      "7Ġ-Ġ": 5229,
      "wadan": 5230,
      "ÃłgbÃ©lÃ©": 5231,
      "ĠAfr": 5232,
      "mataĠ": 5233,
      "ilos": 5234,
      "urr": 5235,
      "Ãºs": 5236,
      "Thom": 5237,
      "Sen": 5238,
      "áĪµáī¶": 5239,
      "ĠáĪĺáĮ»": 5240,
      "áĬłáĭŃ": 5241,
      "ĠkanĠ": 5242,
      "áĪµáĪ«áīħ": 5243,
      "ĠáĪĽáĪŃáīĨáĪµ": 5244,
      "TibaĠmwakaĠwaĠ": 5245,
      "ĠáīłáĪĻáĪī": 5246,
      "waz": 5247,
      "CharlesĠ": 5248,
      "Te": 5249,
      "Æ´": 5250,
      "Ãłf": 5251,
      "iyoy": 5252,
      "70": 5253,
      "áīłáĪ¬": 5254,
      "áĭĿáĪĽáī½": 5255,
      "ĠáĬłáĪĿáĪĭáĬŃ": 5256,
      "edĠasĠ": 5257,
      "angaz": 5258,
      "progr": 5259,
      "her": 5260,
      "mostĠ": 5261,
      "kutokaĠnchiĠyaĠ": 5262,
      "Ġáº¹ÌĢyÃłĠ": 5263,
      "Manazarta": 5264,
      "hel": 5265,
      "alum": 5266,
      "a\"Ġ": 5267,
      "áĪ«áĪĿ": 5268,
      "ĠáĪļáĪĬ": 5269,
      "ĠáĬ¥áĪµáĬ¨Ġ20": 5270,
      "WestĠ": 5271,
      "identĠ": 5272,
      "Ġá»įdÃºnĠ201": 5273,
      "NovemberĠ": 5274,
      "rayuwaĠ": 5275,
      "owaĠ": 5276,
      "UN": 5277,
      "herĠ": 5278,
      "áĪ³áĪį": 5279,
      "áĬ«áī³": 5280,
      "áĭĺáĬķ": 5281,
      "ĠáĬ¥áĬķáĭ°áĮĪáĬĵ": 5282,
      "iĠmwaĠ": 5283,
      "consid": 5284,
      "ĠáīłáĪ½áī³": 5285,
      "Ã³mÃ¬nÃłĠ": 5286,
      "fan": 5287,
      "mark": 5288,
      "iquesĠ": 5289,
      "awá»įn": 5290,
      "aidiĠ": 5291,
      "Ãłwá»įnĠÃ¨nÃ¬yÃłnĠ": 5292,
      "kutokanaĠnaĠ": 5293,
      "Mu": 5294,
      "áĭ¨áĭį": 5295,
      "app": 5296,
      "ĠáīłáĬ¢": 5297,
      "áī²áĬķ": 5298,
      "áĪģáĪī": 5299,
      "áĮĬáĪµ": 5300,
      "ĠáĬ«áĪĮáĬķáĭ³áĪŃ": 5301,
      "contin": 5302,
      "idg": 5303,
      "nÃŃp": 5304,
      "princip": 5305,
      "esiĠ": 5306,
      "áīłáĭį": 5307,
      "ĠáĪĪáī°": 5308,
      "kumb": 5309,
      "áīĭáĬķáīĭ": 5310,
      "áĬķáĭ³áĬķáĭµ": 5311,
      "áĮłáīĢáĪĿ": 5312,
      "áĮİáĪŃáĮİáĪŃáĭ«áĬķ": 5313,
      "Ba": 5314,
      "faĠ": 5315,
      "inst": 5316,
      "oloniĠ": 5317,
      "aĠyankinĠ": 5318,
      "bil": 5319,
      "Ð¸": 5320,
      "OctoberĠ": 5321,
      "áĪµáĪĽ": 5322,
      "Ġáį«": 5323,
      "áĪŀáĬŃ": 5324,
      "áĭĽáĭĿ": 5325,
      "TareheĠ": 5326,
      "áĮ£áĪįáĭ«áĬķ": 5327,
      "sinimÃ¡Ġ": 5328,
      "ĠáĪĽáĮ£áīĢ": 5329,
      "Ghan": 5330,
      "ayans": 5331,
      "wang": 5332,
      "iĠwaĠk": 5333,
      "tele.ĠItokasiĠÃĢwá»įnĠ": 5334,
      "US": 5335,
      "bak": 5336,
      "der": 5337,
      "ĠáĬĹ": 5338,
      "áĪįáĮħ": 5339,
      "Ġáī°áĬĵ": 5340,
      "ĠáĬłáĪģáĬķ": 5341,
      "wengiĠ": 5342,
      "pass": 5343,
      "Atlant": 5344,
      "ary": 5345,
      "ĠáĪİ": 5346,
      "áīµáĪĿ": 5347,
      "ons": 5348,
      "áĭ«áĭĿ": 5349,
      "ĠáĪĺáī¶": 5350,
      "áĪ«áĪ½": 5351,
      "ĠáĭŃáĭĪ": 5352,
      "on-": 5353,
      "aientĠ": 5354,
      "neĠnaĠ": 5355,
      ".ĠÃĢ": 5356,
      "nip": 5357,
      "oirĠ": 5358,
      "ĠáĪĿáĬĵáĪį": 5359,
      "kumaĠk": 5360,
      "áĭ³áĬķáĭ±": 5361,
      "ĠáĪĿáĬĵáĪįáī£áīµ": 5362,
      "ilÃ©": 5363,
      "ikip": 5364,
      "ali.": 5365,
      "betweenĠ": 5366,
      "abub": 5367,
      "á»įÌģn": 5368,
      "isĠtheĠ": 5369,
      "Ġá»įÌĢkanĠ": 5370,
      "kÃŃĠÃ³Ġ": 5371,
      "pá»įÌĢlá»įpá»įÌĢĠ": 5372,
      "áĪįáīģ": 5373,
      "onaĠ": 5374,
      "ĠáĬłáī£áīµ": 5375,
      "aĠmap": 5376,
      "áĬ¥áĮįáĭļáĬłáī¥áĪĶáĪŃ": 5377,
      "poss": 5378,
      "ity": 5379,
      "oloseluĠ": 5380,
      "haifiĠ": 5381,
      "jirginĠ": 5382,
      "Mb": 5383,
      "alik": 5384,
      "ºáį": 5385,
      "áĬķĠáīłáĪĺ": 5386,
      "91Ġáĭĵ.áĪĿ.": 5387,
      "dam": 5388,
      "enĠm": 5389,
      "iwaĠkuwaĠ": 5390,
      "DolaĠlaĠ": 5391,
      "BritishĠ": 5392,
      "jum": 5393,
      "Turk": 5394,
      "ráº¹": 5395,
      "yenyeĠ": 5396,
      "áĮĪáī¡": 5397,
      "wigizajiĠwaĠfilamuĠ": 5398,
      "áĮİáĪŃáĮİáĪŃáĭ«áĬķĠáĬ«áĪĮáĬķáĭ³áĪŃ": 5399,
      "leyĠ": 5400,
      "Mt": 5401,
      "iyy": 5402,
      "ahiĠ": 5403,
      "Braz": 5404,
      "bÃł": 5405,
      "atanĠ": 5406,
      "abinc": 5407,
      "Ã©ĠparĠ": 5408,
      "aiĠnaĠ": 5409,
      "já»įÌģĠk": 5410,
      "Ġáī°áĭĭ": 5411,
      "áīłáĪ°": 5412,
      "neĠaĠ": 5413,
      "uduĠ": 5414,
      "Ġáī£áĪį": 5415,
      "ĠáįĪáĪ¨áĬķ": 5416,
      "áĪ¥áĪ«áīħ": 5417,
      "hi": 5418,
      "elek": 5419,
      "oĠkwaĠ": 5420,
      "Bell": 5421,
      "ulĠ": 5422,
      "Sud": 5423,
      "sing": 5424,
      "¹áį": 5425,
      "ĠáĪ¹": 5426,
      "áĬķĠáĪĽ": 5427,
      "áĪªáīµ": 5428,
      "ĠáīłáĪķ": 5429,
      "áįįáĬĵ": 5430,
      "áĬłáĬķ": 5431,
      "áīłáĪī": 5432,
      "áĭ®áĪŃáĮĬáĪµ": 5433,
      "lamuĠ": 5434,
      "sakeĠ": 5435,
      "eliĠ": 5436,
      "iyasaĠ": 5437,
      "ambay": 5438,
      "whenĠ": 5439,
      "harĠzuwaĠ": 5440,
      "BKĠ(BaadaĠyaĠKristo).ĠMatukioĠWaliozaliwaĠWaliofarikiĠKarneĠyaĠ": 5441,
      "aar": 5442,
      "prot": 5443,
      "oĠmak": 5444,
      "Kor": 5445,
      "Map": 5446,
      "usul": 5447,
      "ers,Ġ": 5448,
      "RaisĠwaĠ": 5449,
      "Vic": 5450,
      "asalinĠ": 5451,
      "adayeĠ": 5452,
      "ÆĻasaĠ": 5453,
      "ĠáĭµáĬķáĮĭ": 5454,
      "ĠáĬłáĮĪáĪ«áīµ": 5455,
      "ÃĢwá»įnĠá»įjá»įÌģÃ¬bÃŃĠnÃŃĠ": 5456,
      "áĪıáĪįáį¢": 5457,
      "atun": 5458,
      "tsar": 5459,
      "exp": 5460,
      "aboutĠ": 5461,
      "imaninĠ": 5462,
      "askazin": 5463,
      "Pal": 5464,
      "ãĥ": 5465,
      "ipin": 5466,
      "ĠáĪįáī¥": 5467,
      "ĠáĪĽáĪµáī³áĭĪáĪ»áĭİáī½": 5468,
      "e)": 5469,
      "gl": 5470,
      "hat": 5471,
      "ierĠ": 5472,
      "Mac": 5473,
      "kÃº": 5474,
      "wing": 5475,
      ".ĠÃĮ": 5476,
      "ndÃŃn": 5477,
      "Ġá»įmá»įĠorÃŃláº¹ÌĢ-Ã¨dÃ¨Ġ": 5478,
      "áº¹Ìģká»įÌĢá»įÌģĠ": 5479,
      "faitĠ": 5480,
      "import": 5481,
      "Arg": 5482,
      "JulyĠ": 5483,
      "CityĠ": 5484,
      "RĠ": 5485,
      "Ġáĭ¨áĪŀ": 5486,
      "inÃºĠ": 5487,
      "ikish": 5488,
      "fÃŃÃ¬mÃ¹Ġ": 5489,
      "tas": 5490,
      "Ø¨": 5491,
      "itinĠ": 5492,
      "origin": 5493,
      "Jum": 5494,
      "utionĠ": 5495,
      "isteĠ": 5496,
      "au,Ġ": 5497,
      "oyeĠ": 5498,
      "prÃ©sent": 5499,
      "Tun": 5500,
      "fÃłĠ": 5501,
      "áĪµáĪį": 5502,
      "ursĠ": 5503,
      "áĬĲáī±áĬķ": 5504,
      "ĠáĪĺáĮ¥": 5505,
      "Ġáĭ¨áĬ®": 5506,
      "áĭ«áĬķáĭ³áĬķáĭ±": 5507,
      "ĠáĬŃáįįáĪİáī½": 5508,
      "Ġáĭ¨áĪļáĭ«áĪµ": 5509,
      "Ġáĭ³áĪŃ": 5510,
      "edĠbyĠtheĠ": 5511,
      "alinĠarz": 5512,
      "ahariĠyaĠ": 5513,
      "Ã¶": 5514,
      "umiĠ": 5515,
      "Waf": 5516,
      "olu": 5517,
      "ÃĢwá»įnĠÃ¨nÃ¬yÃłnĠ": 5518,
      "tanaĠdaĠ": 5519,
      "shiĠneĠdanĠwasanĠÆĻwallonĠÆĻafaĠtaĠÆĻasarĠIngil": 5520,
      "sk": 5521,
      "Ġáī¶": 5522,
      "ĠáĮ«": 5523,
      "ret": 5524,
      "ymp": 5525,
      "Ny": 5526,
      "zaidiĠ": 5527,
      "ementsĠ": 5528,
      "BĠ": 5529,
      "Ut": 5530,
      "ont": 5531,
      "lÃłĠ": 5532,
      "áĬķáĪ³áĭĬ": 5533,
      "ĠáĮ³": 5534,
      "ĠáĪĺáĪ³": 5535,
      "utumĠ": 5536,
      "nit": 5537,
      "toĠgbaĠ": 5538,
      "aniĠ(": 5539,
      "Ġ15": 5540,
      "alikuwaĠmwan": 5541,
      "oireĠ": 5542,
      "Born": 5543,
      "yĠandĠ": 5544,
      "amba": 5545,
      "2Ġ-Ġ": 5546,
      "Lat": 5547,
      "ie": 5548,
      "oku": 5549,
      "ammaĠ": 5550,
      "temp": 5551,
      "¸áį": 5552,
      "áī¾": 5553,
      "áĬķáĭ¶": 5554,
      "adha": 5555,
      "áī³áī½": 5556,
      "á»įÌģk": 5557,
      "iĠkoĠ": 5558,
      "Ġáī¥áĭĽáīµ": 5559,
      "ĠáīĢáĬķĠáį²áį±áį»áį": 5560,
      "amarĠhukumaĠ": 5561,
      "pÃłt": 5562,
      "Ãģfr": 5563,
      "áĮĪáĪªáī±": 5564,
      "abr": 5565,
      "olĠ": 5566,
      "ief": 5567,
      "entiĠ": 5568,
      "Ã©cr": 5569,
      "III": 5570,
      "Mah": 5571,
      "WannanĠ": 5572,
      "fuataĠ": 5573,
      "Ã¤": 5574,
      "ifoĠch": 5575,
      "dagaĠbayaĠ": 5576,
      "nÃŃnÃºĠÃłwá»įnĠ": 5577,
      "Ã¨rÃ¨Ġ": 5578,
      "lá»įÌģdÃºnĠ": 5579,
      "Ã¹n-": 5580,
      "Î±": 5581,
      "áĪ³áĪ³áĭŃ": 5582,
      "ici": 5583,
      "áīĢáĪ¨": 5584,
      "áį¤Ġáĭ¨": 5585,
      "ĠáĪ²áĪĨáĬķáį£": 5586,
      "ĠáĭĿáĪŃáĭ«": 5587,
      "ĠáĪĪáĪĿáĪ³áĪĮ": 5588,
      "thanĠ": 5589,
      "Alber": 5590,
      "kasaĠ": 5591,
      "undĠ": 5592,
      "AlakosoĠ": 5593,
      "amarĠhukumarĠ": 5594,
      "endeleaĠku": 5595,
      "leĠm": 5596,
      "bad": 5597,
      "gh": 5598,
      "áĬķáĭ°áĪŃ": 5599,
      "ĠáĭĪáĪįáĭ°": 5600,
      "Ãīt": 5601,
      "ellesĠ": 5602,
      "nÃŃĠá»įjá»įÌģĠk": 5603,
      "ĠkatikaĠ": 5604,
      "auy": 5605,
      "labar": 5606,
      "pÃ¨": 5607,
      "anarĠ": 5608,
      "ĠáīłáĮİáĪŃáĮİáĪŃáĭ«áĬķĠáĬ«áĪĮáĬķáĭ³áĪŃ": 5609,
      "tho": 5610,
      "nÃŃĠorÃŃláº¹ÌĢ-Ã¨dÃ¨Ġ": 5611,
      "ansuĠ": 5612,
      "ĠáĬĲáĮĪáĪŃĠáĮįáĬķ": 5613,
      "ĠáĮĢáĪĿáĪ®ĠáĬ¥áĪµáĬ¨Ġ20": 5614,
      "FizikiaĠmwakaĠwaĠ": 5615,
      "Ã¯": 5616,
      "AfrikaĠKus": 5617,
      "fitoĠ": 5618,
      "OpenĠ": 5619,
      "Ã©lÃ©": 5620,
      "áī°áį¢": 5621,
      "Ġáĭ¨áĬ¦": 5622,
      "áĪ©áĪĿ": 5623,
      "áĪ²áĬķ": 5624,
      "ĠáīĢáĬķĠáĪĽáĪĪáīµĠáĬĲáĭįáį¢": 5625,
      "ĠáĬłáīĨáĮ£áĮłáĪŃĠ(áĬ¨": 5626,
      "1892Ġáĭĵ.áĪĿ.ĠáĮĢáĪĿáĪ®ĠáĬ¥áĪµáĬ¨Ġ20": 5627,
      "ĠáīĢáĬķĠáīłáĬ¢áīµáĭ®áĮµáĭ«ĠáĬłáīĨáĮ£áĮłáĪŃĠ(áĬ¨": 5628,
      "1892Ġáĭĵ.áĪĿ.ĠáĮĢáĪĿáĪ®ĠáĬ¥áĪµáĬ¨Ġ2091Ġáĭĵ.áĪĿ.": 5629,
      "ĠáīĢáĬķĠáīłáĬ¢áīµáĭ®áĮµáĭ«ĠáĬłáīĨáĮ£áĮłáĪŃĠ(áĬ¨1892Ġáĭĵ.áĪĿ.ĠáĮĢáĪĿáĪ®ĠáĬ¥áĪµáĬ¨Ġ2091Ġáĭĵ.áĪĿ.": 5630,
      "Gwamn": 5631,
      "rá»įÌĢ": 5632,
      "Christi": 5633,
      "takrib": 5634,
      "ÃģfrÃŃ": 5635,
      "rab": 5636,
      "áīħáĭ±áĪµ": 5637,
      "Ġáĭĺáĭ´": 5638,
      "áĭ©áĪµ": 5639,
      "Ġáĭ¨áīĢáĬķĠáĪµáĪĿ": 5640,
      "Ġ(áĬ¥áĬķáĮįáĪĬáĭĿáĬĽ": 5641,
      "ĠáĪ²áĪĨáĬķĠáĭŃáĪħĠáīĢáĬķĠáīłáĬ¢áīµáĭ®áĮµáĭ«ĠáĬłáīĨáĮ£áĮłáĪŃĠ(áĬ¨1892Ġáĭĵ.áĪĿ.ĠáĮĢáĪĿáĪ®ĠáĬ¥áĪµáĬ¨Ġ2091Ġáĭĵ.áĪĿ.": 5642,
      "ĠáīłáĬ¥áĬķáĮįáĪĬáĭĿáĬĽĠáĪ²áĪĨáĬķĠáĭŃáĪħĠáīĢáĬķĠáīłáĬ¢áīµáĭ®áĮµáĭ«ĠáĬłáīĨáĮ£áĮłáĪŃĠ(áĬ¨1892Ġáĭĵ.áĪĿ.ĠáĮĢáĪĿáĪ®ĠáĬ¥áĪµáĬ¨Ġ2091Ġáĭĵ.áĪĿ.": 5643,
      "ĠáīłáĮİáĪŃáĮİáĪŃáĭ«áĬķĠáĬ«áĪĮáĬķáĭ³áĪŃĠáĭ¨áīĢáĬķĠáĪµáĪĿ": 5644,
      "ĠáīłáĮİáĪŃáĮİáĪŃáĭ«áĬķĠáĬ«áĪĮáĬķáĭ³áĪŃĠáĭ¨áīĢáĬķĠáĪµáĪĿĠáīłáĬ¥áĬķáĮįáĪĬáĭĿáĬĽĠáĪ²áĪĨáĬķĠáĭŃáĪħĠáīĢáĬķĠáīłáĬ¢áīµáĭ®áĮµáĭ«ĠáĬłáīĨáĮ£áĮłáĪŃĠ(áĬ¨1892Ġáĭĵ.áĪĿ.ĠáĮĢáĪĿáĪ®ĠáĬ¥áĪµáĬ¨Ġ2091Ġáĭĵ.áĪĿ.": 5645,
      "hy": 5646,
      "KanananĠhukumominĠ": 5647,
      "fina-fin": 5648,
      "---": 5649,
      "Rich": 5650,
      "def": 5651,
      "Ð¾": 5652,
      "Ġá¹¢": 5653,
      "áīłáīĥ": 5654,
      "Ġáī°áīĥ": 5655,
      "ishwaĠ": 5656,
      "ndaniĠyaĠ": 5657,
      "Abuj": 5658,
      "shirinĠ": 5659,
      "ĠáĮłáīħ": 5660,
      "áī¥áĪ«áĭŃ": 5661,
      "ĠáĬĥáĭŃáĪį": 5662,
      "áĪĮáĬŃáīµáĪªáĬŃ": 5663,
      ",ĠS": 5664,
      "imaĠ": 5665,
      "thernĠ": 5666,
      "Wam": 5667,
      "gasarĠ": 5668,
      "Ã¨meĠ": 5669,
      "darÃŃĠ": 5670,
      "sehemuĠ": 5671,
      "ualĠ": 5672,
      "áĪŃáī±": 5673,
      "ĠáĮĪáĭ°": 5674,
      "Ġáīłáī°áĮ¨áĪĽáĪª": 5675,
      "áĪĲáįĬ": 5676,
      "ilosoph": 5677,
      "31Ġ": 5678,
      "Æ³": 5679,
      "Ã³Ġá¹£eĠ": 5680,
      "a'aik": 5681,
      "score0": 5682,
      "da": 5683,
      "hor": 5684,
      "ĠduĠ": 5685,
      "som": 5686,
      "áĬķĠáĪĪáĪĽ": 5687,
      "áī°áĬĽáĭį": 5688,
      "áĪĪáĪĺ": 5689,
      "Ġáĭ¨áĪĢ": 5690,
      "áīĢáĮ¥": 5691,
      "encesĠ": 5692,
      "Ġáĭ¨áĪĺáĮĢáĪĺáĪªáĭ«áĭį": 5693,
      "awaĠdaĠ": 5694,
      "com/": 5695,
      "ĠáĬĥáĭŃáĪĪ": 5696,
      "val": 5697,
      "prim": 5698,
      "anzib": 5699,
      "film": 5700,
      "almeĠ": 5701,
      "áĭŃáĪŃ": 5702,
      "Ġáĭ¨áĪļáī³áĭĪ": 5703,
      "ĠáĮįáĭĽ": 5704,
      "ĠáĮĪáĬķ": 5705,
      "áĬłáĪĪ": 5706,
      "ĠáĬłáĪĪáĪĿ": 5707,
      "Oá¹£Ã¹ĠK": 5708,
      "Â²": 5709,
      "itz": 5710,
      "aunaĠ": 5711,
      "Yoh": 5712,
      "6Ġ-Ġ": 5713,
      "jul": 5714,
      "Ġ*": 5715,
      "waĠkatikaĠ": 5716,
      "rubutaĠ": 5717,
      "Republ": 5718,
      "Roy": 5719,
      "ĠáĬ¥áĬĶ": 5720,
      "ĠáĬłáĭ¨áĪŃ": 5721,
      "áĮįáĪªáĬŃ": 5722,
      "áĬ¨áĭļáĭ«": 5723,
      "áĪ°áĪŃ": 5724,
      "stud": 5725,
      "áīłáīµĠáĮĬáĭľ": 5726,
      "achĠ": 5727,
      "Uh": 5728,
      "ile": 5729,
      "ĠáĬłáĭ²áĪµĠáĬłáīłáī£": 5730,
      "leurĠ": 5731,
      "TĠ": 5732,
      "web": 5733,
      "iaĠyaĠK": 5734,
      "tÃŃĠÃ³Ġjáº¹ÌģĠ": 5735,
      "Ayy": 5736,
      "tanguĠ": 5737,
      "hann": 5738,
      "áĪµáīµáĬĵ": 5739,
      "Tanb": 5740,
      "rashinĠ": 5741,
      "arabuĠ": 5742,
      "iâĢĻarĠ": 5743,
      "lÃ¨": 5744,
      "John": 5745,
      "bÃ¬nrinĠ": 5746,
      "do": 5747,
      "gen": 5748,
      "áĭĽáĬĽáĭį": 5749,
      "Najeriya": 5750,
      "IlÃ©-": 5751,
      "Ġáīłáī¥áĭĽáīµ": 5752,
      "pÃłtÃłk": 5753,
      "Had": 5754,
      "Bro": 5755,
      "Zanzib": 5756,
      "a,": 5757,
      "Cal": 5758,
      "ablaĠ": 5759,
      "idadiĠyaĠ": 5760,
      "ÃłtiĠÃłwá»įnĠ": 5761,
      "indaĠtaĠ": 5762,
      "Sikuku": 5763,
      "entomonĠ": 5764,
      "ĠáĭŃáĪĦ": 5765,
      "áĭ³áĪį": 5766,
      "áĭĺáĭį": 5767,
      "áĪ©áį¢": 5768,
      "ĠáĪµáĪĪáĪļ": 5769,
      "ĠáĪĻáĪī": 5770,
      "ĠáĪĺáĪįáĬŃáĭĵ": 5771,
      "vin": 5772,
      "|-Ġ": 5773,
      "Ġ8": 5774,
      "ĠáĬłáĪħ": 5775,
      "ĠáīĢáĭ³": 5776,
      "Fren": 5777,
      "cord": 5778,
      "Nuw": 5779,
      "aĠJiharĠ": 5780,
      "alsĠ": 5781,
      "iref": 5782,
      "Janair": 5783,
      "ali,Ġ": 5784,
      "áĭµáĪ¨áĪµ": 5785,
      "Ġáį³áį": 5786,
      "áįįáĮ¥": 5787,
      "ekĠ": 5788,
      "Ġáī£áĭŃ": 5789,
      "ĠáīĢáĬķĠ-": 5790,
      "ÃªtreĠ": 5791,
      "lÃ¹Ġ": 5792,
      "engineĠ": 5793,
      "Air": 5794,
      "Iv": 5795,
      "ix": 5796,
      "jÃłĠ": 5797,
      "ĠáĪĺáĪĪ": 5798,
      "awa.": 5799,
      "8Ġ-Ġ": 5800,
      "SchoolĠ": 5801,
      ")ĠáĬ¥áĬĵ": 5802,
      "áīłáīħ": 5803,
      "áĪ°áĪĽ": 5804,
      "áīłáĪ³": 5805,
      "et,Ġ": 5806,
      "áĪŀáīµ": 5807,
      "ĠáĬłáĮĪáĪ®áī½": 5808,
      "ollow": 5809,
      "áĬ¥áĬķáĭ²": 5810,
      "zaÉĵ": 5811,
      "Ġáī¥áĪĶáĪ«áĭĬ": 5812,
      "75": 5813,
      "Arew": 5814,
      "Ã²finĠ": 5815,
      "ojuĠ": 5816,
      "Ful": 5817,
      "moĠ": 5818,
      "áĪŃáī£": 5819,
      "áĬĵáĭŃáīµ": 5820,
      "ĠáĬ¥áĮįáĭļáĬłáī¥áĪĶáĪŃ": 5821,
      "áĭ´áīµ": 5822,
      "ĠáĭĪáĭŃáĬķáĪĿ": 5823,
      "ĠáīĢáĮ¥áĪİ": 5824,
      "Sat": 5825,
      "eshiĠ": 5826,
      "Academ": 5827,
      "gÃ©nÃ©r": 5828,
      "ruwaĠ": 5829,
      "usĠ(": 5830,
      "jerinĠ": 5831,
      "dontĠ": 5832,
      "artĠ": 5833,
      "ÃªmeĠ": 5834,
      "JuneĠ": 5835,
      "Ġ~": 5836,
      "áĬķáĬŃ": 5837,
      "Ġáī°áĮįáī£": 5838,
      "áĭ³áĭµ": 5839,
      "áīłáĪµ": 5840,
      "Ġáĭ¨áī°áĪĺ": 5841,
      "ÙİÙ": 5842,
      "ryĠ": 5843,
      "arc": 5844,
      "alÃłÃły": 5845,
      "etĠleĠ": 5846,
      "UmojaĠwaĠ": 5847,
      "AgbegbeĠ": 5848,
      "natur": 5849,
      "play": 5850,
      "cinĠk": 5851,
      "jÃ¬Ġ": 5852,
      "áĮĪáĪ«áīµ": 5853,
      "ÆĻir": 5854,
      "ovutiĠ": 5855,
      "Shir": 5856,
      "áĪĪáĪĿáĪ³áĪĮ": 5857,
      "áĪ¸áĬĲ": 5858,
      "perm": 5859,
      "olÃ³rinĠ": 5860,
      "lughaĠ": 5861,
      "gÃŃgaĠ": 5862,
      "ĠáĪĽáĮ£áīĢáĪ»": 5863,
      ".ĠB": 5864,
      "agn": 5865,
      "su.": 5866,
      "call": 5867,
      "tof": 5868,
      "ÃĪkÃ³Ġ": 5869,
      "balimbaliĠ": 5870,
      "áį¡áīł": 5871,
      "activ": 5872,
      "el,Ġ": 5873,
      "Wash": 5874,
      "yayiĠ": 5875,
      "Ã¨g": 5876,
      "obÃ¬nrinĠ": 5877,
      "Ġá¹£Ã¹gbá»įÌģnĠ": 5878,
      "tsawonĠ": 5879,
      "á»ĮÌĢ": 5880,
      "Lagos": 5881,
      "Democr": 5882,
      "beg": 5883,
      "etoĠ": 5884,
      "áĪªáĪµ": 5885,
      "ĠáĬłáĪīáį¢": 5886,
      "Ġáī£áĪħáĪŃ": 5887,
      "Den": 5888,
      "hukoĠ": 5889,
      "es)Ġ": 5890,
      "waĠmasoĠ": 5891,
      "wakatiĠ": 5892,
      "crip": 5893,
      "yaaniĠ": 5894,
      "ciĠgabaĠdaĠ": 5895,
      "Tanzania": 5896,
      "atsay": 5897,
      "overnmentĠ": 5898,
      "mÃ¹Ġ": 5899,
      "sá»į": 5900,
      "yauĠ": 5901,
      "ĠáĪĺáĮ£": 5902,
      "ĠáĮ¥áĪ©": 5903,
      "Ġd'": 5904,
      "ÃĪkÃ³": 5905,
      "Mut": 5906,
      "yá»į": 5907,
      "aĠNajeriyaĠ": 5908,
      "intern": 5909,
      "yÃ¬n": 5910,
      "aĠgarinĠ": 5911,
      "ItaliaĠ": 5912,
      "okeoĠyaĠ": 5913,
      "crÃ©": 5914,
      "dec": 5915,
      "Ø¯": 5916,
      "ĠáīłáĪħ": 5917,
      "Sah": 5918,
      "wid": 5919,
      "eĠtaĠ": 5920,
      "in-": 5921,
      "NewĠYorkĠ": 5922,
      "Fed": 5923,
      "nasar": 5924,
      "aĠwas": 5925,
      "ÃłgbÃł": 5926,
      "usin": 5927,
      "wÃ¡jÃºĠ": 5928,
      "kÃ¹nrinĠ": 5929,
      "DanĠ": 5930,
      "aĠlaĠ": 5931,
      "eux": 5932,
      "Hous": 5933,
      "oodĠ": 5934,
      "ĠÐ": 5935,
      "áĭµáĪĺ": 5936,
      "aĠmas": 5937,
      "áį¡áĬ¥": 5938,
      "ibleĠ": 5939,
      "oss": 5940,
      "ĠáīłáĪĽáĪĪáīµ": 5941,
      "ĠáĬ¥áĬķáĮįáĪĬáĭĿáĬĽ": 5942,
      "mÃº": 5943,
      "aĠkoĠ": 5944,
      "ĠáĪĽáĪŃáĭ«áĪĿ": 5945,
      "ceĠtaĠ": 5946,
      "amaĠdaĠ": 5947,
      "áº¹ráº¹Ġ": 5948,
      "intaĠnaĠ": 5949,
      "amuzikiĠ": 5950,
      "igu": 5951,
      "inz": 5952,
      "a,Ġk": 5953,
      "Su": 5954,
      "arans": 5955,
      "áĪŃáĮİ": 5956,
      "ayenĠ": 5957,
      "elez": 5958,
      "gbÃ³": 5959,
      "áīħáĭ«": 5960,
      "kumbu": 5961,
      "Ġáīµáĭį": 5962,
      "ion,Ġ": 5963,
      "agbÃ¡": 5964,
      "áĮ«áĭĪ": 5965,
      "ĠáĪ³áĭŃáĬķáĪ³áĭĬ": 5966,
      "ĠáįĸáĪĪáī²áĬ«": 5967,
      "áī¥áĪ«áĭŃáĪµáĮ¥": 5968,
      "EnglishĠ": 5969,
      "Val": 5970,
      "hiiĠ": 5971,
      "endaĠ": 5972,
      "auĠm": 5973,
      "3Ġ-Ġ": 5974,
      "Ġ20": 5975,
      "aĠmwakaĠ": 5976,
      "á»įÌĢn": 5977,
      "ambayoĠ": 5978,
      "KingĠ": 5979,
      "áĬķáī³": 5980,
      "áĬłáĪµ": 5981,
      "dansĠleĠ": 5982,
      "ĠáĮīáĭ³áĭŃ": 5983,
      "arciĠ": 5984,
      "Ġ(201": 5985,
      "yáº¹": 5986,
      "Î¿": 5987,
      "isc": 5988,
      "á¹£eĠ": 5989,
      "ifĠ": 5990,
      "ijiĠyaĠ": 5991,
      "awaĠnaĠ": 5992,
      "Ã²á¹£erÃ©Ġ": 5993,
      "olÃ³á¹£Ã¨": 5994,
      "IjobaĠ": 5995,
      "ograf": 5996,
      "eĠdÃ©": 5997,
      "Wil": 5998,
      "takaĠ": 5999,
      "tall": 6000,
      "ĠáĪ¬": 6001,
      "áĬķĠáĭ¨áĪļ": 6002,
      ".ĠH": 6003,
      "áĬłáĬķáĭµ": 6004,
      "expl": 6005,
      "ĠáĬ¥áĬķáĭ³áĭŃ": 6006,
      "ĠáĭĽáĪ¬": 6007,
      "Ġáī³áĪªáĬ«áĭĬĠáĪĽáĪµáī³áĭĪáĪ»áĭİáī½": 6008,
      "ĠáĪĺáĪįáĬŃáĭĵĠáĪĿáĭµáĪŃ": 6009,
      "ÃłgbÃ¡": 6010,
      "oni": 6011,
      "awezaĠ": 6012,
      "shindiĠwaĠTuzoĠyaĠNobelĠyaĠKemiaĠmwakaĠwaĠ": 6013,
      "thĠcentur": 6014,
      "IIIĠ": 6015,
      "AgbaĠ": 6016,
      "jÃ¹Ġ": 6017,
      "láº¹": 6018,
      "ĠáĬłáī¶": 6019,
      "Stud": 6020,
      "iwonĠ": 6021,
      "AnĠhaifeĠ": 6022,
      "ĠáīłáĭĺáĪĺáĬĲĠáĪīáīĥáĪµ": 6023,
      "ĠáĬłáįĪĠáī³áĪªáĬŃ": 6024,
      "ĠáĪļáĬĴáĪµáīµ": 6025,
      "ĠáĭµáĪŃáĮħáīµ": 6026,
      "abis": 6027,
      "olÃº": 6028,
      "ÆĻungiyarĠ": 6029,
      "jam'": 6030,
      "Nijeriya.": 6031,
      "HukumarĠ": 6032,
      "Ġáīłáīµ": 6033,
      "áĭ«áĪį": 6034,
      "áĬ®áĬĸ": 6035,
      "ĠáīłáĪµáī°": 6036,
      "Ġáĭĭáī¢ĠáĪĿáĬķáĮ®áī½": 6037,
      "vileĠ": 6038,
      "ĠnaĠ": 6039,
      "Pak": 6040,
      "oĠtiĠ": 6041,
      "idiĠyaĠ": 6042,
      "etĠlaĠ": 6043,
      "oĠyaĠk": 6044,
      "Nijeriya.Ġ": 6045,
      "bro": 6046,
      "cetteĠ": 6047,
      "inĠ(": 6048,
      "RobertĠ": 6049,
      "sos": 6050,
      "vic": 6051,
      "áĪŃáī¶": 6052,
      "Ġáįİ": 6053,
      "áĮ¥áĪĿ": 6054,
      "áįĪáĪĭ": 6055,
      "ĠáīłáĬ®": 6056,
      "ĠáĬĵáīµáį¢": 6057,
      "ĠáīłáĬĭáĪĭĠáĬ¥áĪµáĬ¨": 6058,
      "áįĸáĪĪáī²áĬ«": 6059,
      "ĠáĮ¸áī£áĭŃ": 6060,
      "=\"": 6061,
      "iĠtaĠ": 6062,
      "harshenĠ": 6063,
      "gabatarĠdaĠ": 6064,
      "al'umm": 6065,
      "o)Ġ": 6066,
      "William": 6067,
      "aĠG": 6068,
      "italĠ": 6069,
      "fun": 6070,
      "gener": 6071,
      "°áį»áį": 6072,
      "áĪµáī´": 6073,
      "Ġáį»áį": 6074,
      "áĬ«áĪŃ": 6075,
      "ĠáĪµáī¥áĪµ": 6076,
      "tiqu": 6077,
      "Ġáĭ¨áī°áī£áĪĪ": 6078,
      "Ġáĭ°áĪ«áĪ²": 6079,
      "ĠMtoĠ": 6080,
      "wajeĠ": 6081,
      "jiĠmkuuĠwaĠ": 6082,
      "Ġ~Ġ": 6083,
      "Reg": 6084,
      "1)": 6085,
      "Ne": 6086,
      "autresĠ": 6087,
      "abij": 6088,
      "territ": 6089,
      "Ãłn.": 6090,
      "sabab": 6091,
      "adhim": 6092,
      "ÃĵĠk": 6093,
      ";Ġ(": 6094,
      "long": 6095,
      "áĬķĠáĬ¥áĬĵ": 6096,
      "áĬķáĮİ": 6097,
      "áĪĭáīģ": 6098,
      "áĬ¨áĪĭ": 6099,
      "ighĠ": 6100,
      "áĪİáĮĤ": 6101,
      "ĠáīħáĪŃáĪµ": 6102,
      "áĮŃáĪŃ": 6103,
      "ĠáĮĬáĭ®áĪŃáĮĬáĪµ": 6104,
      "áĬĵáĭŃáīµáĭµ": 6105,
      "hom": 6106,
      "Ele": 6107,
      "rĠ": 6108,
      "eniyanĠ": 6109,
      "osereĠ": 6110,
      "Americ": 6111,
      "zabenĠ": 6112,
      "SouthĠ": 6113,
      "cas": 6114,
      "peutĠ": 6115,
      "Dam": 6116,
      "áĭµáĪ®": 6117,
      "áĬ¨áī³": 6118,
      "áĮĭáī¢": 6119,
      "2006": 6120,
      "eĠdeĠl'": 6121,
      "DavidĠ": 6122,
      "Ðµ": 6123,
      "yaĠyiĠ": 6124,
      "ÃŃĠÃ³Ġ": 6125,
      "oup": 6126,
      "antuĠ": 6127,
      "eyiĠ": 6128,
      "abab": 6129,
      "ministr": 6130,
      "jimb": 6131,
      "woteĠ": 6132,
      "ĠáĬ¥áĪĿáĬĲáīµ": 6133,
      "áĮĪáĪ¨": 6134,
      "áĪ«áĪįáį¢": 6135,
      "áĪĮáĪİáī½": 6136,
      "Ġáĭ¨áĪļáĮĪáĬĻ": 6137,
      "áĮłáī¥": 6138,
      "ĠáĭįáĮŃ": 6139,
      "kasaĠdaĠ": 6140,
      "Ġá»įÌĢd": 6141,
      "AnnabiĠ": 6142,
      "lang": 6143,
      "zur": 6144,
      "ara": 6145,
      "knownĠ": 6146,
      "scien": 6147,
      "CibiyarĠ": 6148,
      "cy": 6149,
      "ox": 6150,
      "wá»įÌĢĠ": 6151,
      "annaĠ": 6152,
      "insuĠ": 6153,
      "onÃŃá¹£": 6154,
      "áº¹ÌĢláº¹ÌĢĠ": 6155,
      "nyingineĠ": 6156,
      "dabanĠ": 6157,
      "BestĠ": 6158,
      "áĪĪáĭµ": 6159,
      "ĠáĭŃáĪĭáĪįáį¢": 6160,
      "ĠáĪ²áĪĨáĬĳ": 6161,
      "áĬŀáī¹": 6162,
      "Ġáī°áĪ«áĪ«": 6163,
      "Alb": 6164,
      "KÃ¡": 6165,
      "Ã©lec": 6166,
      "ojoj": 6167,
      "owev": 6168,
      "agbegbeĠ": 6169,
      "shekaraĠtaĠ201": 6170,
      "fÃºnĠÃłwá»įnĠ": 6171,
      "shiryaĠ": 6172,
      "yaĠmutuĠ": 6173,
      "gbá»įÌĢnĠ": 6174,
      "kumbukumb": 6175,
      "Oh": 6176,
      "ĠáĬ¥áĪŃáĪ±": 6177,
      "áĮįáĬĺ": 6178,
      "enĠ(": 6179,
      "ĠáīłáĬ¦": 6180,
      "aiss": 6181,
      "Ġáī°áĬ¨áī³": 6182,
      "arĠs": 6183,
      "aiĠdaĠ": 6184,
      "byĠtheĠ": 6185,
      "low": 6186,
      "ta.": 6187,
      "inv": 6188,
      "Ġ14": 6189,
      "Yul": 6190,
      "igbaĠ": 6191,
      "ĠáĬłáīħ": 6192,
      "áĭ°áĪµ": 6193,
      "ĠáĭĪáī³áĭ°": 6194,
      "ĠáĪ¥áįįáĪ«": 6195,
      "ĠáĬ¥áĬķáĭ²áĭ«": 6196,
      "ĠáĪµáĪĪáĪĨáĬĲ": 6197,
      "ĠáĬ¨áī°áĪĽĠáĬĲáĭįáį¢": 6198,
      "sÃ¬kÃ²Ġ": 6199,
      "ĠáĪ¦áĪµáīµ": 6200,
      "Alg": 6201,
      "spec": 6202,
      "liv": 6203,
      "ere": 6204,
      "aminĠ": 6205,
      "4Ġ-Ġ": 6206,
      "âĢ¹": 6207,
      "aziniĠ": 6208,
      ",ĠmshindiĠwaĠTuzoĠyaĠNobelĠyaĠTibaĠmwakaĠwaĠ": 6209,
      "ÃĮbÃłd": 6210,
      "anim": 6211,
      "áĪĿĠáĪĪ": 6212,
      "áĬ«áĪĿ": 6213,
      "áĬłáīµ": 6214,
      "ĠáĭµáĪį": 6215,
      "0Ġ-Ġ": 6216,
      "ĠAb": 6217,
      "áĪ²áī²": 6218,
      "áĬ®áīµ": 6219,
      "Rh": 6220,
      "aya,Ġ": 6221,
      "-d": 6222,
      "fáº¹Ìģ": 6223,
      "esĠandĠ": 6224,
      ".ĠItokasi": 6225,
      "uĠkwaĠ": 6226,
      "argaj": 6227,
      "le,Ġ": 6228,
      "rank": 6229,
      "wouldĠ": 6230,
      "Hak": 6231,
      "aiz": 6232,
      "áĭĺáĪĺ": 6233,
      "ĠáĮįáĬķáĬĻ": 6234,
      "Institut": 6235,
      "áĮ¡áīµ": 6236,
      "ĠáĬłáįįáĪªáĬ«": 6237,
      "biyarĠ": 6238,
      "kafinĠ": 6239,
      "ossĠ": 6240,
      "ÃĢwá»įnĠÃĮt": 6241,
      "KanoĠ": 6242,
      "ÃĢwá»įnĠÃ¨nÃ¬yÃłnĠalÃłÃły": 6243,
      "TanbihiĠ": 6244,
      "euĠ": 6245,
      "Som": 6246,
      "tĠ(": 6247,
      "áĬ«áĬ¨áĪĪ": 6248,
      "ĠáĪµáĪĭ": 6249,
      "áĪĨáĬĸ": 6250,
      "nÃŃtorÃŃĠ": 6251,
      "áĭ²áĭ®": 6252,
      "ainsiĠ": 6253,
      "lá»įÌģwá»įÌģĠ": 6254,
      "wá»įÌģn": 6255,
      "is.": 6256,
      "Dur": 6257,
      "upĠ": 6258,
      "compos": 6259,
      "GÃ³mÃ¬nÃłĠ": 6260,
      "aelĠ": 6261,
      "dÃ¬": 6262,
      "baĠtaĠ": 6263,
      "Ġá¹£iá¹£áº¹ÌģĠ": 6264,
      "ariĠtaraĠ": 6265,
      "ember": 6266,
      "KanisaĠ": 6267,
      "hadiĠk": 6268,
      "TarayyarĠ": 6269,
      "ne,ĠdaĠkeĠ": 6270,
      "n.k.": 6271,
      "áĮª": 6272,
      "áĪĿĠáĪĨáĬĲ": 6273,
      "áĬŃáĪ²": 6274,
      "áī£áī³": 6275,
      "áĬ¨áĪ¨áĪĿ": 6276,
      "áĭĪáĭŃáĪĿ": 6277,
      "ĠáĪ²áīĢ": 6278,
      "2007Ġ": 6279,
      "ĠáīµáĪŃ": 6280,
      "Ġáĭĺáįĭ": 6281,
      "ĠáĭĺáĪĺáĬĵáĭĬ": 6282,
      "áīĥáĪ´": 6283,
      "ĠáĭįáĪĥ": 6284,
      "ĠáĪĺáĮ¨áĪ¨áĪ»ĠáĭµáĪ¨áĪµ": 6285,
      "ini.": 6286,
      "38": 6287,
      "Lab": 6288,
      "TVĠ": 6289,
      "táº¹ÌĢ": 6290,
      "ubuc": 6291,
      "ocinĠ": 6292,
      "jami'": 6293,
      "walikuwaĠ": 6294,
      "aikiĠaĠmatsayinĠ": 6295,
      "Iá¹£áº¹ÌģĠ": 6296,
      "MakarantarĠ": 6297,
      "AnaĠ": 6298,
      "numb": 6299,
      "nouv": 6300,
      "wap": 6301,
      "Ath": 6302,
      "áĬķĠáī°": 6303,
      "áĮĪáīµ": 6304,
      ".ĠS": 6305,
      "áĪ°áĪį": 6306,
      "áĪµáįĵáĬķáĭ«": 6307,
      "áīħáĪµáīĥáĪ´": 6308,
      "ĠáīłáĬĭáĪĭĠáĬ¥áĪµáĬ¨ĠáĭĵáĪĺáī±": 6309,
      "dog": 6310,
      "tu": 6311,
      "áº¹s": 6312,
      "anĠNajeriyaĠ": 6313,
      "engaĠ": 6314,
      "AfirkaĠtaĠ": 6315,
      "Ã¬sÃłnĠ": 6316,
      "C.": 6317,
      "Ã³p": 6318,
      "AD": 6319,
      "Bak": 6320,
      "Litt": 6321,
      "Rad": 6322,
      "onek": 6323,
      "useĠ": 6324,
      "lasheĠ": 6325,
      "áĪįáīµ": 6326,
      "wandaĠkeĠ": 6327,
      "ĠáĪµáĪŀáī½": 6328,
      "opĠ": 6329,
      "Ġáīłáī°áĪĪ": 6330,
      "atiĠyaĠm": 6331,
      "ĠáĪĺáĪłáĪ¨áīµ": 6332,
      "Ã¬bÃŃláº¹ÌĢĠ": 6333,
      "toĠgbaĠEbunĠ": 6334,
      "ji": 6335,
      "iki,Ġ": 6336,
      "umoĠ": 6337,
      "99": 6338,
      "Lu": 6339,
      "aĠp": 6340,
      "ique,Ġ": 6341,
      "nameĠ": 6342,
      "Offic": 6343,
      "Jon": 6344,
      "aĠtiĠ": 6345,
      "iyoyinĠ": 6346,
      "Alim": 6347,
      "Ġá»ĮdÃºnĠ": 6348,
      "à¤ķ": 6349,
      "YorÃ¹bÃ¡": 6350,
      "LegasĠ": 6351,
      "kuhusuĠ": 6352,
      "Centr": 6353,
      "Ġáĭ¨áĭĵáĪĪáĪĿ": 6354,
      "ĠáĬ¥áĪĿ": 6355,
      "abinĠ": 6356,
      "áĪĽáĪ½": 6357,
      "ĠáīµáĪĿáĪħáĪŃ": 6358,
      "ĠáĬ¥áĬķáĭ°Ġáī°": 6359,
      "áĮħáĪĿ": 6360,
      "áĪµáĪĪáĭļáĪħ": 6361,
      "fordĠ": 6362,
      "KunaĠ": 6363,
      "c.": 6364,
      "okanaĠnaĠ": 6365,
      "Ġá¹£ÃŃá¹£": 6366,
      "nÃ¡Ãł,Ġ": 6367,
      "gwamnatinĠ": 6368,
      "writ": 6369,
      "áĪĿáįĴ": 6370,
      "Ġáīłáĭį": 6371,
      "áĪĽáĪį": 6372,
      "Ġáĭ¨áĪ®": 6373,
      "ĠáĪĿáĭķáĪ«áī¥": 6374,
      "áĪģáĪĪáīµ": 6375,
      "áĪľáīµ": 6376,
      "ĠáĬĲáĮĪáĪł": 6377,
      "Ġáī¡áĭµáĬķ": 6378,
      "ĠáĭŃáīĢáĪ«áĪīáį¢": 6379,
      "apr": 6380,
      "pÃłÃ¡Ġ": 6381,
      "KadunaĠ": 6382,
      "ilioniĠ": 6383,
      "cre": 6384,
      "Ãį": 6385,
      "inform": 6386,
      "ingĠtoĠ": 6387,
      "d'unĠ": 6388,
      "áĭµáĬĵ": 6389,
      "ĠáĭŃáĭ©": 6390,
      "Ġáĭ¨áĪ´": 6391,
      "áįĪáĬķ": 6392,
      "Ġáĭ¨áī°áĭĪ": 6393,
      "áĪİáĪµ": 6394,
      "wakaz": 6395,
      "org/": 6396,
      "zamaniĠ": 6397,
      "asarautarĠ": 6398,
      "Ã¬rÃ²yÃ¬nĠ": 6399,
      "Sak": 6400,
      "unĠM": 6401,
      "ikiped": 6402,
      "amaĠk": 6403,
      "Lim": 6404,
      "Law": 6405,
      "bai": 6406,
      "báº¹ÌģĠ": 6407,
      "rest": 6408,
      "ipÃ²Ġ": 6409,
      "ezĠ": 6410,
      "daĠyakeĠ": 6411,
      "lÃ©Ġráº¹ÌĢĠ": 6412,
      "wayĠ": 6413,
      "aniĠk": 6414,
      "áĬķáĮįáĪį": 6415,
      "ĠáĮĭáĪ«": 6416,
      "Ġáī¥áĪŃáĪĥ": 6417,
      "Wad": 6418,
      "ĠkatikaĠm": 6419,
      "FranceĠ": 6420,
      "Ã¬dÃŃĠ": 6421,
      "atukio": 6422,
      "fasah": 6423,
      "oĠM": 6424,
      "bat": 6425,
      "jÃ©Ġ": 6426,
      "mesĠ": 6427,
      "ĠáĬłáĮĭ": 6428,
      "áĬ¥áĬĲáĭļáĪħ": 6429,
      "ĠáĬŃáĪŃáĪµáī²áĭ«": 6430,
      "ĠáĮĪáĮ½": 6431,
      "ĠáĮ½áĪķ": 6432,
      "ĠáĭŃáĪĨáĬĵáĪįáį¢": 6433,
      "ĠáīłáĬĭáĪĭĠáĬ¥áĪµáĬ¨ĠáĭĵáĪĺáī±ĠáĪĺáĮ¨áĪ¨áĪ»ĠáĭµáĪ¨áĪµ": 6434,
      "Kur": 6435,
      "Åį": 6436,
      "Ãłwá»įnĠá»įmá»įĠ": 6437,
      "earlyĠ": 6438,
      "100Ġ": 6439,
      "t.": 6440,
      "IbrahimĠ": 6441,
      "fÃł": 6442,
      "lÃ²": 6443,
      "ĠáĬĽ": 6444,
      "alk": 6445,
      "itaceĠ": 6446,
      "us.": 6447,
      "ĠáĭĪáĮĪ": 6448,
      "ÆĻidayarĠ": 6449,
      "ĠáĭįáĪĢ": 6450,
      "áĪ²áĭ«": 6451,
      "ĠáĭķáĪĪáī°": 6452,
      "aĠkung": 6453,
      "ĠáįįáĪ¬": 6454,
      "ÃºrÃ²Ġ": 6455,
      "NÃŃĠá»įdÃºnĠ201": 6456,
      "alesĠ": 6457,
      "LondonĠ": 6458,
      "Ã©qu": 6459,
      "ondeĠ": 6460,
      "opol": 6461,
      "4,": 6462,
      "CC": 6463,
      "Wais": 6464,
      "noĠ": 6465,
      "erĠandĠ": 6466,
      "ÅĦĠk": 6467,
      "ÃŃnÃºĠ": 6468,
      "tÃŃĠwá»įÌģnĠbÃŃĠ": 6469,
      "mÃ©jÃ¬Ġ": 6470,
      "Jer": 6471,
      "log": 6472,
      "ina,Ġ": 6473,
      "Ġáĭ¨áĪ±": 6474,
      "ever": 6475,
      "áĮłáĪĪ": 6476,
      "Ã©rÃ©Ġ": 6477,
      "Ġáĭ¨áĬĲáīłáĪ©": 6478,
      "áĬķáĮĮ": 6479,
      "ĠáĪĿáĬķáĮĬáĭľ": 6480,
      "Ġáĭ¨áĭįáĮŃ": 6481,
      "ĠáĪļáĪĬáĭ®áĬķ": 6482,
      "nje": 6483,
      "2010": 6484,
      "JosephĠ": 6485,
      "47": 6486,
      "ÃºÃºs": 6487,
      ")ĠnaĠ": 6488,
      "ÅĦĠá¹£eĠ": 6489,
      "pÃŃnláº¹ÌĢ": 6490,
      "48": 6491,
      "etiĠ": 6492,
      "ren": 6493,
      "cheĠ": 6494,
      "ident": 6495,
      "izoĠ": 6496,
      "ium": 6497,
      "wer": 6498,
      "áĬ£": 6499,
      "áĬķáīĢ": 6500,
      "Ġáīłáīħ": 6501,
      "áĬ«áĬ¤áĪį": 6502,
      "áĪİáī¹": 6503,
      "ĠáĪįáĮģ": 6504,
      "autaĠ": 6505,
      "Ġáī¢áĭ«": 6506,
      "ĠáĭĺáĪĺáĬķĠáĬłáīĨáĮ£áĮłáĪŃ": 6507,
      "áī¨áĪŃáĪ²áī²": 6508,
      "ĠáĪĺáĮ»áĪķ": 6509,
      "faf": 6510,
      "ajiliĠyaĠ": 6511,
      "tÃŃĠÃ³ĠÅĦĠ": 6512,
      "ileĠniĠ": 6513,
      "IbileĠ": 6514,
      "dÃ¡raĠ": 6515,
      "Ã©galementĠ": 6516,
      ".ĠÃĢwá»įnĠÃ¬t": 6517,
      "awalaĠwaĠ": 6518,
      "Sol": 6519,
      "les": 6520,
      "arew": 6521,
      "intĠ": 6522,
      "Kum": 6523,
      "tÃ²": 6524,
      "ida": 6525,
      "avy": 6526,
      "tainĠ": 6527,
      "Ter": 6528,
      "yam": 6529,
      "ine,Ġ": 6530,
      "ikiĠwaĠ": 6531,
      "áĪĪáį¢": 6532,
      "ĠáĪĺáīħ": 6533,
      "apÃ¡Ġ": 6534,
      "áīĥáĭįáĬķ": 6535,
      "iyaĠdaĠ": 6536,
      "áīĤáīµ": 6537,
      "ly": 6538,
      "ES": 6539,
      "moreĠ": 6540,
      "trouv": 6541,
      "angĠ": 6542,
      "Sun": 6543,
      "hut": 6544,
      "ká»įÌĢĠ": 6545,
      "naf": 6546,
      "tabb": 6547,
      "Ã¬gbÃ©": 6548,
      "ishaĠm": 6549,
      "obiĠ": 6550,
      "ambaz": 6551,
      "maĠÅĦĠ": 6552,
      ",ĠmwandishiĠ": 6553,
      "shirye-": 6554,
      "daĠyawanĠjama'aĠ": 6555,
      "tattalinĠarz": 6556,
      "Láº¹ÌģyÃ¬nĠ": 6557,
      "áĬŃáĪŃáĪµáī¶áĪµ": 6558,
      "oft": 6559,
      "ĠáĭŃáĬĲ": 6560,
      "ĠáīłáĬ¤": 6561,
      "Ġáī£áĪķáĪŃ": 6562,
      "Ġáĭ¨áĬłáĭ¨áĪŃ": 6563,
      "áīĤáĭ«": 6564,
      "yanaĠdaĠ": 6565,
      "fad": 6566,
      "udaĠ": 6567,
      "estiv": 6568,
      "Ġ(áĬł": 6569,
      "áĬ¨áĪ°": 6570,
      "ĠáīłáĪĺáĪĨáĬķ": 6571,
      "ĠAug": 6572,
      "ĠáĭŃáĪĺáĪµáĪĭáĪįáį¢": 6573,
      "Kwam": 6574,
      "moj": 6575,
      "ĠØ§ÙĦ": 6576,
      "ayáº¹": 6577,
      "osiĠ": 6578,
      "gudanarĠdaĠ": 6579,
      "ammalaĠkar": 6580,
      "irg": 6581,
      "Sil": 6582,
      "d.Ġ": 6583,
      "Ġáīª": 6584,
      "ing.": 6585,
      "conom": 6586,
      "gn": 6587,
      "Ġáīłáĭĵ": 6588,
      "áĭ«áĪľ": 6589,
      "áĪĭáĪµ": 6590,
      "áįĪáĪ«": 6591,
      "ÉĹauk": 6592,
      "áĮ»áįĪ": 6593,
      "AP": 6594,
      "Dev": 6595,
      "tif": 6596,
      "estĠunĠ": 6597,
      "33": 6598,
      "fe": 6599,
      "uĠdaĠ": 6600,
      "airesĠ": 6601,
      "a),Ġ": 6602,
      "ge": 6603,
      "oÃ¹Ġ": 6604,
      "pia": 6605,
      "velop": 6606,
      "huadhim": 6607,
      "pÃłtÃłkÃ¬Ġ": 6608,
      "ĠáĮĥ": 6609,
      "áĭŃáĪģ": 6610,
      "ĠáīłáĪĭ": 6611,
      "ĠáĬĲáĭįáį¢ĠáĬ¨": 6612,
      "ĠáĬłáĪĪáĭįáį¢": 6613,
      "Ot": 6614,
      "We": 6615,
      "AliĠ": 6616,
      "egem": 6617,
      "500": 6618,
      "Ãłgb": 6619,
      "Ġá»įÌĢpá»įÌĢlá»įpá»įÌĢĠ": 6620,
      "alÃ¡Ã¬sÃŃĠnÃŃĠ": 6621,
      "KanananĠhukumominĠjiharĠ": 6622,
      "Luc": 6623,
      "Olymp": 6624,
      "AwardĠ": 6625,
      "gan": 6626,
      "gur": 6627,
      "ĠáīĦ": 6628,
      "ami": 6629,
      "áĪ¨áĪŃ": 6630,
      "Ġáī°áĮ½": 6631,
      "Ġáĭ¨áĪļáĪ°": 6632,
      "ĠáĮįáĭµ": 6633,
      "ĠáĬłáĪĪáĭį": 6634,
      "Scien": 6635,
      "ĠáĭķáĪĪáīµĠáīłáĬĭáĪĭĠáĬ¥áĪµáĬ¨ĠáĭĵáĪĺáī±ĠáĪĺáĮ¨áĪ¨áĪ»ĠáĭµáĪ¨áĪµ": 6636,
      "ThomasĠ": 6637,
      "cikiĠ": 6638,
      "follow": 6639,
      "s.Ġ": 6640,
      "zakeĠ": 6641,
      "partĠ": 6642,
      "South": 6643,
      "IjobaĠIbileĠ": 6644,
      "uceĠ": 6645,
      "Kais": 6646,
      "sil": 6647,
      "okanĠ": 6648,
      "lev": 6649,
      "Portug": 6650,
      "hivyoĠ": 6651,
      "ranĠ": 6652,
      "Ġáĭ¨áī£": 6653,
      "áĭ«áĭĺ": 6654,
      "abakiĠ": 6655,
      "ĠáĬĲáĮ¥": 6656,
      "áĬŃáĬķ": 6657,
      "202": 6658,
      "ĠáĪįáĭ°áīµ": 6659,
      "ĠáĬłáĪįáī°": 6660,
      "AfrikaĠyaĠ": 6661,
      "ÃĢwá»įnĠá»įjá»įÌģ": 6662,
      "MarejeoĠ": 6663,
      "ĠáĭŃáī»áĪĭáĪįáį¢": 6664,
      "cit": 6665,
      "Ġ9": 6666,
      "azz": 6667,
      "Str": 6668,
      "wardĠ": 6669,
      "....": 6670,
      "ollywoodĠ": 6671,
      "AF": 6672,
      "Ev": 6673,
      "VisiwaĠ": 6674,
      "yaliy": 6675,
      "arkokinĠ": 6676,
      "ari'": 6677,
      "wengi,Ġ": 6678,
      "jour": 6679,
      "Ġáĭ¨áīĨ": 6680,
      "áĪĿĠáĪĺ": 6681,
      "áĪĺáĮ¥": 6682,
      "ĠáĬłáĭ³": 6683,
      "áĭµáĪ¨": 6684,
      "ĠáĬ¨áĪĽ": 6685,
      "áĪªáīĥ": 6686,
      "ĠáĭĪáĮ¥": 6687,
      "áī¸áĭĭáĪįáį¢": 6688,
      "ĠáĪ°áĬĲ": 6689,
      "áĭĵáĬķ": 6690,
      "manyĠ": 6691,
      "ĠáīĨáĭŃ": 6692,
      "Ġáĭ¨áĪļáĮĪáĬĿáīłáīµ": 6693,
      "áĬķáĮīáĪ¥": 6694,
      "ĠáĮĮáī³": 6695,
      "DarĠ": 6696,
      "Wab": 6697,
      "yth": 6698,
      "yiĠm": 6699,
      "ijer": 6700,
      "o,Ġm": 6701,
      "ĠáĬķáĮīáĪłĠáĬĲáĮĪ": 6702,
      "Mov": 6703,
      "MayĠ": 6704,
      "band": 6705,
      "cal": 6706,
      "dak": 6707,
      "dep": 6708,
      "him": 6709,
      "pá»į": 6710,
      "istaĠ": 6711,
      "ectiv": 6712,
      "owÃ³Ġ": 6713,
      "aĠyaĠm": 6714,
      "yanay": 6715,
      "aularĠ": 6716,
      "Ã¬lÃº": 6717,
      "YunifÃ¡": 6718,
      "lambarĠyab": 6719,
      "ÃĢwá»įnĠá»įjá»įÌģalÃ¡Ã¬sÃŃĠnÃŃĠ": 6720,
      "e),Ġ": 6721,
      "perĠ": 6722,
      ",ĠleĠ": 6723,
      "ekoĠ": 6724,
      "suchĠasĠ": 6725,
      "B.": 6726,
      "Gar": 6727,
      "áĪĪáīĢ": 6728,
      "Ġáį©": 6729,
      "Ġáī°áĬŃáĪį": 6730,
      "áĪªáĬ®áī½": 6731,
      "Ġáĭ«áĪ³": 6732,
      "ÃĢĠ": 6733,
      "áī³áĭĪáīĢ": 6734,
      "áĬ¨áĭļáĪħĠáĭķáĪĪáīµĠáīłáĬĭáĪĭĠáĬ¥áĪµáĬ¨ĠáĭĵáĪĺáī±ĠáĪĺáĮ¨áĪ¨áĪ»ĠáĭµáĪ¨áĪµ": 6735,
      "áĬĵĠáĪĺáĭĭ": 6736,
      "Kig": 6737,
      "ie,Ġ": 6738,
      "pá»įĠ": 6739,
      "wez": 6740,
      "aĠkatikaĠm": 6741,
      "nÃŃĠá»įdÃºnĠ201": 6742,
      "aya.": 6743,
      "Oj": 6744,
      "wand": 6745,
      "Ã¨resĠ": 6746,
      "AM": 6747,
      "eyeĠ": 6748,
      "akaf": 6749,
      "ĠáīłáĬĲ": 6750,
      "ĠáĬ¥áĪ±": 6751,
      "áĪĽáĭįáĭ«áĬķ": 6752,
      "ĠáįĮ": 6753,
      "ic,Ġ": 6754,
      "áīħáĬĵ": 6755,
      "áī¸áĭī": 6756,
      "ĠáĪ²áĪį": 6757,
      "pris": 6758,
      "ChinaĠ": 6759,
      "áįĬáĭ«": 6760,
      "niĠá»įdunĠ": 6761,
      "ĠáĪĬáīĢ": 6762,
      "Ã¬dÃ¡": 6763,
      "ĠáĬłáĪĺáī³áīµ": 6764,
      "Ã©eĠparĠ": 6765,
      "sinimÃ¡ĠÃłgbÃ©lÃ©": 6766,
      "Ver": 6767,
      "dÃ³": 6768,
      "son": 6769,
      "Ã©ĠdeĠ": 6770,
      "Frank": 6771,
      "waĠkwanzaĠ": 6772,
      "whereĠ": 6773,
      "OgunĠ": 6774,
      "AgbegbeĠIjobaĠIbileĠ": 6775,
      "s)Ġ": 6776,
      "Ùĩ": 6777,
      "iĠaĠ": 6778,
      "ĠáīłáĪĢ": 6779,
      "áĬ¨áĬĲ": 6780,
      "áĬ«áĪĦ": 6781,
      "ĠáĮĪáĭ¥": 6782,
      "ĠáĪĺáĬķáĮįáĪ¥áī³áīµ": 6783,
      "áĭŀáī½": 6784,
      "meĠm": 6785,
      "sĠofĠtheĠ": 6786,
      "alorsĠ": 6787,
      "ika": 6788,
      "ithĠ": 6789,
      "gargaj": 6790,
      "taĠfarkoĠ": 6791,
      "agenĠ": 6792,
      "ignĠ": 6793,
      "Ġá»įÌĢrá»įÌĢĠ": 6794,
      "lá»į.": 6795,
      "ilÃ©-iá¹£áº¹ÌģĠ": 6796,
      "RayuwarĠ": 6797,
      "nemanĠ": 6798,
      "-áº¹ÌĢyáº¹Ġ": 6799,
      "ienĠ": 6800,
      "erv": 6801,
      "Mo": 6802,
      "áĭµáĪį": 6803,
      "áĪ³áĪįáį¢": 6804,
      "áĬĴáĪįáĬŃ": 6805,
      "Ġáįªáį»áį": 6806,
      "pyaĠ": 6807,
      "ikuuĠ": 6808,
      "itoĠ": 6809,
      "afuĠ": 6810,
      "Art": 6811,
      "iliminĠ": 6812,
      "iaĠkatikaĠ": 6813,
      "imataif": 6814,
      "banĠ": 6815,
      "lib": 6816,
      "SaintĠ": 6817,
      "gá»įÌģ": 6818,
      "rig": 6819,
      "uish": 6820,
      "ĠáĬĥ": 6821,
      "áĪµáĪĿ": 6822,
      "ĠáĬ¥áĬ©áĪį": 6823,
      "Ġáĭ¨áĪģ": 6824,
      "azarinĠ": 6825,
      "ĠáĪĨáĬĳ": 6826,
      "auriĠ": 6827,
      "áĭ°áĪŃáĮį": 6828,
      "ĠáīłáĬłáĪģáĬĳ": 6829,
      "áįĸáĪĬ": 6830,
      "eneoĠyaĠ": 6831,
      "AbubakarĠ": 6832,
      "ijerum": 6833,
      "AT": 6834,
      "isĠ(": 6835,
      "39": 6836,
      "Moh": 6837,
      "onyĠ": 6838,
      "gidaĠ": 6839,
      "met": 6840,
      "anal": 6841,
      "gbÃ¡Ġ": 6842,
      "Alh": 6843,
      "AĠshekararĠ": 6844,
      "aĠshekararĠ201": 6845,
      "68": 6846,
      "áįı": 6847,
      "ĠáīĤ": 6848,
      "áĪĪáĭĭáĪįáį¢": 6849,
      "áĭ°áĮĪ": 6850,
      "áįĪáĪ¨": 6851,
      "lead": 6852,
      "ĠáĮĪáī¥áĪ¨": 6853,
      "Rev": 6854,
      "iel": 6855,
      "ajuĠ": 6856,
      "toĠbeĠ": 6857,
      "150": 6858,
      "Iy": 6859,
      "KwalejinĠ": 6860,
      "bÃłĠ": 6861,
      "ts,Ġ": 6862,
      "ational": 6863,
      "StatesĠ": 6864,
      "centr": 6865,
      "ĠáīłáĪŀ": 6866,
      "ĠáĬ¥áĬķáīħáĪµáīĥáĪ´": 6867,
      "osp": 6868,
      "Ġáī¥áĪĶáĪŃ": 6869,
      "ĠáĬŃáĪĪáī¥": 6870,
      "1999": 6871,
      "ĠáĪĬáĭ«": 6872,
      "Kih": 6873,
      "mor": 6874,
      "mayĠ": 6875,
      "táº¹l": 6876,
      "ving": 6877,
      "ilsĠ": 6878,
      "ceĠdakeĠ": 6879,
      "pri": 6880,
      "AnĠginaĠ": 6881,
      "BKĠ(BaadaĠyaĠKristo).ĠMatukioĠ": 6882,
      "amakonĠ": 6883,
      "underĠ": 6884,
      "languageĠ": 6885,
      "EastĠ": 6886,
      "oaĠ": 6887,
      "ObaĠ": 6888,
      "áĭ·": 6889,
      "eroĠ": 6890,
      "áĬ¨áĬĵ": 6891,
      "toĠjeĠ": 6892,
      "kumaĠmaiĠ": 6893,
      "áĮĭáīµ": 6894,
      "áĭ²áĪ±": 6895,
      "áĪ©áĬķ": 6896,
      "Ġáī¤áī¶áī½": 6897,
      "ayyukanĠ": 6898,
      "indaĠyaĠ": 6899,
      "Ġáī°áĬ¨áī³áĭŃ": 6900,
      "Ġ(BaadaĠyaĠKristo).ĠMatukioĠWaliozaliwaĠWaliofarikiĠKarneĠyaĠ": 6901,
      "áĬ¨áī°áĪĽáĭį": 6902,
      "ĠáĪĿáĪįáĬŃáīµ": 6903,
      "AlakosoĠAgbaĠ": 6904,
      "Hany": 6905,
      "Nam": 6906,
      "ood": 6907,
      "vitaĠ": 6908,
      "idd": 6909,
      "foreĠ": 6910,
      "thatĠtheĠ": 6911,
      "WarĠ": 6912,
      "angl": 6913,
      "ion.": 6914,
      "Ear": 6915,
      "Kif": 6916,
      "MaiĠ": 6917,
      "Nair": 6918,
      "kÃ¨Ġ": 6919,
      "yÃ¨Ġ": 6920,
      "iĠzaĠ": 6921,
      "ĠâĢĺ": 6922,
      "Ã²rÃ²Ġ": 6923,
      "aliye": 6924,
      "TazamaĠpiaĠOrodhaĠyaĠ": 6925,
      "YohaneĠ": 6926,
      "RoyalĠ": 6927,
      "KĠ": 6928,
      "pÃ¡Ġ": 6929,
      "Ġáĭ¨áĪĪáĭį": 6930,
      "áĪĿáī¥": 6931,
      "áĪµáĬķ": 6932,
      "ĠáĬ¨áĪĨáĬĲ": 6933,
      "áĪ³áĪ°": 6934,
      "áĮĬáĭ«": 6935,
      "Que": 6936,
      "ĠáīµáĬķáĪ½": 6937,
      "ĠáĪºáĪħ": 6938,
      "zan": 6939,
      "empl": 6940,
      "FrenchĠ": 6941,
      "ajir": 6942,
      "Ġáº¹ÌĢyáº¹Ġ": 6943,
      "amfan": 6944,
      "uatanaĠnaĠ": 6945,
      "ÃłwÃ³Ġ": 6946,
      "ViungoĠvyaĠnje": 6947,
      "yaddaĠ": 6948,
      "Ash": 6949,
      "Kul": 6950,
      "Dok": 6951,
      "áĬķáĮĢ": 6952,
      "ĠáĭŃáīĨ": 6953,
      "áĭ¨áĪļ": 6954,
      "ĠáĪĪáĪļ": 6955,
      "ĠáīĥáĪĭáīµ": 6956,
      "cultur": 6957,
      "ĠáĭĺáĪĺáĬĲĠáĪĽáī´áĭİáĪµ": 6958,
      "Je": 6959,
      "pÃ²Ġ": 6960,
      "aĠwasanĠ": 6961,
      "ator": 6962,
      "andik": 6963,
      "jáº¹ÌģĠá»įmá»įĠ": 6964,
      "DesembaĠ": 6965,
      "franÃ§ais": 6966,
      "Sok": 6967,
      "::": 6968,
      "gaĠm": 6969,
      "typ": 6970,
      "zoĠ": 6971,
      "aĠbir": 6972,
      "Ã©s": 6973,
      "iláº¹ÌĢ": 6974,
      "ĠáīłáĭĪ": 6975,
      "áī°áīµ": 6976,
      "áĭŃáĪį": 6977,
      ".ĠL": 6978,
      "ahaliĠ": 6979,
      "ĠáĪµáĬķ": 6980,
      "ĠáīłáĪĺáī£áĪį": 6981,
      "áįĵáĬķ": 6982,
      "ĠáĮĢáĪŃáĪĺáĬķ": 6983,
      "OlÃº": 6984,
      "Ġáī°áĪĺáĪ³áĪ³áĭŃ": 6985,
      "ĠáĪĺáĪ°áĪ¨áīµ": 6986,
      "áĮ¥áĪ¨ĠáĬĲáĮĪáĪ®áī½": 6987,
      "ÃĢwá»įnĠÃ¬tá»įÌģkasÃŃĠ": 6988,
      "áĬ®áĬĸáĪļ": 6989,
      "hadiĠkifoĠch": 6990,
      "3)": 6991,
      "aan": 6992,
      "NewĠYork": 6993,
      "2)": 6994,
      "uteĠ": 6995,
      "Dut": 6996,
      "taĠfaraĠ": 6997,
      "Ã¨yÃŃ": 6998,
      "Ã©taitĠ": 6999,
      "oá¹£Ã¹ĠK": 7000,
      "Sala": 7001,
      "JulaiĠ-Ġ": 7002,
      "kaskazin": 7003,
      "Ġáĭ¨áĮ¥": 7004,
      "áĪįáĮĭ": 7005,
      "Ġáī°áĮ«": 7006,
      "Ġáĭ¨áĪļáĪ°áĪ«": 7007,
      "MariaĠ": 7008,
      "áįĸáĪŃáīµ": 7009,
      "ĠáĬłáīĢáįį": 7010,
      "ĠáĮįáĬķáĬĻáĬĲáīµ": 7011,
      "Larab": 7012,
      "iláº¹": 7013,
      "gboyÃ¨Ġ": 7014,
      "adir": 7015,
      "areĠdaĠ": 7016,
      "wakifuat": 7017,
      ",ĠmwigizajiĠwaĠfilamuĠ": 7018,
      "daĠyawaĠ": 7019,
      "sakand": 7020,
      "upandeĠwaĠm": 7021,
      "OrÃŃláº¹ÌĢ-Ã¨dÃ¨Ġ": 7022,
      "5)": 7023,
      "DansĠ": 7024,
      "burg": 7025,
      "BBCĠ": 7026,
      "Way": 7027,
      "tain": 7028,
      "áĮİáī½": 7029,
      "áĪŃáį£": 7030,
      "atab": 7031,
      "ĠáĬ¥áĪ«áĪ±": 7032,
      "ĠáĬ¨áĪ°": 7033,
      "Ġáĭ¨áĬ¡": 7034,
      "ĠáĭĵáĭŃáĬĲáīµ": 7035,
      "ĠáĪĽáĬħ": 7036,
      "ĠáĪįáĪĽ": 7037,
      "Ġáĭ¨áĬłáĭįáĪ®áįĵ": 7038,
      "ĠáĮĢáĪĺáĪ¨": 7039,
      "ĠáĬłáĪĿáī£": 7040,
      "ĠáĬŃáįįáĪĭáĮĪáĪŃ": 7041,
      "FM": 7042,
      "baiĠ": 7043,
      "hiy": 7044,
      "nuf": 7045,
      "Ã³Ġá¹£": 7046,
      "Ã²:Ġ": 7047,
      "aniĠm": 7048,
      "Ã¬tÃłg": 7049,
      "lÃ¡raĠÃłwá»įnĠ": 7050,
      "digiriĠnaĠ": 7051,
      "shiĠneĠdanĠwasanĠÆĻwallonĠÆĻafaĠtaĠÆĻasarĠIngila.": 7052,
      "Bau": 7053,
      "qĠ": 7054,
      "ild": 7055,
      "2007": 7056,
      "Peop": 7057,
      "Do": 7058,
      "e\"Ġ": 7059,
      "Tech": 7060,
      "kejÃ¬Ġ": 7061,
      "lilikuwaĠ": 7062,
      "ĠáįĴ": 7063,
      "Ã³ĠsÃ¬Ġ": 7064,
      "ĠáĪµáĭ«áĪľ": 7065,
      "¢áīµáĭ®áĮµáĭ«áĬķ": 7066,
      "fiĠs": 7067,
      "yaĠmwakaĠ": 7068,
      "ĠáĪĺáĪįáĬ©": 7069,
      "ĠáĪĽáĪŃáīĨáĪµĠáĭ°áĮįáĪŀ": 7070,
      "rÃ¨Ġ": 7071,
      "eneĠ": 7072,
      "</": 7073,
      "dÃ©part": 7074,
      "YanaĠ": 7075,
      "haih": 7076,
      "lov": 7077,
      "usedĠ": 7078,
      "apá»įÌĢĠ": 7079,
      "wasĠtheĠ": 7080,
      "ĠáĮĦ": 7081,
      "áī½áĪī": 7082,
      "áĪĭáĪĭ": 7083,
      "ĠáĪĿáĪħ": 7084,
      "áĭ³áĪª": 7085,
      "áĭ¨áĪ©": 7086,
      "tryĠ": 7087,
      "trÃ¨sĠ": 7088,
      "Ġáĭ«áĪĭáī¸áĭį": 7089,
      "2011": 7090,
      "Ġáĭ¨áī°áī£": 7091,
      "áī¦áīµ": 7092,
      "Italia": 7093,
      "áĪįáĪµáįįáĬĵ": 7094,
      "PopeĠ": 7095,
      "Ġáĭ¨áĭĵáĪĺáī±": 7096,
      "MarchĠ": 7097,
      "FirstĠ": 7098,
      "\"M": 7099,
      "kÃ¬Ġ": 7100,
      "pour": 7101,
      "sanĠ": 7102,
      "NÃŃgbÃłĠ": 7103,
      "jáº¹sÃ¡": 7104,
      "OktobaĠ-Ġ": 7105,
      "becameĠ": 7106,
      "uhuruĠ": 7107,
      "Arch": 7108,
      "----": 7109,
      "Pers": 7110,
      "himĠ": 7111,
      "áĪŃáī³": 7112,
      "áĬĲáĬĽ": 7113,
      "ammentĠ": 7114,
      "fiel": 7115,
      "ĠáĮ£áĪį": 7116,
      "elopmentĠ": 7117,
      "ĠáĪĥáĭŃáĪĽáĬĸáīµ": 7118,
      "kinĠ": 7119,
      ".ĠT": 7120,
      "iĠmwakaĠ": 7121,
      "aĠyakeĠ": 7122,
      "askof": 7123,
      "amu": 7124,
      "leĠdeĠ": 7125,
      "ipeĠ": 7126,
      "FarkonĠ": 7127,
      "Mit": 7128,
      "áĬķáĮ»": 7129,
      "á»įkÃłn": 7130,
      "Ġáīłáĭļáĭ«": 7131,
      "áĪĪáī±": 7132,
      "Ã³n": 7133,
      "áīłáī³áĪįáį¢": 7134,
      "Ġáī°áĮĪ": 7135,
      "Ġáī°áĭ°áĪŃ": 7136,
      "á¹£ir": 7137,
      "watakatifuĠ": 7138,
      "áĬłáĪģ": 7139,
      "áī¦áĪŃ": 7140,
      "tarihinĠ": 7141,
      "ĠáĬłáĪĪáį¢": 7142,
      "178": 7143,
      "sÃŃtÃ¬Ġ": 7144,
      "AnĠhaifiĠ": 7145,
      "team": 7146,
      "Philip": 7147,
      "BiranenĠ": 7148,
      "ĠáĬłáĪ«áīµ": 7149,
      "âĢ¢ĠMtoĠ": 7150,
      "áĪªáī³áĬķáĭ«": 7151,
      "RomanĠ": 7152,
      "Egyp": 7153,
      "46": 7154,
      "Res": 7155,
      "ernĠ": 7156,
      "ikuĠ": 7157,
      "IbnĠ": 7158,
      "Mand": 7159,
      "jus": 7160,
      "re.": 7161,
      "jáº¹ÌģĠá»įÌĢkanĠ": 7162,
      "ninuĠawonĠ": 7163,
      ")áį¢": 7164,
      "Kin": 7165,
      "re,Ġ": 7166,
      "ĠáĮ¤": 7167,
      "ĠáĬłáĭĭ": 7168,
      "áĭµáīħ": 7169,
      "Ġáĭ°áī¥": 7170,
      "áĮĢáīµ": 7171,
      "áīĭáīĭ": 7172,
      "assanĠ": 7173,
      "áĪµáī°áĪŃ": 7174,
      "ĠáĬłáī£áĪĭáīµ": 7175,
      "ĠáĭľáĬĵĠáĪĺáĭĭ": 7176,
      "Ġáĭ¨áĪħáĭĿáī¥": 7177,
      "áįĲáī¥áĪĬáĬŃ": 7178,
      "Ġáĭ©áĬĴáī¨áĪŃáĪ²áī²": 7179,
      "ĠáĪ³áĭŃáĬķáĪ³áĭĬĠáĮ¸áī£áĭŃ": 7180,
      "(199": 7181,
      "Bon": 7182,
      "Jar": 7183,
      "ĠáīĢáĭŃ": 7184,
      "ers.": 7185,
      "present": 7186,
      "A)Ġ": 7187,
      "Hel": 7188,
      "P.": 7189,
      "bÃº": 7190,
      "sousĠ": 7191,
      "shair": 7192,
      "agharib": 7193,
      "ĠAr": 7194,
      "karniĠnaĠ": 7195,
      "ayyuk": 7196,
      "aĠmapokeoĠyaĠ": 7197,
      "irefu": 7198,
      "ĠC": 7199,
      "premierĠ": 7200,
      "FIFAĠ": 7201,
      "eas": 7202,
      "ake.": 7203,
      "áĬĵáĮĪáĪŃ": 7204,
      "ĠáĪĿáĭķáĪ«": 7205,
      "áĭĿáĪĿ": 7206,
      "2009": 7207,
      "Ġáĭ¨áĬĲáĮĪ": 7208,
      "Trans": 7209,
      "áĬĲáĮĪáĪŃĠáĮįáĬķ": 7210,
      "influ": 7211,
      "Ġáĭ¨áĪĻáĭļáīĥ": 7212,
      "AL": 7213,
      "Sing": 7214,
      "pÃº": 7215,
      "ensiĠ": 7216,
      "tarih": 7217,
      "aĠgab": 7218,
      "Guine": 7219,
      "2019,Ġ": 7220,
      "NovembaĠ": 7221,
      "Ã¨tÃ²": 7222,
      "áº¸ÌĢ": 7223,
      "ambr": 7224,
      "paysĠ": 7225,
      "Sw": 7226,
      "Sup": 7227,
      "AR": 7228,
      "gwamnanĠ": 7229,
      "oĠchaĠ": 7230,
      "áĪĪáīłáīµ": 7231,
      "áī¥áĬĽ": 7232,
      "ayarĠdaĠ": 7233,
      "áĮįáĪĽáĭĬ": 7234,
      "aĠkwenyeĠ": 7235,
      "áĮĭáĪ«": 7236,
      "áĮĭáĮĪáĪŃ": 7237,
      "ĠáĪ°áĪŃ": 7238,
      "áĬķáĮįáĪ¥áīµ": 7239,
      "stand": 7240,
      "000": 7241,
      "ĠáĬ¥áĬķáĭ°ĠáĬĲáīłáĪŃ": 7242,
      "ĠáĬ¥áĪµáĬ«": 7243,
      "ÃĵĠjáº¹ÌģĠ": 7244,
      "EneoĠ": 7245,
      "haÉĹinĠ": 7246,
      "waÉĹan": 7247,
      "áįĪáĪĭáĮĬ": 7248,
      "Fabr": 7249,
      "nomĠ": 7250,
      "Kol": 7251,
      "Mex": 7252,
      "2014": 7253,
      "BahariĠyaĠ": 7254,
      "cert": 7255,
      "oÃ²rÃ¹nĠ": 7256,
      "insĠ": 7257,
      "alich": 7258,
      "obj": 7259,
      "annÃ©esĠ": 7260,
      "ĠAgostiĠ-Ġ": 7261,
      "bincik": 7262,
      "Sel": 7263,
      "ones": 7264,
      "ĠáĪĺáĬ®": 7265,
      "áĬŃáĪĿáĬĵ": 7266,
      "áĭĿáī¡": 7267,
      "etĠlesĠ": 7268,
      "AdÃ©": 7269,
      "ĠáĭĭáĮĭ": 7270,
      "ĠáĪĬáīĥáĭįáĬķ": 7271,
      "philosoph": 7272,
      "Ġáī°áĪĺáĪį": 7273,
      "ĠáĪģáĪĪáī°áĬĽ": 7274,
      "57": 7275,
      "amanĠ": 7276,
      "1980": 7277,
      "Sim": 7278,
      "kiraĠ": 7279,
      "wÃ³Ġ": 7280,
      "eĠzin": 7281,
      "daĠnaĠ": 7282,
      "taĠzamaĠ": 7283,
      "aĠmakarantarĠ": 7284,
      "aph": 7285,
      "ector": 7286,
      "Ġ12": 7287,
      "exist": 7288,
      "nÃ¡Ãł": 7289,
      "ráº¹ÌĢ,Ġ": 7290,
      "Ãłká»įÌģlÃ©Ġráº¹ÌĢĠ": 7291,
      "iakaĠmirefu": 7292,
      "aprÃ¨sĠ": 7293,
      "abakiĠsikuĠ": 7294,
      "Kong": 7295,
      "idarĠ": 7296,
      "56": 7297,
      "Bas": 7298,
      "toutĠ": 7299,
      "áĮįáĪĪ": 7300,
      "ĠáīłáĪ¥": 7301,
      "leĠofĠ": 7302,
      "áĪµáīµáĪª": 7303,
      "áĮ»áįį": 7304,
      "áĭ°áī¥áĪ¨": 7305,
      "bisaĠgaĠ": 7306,
      "Åĵ": 7307,
      "atar": 7308,
      "gba": 7309,
      "áī¢áĭŃ": 7310,
      ",ĠmshindiĠwaĠTuzoĠyaĠNobelĠyaĠKemiaĠmwakaĠwaĠ": 7311,
      "aimakinĠ": 7312,
      ",ĠmshindiĠwaĠTuzoĠyaĠNobelĠyaĠFizikiaĠmwakaĠwaĠ": 7313,
      "Roma,Ġhuadhim": 7314,
      "ĠkatikaĠmiakaĠmirefu": 7315,
      "DarĠesĠ": 7316,
      "wakifuataĠmapokeoĠyaĠ": 7317,
      "wakifuataĠmapokeoĠyaĠRoma,Ġhuadhim": 7318,
      "Ly": 7319,
      "Rec": 7320,
      "wanaĠ": 7321,
      "anyik": 7322,
      "177": 7323,
      "49": 7324,
      "PD": 7325,
      "a).": 7326,
      "med": 7327,
      "kÃ¬": 7328,
      "tarĠ": 7329,
      "Ġáĭ¨áĪĭ": 7330,
      "áĭ«áīĦ": 7331,
      "áĬĲáĪ£": 7332,
      "áĭµáĪľ": 7333,
      "ickĠ": 7334,
      "áį£Ġ": 7335,
      "ĠáĭĪáĮ£": 7336,
      "Ġá»įbaĠ": 7337,
      "ÃĮlÃºĠ": 7338,
      "ĠáĬŃáĪŃ": 7339,
      "ĠáĮ¥áīłáī¥": 7340,
      "áĪĲáĪ´": 7341,
      "JamiâĢĻarĠ": 7342,
      "tionĠofĠ": 7343,
      "ĠáĮ¨áĪĿáĪ®": 7344,
      "áĭ°áĪ¨áĮĪáĭį": 7345,
      "ĠáĬłáĪµáī°áĭ³áĭ°áĮį": 7346,
      "usieursĠ": 7347,
      "WakristoĠwengi,Ġ": 7348,
      "uisheĠzin": 7349,
      "WakristoĠwengi,ĠwakifuataĠmapokeoĠyaĠRoma,Ġhuadhim": 7350,
      "uisheĠzinabakiĠsikuĠ": 7351,
      "Ø©": 7352,
      "ekaĠ": 7353,
      "identi": 7354,
      "2016": 7355,
      "aĠten": 7356,
      "TV": 7357,
      "Yes": 7358,
      "Ã´t": 7359,
      "Publ": 7360,
      "dem": 7361,
      "esternĠ": 7362,
      "ajaĠ": 7363,
      "aniĠnaĠ": 7364,
      "watum": 7365,
      "ionalĠ": 7366,
      "dansĠlesĠ": 7367,
      "aribuĠ": 7368,
      "thoughĠ": 7369,
      "ablaĠyaĠ": 7370,
      "Cali": 7371,
      "áĪĽáī¸áĭį": 7372,
      "áįĬáĭİáī½": 7373,
      "ĠáĪ¥áĮĭ": 7374,
      "ĠáīµáĪŃáĮīáĪĿ": 7375,
      "ĠâĢ¹": 7376,
      "ĠáįĪáĪ¨áĬķáĪ³áĭŃ": 7377,
      "áīħáĭ«áĬĸáĪµ": 7378,
      "Ġáĭ¨áĪļáĮĪáĬĿáīłáīµĠáĪĺáĪįáĬŃáĭĵĠáĪĿáĭµáĪŃ": 7379,
      "formĠ": 7380,
      "undum": 7381,
      "OL": 7382,
      "sir": 7383,
      "wann": 7384,
      "ambaoĠ": 7385,
      "uhim": 7386,
      "AkwaiĠ": 7387,
      "yawan": 7388,
      "jeshiĠ": 7389,
      "kuduĠmasoĠ": 7390,
      "ÃºgbÃ²Ġ": 7391,
      "onyesh": 7392,
      "pakaĠuisheĠzinabakiĠsikuĠ": 7393,
      "toĠgbaĠEbunĠNobelĠ": 7394,
      "Fabrair": 7395,
      "Chur": 7396,
      "a'sĠ": 7397,
      "takenĠ": 7398,
      "AlexanderĠ": 7399,
      "Sul": 7400,
      "ªáĭ«": 7401,
      "Ġáī²": 7402,
      "Ġáīłáĭ°áī¡áī¥": 7403,
      "áī°áĬĵ": 7404,
      "kuch": 7405,
      "ĠáĬłáĭĺ": 7406,
      "ĠáĬĲáįĥ": 7407,
      "ĠáĪĪáĭĪ": 7408,
      "oper": 7409,
      "Ġáĭ¨áĪĺáĮ£": 7410,
      "Ãłn,Ġ": 7411,
      "ĠáĪļáĬ«áĬ¤áĪį": 7412,
      "áīĢáĪĺáĮ«": 7413,
      "ĠáĮłáīħáĪĭáĭŃ": 7414,
      "ĠáĪļáĬĴáĪµáīµáĪŃ": 7415,
      "ĠáĬĽáĭį": 7416,
      "'estĠ": 7417,
      "inap": 7418,
      "emistr": 7419,
      "age,Ġ": 7420,
      "BirninĠ": 7421,
      "ArewacinĠ": 7422,
      "AnĠginaĠbirninĠ": 7423,
      "auc": 7424,
      "Angel": 7425,
      "-áĬ¢": 7426,
      "bá»įÌģá»įÌĢ": 7427,
      "hiv": 7428,
      "áĪ¦": 7429,
      "ĠáĪĺáĪ¬áīµ": 7430,
      "áĪ«áĭįáĭ«áĬķ": 7431,
      "ĠáĪĿáĬĴáĪįáĬŃ": 7432,
      "awarĠdaĠ": 7433,
      "ĠáĭĵáĪĭáĪĽ": 7434,
      "áĮĭáĪª": 7435,
      "Ġáĭĺáĭį": 7436,
      "and,Ġ": 7437,
      "áī¤áī±": 7438,
      "uĠkatikaĠ": 7439,
      "áĪ£áĪªáĭ«": 7440,
      "iensĠ": 7441,
      "FebruariĠ-Ġ": 7442,
      "HotunaĠ": 7443,
      "aguziĠwaĠ": 7444,
      "tofautiĠ": 7445,
      "AlimfuataĠ": 7446,
      "ĠáĭķáĪĪáī°ĠáĪŀáīµ": 7447,
      "2000Ġ": 7448,
      "2008": 7449,
      "d'uneĠ": 7450,
      "Mur": 7451,
      "yoteĠ": 7452,
      "unic": 7453,
      "gbá»įÌģĠ": 7454,
      "emat": 7455,
      "uck": 7456,
      "rubut": 7457,
      "LughaĠzaĠ": 7458,
      "áĭ«áĪįáį¢": 7459,
      "áĭ«áĭįáĭ«áĬķ": 7460,
      "ĠáĬłáĬĵ": 7461,
      "áĭ°áĪŃáĪµ": 7462,
      "áĪ«áĪª": 7463,
      "2006Ġ": 7464,
      "áĬķáĮįáĪµáīµ": 7465,
      "áĬĽáĭįáĪĿ": 7466,
      "ĠáĪĬáĪĨáĬķ": 7467,
      "Ġáĭķáĭį": 7468,
      "dansĠlaĠ": 7469,
      "ĠáĪľáĭ³": 7470,
      "bornĠ": 7471,
      "ĠáĭĺáĪĺáĬķĠáĬłáīĨáĮ£áĮłáĪŃĠáĭ¨áĭĵáĪĺáī±": 7472,
      "IleĠ": 7473,
      "Mk": 7474,
      "law": 7475,
      "althĠ": 7476,
      "DeĠ": 7477,
      "lem": 7478,
      "sens": 7479,
      "torĠ": 7480,
      "zoteĠ": 7481,
      "amoĠ": 7482,
      "cheoĠ": 7483,
      "Ã©ĠenĠ": 7484,
      "ĠAn": 7485,
      "rayuw": 7486,
      "SeptembaĠ": 7487,
      "JuniĠ-Ġ": 7488,
      "nasaraĠ": 7489,
      "cinĠkofinĠ": 7490,
      "round": 7491,
      "áĪĲáĭŃ": 7492,
      "Nk": 7493,
      "áĪĿáīłáĪŃ": 7494,
      "áĮįáĬĵ": 7495,
      "ĠáĬ¨áĭĪ": 7496,
      "ĠáĭŃáĪĺ": 7497,
      "afr": 7498,
      "ĠáĭĪáĭĺ": 7499,
      "áīłáĪ®": 7500,
      "áįĪáĮłáĪ¨": 7501,
      "áĬķáĭµáĪµáĬĵ": 7502,
      "ainstĠ": 7503,
      "aĠsunĠ": 7504,
      "áĮĥáĭĿáĪĽáī½": 7505,
      "ĠáĬ¢áĭ¨áĪ±áĪµ": 7506,
      "ĠáĬªáĭ³áĬķ": 7507,
      "ĠáĮ¸áĪĲáįĬ": 7508,
      "ĠáĬłáĪµáī°áĭ³áĭ°áĪŃ": 7509,
      "dÃ¨Ġ": 7510,
      "roĠ": 7511,
      "viv": 7512,
      "rÃŃnĠ": 7513,
      "ÃłkÃ¡": 7514,
      "insaĠ": 7515,
      "wallonĠkaf": 7516,
      "tÃŃtÃŃĠ": 7517,
      "nÃŃĠÃ¬pÃŃnláº¹ÌĢĠ": 7518,
      "Ros": 7519,
      "Tal": 7520,
      "someĠ": 7521,
      "requ": 7522,
      "reĠdeĠ": 7523,
      "Islam": 7524,
      "Ø³": 7525,
      "amer": 7526,
      "peopleĠ": 7527,
      "2019Ġ": 7528,
      "Kut": 7529,
      "duĠm": 7530,
      "iograf": 7531,
      "áĬ»": 7532,
      "abi": 7533,
      "áīłáĬłáĪ": 7534,
      "wendaĠ": 7535,
      "ongoz": 7536,
      "Ġáī¥áĭĻĠáĮĬáĭľ": 7537,
      "al'ad": 7538,
      "D-": 7539,
      "oung": 7540,
      "Î¹": 7541,
      "Hat": 7542,
      "Rash": 7543,
      "foisĠ": 7544,
      "ĠD": 7545,
      "as.": 7546,
      "Shek": 7547,
      "workĠ": 7548,
      "50Ġ": 7549,
      "lineĠ": 7550,
      "ana,Ġ": 7551,
      "ine.": 7552,
      "ahiyarĠ": 7553,
      "ÃĮá¹£": 7554,
      "1999Ġ": 7555,
      "1960": 7556,
      "undiĠ": 7557,
      "aliwaĠnaĠ": 7558,
      "anĠsiyas": 7559,
      "InĠtheĠ": 7560,
      "biasharaĠ": 7561,
      "AugustĠ": 7562,
      "DarĠesĠSala": 7563,
      "áĮ©": 7564,
      "áī£áī±": 7565,
      "áĭ¨áĬłáĪ": 7566,
      "appl": 7567,
      "2003": 7568,
      "ughtĠ": 7569,
      "ĠáĬ¢áĬķ": 7570,
      "ĠáĬªáĪİ": 7571,
      "áĮĬáĭľáĭį": 7572,
      "Kog": 7573,
      "Laf": 7574,
      "iloĠ": 7575,
      "issionĠ": 7576,
      "Ile-": 7577,
      "peri": 7578,
      "akokoĠ": 7579,
      "envir": 7580,
      "appar": 7581,
      "2012Ġ": 7582,
      "kasashenĠ": 7583,
      "Ġ1.": 7584,
      "wá»įn.": 7585,
      "htm": 7586,
      "akarant": 7587,
      "wengineĠ": 7588,
      "titiĠ": 7589,
      "DesembaĠ-Ġ": 7590,
      "babbarĠ": 7591,
      "Argent": 7592,
      "kumbukumbuĠzaĠ": 7593,
      "cell": 7594,
      "siteĠ": 7595,
      "179": 7596,
      "filmĠ": 7597,
      "hiĠ": 7598,
      "ĠáĬ¦áĪŃ": 7599,
      "atak": 7600,
      "ikiĠk": 7601,
      "ĠáĬ¥áĮ½": 7602,
      "áĪ³áĭį": 7603,
      "ingtonĠ": 7604,
      "áĪĬáĭ«áĬķ": 7605,
      "áĭįáĬķĠáĭ¨": 7606,
      "ĠáĪ²áĪĨáĬķĠáīł": 7607,
      "ĠáīĢáĬķĠ": 7608,
      "Prim": 7609,
      "laterĠ": 7610,
      "rasm": 7611,
      "ĠáĪŃáĭķ": 7612,
      "ĠáĬłáĪĽáĬ«": 7613,
      "ĠáĬĹáĪª": 7614,
      "Ġáīłáī°áĪĪáĭŃáĪĿ": 7615,
      "wÃł": 7616,
      "wamb": 7617,
      "zoĠyaĠ": 7618,
      "off": 7619,
      "acikinĠ": 7620,
      "uĠyaĠm": 7621,
      "ahaifiy": 7622,
      "kumbukumbuĠzaĠwatakatifuĠ": 7623,
      "Russ": 7624,
      "eeĠ": 7625,
      "tir": 7626,
      "Å«": 7627,
      "Isra": 7628,
      "Island": 7629,
      "AwardsĠ": 7630,
      "ram": 7631,
      "Australi": 7632,
      "piaĠm": 7633,
      "asayans": 7634,
      "ĠáĬłáī¡": 7635,
      "áį£ĠáĪĪ": 7636,
      "áįįáĪ¬": 7637,
      "akaĠdaĠ": 7638,
      "áĮ£áĪª": 7639,
      "áĬ¥áĪµ": 7640,
      "atikaĠkar": 7641,
      "attaf": 7642,
      "ĠáĪĻáĭļáīĥ": 7643,
      "nchiĠzaĠ": 7644,
      "wÃ¡yÃ©Ġ": 7645,
      "ĠáĭĺáĪĺáĬĲĠáĪĽáĪŃáīĨáĪµĠáĭ°áĮįáĪŀ": 7646,
      "ĠáĬłáĮĪáĪįáĮįáĪİáīµ": 7647,
      "ĠáįĪáĪŃáĭĸáĬķ": 7648,
      "ĠáĮĪáĬķáĭĺáī¥": 7649,
      "itanĠ": 7650,
      "ibuĠ": 7651,
      "2015Ġ": 7652,
      "sĠtoĠ": 7653,
      "agul": 7654,
      "Â»,Ġ": 7655,
      "qu'ilĠ": 7656,
      "nes": 7657,
      "sáº¹Ìģ": 7658,
      "ismĠ": 7659,
      "thor": 7660,
      "apt": 7661,
      "pekeeĠ": 7662,
      "ĠkatikaĠmiakaĠmirefu).ĠM": 7663,
      "(Ġ": 7664,
      "LeoĠ": 7665,
      "pal": 7666,
      "ĠáĭŃáĮł": 7667,
      "awa": 7668,
      "áĪĮáĪĭ": 7669,
      "Ġáĭ°áĮĭ": 7670,
      "ĠáįĬáĪį": 7671,
      "ement,Ġ": 7672,
      "Ġáĭ«áĪĪáĭįáĬķ": 7673,
      "áį²áį±áį»áį¶áį": 7674,
      "áĪĽáĭŃáĪµáĮ¥": 7675,
      "ĠáĪļáĬĴáĪµáī´": 7676,
      "ĠáĭµáĬķáĮĭáĭŃ": 7677,
      "\")Ġ": 7678,
      "Hind": 7679,
      "gÃ¡": 7680,
      "adu": 7681,
      "MarisĠ": 7682,
      "1998": 7683,
      "ationĠdeĠ": 7684,
      "runĠ": 7685,
      "yaraĠ": 7686,
      "yautarĠ": 7687,
      "Ã²s": 7688,
      "aineĠ": 7689,
      "tÃŃĠÃ³ĠwÃłĠnÃŃĠ": 7690,
      "IlÃ©Ġ": 7691,
      "istoriaĠ": 7692,
      "JamhuriĠyaĠ": 7693,
      "JanuariĠ-Ġ": 7694,
      "5,": 7695,
      "Cath": 7696,
      "Po": 7697,
      "2011Ġ": 7698,
      "Flor": 7699,
      "U.": 7700,
      "barĠ": 7701,
      "wuĠ": 7702,
      "áĪĿáĪĮ": 7703,
      "ĠáĬłáĮł": 7704,
      "áį¡áĬł": 7705,
      "ĠáĬ¥áĬķáĭµ": 7706,
      "ah,Ġ": 7707,
      "Ġáĭ¨áĪļáī£áĪį": 7708,
      "own": 7709,
      "ityĠofĠ": 7710,
      "áī£áī¢áĪİáĬķ": 7711,
      "namoĠ": 7712,
      "Ġáī¡áĭµ": 7713,
      "áĪĺáĪĪáĪµ": 7714,
      "shipĠ": 7715,
      "hank": 7716,
      "rÃº": 7717,
      "tÃº": 7718,
      "Â»)": 7719,
      "ItokasiĠÃłwá»įnĠá»įjá»įÌģÃ¬bÃŃĠnÃŃĠ": 7720,
      ".ĠÃĢwá»įnĠÃĮt": 7721,
      "ijobaĠib": 7722,
      "Mos": 7723,
      "ini,Ġ": 7724,
      "2004": 7725,
      "2005Ġ": 7726,
      "Greg": 7727,
      "Keny": 7728,
      "oĠs": 7729,
      "appe": 7730,
      "Cent": 7731,
      "Sin": 7732,
      "Sur": 7733,
      "pwan": 7734,
      "sá»įÌĢ": 7735,
      "ale,Ġ": 7736,
      "ÃłÃ¬sÃłnĠ": 7737,
      "asiliĠyaĠ": 7738,
      "áĪĪáĪ°": 7739,
      "ominaĠ": 7740,
      "afiĠk": 7741,
      "áĭĭáĪŃáĭ«": 7742,
      "haribiĠ": 7743,
      "NorthĠ": 7744,
      "táº¹Ìģláº¹ÌĢ": 7745,
      "alikuwaĠmshindiĠwaĠTuzoĠyaĠNobelĠyaĠ": 7746,
      "ItaĠceĠ": 7747,
      "LakiniĠ": 7748,
      "IV": 7749,
      "Maz": 7750,
      "aĠL": 7751,
      "BÃ¡": 7752,
      "dÃºr": 7753,
      "tÃŃĠwá»įnĠ": 7754,
      "2017": 7755,
      "2014Ġ": 7756,
      "Alit": 7757,
      "ÅĦĠjáº¹ÌģĠ": 7758,
      "2018,Ġ": 7759,
      "falmeĠm": 7760,
      "hadaĠdaĠ": 7761,
      "asiasaĠwaĠ": 7762,
      "DolaĠlaĠRom": 7763,
      "WakristoĠwengi,ĠwakifuataĠmapokeoĠyaĠRoma,ĠhuadhimishaĠ": 7764,
      "Nic": 7765,
      "nÃ©": 7766,
      "áĮĲ": 7767,
      "áĬķáī°": 7768,
      "ĠáĬłáĭ°": 7769,
      "áĬĲáĪµ": 7770,
      "áĪ«áĭį": 7771,
      "áĭ³áĭĬ": 7772,
      "áĬ«áĭµ": 7773,
      "ĠáĪµáī´": 7774,
      "áĭļáĭ«áĬķ": 7775,
      "áĪĻáīµ": 7776,
      "ĠáĬ¥áĬķáĭ°ĠáĪĨáĬĲ": 7777,
      "odiĠ": 7778,
      "ĠáĬĲáīłáĪŃáį¡áį¡": 7779,
      "ĠáĪķáĮį": 7780,
      "ĠáīµáĪĿáĪħáĪŃáīµĠáī¤áīµ": 7781,
      "UgandaĠ": 7782,
      "aish": 7783,
      "taw": 7784,
      "ultur": 7785,
      "Gáº¹ÌĢáº¹Ìģ": 7786,
      "Hung": 7787,
      "kÃł.": 7788,
      "uy": 7789,
      "aĠdagaĠ": 7790,
      "Champ": 7791,
      "rikic": 7792,
      "KatsinaĠ": 7793,
      "inĠK": 7794,
      "igab": 7795,
      "ÑĢ": 7796,
      "Ġáĭ¨áĪĪáĪĿ": 7797,
      "onneĠ": 7798,
      "áĪĪáĪį": 7799,
      "ĠáĮĵ": 7800,
      "áĪ«áĬĴ": 7801,
      "Ġáīłáī°áĪĪáĭ«áĭ©": 7802,
      "ĠáįįáīħáĪŃ": 7803,
      "ĠáĬłáĪįáįĭ": 7804,
      "grand": 7805,
      "ĠáĪħáĮį": 7806,
      "Ġáī¤áī°áĬŃáĪŃáĪµáī²áĭ«áĬķ": 7807,
      "áĪµáĪ«áĬ¤áĪį": 7808,
      "ĠL": 7809,
      "er'sĠ": 7810,
      "onom": 7811,
      "ingsĠ": 7812,
      "áĮłáīµ": 7813,
      "2012": 7814,
      "edik": 7815,
      "evenĠ": 7816,
      "MusulunciĠ": 7817,
      "HispaniaĠ": 7818,
      "ĠáĬĥáĭŃáĪĪĠáĪ¥áĪĭáĪ´": 7819,
      "DemocraticĠ": 7820,
      "Plat": 7821,
      "sou": 7822,
      "iĠlaĠ": 7823,
      "2015": 7824,
      "positionĠ": 7825,
      "AfricaĠ": 7826,
      "nombre": 7827,
      "fond": 7828,
      "alg": 7829,
      "ictĠ": 7830,
      "Sheh": 7831,
      "relig": 7832,
      "MuhammaduĠ": 7833,
      "Ach": 7834,
      "gáº¹": 7835,
      "rÃłnĠ": 7836,
      "ra'": 7837,
      "wÃŃĠ": 7838,
      "ĠáĬĶ": 7839,
      "áĬķĠáĭĪáĭ°": 7840,
      "Ġáĭ¨áī¥": 7841,
      "ĠáīłáĪ®": 7842,
      "edĠonĠ": 7843,
      "trib": 7844,
      "Ġáĭ°áĪŃ": 7845,
      "2ĠâĢĵĠ": 7846,
      "NÃłÃ¬jÃŃrÃŃÃł,Ġ": 7847,
      "áį²áį±áį»áį·áį": 7848,
      "shigaĠ": 7849,
      "Progr": 7850,
      "Ã¬kÃ¬Ġ": 7851,
      "tsohuwarĠ": 7852,
      "ĠáīĢáĬĵáīµĠáĭŃáīĢáĪ«áĪīáį¢": 7853,
      "ilÃ©Ġáº¹ÌĢká»įÌģĠ": 7854,
      "owever,Ġ": 7855,
      "ayáº¹yáº¹Ġ": 7856,
      "CN": 7857,
      "Wag": 7858,
      "mu": 7859,
      "edĠinĠtheĠ": 7860,
      "Christ": 7861,
      "Jac": 7862,
      "cer": 7863,
      "ovi": 7864,
      "wadandaĠ": 7865,
      "|ĠRD2-": 7866,
      ".ĠManazarta": 7867,
      "WilayaĠyaĠ": 7868,
      "á¹£irÃŃá¹£": 7869,
      "áĪµĠ(": 7870,
      "áĬĵĠáĪĪ": 7871,
      "áī¥áĪĭ": 7872,
      "2013": 7873,
      "áī¡áĪŃ": 7874,
      "ĠáīĢáĬķĠáĬĲáĭįáį¢": 7875,
      "ĠáĬķáĮīáĪ¥ĠáĬĲáīłáĪŃáį¢": 7876,
      "ĠáįĬáĭ°": 7877,
      "áĮĪáĪĪáĮį": 7878,
      "ĠáĪªáįĲáī¥áĪĬáĬŃ": 7879,
      "ĠáĮłáĪĭ": 7880,
      "Ġáĭ°áĪ´áīµ": 7881,
      "RichardĠ": 7882,
      "áĬ¥áĬķáĭ²áĪģ": 7883,
      "ĠáĪĿáĬķáĮĬáĭľáĪĿ": 7884,
      "eo": 7885,
      "ne.Ġ": 7886,
      "Ã²n": 7887,
      "ibnĠ": 7888,
      "PeterĠ": 7889,
      "Bad": 7890,
      "Tel": 7891,
      ",ĠÃłtiĠ": 7892,
      "inrinĠ": 7893,
      "arĠtaĠ": 7894,
      "Ġá»įÌģ": 7895,
      "ÅĦĠd": 7896,
      "tÃŃĠÃ³ĠwÃłĠ": 7897,
      "berg": 7898,
      "Fasah": 7899,
      "MeiĠ": 7900,
      "NchiĠzaĠ": 7901,
      "cu": 7902,
      ".ĠD": 7903,
      "dinĠ": 7904,
      "kam": 7905,
      "áī°áĬŀáī½": 7906,
      "ĠáĭĪáĪ°": 7907,
      "áĭĿáĬĵ": 7908,
      "ĠáĮįáĪ«": 7909,
      "Ġáĭ¨áī°áīĢ": 7910,
      "stateĠ": 7911,
      "ĠáīłáĪĺáĮ¨áĪ¨áĪ»": 7912,
      "uwa,Ġ": 7913,
      "Arm": 7914,
      "ĠáĬłáĬķáĭ°": 7915,
      "ĠáĬłáĭįáĪ«": 7916,
      "LouisĠ": 7917,
      "TovutiĠ": 7918,
      "bilaĠ": 7919,
      "tum": 7920,
      "tot": 7921,
      "tÃºn": 7922,
      "Ã¡Ã¡": 7923,
      "iyaĠnaĠ": 7924,
      "kanĠnÃ¡ÃłĠ": 7925,
      "iá¹£áº¹Ìģ": 7926,
      "lokacinĠdaĠ": 7927,
      "300": 7928,
      "mil": 7929,
      "ress": 7930,
      "ãĤ": 7931,
      "ata,Ġ": 7932,
      "isti": 7933,
      "2020Ġ": 7934,
      "atureĠ": 7935,
      "iumĠ": 7936,
      "kush": 7937,
      "UnionĠ": 7938,
      "lit": 7939,
      "áĬķáĬ«": 7940,
      "áĪĿĠáĭŃ": 7941,
      "ĠáĮįáĪį": 7942,
      "Ġáĭ°áī¥áĪ¨": 7943,
      "ÃĢwá»įnĠarÃ¡Ġ": 7944,
      "ĠáīłáĬĭáĪĭĠáīł": 7945,
      "imbab": 7946,
      "ĠáīłáĬłáĪľáĪªáĬ«": 7947,
      "ÃĪyÃŃĠ": 7948,
      "daĠdamaĠ": 7949,
      "kubwaĠyaĠ": 7950,
      "Ġáĭ¨áīĢáĭµáĪŀ": 7951,
      "nÃŃgbÃłĠtÃŃĠ": 7952,
      "wurinĠ": 7953,
      "falmeĠwaĠ": 7954,
      "Ġáīłáī¥áĭĽáīµĠáĭ¨áĪļáĮĪáĬĿáīłáīµĠáĪĺáĪįáĬŃáĭĵĠáĪĿáĭµáĪŃ": 7955,
      "ĠáĪµáī¥áĪµáī¥": 7956,
      "pow": 7957,
      "ulaĠ": 7958,
      "s,ĠandĠ": 7959,
      "edĠtoĠtheĠ": 7960,
      "pleĠ": 7961,
      "atiqu": 7962,
      "kÃºĠ": 7963,
      "utamad": 7964,
      "KiingerezaĠ": 7965,
      "ehemuĠ": 7966,
      "fa": 7967,
      "Ġ[": 7968,
      "aĠD": 7969,
      "enneĠ": 7970,
      "ĠáĮ»": 7971,
      "áĪ¨áįĪ": 7972,
      "áĮįáĬĿ": 7973,
      "áĪ³áī¸áĭįáĬķ": 7974,
      "ĠáīłáĪ±": 7975,
      "Ġáĭ¨áĪ¶": 7976,
      "ĠáĬĲáĭįĠáį¢": 7977,
      "áīħáĪį": 7978,
      "trod": 7979,
      "áĪ®áĪŀ": 7980,
      "áĪ©áĬŃ": 7981,
      "ĠáĬ¥áĬķáĭ°áĬĲáīłáĪŃ": 7982,
      "ĠáĭµáĬķáĮįáĪį": 7983,
      "ĠáĬłáĪµáī°áĭĭ": 7984,
      "ĠáĬ¥áĬķáĪµáĪ³": 7985,
      "ootb": 7986,
      "ĠáĭĪáĭĺáī°": 7987,
      "jej": 7988,
      "ooĠ": 7989,
      "ÏĤ": 7990,
      "athĠ": 7991,
      "Â».": 7992,
      "Ãłjáº¹sÃ¡": 7993,
      "ajiĠm": 7994,
      "nÃŃĠÃłwá»įnĠ": 7995,
      "sÃŃwÃ¡jÃºĠ": 7996,
      "Burtan": 7997,
      "yammacinĠ": 7998,
      "fimĠdinĠ": 7999,
      "RayayyunĠM": 8000,
      "aĠkungiyarĠ": 8001,
      "ombeĠ": 8002,
      "FilmĠ": 8003,
      "ty": 8004,
      "áīµáĪµ": 8005,
      "áĪµáī²": 8006,
      "char": 8007,
      "ĠáĪĺáĮĢáĪĺáĪªáĭ«": 8008,
      "ĠáīłáĪ³": 8009,
      "ĠáĬ¥áĬķáĭ´áīµ": 8010,
      "Ġáĭ«áĭĺ": 8011,
      "Ġáĭ¨áī°áĬĲáĪ³": 8012,
      "áīĨáī¥": 8013,
      "ĠáĮīáĪį": 8014,
      "áĪłáī¥": 8015,
      "ĠáĭŃáĮĪáĪĺ": 8016,
      "áī£áĪħáĪŃ": 8017,
      "Ġ18": 8018,
      "ariĠyaĠ": 8019,
      "niĠsikuĠyaĠ": 8020,
      "tro": 8021,
      "2010Ġ": 8022,
      "phys": 8023,
      "lá»įÌģwá»įÌģ": 8024,
      "aimak": 8025,
      "BabbanĠbirninĠ": 8026,
      "mÃ¬ÃŃrÃłnĠ": 8027,
      "88": 8028,
      "d.": 8029,
      "udeĠ": 8030,
      "itaĠm": 8031,
      "prov": 8032,
      "ufuĠ": 8033,
      "Gener": 8034,
      "à¥": 8035,
      "agoĠ": 8036,
      "1960Ġ": 8037,
      "associ": 8038,
      "HisĠ": 8039,
      "Jo": 8040,
      "Ram": 8041,
      "bre": 8042,
      "kwaĠm": 8043,
      "áĮ®": 8044,
      "Ġáĭ¨áĬŃ": 8045,
      "asaliĠ": 8046,
      "ĠáĬłáĬŃ": 8047,
      "olanz": 8048,
      "Ã²Ġk": 8049,
      "aidĠ": 8050,
      "ipp": 8051,
      "Prof": 8052,
      "ilimaĠyaĠ": 8053,
      "lughaĠzaĠ": 8054,
      "MachiĠ-Ġ": 8055,
      "ĠáĮ½áĪķáįĪáīµ": 8056,
      "HanyoyinĠ": 8057,
      "Bos": 8058,
      "u:Ġ": 8059,
      "ari,Ġ": 8060,
      "illaĠ": 8061,
      "esĠtheĠ": 8062,
      "aĠmak": 8063,
      "wellĠ": 8064,
      "daĠg": 8065,
      "ingĠofĠ": 8066,
      "plusieursĠ": 8067,
      "establ": 8068,
      "luiĠ": 8069,
      "calledĠ": 8070,
      "Zimbab": 8071,
      "Ïģ": 8072,
      "inĠmall": 8073,
      "haka,Ġ": 8074,
      "daĠtakeĠ": 8075,
      "shirye-shiry": 8076,
      ");Ġ": 8077,
      "FĠ": 8078,
      "pil": 8079,
      "ĠáĪĺáĬĸ": 8080,
      "áĪ«áĪŃ": 8081,
      "áĪĽáĪ¨": 8082,
      "aganaĠ": 8083,
      "áĮ£áĬķ": 8084,
      "ĠáĭĺáĪĺáī»": 8085,
      "Ġáī¢áĪĨáĬķáĪĿ": 8086,
      "ama,Ġ": 8087,
      "mÃ¡Ġ": 8088,
      "sark": 8089,
      "aĠkarkashinĠ": 8090,
      "obinĠ": 8091,
      "iĠkanĠ": 8092,
      "nigb": 8093,
      "waÆĻ": 8094,
      "WakatiĠwaĠ": 8095,
      "timeĠ": 8096,
      "KiswahiliĠ": 8097,
      "ipinleĠ": 8098,
      "Dir": 8099,
      "Ox": 8100,
      "hav": 8101,
      "sm": 8102,
      "ubli": 8103,
      "e;Ġ": 8104,
      "áĭ¢": 8105,
      "áĭ°áĪŃáĮī": 8106,
      "áĬĲáĮį": 8107,
      "áĪĽáĪįáį¢": 8108,
      "ĠáĬłáĪ¥": 8109,
      "áĭĪáĮ¡": 8110,
      "2000": 8111,
      "ote.": 8112,
      "ste": 8113,
      "áĭķáī¥áĪ«áĭŃáĪµáĮ¥": 8114,
      "ĠáĮ¥áĭ«áīĦ": 8115,
      "arri": 8116,
      "ologyĠ": 8117,
      "Ġáĭ¨áĪĨáĬĲáĭį": 8118,
      "ĠáĬłáĭµáĪŃáĮİ": 8119,
      "ĠáĪłáĪ«áĭĬáīµ": 8120,
      "áĬ¨áįįáī°áĬĽ": 8121,
      "tÃŃĠÃłká»įÌģlÃ©Ġráº¹ÌĢĠ": 8122,
      "ent,Ġ": 8123,
      "eĠdagaĠ": 8124,
      "Ġá»įÌĢnÃłĠ": 8125,
      "aĠfaraĠ": 8126,
      "yaoĠ": 8127,
      "má»įÌĢĠsÃŃĠ": 8128,
      "Ġá»ĮÌĢy": 8129,
      "daban-": 8130,
      "Abdull": 8131,
      "serikaliĠyaĠ": 8132,
      "Sikukuu": 8133,
      "ijobaĠibileĠniĠ": 8134,
      "jejen": 8135,
      "wikiped": 8136,
      "anay": 8137,
      "Ant": 8138,
      "gre": 8139,
      "notammentĠ": 8140,
      "(yaĠ": 8141,
      "AĠk": 8142,
      "ZiwaĠ": 8143,
      "lati": 8144,
      "áĬķáĪ°": 8145,
      "alamaĠ": 8146,
      "áĪµáĪĬ": 8147,
      "orukoĠ": 8148,
      "Ġáīłáį": 8149,
      "áĭŃáīħ": 8150,
      "chaĠm": 8151,
      "áį¡áī°": 8152,
      "azim": 8153,
      "ĠáĮįáĪªáĬŃ": 8154,
      "Ġáĭ¨áī°áĭĪáĪ°": 8155,
      "iĠkwaĠm": 8156,
      "áīłáīµáį¢": 8157,
      "taronĠ": 8158,
      "Associ": 8159,
      "áī³áĭĪáīħ": 8160,
      "farkonĠ": 8161,
      "TarihinĠ": 8162,
      "rasmiĠ": 8163,
      "SeptembaĠ-Ġ": 8164,
      "ĠáĪĺáĮłáĬķ": 8165,
      "birniĠne,ĠdaĠkeĠ": 8166,
      "ijobaĠibileĠniĠIpinleĠ": 8167,
      "Duk": 8168,
      "ton,Ġ": 8169,
      "wiki": 8170,
      "ambul": 8171,
      "rewĠ": 8172,
      "ara,Ġ": 8173,
      "alij": 8174,
      "erĠofĠtheĠ": 8175,
      "ant,Ġ": 8176,
      "já»įÌĢ": 8177,
      "owan": 8178,
      "elaĠ": 8179,
      ".ĠÃĵĠ": 8180,
      "wasaĠ": 8181,
      "ezek": 8182,
      "bayarĠdaĠ": 8183,
      "adhiĠyaĠ": 8184,
      "Kasuwan": 8185,
      "wadandaĠsuk": 8186,
      "1=": 8187,
      "Ġáĭĳ": 8188,
      "antiĠ": 8189,
      "áĪµáī³áīµ": 8190,
      "againstĠ": 8191,
      "ĠáĪµáī¥": 8192,
      "2005": 8193,
      "áĪķáĪį": 8194,
      "áĪ£áĭŃ": 8195,
      "YorubaĠ": 8196,
      "ĠáĪĿáĬŃáĪŃ": 8197,
      "Ġáī°áĭĪáĪĪáĭ°": 8198,
      "ĠáĭľáĬĵĠáĪĺáĭĭáĭķáĪį": 8199,
      "Maur": 8200,
      "baraĠ": 8201,
      "e).": 8202,
      "vip": 8203,
      "á¹¢": 8204,
      "throughĠ": 8205,
      "univers": 8206,
      "ihÃłnĠ": 8207,
      "anteĠ": 8208,
      "ChuoĠ": 8209,
      "zamanĠk": 8210,
      "girmaĠ": 8211,
      "MachiĠ": 8212,
      "ÉĹayaĠdagaĠcikinĠ": 8213,
      "ikubwaĠ": 8214,
      "WakristoĠwengi,ĠwakifuataĠmapokeoĠyaĠRoma,ĠhuadhimishaĠkumbukumbuĠzaĠwatakatifuĠ": 8215,
      "bid": 8216,
      "aĠj": 8217,
      "5ĠâĢĵĠ": 8218,
      "Fre": 8219,
      "bit": 8220,
      "gig": 8221,
      "riv": 8222,
      "Ð½": 8223,
      "anaĠm": 8224,
      "eredĠ": 8225,
      "ilich": 8226,
      "unz": 8227,
      "áīłáĭ«": 8228,
      "Ġáĭ«áĭį": 8229,
      "áįĪáĮ¸": 8230,
      "1997": 8231,
      "ĠáīħáĬĿ": 8232,
      "áīģáīµ": 8233,
      "efuĠ": 8234,
      "áĮ½áĪĲáįįĠáīħáĭ±áĪµ": 8235,
      "Ġáĭ¶áĪ®": 8236,
      "ĠáīłáĪĮáĪĭ": 8237,
      "áĭŃáĪŃáĪĭáĬķáĭµ": 8238,
      "Group": 8239,
      "Tai": 8240,
      "bah": 8241,
      "mis": 8242,
      "amiaĠ": 8243,
      "daĠsh": 8244,
      "Ã¡lÃŃ": 8245,
      "ugg": 8246,
      "waoĠ": 8247,
      "zamaĠm": 8248,
      "bÃłbÃ¡Ġ": 8249,
      "ana": 8250,
      "UnitedĠStatesĠ": 8251,
      "Zamb": 8252,
      "memb": 8253,
      "no": 8254,
      "atingĠ": 8255,
      "onimoĠ": 8256,
      "eĠsurĠ": 8257,
      "HenryĠ": 8258,
      "Hol": 8259,
      "Vit": 8260,
      "kÃ¹": 8261,
      "tanĠ": 8262,
      "am,Ġ": 8263,
      "áī°áĭ³": 8264,
      "áĪĪáĪµ": 8265,
      "áĭ°áĬķáīµ": 8266,
      "áĪĭáĮħ": 8267,
      "áĮįáĪª": 8268,
      "áīłáĪ»": 8269,
      "waĠmwakaĠ": 8270,
      "ShiĠneĠ": 8271,
      "1970": 8272,
      "uhimuĠ": 8273,
      "ĠáĬłáĪįáįİ": 8274,
      "walit": 8275,
      "ĠáĪĪáĪĽáĪµ": 8276,
      "walip": 8277,
      "Ġáĭ¨áĬ¥áĬķáĮįáĪĬáĭĿ": 8278,
      "dhidiĠyaĠ": 8279,
      "Ġáī°áīĢáĪĿ": 8280,
      "ĠáĮ¨áĭĭ": 8281,
      "uchum": 8282,
      "MasharikiĠ": 8283,
      "nau'": 8284,
      "olÃ³á¹£Ã¨lÃºĠ": 8285,
      "Bibl": 8286,
      "akam": 8287,
      "ĠAd": 8288,
      "beingĠ": 8289,
      "link": 8290,
      "\"TheĠ": 8291,
      "bikinĠ": 8292,
      "equ": 8293,
      "kaw": 8294,
      "tÃ¡": 8295,
      "versĠ": 8296,
      "tiĠá¹£eĠ": 8297,
      "leursĠ": 8298,
      "2013Ġ": 8299,
      "lÃ¡báº¹ÌģĠ": 8300,
      "166": 8301,
      "ilimiaĠ": 8302,
      "olÃ¹darÃŃĠ": 8303,
      "áīµĠáī°": 8304,
      "áī£áī£": 8305,
      "áīĢáĪµ": 8306,
      "ĠáĬ¥áĬĵĠáĬ¨": 8307,
      "áĬ¥áĬķáĮįáĪĬáĭĿáĬĽ": 8308,
      "ĠáĬ¨áĬłáĬķáĭµ": 8309,
      "ĠáĪ½áĪį": 8310,
      "August": 8311,
      "Hab": 8312,
      "kit": 8313,
      "ularĠ": 8314,
      "uka": 8315,
      "ammedĠ": 8316,
      "áĪŃáīµáĪ«": 8317,
      "KamusiĠ": 8318,
      "Califor": 8319,
      "tash": 8320,
      "Ãł-": 8321,
      "tÃŃĠkÃ²Ġ": 8322,
      "2008Ġ": 8323,
      "iĠkatikaĠm": 8324,
      "areĠnaĠ": 8325,
      "ansu.": 8326,
      "uhimm": 8327,
      "organis": 8328,
      "ia.org/": 8329,
      "BeninĠ": 8330,
      "NovembaĠ-Ġ": 8331,
      "auniyarĠ": 8332,
      "baadayeĠ": 8333,
      "Wá»įÌģnĠbÃŃĠ": 8334,
      "MayuĠ": 8335,
      "egeĠbiĠ": 8336,
      "ungeĠlaĠ": 8337,
      "emaĠ": 8338,
      "acr": 8339,
      "imboĠ": 8340,
      "áī¿": 8341,
      "ĠáĭĬ": 8342,
      "áīµáĪį": 8343,
      "áĭįĠáĬ¨": 8344,
      "illeĠ": 8345,
      "ĠáīłáĪ¶": 8346,
      "ĠáĬĲáĭįáį¤": 8347,
      "áĪīáĪĿ": 8348,
      "áī¶áĭ¶": 8349,
      "1990": 8350,
      "áĭķáīĨáī¥": 8351,
      "ĠáīłáĪĺáĪµ": 8352,
      "ĠáįĪáĪĭ": 8353,
      "áĪ£áĪ¥": 8354,
      "ĠáĪĢáī¥": 8355,
      "à¤ĺ": 8356,
      "áįİáĪŃ": 8357,
      "áī¥áĪ¨áī°": 8358,
      "ĠáĭŃáī³áĪĺáĬĵ": 8359,
      "Gud": 8360,
      "inj": 8361,
      "thenĠ": 8362,
      "taĠsamuĠ": 8363,
      "gbáº¹Ìģ": 8364,
      "gbÃ²": 8365,
      "Ã¹d": 8366,
      "villeĠ": 8367,
      "MichaelĠ": 8368,
      "sosaiĠ": 8369,
      "ĠAugustĠ": 8370,
      "AC": 8371,
      "kim": 8372,
      "asc": 8373,
      "uneĠs": 8374,
      "a.ĠM": 8375,
      "auseĠ": 8376,
      "una,Ġ": 8377,
      "esaĠ": 8378,
      "ojoĠ": 8379,
      "dÃ©c": 8380,
      "ForĠ": 8381,
      "Pul": 8382,
      "Ġ19": 8383,
      "áº¹n": 8384,
      "kuw": 8385,
      "urg": 8386,
      "Ġáī°áĪĽáĪª": 8387,
      "Ġáī£áĪħáĪį": 8388,
      "Naijiria.Ġ": 8389,
      "jihoh": 8390,
      "áĪ¨áĮĭáĮĪ": 8391,
      "SarkinĠ": 8392,
      "jirginĠsam": 8393,
      "NuwambaĠ": 8394,
      "AlhajiĠ": 8395,
      "táº¹lif": 8396,
      "yaĠmwakaĠ(yaĠ": 8397,
      "shairiĠ": 8398,
      "(N": 8399,
      "6)": 8400,
      "Gi": 8401,
      "Ju": 8402,
      "vij": 8403,
      "2004Ġ": 8404,
      "COVI": 8405,
      "R.": 8406,
      "istĠofĠ": 8407,
      "1.Ġ": 8408,
      "Mod": 8409,
      "Wap": 8410,
      "bÃ³": 8411,
      "Ġá»įlá»įÌģ": 8412,
      "lá»įÌģgbá»įÌĢnĠ": 8413,
      "Ã¬á¹£áº¹ÌĢláº¹ÌĢĠ": 8414,
      "hakanĠ": 8415,
      "AfirkaĠ": 8416,
      "talabij": 8417,
      "Amerika.Ġ": 8418,
      "ĠApriliĠ-Ġ": 8419,
      "abubuwanĠ": 8420,
      "Bol": 8421,
      "found": 8422,
      "test": 8423,
      "áī®": 8424,
      "áī¥áī»": 8425,
      "ĠáĪĺáī¥": 8426,
      "áī³áĪŃ": 8427,
      "áĬŃáĬĸ": 8428,
      "áįįáī°": 8429,
      "áĭ¨áĬ¢áīµáĭ®áĮµáĭ«": 8430,
      "ĠáĪ°áĪĽ": 8431,
      "áĪģáįį": 8432,
      "ĠáĬłáĪµáįĪáĪĭáĮĬ": 8433,
      "»áįī": 8434,
      "áĪµáī°áĬĽáĭį": 8435,
      "ĠáĪĺáĬķáĮĪ": 8436,
      "Ġáī°áĪ«áĪ®áī½": 8437,
      "Ġáī°áĮ«áĭĭ": 8438,
      "ĠáĭŃáĮĪáĪĺáī³áĪįáį¢": 8439,
      "COVID-": 8440,
      "Langu": 8441,
      "aÃ®": 8442,
      "tayiĠ": 8443,
      "thereĠ": 8444,
      "Festiv": 8445,
      "dist": 8446,
      "ixĠ": 8447,
      "sasaĠ": 8448,
      "tay": 8449,
      "aldĠ": 8450,
      "ahud": 8451,
      "aĠkuanziaĠ": 8452,
      "ilimiĠ": 8453,
      "ulkiĠ": 8454,
      "Ã²á¹£Ã¨lÃºĠ": 8455,
      "njiaĠ": 8456,
      "pÃŃnĠ": 8457,
      "taimak": 8458,
      "Zar": 8459,
      "Ã¨.": 8460,
      "airĠ": 8461,
      "Dani": 8462,
      "biliĠ": 8463,
      "babaĠ": 8464,
      "raj": 8465,
      "áī°áį¡": 8466,
      "ĠáĪĺáĪĭ": 8467,
      "áĪ³áĬķ": 8468,
      "áīĢáĮ½": 8469,
      "Ġáĭ¨áĬłáĪĪáĪĿ": 8470,
      "Ġáĭ¨áĬĲáīłáĪ©áīµ": 8471,
      "ĠáĪµáĪĿáĪĿáĬĲáīµ": 8472,
      "Columb": 8473,
      "view": 8474,
      "ĠáĭŃáĮĪáĬĽáĪīáį¢": 8475,
      "PartyĠ(": 8476,
      "áĪĺáĪ°áĪ¨": 8477,
      "Ġáĭ¨áī°áĬŃáĪīĠáĪ³áĭŃáĬķáĪ³áĭĬĠáĮ¸áī£áĭŃ": 8478,
      "áĬķáĮĮáĪį": 8479,
      "wiki/": 8480,
      "TaĠkasanceĠ": 8481,
      "pĠ": 8482,
      "aĠÅĦĠ": 8483,
      "chaĠk": 8484,
      "utawalaĠ": 8485,
      "oĠyaĠm": 8486,
      "jáº¹ÌģĠÃ²á¹£Ã¨rÃ©Ġ": 8487,
      "aĠhar": 8488,
      "aĠhadaĠ": 8489,
      "aĠdukĠ": 8490,
      "ĠkatikaĠmiakaĠmirefu).ĠMpakaĠuisheĠzinabakiĠsikuĠ": 8491,
      "cat": 8492,
      "Ø¹": 8493,
      "sĠtheĠ": 8494,
      ",000.": 8495,
      "secondĠ": 8496,
      "Bag": 8497,
      "Lor": 8498,
      "haliĠ": 8499,
      "ara.": 8500,
      "an'": 8501,
      "Ã¬,Ġ": 8502,
      "ectionĠ": 8503,
      "awaĠk": 8504,
      "buk": 8505,
      "bahar": 8506,
      "cir": 8507,
      "daraĠ": 8508,
      "daid": 8509,
      "mÃŃrÃłnĠ": 8510,
      "sanaĠ": 8511,
      "áĬķĠáīłáĪĽ": 8512,
      "ikĠ": 8513,
      "áĬĵáį¢": 8514,
      "ĠáĬłáĭ°áĪ¨áĮĪ": 8515,
      "gbáº¹ÌģĠ": 8516,
      "ĠáĬ¨áĮ¥": 8517,
      "áī±áĪŃáĬŃ": 8518,
      "Ġáĭ¨áĪļáĬĸáĪŃ": 8519,
      "ubwaĠ": 8520,
      "Ġáĭįáīħáĭ«áĬĸáĪµ": 8521,
      "ambakoĠ": 8522,
      "á»įÌĢĠsÃŃĠ": 8523,
      "induz": 8524,
      "aureĠ": 8525,
      "ĠáĪļáĪµáīµ": 8526,
      "áĪłáĪ©": 8527,
      "eshim": 8528,
      "UsmanĠ": 8529,
      "áĪŀáĬŃáĪ«áĪ²": 8530,
      "Hon": 8531,
      "Mc": 8532,
      "es/": 8533,
      "AsiaĠ": 8534,
      "ĠâĢİ": 8535,
      "Nik": 8536,
      "Tak": 8537,
      "anch": 8538,
      "omor": 8539,
      "She": 8540,
      "seed": 8541,
      "Societ": 8542,
      "4)": 8543,
      "67": 8544,
      "PortĠ": 8545,
      "diniĠ": 8546,
      "yaĠs": 8547,
      "Ã¬.": 8548,
      "ellaĠ": 8549,
      "ts.": 8550,
      "samoĠ": 8551,
      "bÃŃbÃŃĠ": 8552,
      "askaziniĠ": 8553,
      "Kiingerez": 8554,
      "omaĠsh": 8555,
      "zauneĠ": 8556,
      "ÃĢwá»įnĠáº¹láº¹ÌģbÃ¹nĠNobelĠnÃŃnÃºĠ": 8557,
      "asayansiĠwaĠ": 8558,
      "lif": 8559,
      "Ġáī«": 8560,
      "ĠáīłáĪĪ": 8561,
      "Ġáĭ¨áĪ©": 8562,
      "áį£ĠáĬ¥áĬĵ": 8563,
      "áīĢáĪĿ": 8564,
      "áĭ¨áĪµ": 8565,
      "ĠáĬĲáĭįáį¢Ġáīł": 8566,
      "áĭĺáĪĺáĬĲ": 8567,
      "ĠáĪ°áįĬ": 8568,
      "áĬķáĮįáĭµ": 8569,
      "eph": 8570,
      "ĠáĭĭáĬķáĮ«": 8571,
      "áįķáĪĭ": 8572,
      "GrandĠ": 8573,
      "áĬħáĪ£áĪ¥": 8574,
      "ET": 8575,
      "Kip": 8576,
      "bis": 8577,
      "u)Ġ": 8578,
      "AbuĠ": 8579,
      "ZanzibarĠ": 8580,
      "Bern": 8581,
      "IN": 8582,
      "cibiyarĠ": 8583,
      "taif": 8584,
      "irdĠ": 8585,
      "cher": 8586,
      "olud": 8587,
      "Ã²p": 8588,
      "ans,Ġ": 8589,
      "ráº¹ÌĢĠnÃŃĠ": 8590,
      "tarihiĠ": 8591,
      "duniaĠ": 8592,
      "TaĠkumaĠ": 8593,
      "patakiĠ": 8594,
      "UfaransaĠ": 8595,
      "tyĠ": 8596,
      "dÃ©velop": 8597,
      "2018Ġ": 8598,
      "40Ġ": 8599,
      "can": 8600,
      "Ġáĭī": 8601,
      "áįģ": 8602,
      "áĪµáī¶áī½": 8603,
      "áĭŃáįĭ": 8604,
      "ĠáĬłáĭįáĪ®áįĵ": 8605,
      "chez": 8606,
      "oliĠ": 8607,
      "Ġáī°áĮĪáĬĿ": 8608,
      "ĠáĭŃáĭŀ": 8609,
      "áĬ¨áĪ¨": 8610,
      "áĭĪáĪµ": 8611,
      "Ġáĭ¨áī°áĮĪáĬĺ": 8612,
      "March": 8613,
      "ĠáĬ¥áĪµáĭ«": 8614,
      "áĮ¨áīµ": 8615,
      "premiÃ¨reĠ": 8616,
      "ĠáĪĺáĬĲáĪ»": 8617,
      "HasaĠ": 8618,
      "Liv": 8619,
      "nÃ¬Ġ": 8620,
      "zĠ": 8621,
      "shaf": 8622,
      "áīłáĭ°": 8623,
      "Ã¨-": 8624,
      "áº¹Ìģm": 8625,
      "anzuĠ": 8626,
      "aĠdaĠkumaĠ": 8627,
      "whileĠ": 8628,
      "TaĠyiĠ": 8629,
      "jinsiĠ": 8630,
      "iakaĠyaĠ": 8631,
      "yaĠmutuĠaĠshekaraĠtaĠ": 8632,
      "lambarĠyaboĠtaĠ": 8633,
      "aĠbirninĠ": 8634,
      "theseĠ": 8635,
      "esĠinĠ": 8636,
      "establish": 8637,
      "tour": 8638,
      "ElleĠ": 8639,
      "55": 8640,
      "PP": 8641,
      "máº¹Ìģr": 8642,
      "áĭįáĬĵ": 8643,
      "arĠdaĠk": 8644,
      "áīłáīł": 8645,
      "adin": 8646,
      "Ġ(áĭĪáĭŃáĪĿ": 8647,
      "a,ĠkumaĠ": 8648,
      "ĠáĪĿáĮįáī¥": 8649,
      "ĠáĪįáĬŃ": 8650,
      "áĪ»áĪ»": 8651,
      "ĠáĪĨáĭŃ": 8652,
      "áĬĽáĭįĠáĪ¥áĪŃáĭĪĠáĪĺáĬķáĮįáĪ¥áīµ": 8653,
      "áī¤áĪį": 8654,
      "Ġáĭ¨áĬłáĬķáĭµ": 8655,
      "Ġá»ĮbaĠ": 8656,
      "eĠkwaĠ": 8657,
      "waĠnaĠPapaĠ": 8658,
      "ahararr": 8659,
      "shigaĠcikinĠ": 8660,
      "HistoriaĠyaĠ": 8661,
      "gwamnatiĠ": 8662,
      "WanasayansiĠwaĠ": 8663,
      "áīłáī°áĮ¨áĪĽáĪª": 8664,
      "kasuwanciĠ": 8665,
      "olojiaĠ": 8666,
      "ambayoĠniĠ": 8667,
      "Fl": 8668,
      "GB": 8669,
      "etr": 8670,
      "nen": 8671,
      "uallyĠ": 8672,
      "disc": 8673,
      "gÃ©": 8674,
      "tat": 8675,
      "etsĠ": 8676,
      "ambal": 8677,
      "EdwardĠ": 8678,
      "Book": 8679,
      "Sir": 8680,
      "hÃłnĠ": 8681,
      "tedĠ": 8682,
      "yá»įĠ": 8683,
      "yawaĠ": 8684,
      "ÉĻ": 8685,
      "aroĠ": 8686,
      "ise": 8687,
      "á¹£áº¹ÌģĠ": 8688,
      "reas": 8689,
      "Ġ13": 8690,
      "aĠdonĠ": 8691,
      "NÃŃĠá»įjá»įÌģĠk": 8692,
      "Ã¬má»įÌĢ": 8693,
      "MeiĠ-Ġ": 8694,
      "English": 8695,
      "includingĠ": 8696,
      "aizariĠwaĠ": 8697,
      "SanĠ": 8698,
      "boĠ": 8699,
      "hud": 8700,
      "many": 8701,
      "sid": 8702,
      "áĬķáī¶": 8703,
      "Ġáī¬": 8704,
      "áĭįĠáĪĭáĭŃ": 8705,
      "akĠ": 8706,
      "áįįáĬķ": 8707,
      "áīĢáĪĭ": 8708,
      "Ġáī¥áĪĭ": 8709,
      "áĭ©áĬĵáĭŃáīµáĭµ": 8710,
      "ĠáĭįáĭµáĭµáĪŃ": 8711,
      "souv": 8712,
      "yaut": 8713,
      "ĠÎ": 8714,
      "inaĠm": 8715,
      "atum": 8716,
      "arĠg": 8717,
      "stant": 8718,
      "ologieĠ": 8719,
      "civ": 8720,
      "dubuĠ": 8721,
      "mafiĠ": 8722,
      "yÃ¡": 8723,
      "aĠÆĻar": 8724,
      "arsaĠ": 8725,
      "jeĠijobaĠibileĠniĠIpinleĠ": 8726,
      "epoĠ": 8727,
      "huÉĹ": 8728,
      "agbÃ¡Ġ": 8729,
      "karatunĠ": 8730,
      "ÃĮtum": 8731,
      "TanguĠ": 8732,
      "oluiluĠ": 8733,
      "ÃºÃºsÃ¹Ġ": 8734,
      "Av": 8735,
      "yas": 8736,
      "thÃ©": 8737,
      "abor": 8738,
      "Ã¨s": 8739,
      "AllĠ": 8740,
      "áĮ§": 8741,
      "shah": 8742,
      "áĮįáĭµáĪĿ": 8743,
      "áī³áĬķ": 8744,
      "áī³áĪĿ": 8745,
      "Ġáĭ¨áĪļáī£áĪĪáĭį": 8746,
      "ĠáĪ°áī¥": 8747,
      "ĠáīĢáĪ¨": 8748,
      "áĬĴáīµ": 8749,
      "áīłáīµáĬķ": 8750,
      "áĭ°áĪ¨áĮį": 8751,
      "athemat": 8752,
      "ĠáĬªáĬķáĮį": 8753,
      "ĠáĬ¢áīµáĭ®áĮµáĭ«áĭĬ": 8754,
      "ĠáĬ¢áīµáĭ®áĮµáĭ«ĠáĭįáĪµáĮ¥Ġáĭ¨áĪļáĮĪáĬĿ": 8755,
      "áĪłáĪ¨áī°": 8756,
      "PeopleĠ": 8757,
      "ĠáįĵáĪŃáī²áĭİáī½": 8758,
      "MjiĠ": 8759,
      "Tsak": 8760,
      "dÃŃn": 8761,
      "yaĠzamaĠ": 8762,
      "toĠm": 8763,
      "leyinĠ": 8764,
      "shekarunĠ": 8765,
      "ÉĹinĠ": 8766,
      "olÃ³rÃŃĠ": 8767,
      "Oá¹£Ã¹Ġk": 8768,
      "FederalĠ": 8769,
      "2003Ġ": 8770,
      "suf": 8771,
      "IbadanĠ": 8772,
      "J.": 8773,
      "a/": 8774,
      "seri": 8775,
      "Ã³r": 8776,
      "queĠleĠ": 8777,
      "-áĪĿ": 8778,
      "Bill": 8779,
      "Gid": 8780,
      "hul": 8781,
      "sour": 8782,
      "áĬķáī¥": 8783,
      "asiĠyaĠ": 8784,
      "or,Ġ": 8785,
      "áĪ«áĭŃ": 8786,
      "oluk": 8787,
      "áº¹ÌģmÃŃ": 8788,
      "áĪ³áĪ°áī¥": 8789,
      "aĠmar": 8790,
      "áįįáĪŃ": 8791,
      "ambapoĠ": 8792,
      "áįĭáĪŃáĪµ": 8793,
      "áĪ±áĬķ": 8794,
      "Ġáī£áĪĪáĭį": 8795,
      "ansaĠ": 8796,
      "aĠnaĠm": 8797,
      "áĮłáĪī": 8798,
      "áįīáį¢": 8799,
      "ÃĴá¹£": 8800,
      "ĠáīłáĪļáĪį": 8801,
      "áĭŃáĪħáĪĿ": 8802,
      "publish": 8803,
      "ĠáīłáĪŃáĬ«áī³": 8804,
      "ĠáĬŃáįįáĪĭáĮĪáĪ«áīµ": 8805,
      "áĭ«áĭ«áĭ£": 8806,
      "ĠáĬłáĪįáįĭáī¤áīµ": 8807,
      "66": 8808,
      "Gold": 8809,
      "ĠkoĠ": 8810,
      "BlackĠ": 8811,
      "58": 8812,
      "amat": 8813,
      "ijeĠ": 8814,
      "bothĠ": 8815,
      "DeltaĠ": 8816,
      "MartinĠ": 8817,
      "KamfaninĠ": 8818,
      "Mlim": 8819,
      "NollywoodĠ": 8820,
      "ineĠm": 8821,
      "asáº¹Ġ": 8822,
      "awaÆĻ": 8823,
      "produ": 8824,
      "crib": 8825,
      "continu": 8826,
      "takribanĠ": 8827,
      "áĪĿĠáī°": 8828,
      "áĪĭáĪĽáĭĬ": 8829,
      "áīħáĪ¨áī¥": 8830,
      "áīłáīµĠáĭĵáĪĺáīµ": 8831,
      "ĠáĮĪáĬĵ": 8832,
      "ellementĠ": 8833,
      "áĭ°áĪ¨áĪ°": 8834,
      "áĮĢáĪĺáĪªáĭ«ĠáĮĬáĭľ": 8835,
      "point": 8836,
      "ĠáīłáĭĺáĪĺáĬĲĠáĪĽáī´áĭİáĪµ": 8837,
      "ĠáĬĲáĮ»áĬĲáīµ": 8838,
      "áįĪáĪµĠáīħáĭ±áĪµ": 8839,
      "ĠáĪĪáĭįáĮ¥": 8840,
      "ĠáĪ²áīĢáĪ©": 8841,
      "ĠáĪĺáĮ»áĪķáįįáīµ": 8842,
      "God": 8843,
      "ĠÙ": 8844,
      "uraĠ": 8845,
      "ajeĠ": 8846,
      "diffÃ©r": 8847,
      "offici": 8848,
      "CentralĠ": 8849,
      "HarĠ": 8850,
      "fon": 8851,
      "jÃŃ": 8852,
      "áĬĢ": 8853,
      "ana.": 8854,
      "ulikuwaĠ": 8855,
      "asĠaĠ": 8856,
      "ungum": 8857,
      "izeĠ": 8858,
      "anci,Ġ": 8859,
      "aĠfiĠ": 8860,
      "tuntunĠ": 8861,
      "ShehuĠ": 8862,
      "ia.org/wiki/": 8863,
      "Civ": 8864,
      "Mir": 8865,
      "ulti": 8866,
      "ots": 8867,
      "ashir": 8868,
      "etĠl'": 8869,
      "industr": 8870,
      "Girl": 8871,
      "Pan": 8872,
      "Tor": 8873,
      "atsĠ": 8874,
      "áĪįáī¥": 8875,
      "áĬĵáī±": 8876,
      "áī°áĪĺ": 8877,
      "ĠáĪĺáīĢáĪĺáĮ«": 8878,
      "appro": 8879,
      "ibit": 8880,
      "áĮĭáĭŃ": 8881,
      "2009Ġ": 8882,
      "ĠáĬŃáī¥": 8883,
      "placeĠ": 8884,
      "ĠáĮĭáĭľ": 8885,
      "ĠáīłáĬłáĪĽáĪŃáĬĽ": 8886,
      "ĠáĭĵáĪĿĠáĭµáĪ¨áĪµ": 8887,
      "áĪĽáĬĸáīµ": 8888,
      "Ġáī»áĭŃáĬĵ": 8889,
      "âĢºâĢº": 8890,
      "ĠáĭĪáĪ¨áĪ«": 8891,
      "AlbertĠ": 8892,
      "ĠáĪļáĬĴáĪµáī´áĪŃ": 8893,
      "2=": 8894,
      "tá»įÌĢ": 8895,
      "auyaĠ": 8896,
      "'YanĠwasanĠÆĻwallonĠÆĻafaĠtaĠÆĻasarĠIngil": 8897,
      "59": 8898,
      "Don": 8899,
      "Hor": 8900,
      "astron": 8901,
      "aĠhu": 8902,
      "system": 8903,
      "enaĠ": 8904,
      "en'sĠ": 8905,
      "es-": 8906,
      "a,ĠnaĠ": 8907,
      "Petr": 8908,
      "DukĠ": 8909,
      "Ru": 8910,
      "YankinĠ": 8911,
      "áĪįáį¤": 8912,
      "áĪµáĪŃ": 8913,
      "kunanĠ": 8914,
      "ĠáĭŃáĬĸ": 8915,
      "Ġáīµáĭķ": 8916,
      "kumaĠanĠ": 8917,
      "áĪĬáĬķ": 8918,
      "oweĠ": 8919,
      "ĠáĬ¥áĬķáĭ°áĪļáĭ«": 8920,
      "AĠshekararĠ201": 8921,
      "8ĠâĢĵĠ": 8922,
      "tÃŃĠwá»įÌģnĠÅĦĠ": 8923,
      "olÃ³gunĠ": 8924,
      "áĮ½áĪĲáįĪ": 8925,
      "tsakiyarĠ": 8926,
      "áĪµáī³áĬķ": 8927,
      "jama'aĠaĠ": 8928,
      "LoveĠ": 8929,
      "Seneg": 8930,
      "atikaĠkarneĠyaĠ": 8931,
      "\".Ġ": 8932,
      "jaĠ": 8933,
      "pp": 8934,
      "ienn": 8935,
      "tionn": 8936,
      "centuryĠ": 8937,
      "wikipedia.org/wiki/": 8938,
      "DonĠ": 8939,
      "oÆĻ": 8940,
      "tá»įÌģĠ": 8941,
      "Ã¬p": 8942,
      "deĠm": 8943,
      "icationĠ": 8944,
      "2002Ġ": 8945,
      "oĠmwakaĠ": 8946,
      "karneĠyaĠ": 8947,
      "Marekani.": 8948,
      "wá»įÌĢny": 8949,
      "OneĠ": 8950,
      "er-": 8951,
      "áĭ«áī°": 8952,
      "áī½áĬ¹": 8953,
      "ĠáĪĺáĪ£áĪªáĭ«": 8954,
      "áĬĽáĭįáĬķ": 8955,
      "ĠáĭŃáĪĪ": 8956,
      "áį£ĠÂ«": 8957,
      "áį¡áĭŃ": 8958,
      "Ġáĭ«áĭ°áĪŃ": 8959,
      "áĮ£áĪįáį¢": 8960,
      "áĮłáį¢": 8961,
      "ĠáīĢáĪŃ": 8962,
      "áĭ©áīµ": 8963,
      "áĬķáĮīáĪłĠáĬĲáĮĪ": 8964,
      "ĠáĬłáĪīáīµáį¢": 8965,
      "ĠáĭŃáĪĨáĬĵáĪį": 8966,
      "Domin": 8967,
      "Pier": 8968,
      "aeĠ": 8969,
      "lom": 8970,
      "2016Ġ": 8971,
      "beforeĠ": 8972,
      "Ham": 8973,
      "ias": 8974,
      "yÃ¡Ġ": 8975,
      "zim": 8976,
      "arsĠ": 8977,
      "ÃłrinĠ": 8978,
      "akanaĠnaĠ": 8979,
      "aĠmasuĠ": 8980,
      "Ã²bÃŃĠ": 8981,
      "aciĠ": 8982,
      "troisĠ": 8983,
      "reprÃ©sent": 8984,
      "ÆĻwararr": 8985,
      "Chil": 8986,
      "waĠkar": 8987,
      "worl": 8988,
      "DisambaĠ": 8989,
      "ÃĮjá»įbaĠ": 8990,
      "AcademyĠ": 8991,
      "KÃ¡tÃ³": 8992,
      "akh": 8993,
      "evisionĠ": 8994,
      "âĢİâĢİ": 8995,
      "Victor": 8996,
      "Aá¹£": 8997,
      "nov": 8998,
      "ĠáĪ£": 8999,
      "áĪŃáĪĽ": 9000,
      "Ġáĭ¨áįĬ": 9001,
      "áĪĿáīµ": 9002,
      "ity.": 9003,
      "áĬĲáĪ±": 9004,
      "áĪĽáĪµ": 9005,
      "áĭ¨áĪģ": 9006,
      "edĠandĠ": 9007,
      "ĠáīĢáĭ°áĪĿ": 9008,
      "ĠáĮ¥áĪŃ": 9009,
      "ĠáĮĪáĭĽ": 9010,
      "organ": 9011,
      "ĠáĬłáĪĿáĪµáīµ": 9012,
      "almarĠ": 9013,
      "áį²áį°áį»áį": 9014,
      "Denmark": 9015,
      "Ġáī°áĬŃáĪįĠáĬĲáĭįáį¢": 9016,
      "áī¶áĭ¶áĬŃáĪµ": 9017,
      "áĬŃáĬĸáĪİáĮĤ": 9018,
      "PÃ³p": 9019,
      "kÃ¹Ġ": 9020,
      "anaĠkwaĠ": 9021,
      "á»įrÃŃĠ": 9022,
      "thod": 9023,
      "usammanĠ": 9024,
      "iaĠniĠ": 9025,
      "iĠkwenyeĠ": 9026,
      "atiĠawá»įnĠ": 9027,
      "1990Ġ": 9028,
      "Ġ11": 9029,
      "proj": 9030,
      "lakin": 9031,
      "School,Ġ": 9032,
      "sayensiĠ": 9033,
      "Pasif": 9034,
      "2.Ġ": 9035,
      "400": 9036,
      "Cour": 9037,
      "Fat": 9038,
      "yoĠ": 9039,
      "Ital": 9040,
      "e,ĠandĠ": 9041,
      "formeĠ": 9042,
      "tersĠ": 9043,
      "âĢĻĠ": 9044,
      "transl": 9045,
      "newĠ": 9046,
      "y-": 9047,
      "ÏĦ": 9048,
      "islamuĠ": 9049,
      "ĠáīłáįĬ": 9050,
      "áĬĽáį¦": 9051,
      "a,ĠdaĠ": 9052,
      "aĠkatiĠyaĠ": 9053,
      "áĪ°áīµ": 9054,
      "ishinĠ": 9055,
      "ingĠandĠ": 9056,
      "ÃĮjá»įĠ": 9057,
      "ÃĮpÃŃnláº¹ÌĢ": 9058,
      "ĠáĬ¥áĪµáĪ«": 9059,
      "nigbaĠ": 9060,
      "Premi": 9061,
      "ĠáĪķáĭŃáĭĪáīµ": 9062,
      "Ġáĭ¨áĬ¢áīµáĭ®áĮµáĭ«ĠáĬ¥áĮ½": 9063,
      "kuwaĠnaĠ": 9064,
      "ogboĠ": 9065,
      ")ĠjeĠosereĠ": 9066,
      "Oá¹£uĠK": 9067,
      "Ġáī´áĪĮ": 9068,
      "PaulĠ": 9069,
      "DagaĠbayaĠ": 9070,
      "ulikanaĠ": 9071,
      "BahariĠ": 9072,
      "YammacinĠ": 9073,
      "jimill": 9074,
      "áĮįáĬĺáīµ": 9075,
      "ĠáĪĬáīĥáĭįáĬķáīµ": 9076,
      "63": 9077,
      "77": 9078,
      "Vir": 9079,
      "domĠ": 9080,
      "fath": 9081,
      "a,ĠM": 9082,
      ",ĠmaisĠ": 9083,
      "crit": 9084,
      "success": 9085,
      "VitaĠ": 9086,
      "ØŃ": 9087,
      "uruĠ": 9088,
      "personn": 9089,
      "Dang": 9090,
      "Found": 9091,
      "bakwaiĠ": 9092,
      "hÃ¬nĠ": 9093,
      "nipaĠ": 9094,
      "pet": 9095,
      "Ã£": 9096,
      "ËĪ": 9097,
      "alist": 9098,
      "toĠwaĠ": 9099,
      "wasem": 9100,
      "eje": 9101,
      "Ġá»įjá»įĠ": 9102,
      "Abdul": 9103,
      "awaidaĠ": 9104,
      "RepublicĠ": 9105,
      "GovernmentĠ": 9106,
      "||Ġ": 9107,
      "áĭ«áīµ": 9108,
      "áĭµáī¥": 9109,
      "áĭµáĪ®áĪµ": 9110,
      "áĮįáĭ³": 9111,
      "áĭ¨áĬ¥": 9112,
      "áĬ«áīµ": 9113,
      "ĠáĪµáĪį": 9114,
      "Ġáĭ«áĪĭ": 9115,
      "isĠaĠ": 9116,
      "ĠáĭĺáĭŃ": 9117,
      "ĠáĪĭáĭŃĠáĭ¨": 9118,
      "constit": 9119,
      "ĠáĭĿáĬĵ": 9120,
      "áįīáīµ": 9121,
      "Ġáĭ¨áĬ¥áĪµáįĵáĬķáĭ«": 9122,
      "à¤ļ": 9123,
      "ĠáĪ¥áĪŃáĭĵáīµ": 9124,
      "ĠáĬłáĪ¸áĬĲ": 9125,
      "Ġáĭ¨áī°áĬŃáĪīĠáĮ¥áīħáĪĿ": 9126,
      "maz": 9127,
      "rag": 9128,
      "vonĠ": 9129,
      "alish": 9130,
      "amÃ©r": 9131,
      "appel": 9132,
      "ivid": 9133,
      "aÉĵ": 9134,
      "wag": 9135,
      "anoĠyaĠ": 9136,
      "uni": 9137,
      "usesĠ": 9138,
      "otunĠ": 9139,
      "Ġá»Įjá»įÌģĠk": 9140,
      "jiĠmkuuĠ": 9141,
      "egeme": 9142,
      "YunifÃ¡sÃŃtÃ¬Ġ": 9143,
      "falmeĠmkuuĠwaĠ": 9144,
      "FC": 9145,
      "pur": 9146,
      "sev": 9147,
      "v.": 9148,
      "e,ĠtheĠ": 9149,
      "tradition": 9150,
      "Hum": 9151,
      "Ye": 9152,
      "ĠáĪ¾": 9153,
      "áĪĿáĬķáīµ": 9154,
      "Ġáī°áĪ¸": 9155,
      "Ġáĭ¨áĪĲ": 9156,
      "áĪ®áī¹": 9157,
      "ĠáīµáĬŃ": 9158,
      "Ġáĭ¨áī°áĪĪ": 9159,
      "ĠáĮĪáī£": 9160,
      "ebr": 9161,
      "áįķáĪ¬": 9162,
      "áĮĮáī³": 9163,
[...]
