{
  "version": "1.0",
  "truncation": null,
  "padding": null,
  "added_tokens": [],
  "normalizer": {
    "type": "NFC"
  },
  "pre_tokenizer": {
    "type": "ByteLevel",
    "add_prefix_space": false,
    "trim_offsets": true,
    "use_regex": false
  },
  "post_processor": null,
  "decoder": {
    "type": "ByteLevel",
    "add_prefix_space": true,
    "trim_offsets": true,
    "use_regex": true
  },
  "model": {
    "type": "BPE",
    "dropout": null,
    "unk_token": null,
    "continuing_subword_prefix": null,
    "end_of_word_suffix": null,
    "fuse_unk": false,
    "byte_fallback": false,
    "ignore_merges": false,
    "vocab": {
      "!": 0,
      "\"": 1,
      "#": 2,
      "$": 3,
      "%": 4,
      "&": 5,
      "'": 6,
      "(": 7,
      ")": 8,
      "*": 9,
      "+": 10,
      ",": 11,
      "-": 12,
      ".": 13,
      "/": 14,
      "0": 15,
      "1": 16,
      "2": 17,
      "3": 18,
      "4": 19,
      "5": 20,
      "6": 21,
      "7": 22,
      "8": 23,
      "9": 24,
      ":": 25,
      ";": 26,
      "<": 27,
      "=": 28,
      ">": 29,
      "?": 30,
      "@": 31,
      "A": 32,
      "B": 33,
      "C": 34,
      "D": 35,
      "E": 36,
      "F": 37,
      "G": 38,
      "H": 39,
      "I": 40,
      "J": 41,
      "K": 42,
      "L": 43,
      "M": 44,
      "N": 45,
      "O": 46,
      "P": 47,
      "Q": 48,
      "R": 49,
      "S": 50,
      "T": 51,
      "U": 52,
      "V": 53,
      "W": 54,
      "X": 55,
      "Y": 56,
      "Z": 57,
      "[": 58,
      "\\": 59,
      "]": 60,
      "^": 61,
      "_": 62,
      "`": 63,
      "a": 64,
      "b": 65,
      "c": 66,
      "d": 67,
      "e": 68,
      "f": 69,
      "g": 70,
      "h": 71,
      "i": 72,
      "j": 73,
      "k": 74,
      "l": 75,
      "m": 76,
      "n": 77,
      "o": 78,
      "p": 79,
      "q": 80,
      "r": 81,
      "s": 82,
      "t": 83,
      "u": 84,
      "v": 85,
      "w": 86,
      "x": 87,
      "y": 88,
      "z": 89,
      "{": 90,
      "|": 91,
      "}": 92,
      "~": 93,
      "¡": 94,
      "¢": 95,
      "£": 96,
      "¤": 97,
      "¥": 98,
      "¦": 99,
      "§": 100,
      "¨": 101,
      "©": 102,
      "ª": 103,
      "«": 104,
      "¬": 105,
      "®": 106,
      "¯": 107,
      "°": 108,
      "±": 109,
      "²": 110,
      "³": 111,
      "´": 112,
      "µ": 113,
      "¶": 114,
      "·": 115,
      "¸": 116,
      "¹": 117,
      "º": 118,
      "»": 119,
      "¼": 120,
      "½": 121,
      "¾": 122,
      "¿": 123,
      "À": 124,
      "Á": 125,
      "Â": 126,
      "Ã": 127,
      "Ä": 128,
      "Å": 129,
      "Æ": 130,
      "Ç": 131,
      "È": 132,
      "É": 133,
      "Ê": 134,
      "Ë": 135,
      "Ì": 136,
      "Í": 137,
      "Î": 138,
      "Ï": 139,
      "Ð": 140,
      "Ñ": 141,
      "Ò": 142,
      "Ó": 143,
      "Ô": 144,
      "Õ": 145,
      "Ö": 146,
      "×": 147,
      "Ø": 148,
      "Ù": 149,
      "Ú": 150,
      "Û": 151,
      "Ü": 152,
      "Ý": 153,
      "Þ": 154,
      "ß": 155,
      "à": 156,
      "á": 157,
      "â": 158,
      "ã": 159,
      "ä": 160,
      "å": 161,
      "æ": 162,
      "ç": 163,
      "è": 164,
      "é": 165,
      "ê": 166,
      "ë": 167,
      "ì": 168,
      "í": 169,
      "î": 170,
      "ï": 171,
      "ð": 172,
      "ñ": 173,
      "ò": 174,
      "ó": 175,
      "ô": 176,
      "õ": 177,
      "ö": 178,
      "÷": 179,
      "ø": 180,
      "ù": 181,
      "ú": 182,
      "û": 183,
      "ü": 184,
      "ý": 185,
      "þ": 186,
      "ÿ": 187,
      "Ā": 188,
      "ā": 189,
      "Ă": 190,
      "ă": 191,
      "Ą": 192,
      "ą": 193,
      "Ć": 194,
      "ć": 195,
      "Ĉ": 196,
      "ĉ": 197,
      "Ċ": 198,
      "ċ": 199,
      "Č": 200,
      "č": 201,
      "Ď": 202,
      "ď": 203,
      "Đ": 204,
      "đ": 205,
      "Ē": 206,
      "ē": 207,
      "Ĕ": 208,
      "ĕ": 209,
      "Ė": 210,
      "ė": 211,
      "Ę": 212,
      "ę": 213,
      "Ě": 214,
      "ě": 215,
      "Ĝ": 216,
      "ĝ": 217,
      "Ğ": 218,
      "ğ": 219,
      "Ġ": 220,
      "ġ": 221,
      "Ģ": 222,
      "ģ": 223,
      "Ĥ": 224,
      "ĥ": 225,
      "Ħ": 226,
      "ħ": 227,
      "Ĩ": 228,
      "ĩ": 229,
      "Ī": 230,
      "ī": 231,
      "Ĭ": 232,
      "ĭ": 233,
      "Į": 234,
      "į": 235,
      "İ": 236,
      "ı": 237,
      "Ĳ": 238,
      "ĳ": 239,
      "Ĵ": 240,
      "ĵ": 241,
      "Ķ": 242,
      "ķ": 243,
      "ĸ": 244,
      "Ĺ": 245,
      "ĺ": 246,
      "Ļ": 247,
      "ļ": 248,
      "Ľ": 249,
      "ľ": 250,
      "Ŀ": 251,
      "ŀ": 252,
      "Ł": 253,
      "ł": 254,
      "Ń": 255,
      "áĪ": 256,
      "aĠ": 257,
      "Ġá": 258,
      "áī": 259,
      "áĬ": 260,
      "áĭ": 261,
      "iĠ": 262,
      "nĠ": 263,
      "eĠ": 264,
      "an": 265,
      "ar": 266,
      "áĮ": 267,
      "Ġáĭ": 268,
      "ĠáĬ": 269,
      "ĠáĪ": 270,
      "áį": 271,
      "áĬķ": 272,
      ",Ġ": 273,
      "Ġáī": 274,
      "oĠ": 275,
      "in": 276,
      "»į": 277,
      "ÃŃ": 278,
      "al": 279,
      "at": 280,
      "waĠ": 281,
      "áīµ": 282,
      "á»į": 283,
      "yaĠ": 284,
      "áĪŃ": 285,
      "sĠ": 286,
      "Ãł": 287,
      "º¹": 288,
      "er": 289,
      "uĠ": 290,
      "am": 291,
      "ak": 292,
      "áº¹": 293,
      "Ġáĭ¨": 294,
      "áĭį": 295,
      "as": 296,
      "ik": 297,
      "en": 298,
      "inĠ": 299,
      "il": 300,
      "łáĪ": 301,
      "áĪĿ": 302,
      "daĠ": 303,
      "ku": 304,
      "anĠ": 305,
      "áĪį": 306,
      "is": 307,
      "áĪµ": 308,
      "Ã©": 309,
      "áº¹Ì": 310,
      "Ã¬": 311,
      "naĠ": 312,
      "or": 313,
      "ÃŃĠ": 314,
      "on": 315,
      "Ã¡": 316,
      "it": 317,
      "arĠ": 318,
      "áį¢": 319,
      "á»įÌ": 320,
      "áĬĵ": 321,
      "Ġáīł": 322,
      "ab": 323,
      "un": 324,
      "áī°": 325,
      "ch": 326,
      "áĪĪ": 327,
      "áĭ«": 328,
      "Ãº": 329,
      "tĠ": 330,
      "ĠáĮ": 331,
      "19": 332,
      "Ġt": 333,
      "ir": 334,
      "áĭŃ": 335,
      "áĪĺ": 336,
      "ĠáĬ¥": 337,
      "Ã³": 338,
      "áī½": 339,
      ".Ġ": 340,
      "ur": 341,
      "gb": 342,
      "sh": 343,
      "el": 344,
      "ad": 345,
      "ay": 346,
      "ĠáĬł": 347,
      "Ã¨": 348,
      "im": 349,
      "onĠ": 350,
      "ol": 351,
      "áĭ°": 352,
      "áĬĲ": 353,
      "taĠ": 354,
      "om": 355,
      "niĠ": 356,
      "es": 357,
      "áī¥": 358,
      "áĪ¨": 359,
      "áĮĪ": 360,
      "áº¹ÌĢ": 361,
      "dĠ": 362,
      "áĭµ": 363,
      "iaĠ": 364,
      "áº¹Ìģ": 365,
      "á»įÌģ": 366,
      "áĪĭ": 367,
      "áĮį": 368,
      "ĠáĬĲ": 369,
      "ĠáĪĺ": 370,
      "esĠ": 371,
      "ali": 372,
      "20": 373,
      "Ġ(": 374,
      "em": 375,
      "áīł": 376,
      "ok": 377,
      "heĠ": 378,
      "¹£": 379,
      "áĪ«": 380,
      "áī³": 381,
      "of": 382,
      "ĠáĬ¨": 383,
      "Ã²": 384,
      "us": 385,
      "aĠm": 386,
      "ul": 387,
      "ag": 388,
      ")Ġ": 389,
      "wá»į": 390,
      "áĬŃ": 391,
      "a,Ġ": 392,
      "um": 393,
      "unĠ": 394,
      "iy": 395,
      "deĠ": 396,
      "áĪĽ": 397,
      "áĪ³": 398,
      "aĠk": 399,
      "ic": 400,
      "tiĠ": 401,
      "áī£": 402,
      "aj": 403,
      "Ġáį": 404,
      "yĠ": 405,
      "wan": 406,
      "af": 407,
      "ing": 408,
      "Ã©Ġ": 409,
      "ek": 410,
      "Ã¹": 411,
      "ÃłĠ": 412,
      "áĬĽ": 413,
      "Ġáī°": 414,
      "ut": 415,
      "ap": 416,
      "áĪª": 417,
      "ĠáĭŃ": 418,
      "á¹£": 419,
      "ĠáīłáĪ": 420,
      "a.": 421,
      "iĠyaĠ": 422,
      "Ġáĭ¨áĪ": 423,
      "wak": 424,
      "Ġá»į": 425,
      "ĠáĬłáĪ": 426,
      "ah": 427,
      "ib": 428,
      "âĢ": 429,
      "uk": 430,
      "id": 431,
      "wá»įnĠ": 432,
      "if": 433,
      "áĪħ": 434,
      "áĮ¥": 435,
      "áĬ¨": 436,
      "áį£": 437,
      "aw": 438,
      "ĠáĪĿ": 439,
      "az": 440,
      "laĠ": 441,
      "Ġáĭ¨áĬ": 442,
      "Ã³Ġ": 443,
      "áį¡": 444,
      "ĠáĭĪ": 445,
      "enĠ": 446,
      "á»įÌĢ": 447,
      "áįį": 448,
      "ig": 449,
      "ac": 450,
      "áĭ³": 451,
      "ĠáĬĲáĭį": 452,
      "ot": 453,
      "áīĢ": 454,
      "-Ġ": 455,
      "ish": 456,
      "áĭ¨": 457,
      "iĠwaĠ": 458,
      "ĠáĬ¥áĬķ": 459,
      "áº¹ÌĢĠ": 460,
      "áĭĪ": 461,
      "os": 462,
      "baĠ": 463,
      "e,Ġ": 464,
      "zaĠ": 465,
      "erĠ": 466,
      "áĪ°": 467,
      "áīħ": 468,
      "áĪĮ": 469,
      "áĬ«": 470,
      "ikaĠ": 471,
      "ĠáĪĪ": 472,
      "nÃŃĠ": 473,
      "et": 474,
      "i,Ġ": 475,
      "araĠ": 476,
      "kum": 477,
      "ÃºnĠ": 478,
      "Ã¡Ġ": 479,
      "ÃĢ": 480,
      "áº¹ÌģĠ": 481,
      "áĬł": 482,
      ":Ġ": 483,
      "ÃºĠ": 484,
      "anaĠ": 485,
      "iĠk": 486,
      "ist": 487,
      "re": 488,
      "leĠ": 489,
      "ĠáĬĲáĭįáį¢": 490,
      "ang": 491,
      "ĠáĪµ": 492,
      "áī¸": 493,
      "op": 494,
      "nÃŃ": 495,
      "Ġáĭ«": 496,
      "ati": 497,
      "tok": 498,
      "aiĠ": 499,
      "ug": 500,
      "ip": 501,
      "áĪī": 502,
      "ofĠ": 503,
      "Ġáĭĵ": 504,
      "á»įĠ": 505,
      "hi": 506,
      "qu": 507,
      "18": 508,
      "áīłáĪ": 509,
      "áĭĬ": 510,
      "áĭĭ": 511,
      "neĠ": 512,
      "áĪ®": 513,
      "uwaĠ": 514,
      "áī±": 515,
      "İáī½": 516,
      "ob": 517,
      "i.": 518,
      "áī¸áĭį": 519,
      "iĠm": 520,
      "áįĪ": 521,
      "ij": 522,
      "tr": 523,
      "Ġk": 524,
      "og": 525,
      "ÆĻ": 526,
      "Ġáĭ¨áĪļ": 527,
      "oj": 528,
      "áĭĿ": 529,
      "200": 530,
      "áĮ£": 531,
      "and": 532,
      "Ã¨Ġ": 533,
      "áĪįáį¢": 534,
      "áĪĨ": 535,
      "Al": 536,
      "ĠáĪĽ": 537,
      "edĠ": 538,
      "alĠ": 539,
      "wakaĠ": 540,
      "áĭļ": 541,
      "áī¶": 542,
      "pr": 543,
      "áĪ³áĪĮ": 544,
      "andĠ": 545,
      "áĮł": 546,
      "aniĠ": 547,
      "ceĠ": 548,
      "áĮī": 549,
      "amb": 550,
      "ed": 551,
      "od": 552,
      "ĠtheĠ": 553,
      "áĮĭ": 554,
      "isĠ": 555,
      "amaĠ": 556,
      "201": 557,
      "ung": 558,
      "áĭ®": 559,
      "iv": 560,
      "ĠáīłáĬ": 561,
      "ÌĢ": 562,
      "aĠyaĠ": 563,
      "ĠáĪĿáĪ³áĪĮ": 564,
      "tÃŃĠ": 565,
      "ent": 566,
      "fr": 567,
      "ha": 568,
      "ec": 569,
      "e.": 570,
      "ÃĮ": 571,
      "ub": 572,
      "ĠáĪ²": 573,
      "lÃ¡": 574,
      "shek": 575,
      "ash": 576,
      "ud": 577,
      "áĭ²": 578,
      "oĠyaĠ": 579,
      "atiĠ": 580,
      "áĬķáĭµ": 581,
      "ow": 582,
      "ĠáĮį": 583,
      "th": 584,
      "Ġáīµ": 585,
      "entĠ": 586,
      "iyaĠ": 587,
      "00": 588,
      "wat": 589,
      "ih": 590,
      "Mar": 591,
      "áĭİáī½": 592,
      "toĠ": 593,
      "all": 594,
      "Ġáĭĺ": 595,
      "akeĠ": 596,
      "Ã²Ġ": 597,
      "wa": 598,
      "iniĠ": 599,
      "áĪ¥": 600,
      "Ġáº¹": 601,
      "ikiĠ": 602,
      "áīĥ": 603,
      "jeĠ": 604,
      "ind": 605,
      "iz": 606,
      "áĬĸ": 607,
      "áĪŀ": 608,
      "áĭĺ": 609,
      "rÃŃ": 610,
      "waĠm": 611,
      "etĠ": 612,
      "kumaĠ": 613,
      "Ġáĭ¨áī°": 614,
      "waĠk": 615,
      "ĠA": 616,
      "wen": 617,
      "ĠáĬ¥áĬĵ": 618,
      "nd": 619,
      "ikinĠ": 620,
      "áĬĲáīµ": 621,
      "ĠáĪ°": 622,
      "theĠ": 623,
      "ov": 624,
      "uz": 625,
      "áĬ¥": 626,
      "Ġáī¥": 627,
      "Ã¬Ġ": 628,
      "le": 629,
      "anz": 630,
      "áĪĬ": 631,
      "st": 632,
      "áĪ©": 633,
      "Ãłwá»įnĠ": 634,
      "Ġá¹£": 635,
      "Ġáĭį": 636,
      "Wali": 637,
      "áĪĻ": 638,
      "atikaĠ": 639,
      "ti": 640,
      "áĬķáĮį": 641,
      "Ġ-Ġ": 642,
      "naĠm": 643,
      "ĠtÃŃĠ": 644,
      "o,Ġ": 645,
      "kutok": 646,
      "Ch": 647,
      "elĠ": 648,
      "ĠáīĢ": 649,
      "á»įÌĢĠ": 650,
      "akaĠ": 651,
      "up": 652,
      "áīłáĪŃ": 653,
      "usĠ": 654,
      "ĭáĭŃ": 655,
      "ew": 656,
      "Ġáĭ°": 657,
      "ep": 658,
      "kas": 659,
      "ant": 660,
      "Am": 661,
      "uĠm": 662,
      "á»įÌģĠ": 663,
      "ĠáĬ¥áĬķáĭ°": 664,
      "ans": 665,
      "áĭĽ": 666,
      "áº¹Ġ": 667,
      "Ġáĭ¨áĬłáĪ": 668,
      "199": 669,
      "av": 670,
      "yeĠ": 671,
      "inaĠ": 672,
      "adaĠ": 673,
      "ÃĢwá»įnĠ": 674,
      "áĪļ": 675,
      "ong": 676,
      "ĠáĬŃ": 677,
      "ÅĦ": 678,
      "ÃłtiĠ": 679,
      "áĪİ": 680,
      "ariĠ": 681,
      "á»įÌģnĠ": 682,
      "),Ġ": 683,
      "Ġá»įd": 684,
      "bÃŃĠ": 685,
      "áĮħ": 686,
      "áī²": 687,
      "AĠ": 688,
      "áī¢": 689,
      "agaĠ": 690,
      "áĬĳ": 691,
      "oh": 692,
      "ez": 693,
      "oc": 694,
      "cikinĠ": 695,
      ",Ġm": 696,
      "iwaĠ": 697,
      "for": 698,
      "jáº¹ÌģĠ": 699,
      "ĠáĪį": 700,
      "áįĭ": 701,
      "ÃłnĠ": 702,
      "ĠM": 703,
      "ng": 704,
      "ikuwaĠ": 705,
      "nch": 706,
      "ej": 707,
      ".ĠM": 708,
      "aĠnaĠ": 709,
      "au": 710,
      "eĠd": 711,
      "oz": 712,
      "áĬĿ": 713,
      "áĪ±": 714,
      "áį¤": 715,
      "ÃŃl": 716,
      "hu": 717,
      "áĪĨáĬķ": 718,
      "kutokaĠ": 719,
      "0Ġ": 720,
      "áĪ½": 721,
      "auĠ": 722,
      "areĠ": 723,
      "ataĠ": 724,
      "ingĠ": 725,
      "áĮİ": 726,
      "ann": 727,
      "anc": 728,
      "ĠáĪĭáĭŃ": 729,
      "our": 730,
      "áĭ«áĬķ": 731,
      "asĠ": 732,
      "áĪĪáĭį": 733,
      "was": 734,
      "Ġáī³": 735,
      "ark": 736,
      "ĵĠ": 737,
      "Ġáĭµ": 738,
      "oĠk": 739,
      "ter": 740,
      "oy": 741,
      "iĠnaĠ": 742,
      "Â«": 743,
      "lesĠ": 744,
      "ts": 745,
      "áĪŃáĬĽ": 746,
      "TheĠ": 747,
      "áĭ±": 748,
      "eg": 749,
      "sÃŃĠ": 750,
      "Ġáī£": 751,
      "ia": 752,
      "e-": 753,
      "áĪģ": 754,
      "198": 755,
      "eb": 756,
      "ayaĠ": 757,
      "ĠS": 758,
      ".ĠI": 759,
      "áĭļáĪħ": 760,
      "alaĠ": 761,
      "¢áīµ": 762,
      "asiĠ": 763,
      "yaĠK": 764,
      "ĽáĪŃáĬĽ": 765,
      "Ġd": 766,
      "¢áīµáĭ®": 767,
      "áĮµ": 768,
      "áĬĴ": 769,
      "áĭķ": 770,
      "ineĠ": 771,
      "shekar": 772,
      ").": 773,
      "oĠm": 774,
      "asaĠ": 775,
      "áīĨ": 776,
      "Afr": 777,
      "ÉĹ": 778,
      "siĠ": 779,
      "Ġá»įdÃºnĠ": 780,
      "áĮĢ": 781,
      "ation": 782,
      "end": 783,
      "gaĠ": 784,
      "ĠáīłáĪĺ": 785,
      "wá»įn": 786,
      "Â»": 787,
      "¢áīµáĭ®áĮµ": 788,
      "197": 789,
      "áĪĪáīµ": 790,
      "ta": 791,
      "ráº¹ÌĢĠ": 792,
      "Ã¨d": 793,
      "áĮ½": 794,
      "áĪ¬": 795,
      "196": 796,
      "dagaĠ": 797,
      "áĮĪáĪŃ": 798,
      "Ã¬j": 799,
      "kanĠ": 800,
      "ĠB": 801,
      "uĠyaĠ": 802,
      "Ġ1": 803,
      "amm": 804,
      "shiĠ": 805,
      "con": 806,
      "áī¡": 807,
      "ÃŃn": 808,
      "áĪµáĮ¥": 809,
      "Sh": 810,
      "Ġáĭ¨áĬłáĪĽáĪŃáĬĽ": 811,
      "¢áīµáĭ®áĮµáĭ«": 812,
      "ach": 813,
      "iyarĠ": 814,
      "uw": 815,
      "ileĠ": 816,
      "áĪ¨áīµ": 817,
      "âĢĻ": 818,
      "ion": 819,
      "ĠáĪĿáĪ³áĪĮĠáĬĲáĭįáį¢": 820,
      "lÃºĠ": 821,
      "se": 822,
      "áīłáīµ": 823,
      "Ġáĭ¨áĬłáĪĽáĪŃáĬĽĠáĪĿáĪ³áĪĮĠáĬĲáĭįáį¢": 824,
      ";Ġ": 825,
      "ugh": 826,
      "ĠáĬĲáīłáĪŃ": 827,
      "áĭľ": 828,
      "estĠ": 829,
      "o.": 830,
      "uh": 831,
      "ĠáĮ¥": 832,
      "áĪĺáĬķ": 833,
      "rist": 834,
      "com": 835,
      "ĠâĢ": 836,
      "ny": 837,
      "wá»įÌģnĠ": 838,
      "ioĠ": 839,
      "atik": 840,
      "áĪ»": 841,
      "ers": 842,
      "ĠáĭĪáĭ°": 843,
      "ev": 844,
      "pl": 845,
      "daĠk": 846,
      "ĠáĪĨ": 847,
      "und": 848,
      "ĠáĮĪ": 849,
      "awaĠ": 850,
      "áĪµáīµ": 851,
      "ĠáĬ¨áī°": 852,
      "ou": 853,
      "l'": 854,
      "»Į": 855,
      "ationĠ": 856,
      "áī»": 857,
      "ill": 858,
      "ĠáĬķ": 859,
      "a'": 860,
      "chaĠ": 861,
      "ri": 862,
      "1Ġ": 863,
      "ank": 864,
      "aadaĠ": 865,
      "reĠ": 866,
      "any": 867,
      "áĭ©": 868,
      "gbaĠ": 869,
      "Nob": 870,
      "Ã¨dÃ¨Ġ": 871,
      "yÃ¬": 872,
      "lÃ³": 873,
      "nÃ¡": 874,
      "ats": 875,
      "aliwaĠ": 876,
      "Ab": 877,
      "ex": 878,
      "áĭĵ": 879,
      "áįĬ": 880,
      "ani": 881,
      "Ã¹Ġ": 882,
      "ef": 883,
      "aliĠ": 884,
      "2Ġ": 885,
      "áī¶áī½": 886,
      "áĭįáĬķ": 887,
      "su": 888,
      "17": 889,
      "NobelĠ": 890,
      "itaĠ": 891,
      "ajer": 892,
      "nÃŃn": 893,
      "ĠáĬ¥áĪµ": 894,
      "ĠáĭįáĪµáĮ¥": 895,
      "5Ġ": 896,
      "Ã¹nĠ": 897,
      "ĠáĬłáĭŃ": 898,
      "eoĠ": 899,
      "iliĠ": 900,
      "áĪŃáĮī": 901,
      "Ar": 902,
      "sam": 903,
      "imb": 904,
      "meĠ": 905,
      "Ĭáĭľ": 906,
      "áĮłáĪ": 907,
      "áĪªáĭ«": 908,
      "tokasiĠ": 909,
      "rÃ©": 910,
      "arĠdaĠ": 911,
      "áĬĶ": 912,
      "ÅĦĠ": 913,
      "ain": 914,
      "16": 915,
      "uĠk": 916,
      "ionĠ": 917,
      "Mak": 918,
      "ĠtiĠ": 919,
      "áīĭ": 920,
      "ĠáĪģ": 921,
      "áĭ¶": 922,
      "tar": 923,
      "Pr": 924,
      "kuwaĠ": 925,
      "emb": 926,
      "iá¹£": 927,
      "wakaĠwaĠ": 928,
      "apaĠ": 929,
      "Najer": 930,
      "áĪ²": 931,
      "áĬĽáĭį": 932,
      "shekaraĠ": 933,
      "uf": 934,
      "eng": 935,
      "had": 936,
      "áĬłáĪ": 937,
      "Walioz": 938,
      "áī¦": 939,
      "láº¹ÌĢĠ": 940,
      "eaĠ": 941,
      "áĭŃáĪĿ": 942,
      "195": 943,
      "u,Ġ": 944,
      "oĠwaĠ": 945,
      "art": 946,
      "Ġáº¹ÌĢ": 947,
      "ofĠtheĠ": 948,
      "biĠ": 949,
      "asarĠ": 950,
      "ya": 951,
      "Kar": 952,
      "áĪŃáĪµ": 953,
      "uĠwaĠ": 954,
      "shekararĠ": 955,
      "áĬ¤": 956,
      "iw": 957,
      "yiĠ": 958,
      "fÃºnĠ": 959,
      "4Ġ": 960,
      "áĪľ": 961,
      "gbÃł": 962,
      "Ad": 963,
      "Ġáīłáī°": 964,
      "rinĠ": 965,
      "wali": 966,
      "air": 967,
      "áĪĲ": 968,
      "ofar": 969,
      "áĬ®": 970,
      "áĭĻ": 971,
      "wam": 972,
      "St": 973,
      "raĠ": 974,
      "3Ġ": 975,
      "uc": 976,
      "Waliofar": 977,
      "Ġáīħ": 978,
      "uzoĠyaĠ": 979,
      "áī¤": 980,
      "har": 981,
      "s,Ġ": 982,
      "ĠáĬłáĪµ": 983,
      "agb": 984,
      "ĠáĪ¥": 985,
      "An": 986,
      "Ġáī¤": 987,
      "TuzoĠyaĠ": 988,
      "ĠáĬ«": 989,
      "Ġá¹£eĠ": 990,
      "Ġáĭ¨áĪĺ": 991,
      "ayinĠ": 992,
      "ĠáīµáĪŃáĮī": 993,
      "hĠ": 994,
      "ÃŃrÃŃ": 995,
      "ni": 996,
      "áĬ©": 997,
      "Ġá»įm": 998,
      "áĪªáĬŃ": 999,
      "ell": 1000,
      "ĠáĮįáĬķ": 1001,
      "Marek": 1002,
      "ĠáĬ¥áĬķáĭ²": 1003,
      "u.": 1004,
      "ass": 1005,
      "15": 1006,
      "ĠÂ«": 1007,
      "In": 1008,
      "\"Ġ": 1009,
      "ĠáĮĭ": 1010,
      "wenyeĠ": 1011,
      "Ġáĭ¨áĬł": 1012,
      "áĮ¨": 1013,
      "áīģ": 1014,
      "icĠ": 1015,
      "anceĠ": 1016,
      "est": 1017,
      "vyaĠ": 1018,
      "ukaĠ": 1019,
      "shind": 1020,
      "ro": 1021,
      "wandaĠ": 1022,
      "queĠ": 1023,
      "Ġá»įÌĢ": 1024,
      "abaĠ": 1025,
      "áī¹": 1026,
      "Jam": 1027,
      "áīłáĪ¨": 1028,
      "Ãłk": 1029,
      "áį¡áį¡": 1030,
      "ĠáĪ²áĪĨáĬķ": 1031,
      "Un": 1032,
      "ereĠ": 1033,
      "tak": 1034,
      "ĭáĪĭ": 1035,
      "lÃ©": 1036,
      "Ġá»Į": 1037,
      "áĮĥ": 1038,
      "áĪĥ": 1039,
      "alikuwaĠ": 1040,
      "áĬŃáĪį": 1041,
      "TuzoĠyaĠNobelĠ": 1042,
      "»áį": 1043,
      "ond": 1044,
      "ĠáīµáĪŃáĮīáĪĻ": 1045,
      "NÃł": 1046,
      "ĠáĬĲáīłáĪŃáį¢": 1047,
      "awonĠ": 1048,
      "6Ġ": 1049,
      "abb": 1050,
      "itĠ": 1051,
      "ĠáĬłáĬķ": 1052,
      "ĠáīłáĬł": 1053,
      "arinĠ": 1054,
      "194": 1055,
      "ĠtoĠ": 1056,
      "áĪ´": 1057,
      "saĠ": 1058,
      ".áĪĿ": 1059,
      "Ġá»įj": 1060,
      "nÃŃnÃºĠ": 1061,
      "a.Ġ": 1062,
      "NÃłÃ¬j": 1063,
      "Ã¬n": 1064,
      "daĠs": 1065,
      "ishaĠ": 1066,
      "bay": 1067,
      "ich": 1068,
      "ĠáĪ³": 1069,
      "aĠcikinĠ": 1070,
      "ran": 1071,
      "²áį": 1072,
      "ard": 1073,
      "Ġ-": 1074,
      "áī´": 1075,
      "iharĠ": 1076,
      "iaĠm": 1077,
      "shindiĠwaĠ": 1078,
      "WaliozaliwaĠ": 1079,
      "NÃłÃ¬jÃŃrÃŃ": 1080,
      "hiiĠ": 1081,
      "II": 1082,
      "shekaraĠtaĠ": 1083,
      "yakeĠ": 1084,
      "7Ġ": 1085,
      "neĠyaĠ": 1086,
      "áĮŃ": 1087,
      "rÃŃĠ": 1088,
      "ĠáĪĺáĬķáĮį": 1089,
      "Ã¬y": 1090,
      "Ġáĭ¨áĬłáĪĽáĪŃáĬĽĠáĪĿáĪ³áĪĮĠáĬĲáĭįáį¢ĠáīµáĪŃáĮīáĪĻ": 1091,
      "kub": 1092,
      "Ãłn": 1093,
      "ĠáĮĬáĭľ": 1094,
      "atĠ": 1095,
      "oĠniĠ": 1096,
      "orÃŃl": 1097,
      "ĠáīĢáĬķ": 1098,
      "he": 1099,
      "ĠáĭĪáĭŃáĪĿ": 1100,
      "áī³áīµ": 1101,
      "uneĠ": 1102,
      "Ġáĭĭ": 1103,
      "Ãºn": 1104,
      "inc": 1105,
      "ayeĠ": 1106,
      "Ġáĭĵ.áĪĿ": 1107,
      "ezaĠ": 1108,
      "BaadaĠ": 1109,
      "|Ġ": 1110,
      "Or": 1111,
      "orĠ": 1112,
      "ess": 1113,
      "aur": 1114,
      "áĪªáĬ«": 1115,
      "Br": 1116,
      ".ĠItokasiĠ": 1117,
      "Ã¬d": 1118,
      "ian": 1119,
      "jam": 1120,
      "tÃŃĠÃ³Ġ": 1121,
      "PapaĠ": 1122,
      "Ol": 1123,
      "As": 1124,
      "wonĠ": 1125,
      "ibiĠ": 1126,
      "shindiĠwaĠTuzoĠyaĠNobelĠ": 1127,
      "ĠáĬłáĪĪ": 1128,
      "atuk": 1129,
      "ĠáĪµáĪĪ": 1130,
      "ĠáĬĵ": 1131,
      "WaliofarikiĠ": 1132,
      "kar": 1133,
      "erÃ©Ġ": 1134,
      "áĪ¨áīµáĬĵ": 1135,
      "aid": 1136,
      "ĠáĪĬ": 1137,
      "áĮ»": 1138,
      "anaĠnaĠ": 1139,
      "Ġáī¢": 1140,
      "Nig": 1141,
      "sÃ¬Ġ": 1142,
      "ĠáįĪ": 1143,
      "ĠáĬ¥áĪµáĬ¨": 1144,
      "eĠ(": 1145,
      "áĪĪáĪĿ": 1146,
      "aĠwaĠ": 1147,
      "daĠm": 1148,
      "kut": 1149,
      "ĠáĬķáĮī": 1150,
      "áĪ¨áīµáĬĵĠáĪĿáĪ³áĪĮ": 1151,
      "ĠáīłáĬĭáĪĭ": 1152,
      "Wak": 1153,
      "fiĠ": 1154,
      "ementĠ": 1155,
      "áį»áį": 1156,
      "áĪ¥áīµ": 1157,
      "aninĠ": 1158,
      "14": 1159,
      "ĠáĭŃáĪħ": 1160,
      "lÃ¡tiĠ": 1161,
      "paĠ": 1162,
      "ĠáĭĺáĪĺáĬķ": 1163,
      "amuĠ": 1164,
      "ká»įÌģĠ": 1165,
      "áĬķáĪĿ": 1166,
      "zuwaĠ": 1167,
      "umb": 1168,
      "Tanz": 1169,
      "abuĠ": 1170,
      "sÃ¬": 1171,
      "áĪ¨áĪµ": 1172,
      "kaĠ": 1173,
      "es,Ġ": 1174,
      "seĠ": 1175,
      "10": 1176,
      "lá»įÌģ": 1177,
      "8Ġ": 1178,
      "antĠ": 1179,
      "ansĠ": 1180,
      "desĠ": 1181,
      "yaĠk": 1182,
      "ieĠ": 1183,
      "hem": 1184,
      "áº¹ÌĢ-": 1185,
      "uĠmwakaĠ": 1186,
      "193": 1187,
      "9Ġ": 1188,
      "á¹£Ã¨": 1189,
      "aif": 1190,
      "áĪ®áī½": 1191,
      "ĠáĬŃáįį": 1192,
      "ilaĠ": 1193,
      "áĪķ": 1194,
      "ilĠ": 1195,
      "yaĠm": 1196,
      ").ĠM": 1197,
      "ĠáĬ¨áī°áĪĽ": 1198,
      "Ġáī°áĪ¨áīµáĬĵĠáĪĿáĪ³áĪĮ": 1199,
      "áĮ«": 1200,
      "xĠ": 1201,
      "suĠ": 1202,
      "ewaĠ": 1203,
      "embaĠ": 1204,
      "pÃŃn": 1205,
      "aniaĠ": 1206,
      "ais": 1207,
      "istor": 1208,
      "ityĠ": 1209,
      "Ki": 1210,
      "Ã©r": 1211,
      "funĠ": 1212,
      "bÃŃ": 1213,
      "ey": 1214,
      "inger": 1215,
      "ilim": 1216,
      "anĠm": 1217,
      "Fr": 1218,
      "piaĠ": 1219,
      "áĮĪáĬ": 1220,
      "'sĠ": 1221,
      "áĭİ": 1222,
      "anĠk": 1223,
      "Niger": 1224,
      "acinĠ": 1225,
      "afaĠ": 1226,
      "Ã¬t": 1227,
      "atikaĠm": 1228,
      "chĠ": 1229,
      "ĠáĭĵáĪĺ": 1230,
      "Il": 1231,
      "edeĠ": 1232,
      "atiĠyaĠ": 1233,
      "ÃĴ": 1234,
      "par": 1235,
      "unaĠ": 1236,
      "sÃŃ": 1237,
      "dun": 1238,
      "aziĠ": 1239,
      "12": 1240,
      "urĠ": 1241,
      "ĠáĪĪáĪĺ": 1242,
      "fir": 1243,
      "hal": 1244,
      "Kan": 1245,
      "áĪŃáĭ«": 1246,
      "Ġáĭķ": 1247,
      "áįĵ": 1248,
      "haif": 1249,
      "áĮĢáĪĺ": 1250,
      "eĠm": 1251,
      "atsayinĠ": 1252,
      "wasĠ": 1253,
      "áī°áĬĽ": 1254,
      "dÃ©": 1255,
      "Ãłr": 1256,
      "sab": 1257,
      "ahus": 1258,
      "áĭ´": 1259,
      "wal": 1260,
      "ĠtÃŃĠÃ³Ġ": 1261,
      "omaĠ": 1262,
      "lugh": 1263,
      "ask": 1264,
      "oĠnaĠ": 1265,
      "aut": 1266,
      "ciĠ": 1267,
      "ersĠ": 1268,
      "Ġáĭĵ.áĪĿ.": 1269,
      "AfrikaĠ": 1270,
      "ajiĠ": 1271,
      "yan": 1272,
      "nÃ¡ÃłĠ": 1273,
      "uj": 1274,
      "áĮįáĪŀ": 1275,
      "hiiĠin": 1276,
      "bir": 1277,
      "ianĠ": 1278,
      "s.": 1279,
      "áį¦": 1280,
      "Ġáĭ«áĪį": 1281,
      "nchiĠ": 1282,
      "bÃ¡Ġ": 1283,
      "far": 1284,
      "fil": 1285,
      "wit": 1286,
      "aisĠ": 1287,
      "watanĠ": 1288,
      "wall": 1289,
      "13": 1290,
      "Ã¬lÃºĠ": 1291,
      "áĭµáĪŃ": 1292,
      "aĠkwaĠ": 1293,
      "ai": 1294,
      "shir": 1295,
      "a-": 1296,
      "ĠáĬĲáĮĪ": 1297,
      "áĪ¶": 1298,
      "ĠáĮĢ": 1299,
      "MakalaĠ": 1300,
      "áº¹ÌĢ-Ã¨dÃ¨Ġ": 1301,
      "Ġáįį": 1302,
      "san": 1303,
      "ĠáĬ¢": 1304,
      "kwaĠ": 1305,
      "Ġá»įmá»įĠ": 1306,
      "risto": 1307,
      "mĠ": 1308,
      "kĠ": 1309,
      "áī³áĭĪ": 1310,
      "Ġá»įjá»įÌģ": 1311,
      "amarĠ": 1312,
      "Ġáīģ": 1313,
      "iĠ(": 1314,
      "aryĠ": 1315,
      "ĠâĢĵĠ": 1316,
      "ile-": 1317,
      "áīµáĬķ": 1318,
      "y,Ġ": 1319,
      "waĠnaĠ": 1320,
      "ÃĵĠ": 1321,
      "aneĠ": 1322,
      "ĠáĪķ": 1323,
      "ĠáĮĭáĪŃ": 1324,
      "MakalaĠhiiĠin": 1325,
      "Is": 1326,
      "lá»įĠ": 1327,
      "ĠáīłáĪĽ": 1328,
      "lak": 1329,
      "MakalaĠhiiĠinahus": 1330,
      "uku": 1331,
      "yÃŃĠ": 1332,
      "deĠlaĠ": 1333,
      "asi": 1334,
      "NajeriyaĠ": 1335,
      "MakalaĠhiiĠinahusuĠmwakaĠ": 1336,
      "arÃ¡Ġ": 1337,
      "war": 1338,
      "obaĠ": 1339,
      "gbÃłĠ": 1340,
      "shindiĠwaĠTuzoĠyaĠNobelĠyaĠ": 1341,
      "omb": 1342,
      "atukioĠ": 1343,
      "ser": 1344,
      "áĬŃáĪįáīł": 1345,
      "ia,Ġ": 1346,
      "tur": 1347,
      "áĪīáį¢": 1348,
      "oá¹£": 1349,
      "bÃ¡": 1350,
      "nam": 1351,
      "Ġáį¡": 1352,
      "inuĠ": 1353,
      "áīĤ": 1354,
      "uaĠ": 1355,
      "ĠáĭĵáĬŃáĪįáīł": 1356,
      "áĪİáī½": 1357,
      "d'": 1358,
      "áĭ°áĪ¨": 1359,
      "yaĠKristo": 1360,
      "áĮ¡": 1361,
      "por": 1362,
      "..": 1363,
      "atif": 1364,
      "kus": 1365,
      "Ã¬w": 1366,
      "daĠkumaĠ": 1367,
      "yaĠKristo).ĠM": 1368,
      "Ġ(BaadaĠ": 1369,
      "¦áĪŃ": 1370,
      "Ġ(BaadaĠyaĠKristo).ĠM": 1371,
      "uat": 1372,
      "ĠáĪļ": 1373,
      "weng": 1374,
      "Ok": 1375,
      "Yor": 1376,
      "nanĠ": 1377,
      "att": 1378,
      "sunĠ": 1379,
      "Amer": 1380,
      "Ġáĭ°áĮįáĪŀ": 1381,
      "olog": 1382,
      "Ã¹n": 1383,
      "Ãłwá»įn": 1384,
      "ĠáĬłáĬķáĭµ": 1385,
      "áĭ°áĪŃ": 1386,
      "diĠ": 1387,
      "áī°áĪ¨": 1388,
      "AnĠ": 1389,
      "oteĠ": 1390,
      "ĠáĬłáĪį": 1391,
      "yanaĠ": 1392,
      "Ib": 1393,
      "duĠ": 1394,
      "It": 1395,
      "aleĠ": 1396,
      "niĠm": 1397,
      "fark": 1398,
      "áĪĺáĬĲ": 1399,
      "azar": 1400,
      "Wa": 1401,
      "áĮĪáĬĿ": 1402,
      "Jan": 1403,
      "jer": 1404,
      "192": 1405,
      "iraĠ": 1406,
      "iláº¹ÌĢĠ": 1407,
      "láº¹Ìģ": 1408,
      "olaĠ": 1409,
      "ráº¹ÌĢ": 1410,
      "áĪŃáīµ": 1411,
      "olÃ³": 1412,
      "Vi": 1413,
      "arr": 1414,
      "áĬķáīµ": 1415,
      "wÃłĠ": 1416,
      "ari": 1417,
      "ilikuwaĠ": 1418,
      "aaĠ": 1419,
      "pÃ©Ġ": 1420,
      "aĠmatsayinĠ": 1421,
      "hisĠ": 1422,
      "Ã¨n": 1423,
      "Ġ2": 1424,
      "áĪĶ": 1425,
      "ivers": 1426,
      "waniĠ": 1427,
      "amoj": 1428,
      "Ġáĭ¨áĬ¢áīµáĭ®áĮµáĭ«": 1429,
      "ĠáĪĺáĬķáĮįáĪ¥áīµ": 1430,
      "áĬķáĪµ": 1431,
      "ht": 1432,
      "ÆĻasarĠ": 1433,
      "ĠáĪĪáĪĽ": 1434,
      "aceĠ": 1435,
      "Ã²r": 1436,
      "awá»įnĠ": 1437,
      "Ġ(BaadaĠyaĠKristo).ĠMatukioĠ": 1438,
      "inĠm": 1439,
      "áīłáĪ©": 1440,
      "áĬķáīĭ": 1441,
      "áī½áĬķ": 1442,
      "lok": 1443,
      "ye": 1444,
      "pÃŃnláº¹ÌĢĠ": 1445,
      "sik": 1446,
      "áĬª": 1447,
      "ateĠ": 1448,
      "ĠáĪĨáĬĲ": 1449,
      "áĬĵáīµ": 1450,
      "áĪĭáĪįáį¢": 1451,
      "ÃĪ": 1452,
      "Ġáĭ¨áĬĲ": 1453,
      "yarĠ": 1454,
      "org": 1455,
      "iliy": 1456,
      "ogb": 1457,
      "Ak": 1458,
      "Ãł.": 1459,
      "maĠ": 1460,
      "Ã¬m": 1461,
      "ogr": 1462,
      "ĠáĪįáĮħ": 1463,
      "âĢĿ": 1464,
      "ia.": 1465,
      "uĠnaĠ": 1466,
      "âĢĵ": 1467,
      "anazar": 1468,
      "sonĠ": 1469,
      "lin": 1470,
      "biy": 1471,
      "oĠ(": 1472,
      ",00": 1473,
      "ĠáĭĿ": 1474,
      "ath": 1475,
      "from": 1476,
      "ph": 1477,
      "zin": 1478,
      "ili": 1479,
      "ĠáĭµáĪ¨áĪµ": 1480,
      "asuĠ": 1481,
      "ect": 1482,
      "andeĠ": 1483,
      "amĠ": 1484,
      "áĭļáĭ«": 1485,
      "parĠ": 1486,
      "New": 1487,
      "eheĠ": 1488,
      "áįī": 1489,
      "out": 1490,
      "daĠkeĠ": 1491,
      "an,Ġ": 1492,
      "aĠg": 1493,
      "iá¹£áº¹ÌģĠ": 1494,
      "ĠáĭĵáĬŃáĪįáīł.": 1495,
      "ju": 1496,
      "ugab": 1497,
      "Ġáĭ«áĪįáī°": 1498,
      "oun": 1499,
      "akiĠ": 1500,
      "ru": 1501,
      "amf": 1502,
      "KarneĠyaĠ": 1503,
      "Th": 1504,
      "eneoĠ": 1505,
      "ens": 1506,
      "daĠy": 1507,
      "almeĠ": 1508,
      "sehem": 1509,
      "irĠ": 1510,
      "áī°áĪ¨áĮİ": 1511,
      "áĭ°áī¥": 1512,
      "osĠ": 1513,
      "ourĠ": 1514,
      "per": 1515,
      "áĮĬ": 1516,
      "Ã³Ġt": 1517,
      "latiĠ": 1518,
      "fin": 1519,
      "orÃŃláº¹ÌĢ-Ã¨dÃ¨Ġ": 1520,
      "iki": 1521,
      "ashar": 1522,
      "ĠáĬ¤": 1523,
      "ontĠ": 1524,
      "ĠáĪħ": 1525,
      "áī£áĪį": 1526,
      "alis": 1527,
      "Ã¹Ġk": 1528,
      "pamoj": 1529,
      "nying": 1530,
      "ĠáĪµáĪĿ": 1531,
      "Ġáĭ¨áĬ¥": 1532,
      "oriĠ": 1533,
      "koĠ": 1534,
      "donĠ": 1535,
      "rit": 1536,
      "Ġáīĭ": 1537,
      "ká»įĠ": 1538,
      "Tar": 1539,
      "ĠáĪĮ": 1540,
      "ÃĢwá»įn": 1541,
      "áĪ£": 1542,
      "áĪĨáĬĳ": 1543,
      "áĪ¸": 1544,
      "El": 1545,
      "lá»į": 1546,
      "o-": 1547,
      "190": 1548,
      "ishiĠ": 1549,
      "oll": 1550,
      "ninĠ": 1551,
      "ageĠ": 1552,
      "Joh": 1553,
      "ĠáĬłáĮĪ": 1554,
      "ĠáīłáĬ¥": 1555,
      "²áį±": 1556,
      "zam": 1557,
      "ĠáĪĢ": 1558,
      "MarekaniĠ": 1559,
      "ijer": 1560,
      "189": 1561,
      "aul": 1562,
      "áĬķáĭ«": 1563,
      "áī¸áĭįáį¢": 1564,
      "jiharĠ": 1565,
      "kubwaĠ": 1566,
      "Jul": 1567,
      "enc": 1568,
      "dÃ¡": 1569,
      "ĠáĪĽáĪĪáīµ": 1570,
      "Ã¬yÃłnĠ": 1571,
      "bu": 1572,
      "byĠ": 1573,
      "áĪĬáĭĿ": 1574,
      "kuf": 1575,
      "gbÃ©": 1576,
      "mÃ¡": 1577,
      "º¸": 1578,
      "iriĠ": 1579,
      "áĪłáĪ": 1580,
      "ilÃ©": 1581,
      "ĠáĪĥ": 1582,
      "áī¸áĭįáĬķ": 1583,
      "alÃ¡": 1584,
      "ept": 1585,
      "pe": 1586,
      "kul": 1587,
      "ile-edeĠ": 1588,
      "ĠáĬķáĮīáĪ¥": 1589,
      "vy": 1590,
      "áī±áĬķ": 1591,
      "isaĠ": 1592,
      "tionĠ": 1593,
      "áĬ¨áī°": 1594,
      "áĪµáī°": 1595,
      "soĠ": 1596,
      "áĭįáĭ«áĬķ": 1597,
      "áįķ": 1598,
      "andaĠ": 1599,
      "uniĠ": 1600,
      "Ġáĭ¨áĪļáĭ«": 1601,
      "ayĠ": 1602,
      "ko": 1603,
      "áī°áĪ¨áĮİáĪĺ": 1604,
      "ra": 1605,
      "hak": 1606,
      "Rom": 1607,
      "ĠBK": 1608,
      "Mus": 1609,
      "áĪĢ": 1610,
      "=Ġ": 1611,
      "Wat": 1612,
      "áº¹Ìģg": 1613,
      "cl": 1614,
      "ĠáĬłáĪĺ": 1615,
      "inĠtheĠ": 1616,
      "aĠshekaraĠtaĠ": 1617,
      "tareĠ": 1618,
      "áī£áī¢": 1619,
      "0.": 1620,
      "Ã¬l": 1621,
      "oĠvyaĠ": 1622,
      "in,Ġ": 1623,
      "Ġáī³áĪªáĬŃ": 1624,
      "kup": 1625,
      "Ġáĭ«áĪįáī°áī°áĪ¨áĮİáĪĺ": 1626,
      "Ġáĭ«áĪįáī°áī°áĪ¨áĮİáĪĺĠáĪĿáĪ³áĪĮ": 1627,
      "bal": 1628,
      "²áį±áį»áį": 1629,
      "ma": 1630,
      "ĠáīłáĬłáĪ": 1631,
      "ele": 1632,
      "sc": 1633,
      "áĬķáĮ": 1634,
      "iĠkwaĠ": 1635,
      "aĠkar": 1636,
      "bi": 1637,
      "áĪĦ": 1638,
      "teĠ": 1639,
      "tÃ³Ġ": 1640,
      "ĠáĮī": 1641,
      "Univers": 1642,
      "ĠáĪ°áĭį": 1643,
      "kÃł": 1644,
      "Ġáĭ¨áĬłáĪĽáĪŃáĬĽĠáĪĿáĪ³áĪĮĠáĬĲáĭįáį¢ĠáīµáĪŃáĮīáĪĻĠáĭ«áĪįáī°áī°áĪ¨áĮİáĪĺĠáĪĿáĪ³áĪĮ": 1645,
      "áĭĽáīµ": 1646,
      "ĠáīĭáĬķáīĭ": 1647,
      "hur": 1648,
      "er,Ġ": 1649,
      "maiĠ": 1650,
      "áĪŀáī½": 1651,
      "on,Ġ": 1652,
      "inĠk": 1653,
      "áĮ¥áĪŃ": 1654,
      "oĠlaĠ": 1655,
      "ajiĠwaĠ": 1656,
      "wakeĠ": 1657,
      "páº¹ÌĢ": 1658,
      "Ġáĭ³": 1659,
      "áĪ«áīµ": 1660,
      "es.": 1661,
      "ninuĠ": 1662,
      "Gu": 1663,
      "NÃŃ": 1664,
      "áī£áīµ": 1665,
      "jáº¹Ìģ": 1666,
      "ĠáĬłáĬ«": 1667,
      "áī¥áĪŃ": 1668,
      "isiwaĠ": 1669,
      "áĪł": 1670,
      "lyĠ": 1671,
      "gbeĠ": 1672,
      "áĪįáĬŃ": 1673,
      "aus": 1674,
      "Ã©t": 1675,
      "ord": 1676,
      "Ġáį£": 1677,
      "kÃ³": 1678,
      "oniĠ": 1679,
      "wasanĠ": 1680,
      "Ġáĭ¨áĪĽ": 1681,
      "ranarĠ": 1682,
      "/áĪĿ": 1683,
      "ern": 1684,
      "ouĠ": 1685,
      "áĭĭáĪįáį¢": 1686,
      "En": 1687,
      "Ġáī¥áĭĻ": 1688,
      "forĠ": 1689,
      "Ã¨nÃ¬yÃłnĠ": 1690,
      "wÃ¡": 1691,
      "1.": 1692,
      "yak": 1693,
      "ĠáĭŃáĮĪ": 1694,
      "aĠf": 1695,
      "abbanĠ": 1696,
      "áĪĭáīµ": 1697,
      "áĬ¨áĪį": 1698,
      "te": 1699,
      "áĪĿáĪ®": 1700,
      "yÃ¬nĠ": 1701,
      "pá»įÌĢĠ": 1702,
      "wand": 1703,
      "daĠd": 1704,
      "ba": 1705,
      "orile-edeĠ": 1706,
      "iya.": 1707,
      "hadiĠ": 1708,
      "Ã²á¹£Ã¨": 1709,
      "annanĠ": 1710,
      "katikaĠ": 1711,
      "yÃ¬ÃŃĠ": 1712,
      "man": 1713,
      "Ġ(BaadaĠyaĠKristo).ĠMatukioĠWaliozaliwaĠ": 1714,
      "báº¹ÌĢ": 1715,
      "Ġáĭĵ/áĪĿ": 1716,
      "haifeĠ": 1717,
      "lÃ©Ġ": 1718,
      "pos": 1719,
      "áĪĭáĪį": 1720,
      "ĠáĮł": 1721,
      "Com": 1722,
      "ĠáĪŀ": 1723,
      "ahar": 1724,
      "áĪ³áĭŃ": 1725,
      "wallonĠ": 1726,
      "iaĠyaĠ": 1727,
      "e.Ġ": 1728,
      "tern": 1729,
      "ÃŃá¹£": 1730,
      "Ind": 1731,
      "sp": 1732,
      "aĠkatikaĠ": 1733,
      "oth": 1734,
      "1-": 1735,
      "ustr": 1736,
      ")ĠjeĠ": 1737,
      "ĠáĪĻ": 1738,
      "ationalĠ": 1739,
      "áī³áĭĬ": 1740,
      "Ag": 1741,
      "oĠl": 1742,
      "nÃŃĠá»įdÃºnĠ": 1743,
      "áĮĤ": 1744,
      "amp": 1745,
      "indaĠ": 1746,
      "Ã¬á¹£": 1747,
      "áĪĿáĪħ": 1748,
      "afiĠ": 1749,
      "ĠáĬłáĪµáī°": 1750,
      "iqu": 1751,
      "nj": 1752,
      "sunaĠ": 1753,
      "ĠáĮ½": 1754,
      "Ã¨r": 1755,
      "adh": 1756,
      "abiĠ": 1757,
      "uwarĠ": 1758,
      "áĪĺáĪŃ": 1759,
      "TanzaniaĠ": 1760,
      "atifuĠ": 1761,
      "enyeĠ": 1762,
      "vi": 1763,
      "ľáĪªáĬ«": 1764,
      "icanĠ": 1765,
      "ras": 1766,
      "ĠáĮİ": 1767,
      "iss": 1768,
      "ĠáĪ³áĭŃ": 1769,
      "Janu": 1770,
      "zaid": 1771,
      "umĠ": 1772,
      "áĮĨ": 1773,
      "we": 1774,
      "ĠáĬ¥áĬķáĭ³": 1775,
      "áĬķáĭ³": 1776,
      "peĠ": 1777,
      "jinaĠ": 1778,
      "aĠd": 1779,
      "be": 1780,
      "lakiniĠ": 1781,
      "IĠ": 1782,
      "ĠáĭĭáĬĵ": 1783,
      "i.Ġ": 1784,
      "ĠáĬ®": 1785,
      "áĭ²áĪµ": 1786,
      "ĠáīłáĪļ": 1787,
      "Mat": 1788,
      "ĠáĪĺáĪµ": 1789,
      "ubl": 1790,
      "a,Ġm": 1791,
      ".áĬł": 1792,
      "áī·": 1793,
      "Ãłt": 1794,
      "esh": 1795,
      "áĮįáĪŃ": 1796,
      "aĠs": 1797,
      "aĠb": 1798,
      "wanzaĠ": 1799,
      "ĠáĪĺáĬķ": 1800,
      "jiĠm": 1801,
      "lim": 1802,
      "OĠ": 1803,
      "zil": 1804,
      "iniĠyaĠ": 1805,
      "ahĠ": 1806,
      "à¤": 1807,
      "áĮłáĪŃ": 1808,
      "ool": 1809,
      "Ġáį¢": 1810,
      "áĭĿáī¥": 1811,
      "i'": 1812,
      "Ġáī¤áī°": 1813,
      "enceĠ": 1814,
      "way": 1815,
      "\".": 1816,
      "áĪĭáĭŃ": 1817,
      "tÃŃĠwá»įÌģnĠ": 1818,
      "omoĠ": 1819,
      "Um": 1820,
      "ten": 1821,
      "áĮĪáĬĺ": 1822,
      "eur": 1823,
      "1,Ġ": 1824,
      "Ġth": 1825,
      "ouv": 1826,
      "Ã¡n": 1827,
      "uv": 1828,
      "form": 1829,
      "áĪĿĠáīł": 1830,
      "tor": 1831,
      "iĠniĠ": 1832,
      "Ã©eĠ": 1833,
      "quiĠ": 1834,
      "áįĸ": 1835,
      "uli": 1836,
      "áº¹Ìģgáº¹ÌģĠ": 1837,
      "á»įbaĠ": 1838,
      "aĠ(": 1839,
      "eleĠ": 1840,
      "lang": 1841,
      "waj": 1842,
      "arab": 1843,
      "jÃ¡": 1844,
      "ungoĠvyaĠ": 1845,
      "Tr": 1846,
      "int": 1847,
      "Ġáĭ¨áĪĨ": 1848,
      "anazartaĠ": 1849,
      "ĠáĪģáĪī": 1850,
      "ber": 1851,
      "Nov": 1852,
      "--": 1853,
      "aĠy": 1854,
      "Ken": 1855,
      "jerum": 1856,
      "ViungoĠvyaĠ": 1857,
      "áº¹Ìģr": 1858,
      "aĠshekararĠ": 1859,
      "lokacinĠ": 1860,
      "antaĠ": 1861,
      "áĭī": 1862,
      "wad": 1863,
      "oci": 1864,
      "emberĠ": 1865,
      "ĠáįĬ": 1866,
      "alikuwaĠm": 1867,
      "Ġ:": 1868,
      "Afir": 1869,
      "áº¹r": 1870,
      "sĠ(": 1871,
      "áĬŀ": 1872,
      "tanaĠ": 1873,
      "Col": 1874,
      "ĠáĬłáĪĿ": 1875,
      "Ġáĭ¨áĪĿ": 1876,
      "gbÃ©Ġ": 1877,
      "afinĠ": 1878,
      "áĮĢáĪĺáĪªáĭ«": 1879,
      "nchiniĠ": 1880,
      "Mal": 1881,
      "yanĠ": 1882,
      "ww": 1883,
      "danĠ": 1884,
      "Nijer": 1885,
      "birninĠ": 1886,
      "ingerezaĠ": 1887,
      "iseĠ": 1888,
      "Kis": 1889,
      "iesĠ": 1890,
      "kÃŃĠ": 1891,
      "watuĠ": 1892,
      "áĪŃáĪµáī²": 1893,
      "adĠ": 1894,
      "tÃł": 1895,
      "Ma": 1896,
      "gab": 1897,
      "ardĠ": 1898,
      "áĪĨáĬĲ": 1899,
      "awalaĠ": 1900,
      "Le": 1901,
      "kÃ²Ġ": 1902,
      "áĪ«áĭĬ": 1903,
      "ins": 1904,
      "CĠ": 1905,
      "ayy": 1906,
      "ĠáĪĺáĭ°áī¥": 1907,
      "wh": 1908,
      "oá¹£Ã¹Ġk": 1909,
      "Ġáĭ¨áĬłáĪĽáĪŃáĬĽĠáĪĿáĪ³áĪĮĠáĬĲáĭįáį¢ĠáīµáĪŃáĮīáĪĻĠáĭ«áĪįáī°áī°áĪ¨áĮİáĪĺĠáĪĿáĪ³áĪĮĠáī°áĪ¨áīµáĬĵĠáĪĿáĪ³áĪĮ": 1910,
      "alif": 1911,
      "ĠáĪ°áĭİáī½": 1912,
      "Ed": 1913,
      "ast": 1914,
      "já»įĠ": 1915,
      "mÃ©": 1916,
      "okoĠ": 1917,
      "áº¹ÌģrÃŃ": 1918,
      "deĠl'": 1919,
      "iya,Ġ": 1920,
      "arg": 1921,
      "Histor": 1922,
      "ká»įÌģ": 1923,
      "ilayaĠ": 1924,
      "a)Ġ": 1925,
      "falmeĠ": 1926,
      "Ben": 1927,
      "áī½áį¢": 1928,
      "itt": 1929,
      "akar": 1930,
      "imuĠ": 1931,
      "2.": 1932,
      "i-": 1933,
      "All": 1934,
      "Ge": 1935,
      "yinĠ": 1936,
      "wah": 1937,
      "bayanĠ": 1938,
      "ÃĮpÃŃnláº¹ÌĢĠ": 1939,
      "mat": 1940,
      "áįİ": 1941,
      "Ġáī¦": 1942,
      "orinĠ": 1943,
      "ĠáĬĲáĮĪáĪŃ": 1944,
      "Feb": 1945,
      "ust": 1946,
      "Ujerum": 1947,
      "ukoĠ": 1948,
      "Gr": 1949,
      "Ãłw": 1950,
      "Ãĵ": 1951,
      "res": 1952,
      "ani.": 1953,
      "icalĠ": 1954,
      "hiy": 1955,
      "an.": 1956,
      "ÃŃr": 1957,
      "Ġáī°áĪĺ": 1958,
      "ĠtÃ³Ġ": 1959,
      ".ĠItokasiĠÃĢwá»įnĠ": 1960,
      "comm": 1961,
      "áĬķáĮįáĪĬáĭĿ": 1962,
      "iluĠ": 1963,
      "Ġáīłáĭĺ": 1964,
      "aoĠ": 1965,
      "áī°áĭį": 1966,
      "0,Ġ": 1967,
      "ashinĠ": 1968,
      "fic": 1969,
      "Ãły": 1970,
      "jiĠ": 1971,
      "áĪĿáį¢": 1972,
      "pamojaĠnaĠ": 1973,
      "JiharĠ": 1974,
      "Amáº¹ÌģrÃŃ": 1975,
      "awanĠ": 1976,
      "po": 1977,
      "iĠkatikaĠ": 1978,
      "2,Ġ": 1979,
      "Con": 1980,
      "gáº¹Ìģgáº¹ÌģĠ": 1981,
      "sun": 1982,
      "áī¦áī½": 1983,
      "anoĠ": 1984,
      "ueĠ": 1985,
      "i,Ġm": 1986,
      "áĮ¸": 1987,
      "ÃĮt": 1988,
      "ká»įÌĢ": 1989,
      "áīµĠáĭ¨": 1990,
      "uch": 1991,
      "Febru": 1992,
      "áĬķĠáĬł": 1993,
      "asil": 1994,
      "áį¥": 1995,
      "jÃºĠ": 1996,
      "stĠ": 1997,
      "Ul": 1998,
      "di": 1999,
      "itiĠ": 2000,
      "farkoĠ": 2001,
      "áĪĽáĪª": 2002,
      "áĮłáīĢ": 2003,
      "de": 2004,
      "kuuĠwaĠ": 2005,
      "ayiĠ": 2006,
      "Ãª": 2007,
      "ĠáīĨ": 2008,
      "Ø§": 2009,
      "si": 2010,
      "Ã¬gbÃł": 2011,
      "tion": 2012,
      "withĠ": 2013,
      "aik": 2014,
      "WaliofarikiĠKarneĠyaĠ": 2015,
      "ankinĠ": 2016,
      "ilÃ©-": 2017,
      "tunĠ": 2018,
      "njeĠ": 2019,
      "Ġáĭ¨áĪļáĮĪáĬĿ": 2020,
      "gu": 2021,
      "gr": 2022,
      "Ãłm": 2023,
      "Ã¬r": 2024,
      "odh": 2025,
      "tareĠdaĠ": 2026,
      "fi": 2027,
      "asar": 2028,
      "Ing": 2029,
      "Ġ3": 2030,
      "Ãł,Ġ": 2031,
      "ĠáĭĵáĪĿ": 2032,
      "manĠ": 2033,
      "thĠ": 2034,
      "aliaĠ": 2035,
      "áĪ¨áĭį": 2036,
      "ĠáĭĵáĪĺáīµ": 2037,
      "á»įÌģkas": 2038,
      "anĠhaifeĠ": 2039,
      "shindiĠwaĠTuzoĠyaĠNobelĠyaĠF": 2040,
      "188": 2041,
      "dÃºnĠ": 2042,
      "25": 2043,
      "naĠku": 2044,
      "jáº¹Ġ": 2045,
      "mar": 2046,
      "upandeĠ": 2047,
      "iĠzaĠ": 2048,
      "áĮĵ": 2049,
      "ikoĠ": 2050,
      "dar": 2051,
      "vit": 2052,
      "mentĠ": 2053,
      "áĭŀ": 2054,
      "otĠ": 2055,
      "gaĠwatanĠ": 2056,
      "Dun": 2057,
      "ĠáĬª": 2058,
      "ialĠ": 2059,
      "áį£Ġáĭ¨": 2060,
      "entr": 2061,
      "áĭ±áĪµ": 2062,
      "zaĠm": 2063,
      "Na": 2064,
      "âĢľ": 2065,
      "Ac": 2066,
      "ĠáĪĿáĬŃ": 2067,
      "má»įÌĢĠ": 2068,
      "aĠdaĠ": 2069,
      "áĮįáī¥": 2070,
      "imĠ": 2071,
      "áĬ¢": 2072,
      "dom": 2073,
      "dagaĠcikinĠ": 2074,
      "6,Ġ": 2075,
      "gbÃ¡": 2076,
      "At": 2077,
      "áĬķĠáīł": 2078,
      "kasanceĠ": 2079,
      "a:Ġ": 2080,
      "4.": 2081,
      "ĠáĪĺáĭ°áī¥Ġ:": 2082,
      "ĠáĬ¥áĭ¨": 2083,
      "áĪĭáĬķáĭµ": 2084,
      "NewĠ": 2085,
      ".áĬ¤": 2086,
      "ameĠ": 2087,
      "ne": 2088,
      "Ãºr": 2089,
      "áĬĸáī½": 2090,
      "shugab": 2091,
      "páº¹ÌĢlÃºĠ": 2092,
      "tareheĠ": 2093,
      "Okt": 2094,
      "atiĠwaĠ": 2095,
      "UniversityĠ": 2096,
      "áįĴ": 2097,
      "iteĠ": 2098,
      "laĠm": 2099,
      ")Ġ(": 2100,
      "aliy": 2101,
      "nchiĠyaĠ": 2102,
      "ĠáĪĭ": 2103,
      "ireĠ": 2104,
      "áĬ¥áĬķ": 2105,
      "zaĠk": 2106,
      "Ur": 2107,
      "gir": 2108,
      "6.": 2109,
      "áĮ¨áĪ¨": 2110,
      "áĭ³áĬķ": 2111,
      "áĮĮ": 2112,
      "pin": 2113,
      "land": 2114,
      "Ã¨t": 2115,
      "Austr": 2116,
      "Em": 2117,
      "add": 2118,
      "pourĠ": 2119,
      "TaĠ": 2120,
      "áĬłáī¥": 2121,
      "dansĠ": 2122,
      "á»Į": 2123,
      "áī³áī¸áĭį": 2124,
      "áīµĠáīł": 2125,
      "ambaĠ": 2126,
      "cr": 2127,
      "part": 2128,
      "niĠk": 2129,
      "Ġáīĥ": 2130,
      "7,Ġ": 2131,
      "ÆĻwallonĠ": 2132,
      "Marekani": 2133,
      "wakaziĠ": 2134,
      "Ãłd": 2135,
      "láº¹ÌĢ": 2136,
      "lÃ¨Ġ": 2137,
      "aĠM": 2138,
      "ult": 2139,
      "aghar": 2140,
      "áĭŃáĪħ": 2141,
      "embaĠ-Ġ": 2142,
      "oĠch": 2143,
      "5.": 2144,
      "ÙĦ": 2145,
      "7.": 2146,
      "áĪ¨áĮĥ": 2147,
      "Ġáº¹gb": 2148,
      "atol": 2149,
      "ĠáĪĺáĬ«": 2150,
      "shiĠneĠ": 2151,
      "sÃŃl": 2152,
      "uuĠ": 2153,
      "Har": 2154,
      "gbogb": 2155,
      "Ġá»įmá»į": 2156,
      "áĮ¦": 2157,
      "wÃ¡Ġ": 2158,
      "olÃ¹": 2159,
      "áĪ¨áĬķ": 2160,
      ").Ġ": 2161,
      "iqueĠ": 2162,
      "áĪĿáĬĵ": 2163,
      "kÃ²": 2164,
      "Des": 2165,
      "sÃ¡": 2166,
      "Tur": 2167,
      "riĠ": 2168,
      "Gh": 2169,
      "2019": 2170,
      "tiĠoĠ": 2171,
      "23": 2172,
      "iak": 2173,
      "utaĠ": 2174,
      "ĠáĪĲ": 2175,
      "ĠáĬ¨áĬł": 2176,
      "11": 2177,
      "arans": 2178,
      "weĠ": 2179,
      "eluĠ": 2180,
      "Ġáī°áīĢ": 2181,
      "áĭįĠáĭ¨": 2182,
      "kÃ³Ġ": 2183,
      "ĠáĬĲáīłáĪ¨": 2184,
      "naĠk": 2185,
      "4,Ġ": 2186,
      "izik": 2187,
      "ousĠ": 2188,
      "áīĨáĮ£": 2189,
      "áĪĪáĭ«": 2190,
      "áīµáĬĵ": 2191,
      "mut": 2192,
      "áĮĪáĭµ": 2193,
      "áī°áĪŃ": 2194,
      "kuj": 2195,
      "veĠ": 2196,
      "auk": 2197,
      "lughaĠ": 2198,
      "áĪĺáĬĵ": 2199,
      "ĠáĪĨáĬĸ": 2200,
      "zamaĠ": 2201,
      "hukum": 2202,
      "askaz": 2203,
      "lat": 2204,
      "5,Ġ": 2205,
      "ĠáīłáĪµ": 2206,
      "beĠ": 2207,
      "sĠofĠ": 2208,
      "ilÃ©Ġ": 2209,
      "inĠdaĠ": 2210,
      "áĪ¨áĭ³": 2211,
      "Gre": 2212,
      "kun": 2213,
      "Kus": 2214,
      "act": 2215,
      "NÃłÃ¬jÃŃrÃŃÃłĠ": 2216,
      "balimb": 2217,
      "aikiĠ": 2218,
      "waĠkwaĠ": 2219,
      ".áĬ¤.áĬł": 2220,
      "áĪĶáĪŃ": 2221,
      "baadaĠ": 2222,
      "ĠáīłáĬ¢áīµáĭ®áĮµáĭ«": 2223,
      "amil": 2224,
      "odhaĠyaĠ": 2225,
      "áīħáĪĿ": 2226,
      "Par": 2227,
      "ika": 2228,
      "Éĵ": 2229,
      "adeĠ": 2230,
      "áĪĺáĪµ": 2231,
      "áĪ°áī¥": 2232,
      "str": 2233,
      "áĬĲáĭļáĪħ": 2234,
      "NĠ": 2235,
      "ulk": 2236,
      "ous": 2237,
      "weny": 2238,
      "áĪĽáĭĬ": 2239,
      "Ġáįķ": 2240,
      "ĠáĭĺáĬķáĭµ": 2241,
      "ilit": 2242,
      "áĪ°áĭį": 2243,
      "sy": 2244,
      "ĠáĬĵáī¸áĭįáį¢": 2245,
      "antarĠ": 2246,
      "usuĠ": 2247,
      "ĠáĪ´": 2248,
      "igh": 2249,
      "arib": 2250,
      "miĠ": 2251,
      "áįħ": 2252,
      "áĮĪáĬĻ": 2253,
      "Wan": 2254,
      "anciĠ": 2255,
      "tÃ¬": 2256,
      "ayoĠ": 2257,
      "áīª": 2258,
      "kÃłĠ": 2259,
      "ĠáĬłáī¥": 2260,
      "ijiĠ": 2261,
      "irg": 2262,
      "Ġáī£áĪĪ": 2263,
      "ĠáĮ¨": 2264,
      "ina": 2265,
      "kung": 2266,
      "Sch": 2267,
      "Ġáĭ¨áĪ°": 2268,
      "dh": 2269,
      "ĠáĮĢáĪĿáĪ®": 2270,
      "iĠyaĠm": 2271,
      "inay": 2272,
      "ene": 2273,
      "Ġáī¤áīµ": 2274,
      "aka": 2275,
      "ign": 2276,
      "áĮ½áĪĲ": 2277,
      "iĠyaĠk": 2278,
      "iaĠmwakaĠwaĠ": 2279,
      "Ġáĭ«áĪĪ": 2280,
      "alit": 2281,
      "ĠáĪ«": 2282,
      "Ã¬b": 2283,
      "ement": 2284,
      "wo": 2285,
      "áĭ¥": 2286,
      "2018": 2287,
      "JohnĠ": 2288,
      "áĪŃáĪ±": 2289,
      "Ġáįĵ": 2290,
      "isp": 2291,
      "RD": 2292,
      "áĬķĠáĬ¨": 2293,
      "Tang": 2294,
      "acc": 2295,
      "sin": 2296,
      "ingerez": 2297,
      "áįĬáīµ": 2298,
      "gbaj": 2299,
      ")ĠniĠ": 2300,
      "Naij": 2301,
      "lughaĠyaĠ": 2302,
      "Ġ\"": 2303,
      "wana": 2304,
      "wá»įÌģ": 2305,
      "ĠáĬ¢áīµáĭ®áĮµáĭ«": 2306,
      "hil": 2307,
      "ric": 2308,
      "tp": 2309,
      "ĠáĮ¦áĪŃ": 2310,
      "Jap": 2311,
      "ohunĠ": 2312,
      "ĠáĬłáī£": 2313,
      "ÃłÃ¡": 2314,
      "ayanĠ": 2315,
      "//": 2316,
      "yaĠM": 2317,
      "rel": 2318,
      "min": 2319,
      "Nor": 2320,
      "áĭ¨áĪŃ": 2321,
      "fromĠ": 2322,
      "ogoĠ": 2323,
      "odĠ": 2324,
      "atur": 2325,
      "ĠáĬłáĮĪáĪŃ": 2326,
      "ĠáĮ¸": 2327,
      "farans": 2328,
      "eh": 2329,
      "Ġáī¥áī»": 2330,
      "eĠofĠ": 2331,
      "áī¡áī¥": 2332,
      "áĪĿĠáĭ¨": 2333,
      "Ġáĭ«áĪĪáĭį": 2334,
      "ania": 2335,
      "áī£áĪĪ": 2336,
      "áĬ¤áĪį": 2337,
      "intaĠ": 2338,
      "Ã¬bÃŃĠ": 2339,
      "áĪįáĮ£": 2340,
      "Ġáº¸": 2341,
      "3.": 2342,
      "Ġáī°áĭĪ": 2343,
      "Kik": 2344,
      "enn": 2345,
      "egbeĠ": 2346,
      "Was": 2347,
      "Ã©k": 2348,
      "eth": 2349,
      "áĪłáĪ¨": 2350,
      "LeĠ": 2351,
      "ihiĠ": 2352,
      "ith": 2353,
      "anj": 2354,
      "y.": 2355,
      "ĠáĪĺáĪį": 2356,
      "http": 2357,
      "%Ġ": 2358,
      "áĭĭáĪį": 2359,
      "uĠ(": 2360,
      "Ùİ": 2361,
      "ĥáĭŃ": 2362,
      "Ang": 2363,
      "afaĠtaĠ": 2364,
      "mon": 2365,
      "áį£Ġáīł": 2366,
      "áī³áĪįáį¢": 2367,
      "Ġá»ĮÌĢ": 2368,
      "Muh": 2369,
      "jáº¹": 2370,
      "://": 2371,
      "OrodhaĠyaĠ": 2372,
      "áĪīáīµ": 2373,
      "azamaĠ": 2374,
      "áĪĭáī¸áĭį": 2375,
      "Oá¹£": 2376,
      "lab": 2377,
      "odunĠ": 2378,
      "Ãłká»įÌģ": 2379,
      "Cl": 2380,
      "e,Ġm": 2381,
      "áº¹l": 2382,
      "ĠtÃŃĠwá»įÌģnĠ": 2383,
      "ÆĻwallonĠÆĻ": 2384,
      "ĠáĬ¦": 2385,
      "alinĠ": 2386,
      "dakeĠ": 2387,
      "Naijir": 2388,
      "áĪĿĠáĬ¨": 2389,
      "Im": 2390,
      "wor": 2391,
      "igb": 2392,
      "Ã©sĠ": 2393,
      "Ġáī°áĬ¨": 2394,
      "ack": 2395,
      "Sp": 2396,
      "plusĠ": 2397,
      "in.": 2398,
      "bar": 2399,
      "apoĠ": 2400,
      "ray": 2401,
      "00Ġ": 2402,
      "Us": 2403,
      "OktobaĠ": 2404,
      "áį²áį±áį»áį": 2405,
      "ĠáĬ¥áĬķáĭ²áĪģ": 2406,
      "ipaĠ": 2407,
      "loĠ": 2408,
      "itwaĠ": 2409,
      "pá»įÌĢ": 2410,
      "endel": 2411,
      "otoĠ": 2412,
      "amaĠm": 2413,
      "kur": 2414,
      "áĬħ": 2415,
      "kuanz": 2416,
      "hivy": 2417,
      "taĠk": 2418,
      "dÃŃ": 2419,
      "áĭįáĪ®": 2420,
      "20Ġ": 2421,
      "ĠáīģáĮ¥áĪŃ": 2422,
      "ĠáĬ¥.áĬ¤.áĬł": 2423,
      "áĭµáĬķ": 2424,
      "áĪļáĭ«": 2425,
      "ar,Ġ": 2426,
      "faraĠ": 2427,
      "Sal": 2428,
      "YorÃ¹": 2429,
      "âĢĵĠ": 2430,
      "tang": 2431,
      "port": 2432,
      "eke": 2433,
      "Wá»įÌģnĠ": 2434,
      "pad": 2435,
      "isi": 2436,
      "ÃłrÃ¹nĠ": 2437,
      "ush": 2438,
      "iveĠ": 2439,
      "Om": 2440,
      "mÃ¡aĠ": 2441,
      "Aw": 2442,
      "fit": 2443,
      "uleĠ": 2444,
      "iĠyaĠK": 2445,
      "ishĠ": 2446,
      "\",Ġ": 2447,
      "Bur": 2448,
      "ĠáĪ¥áĪŃ": 2449,
      "báº¹ÌĢráº¹ÌĢĠ": 2450,
      "wamn": 2451,
      "n.": 2452,
      "Ã¨yÃŃĠ": 2453,
      "tsak": 2454,
      "kuh": 2455,
      "ungeĠ": 2456,
      "ĠáĪī": 2457,
      "tokasi": 2458,
      "hasaĠ": 2459,
      "li": 2460,
      "cewaĠ": 2461,
      "oke": 2462,
      "Will": 2463,
      "kud": 2464,
      "anaĠk": 2465,
      "Ġáĭ¨áĪĨáĬĲ": 2466,
      "sehemuĠ": 2467,
      "máº¹Ìģ": 2468,
      "daĠsukaĠ": 2469,
      "Ufarans": 2470,
      "pol": 2471,
      "Pol": 2472,
      "ĠofĠ": 2473,
      "áĪ¥áī³áīµ": 2474,
      "Tib": 2475,
      "áĬĵáĪį": 2476,
      "ĠSept": 2477,
      "Ġ(BaadaĠyaĠKristo).ĠMatukioĠWaliozaliwaĠWaliofarikiĠKarneĠyaĠ": 2478,
      "lam": 2479,
      "prÃ©": 2480,
      "ItokasiĠ": 2481,
      "Itali": 2482,
      "gunĠ": 2483,
      "ĠáĭĪáĬķ": 2484,
      "yĠ(": 2485,
      "ĠtaĠ": 2486,
      "Ġá»įdunĠ": 2487,
      "eiĠ": 2488,
      "Ġáĭ®": 2489,
      "elleĠ": 2490,
      "ĠApr": 2491,
      "ĠáĬłáīł": 2492,
      "ongoz": 2493,
      "uwanĠ": 2494,
      "uwan": 2495,
      "za": 2496,
      "itedĠ": 2497,
      "ĠáĮ£": 2498,
      "áī¢áĭ«": 2499,
      "pÃ©": 2500,
      "rÃ©Ġ": 2501,
      "áĬķĠáĭ«": 2502,
      "idiĠ": 2503,
      "3,Ġ": 2504,
      "áĮ¤": 2505,
      "ĠáīłáĪĿ": 2506,
      "nom": 2507,
      "sak": 2508,
      "áĪŃáĬŃ": 2509,
      "shig": 2510,
      "ĠáĭµáĪŃ": 2511,
      "ananĠ": 2512,
      "ĠáĪľ": 2513,
      "áĬ¦": 2514,
      "áĮ¨áĪ¨áĪ»": 2515,
      "yar": 2516,
      "ĠáĪĺáĭ°áī¥Ġ:Ġáī°áĪ¨áīµáĬĵĠáĪĿáĪ³áĪĮ": 2517,
      "áĮłáĪ«": 2518,
      "aĠranarĠ": 2519,
      "áĭµáĪĿ": 2520,
      "|ĠRD": 2521,
      "ĠáĬ¨áįį": 2522,
      "bur": 2523,
      "Intern": 2524,
      "InĠ": 2525,
      "ook": 2526,
      "e)Ġ": 2527,
      "yĠofĠ": 2528,
      "áīµĠáĪĺ": 2529,
      "áĬķĠáĪĺ": 2530,
      "iwaĠnaĠ": 2531,
      "ikeĠ": 2532,
      "waiĠ": 2533,
      "o.Ġ": 2534,
      "koaĠwaĠ": 2535,
      "ationsĠ": 2536,
      "oneĠ": 2537,
      "Ã¬k": 2538,
      "áĬķĠáĭ¨": 2539,
      "uhur": 2540,
      "ĠáĪĺáĬ«áĬ¨áĪį": 2541,
      "9.": 2542,
      "Nch": 2543,
      "Ġáī¡": 2544,
      "áĮįáĭļ": 2545,
      "eseĠ": 2546,
      "30": 2547,
      "áĭİáī¹": 2548,
      "Ob": 2549,
      "áĬķáĬĵ": 2550,
      "ĠAg": 2551,
      "ĠáīłáĪĭáĭŃ": 2552,
      "áĪĺáĪĪ": 2553,
      "la": 2554,
      "áĬķáĮī": 2555,
      "áĬ³": 2556,
      "Ġá»įjá»įÌģÃ¬bÃŃĠ": 2557,
      "idanĠ": 2558,
      "kuwaĠm": 2559,
      "wig": 2560,
      "och": 2561,
      "ulik": 2562,
      "21": 2563,
      "Bar": 2564,
      "tun": 2565,
      "Kam": 2566,
      "186": 2567,
      "ĠáīłáĪ°": 2568,
      "biyuĠ": 2569,
      "ĠáīłáĭĺáĪĺáĬĲ": 2570,
      "50": 2571,
      "áīħáĪŃ": 2572,
      "áī¥áĪ¨": 2573,
      "áĪĽáĭŃ": 2574,
      "edĠtoĠ": 2575,
      "Ìģ": 2576,
      "an-": 2577,
      "harĠ": 2578,
      "idĠ": 2579,
      "nÃŃpaĠ": 2580,
      "NÃłÃ¬jÃŃrÃŃÃł": 2581,
      "ÆĻar": 2582,
      "ĠáĬŃáįįáĪĪ": 2583,
      "kasarĠ": 2584,
      "áĪħáĪį": 2585,
      "wannanĠ": 2586,
      "hany": 2587,
      "yáº¹Ġ": 2588,
      "takatifuĠ": 2589,
      "Ray": 2590,
      "8,Ġ": 2591,
      "Lag": 2592,
      "ci": 2593,
      "jÃ¹": 2594,
      "ĠáĬ¥áĪµáĬ¨Ġ": 2595,
      "co": 2596,
      "langu": 2597,
      "iaĠk": 2598,
      "eĠdesĠ": 2599,
      "serik": 2600,
      "áĪĿáĪħáĪŃáīµ": 2601,
      "adar": 2602,
      "Ku": 2603,
      "anenĠ": 2604,
      "osh": 2605,
      "Bl": 2606,
      "iya": 2607,
      "aĠn": 2608,
      "Ã¬s": 2609,
      "gud": 2610,
      "5)Ġ": 2611,
      "187": 2612,
      "babbanĠ": 2613,
      "Ãģ": 2614,
      "surĠ": 2615,
      "daĠakaĠ": 2616,
      "áīµáį¢": 2617,
      "astĠ": 2618,
      "je": 2619,
      "áįĥ": 2620,
      "Ay": 2621,
      "ĠâĢľ": 2622,
      "áĭŃáĭĪ": 2623,
      "ear": 2624,
      "fl": 2625,
      "idaĠ": 2626,
      "sikuĠ": 2627,
      "áīĦ": 2628,
      "oyinĠ": 2629,
      "jama'": 2630,
      "áĬķáĮįáĪĬáĭĿáĬĽ": 2631,
      "filamuĠ": 2632,
      "ech": 2633,
      "gbogboĠ": 2634,
      "aá¹£": 2635,
      "irinĠ": 2636,
      "itu": 2637,
      "finĠ": 2638,
      "dÃ¡Ġ": 2639,
      "áĬķĠáĭŃ": 2640,
      "Ġá»įjá»įÌģĠk": 2641,
      "adiĠ": 2642,
      "lÃ¡Ġ": 2643,
      "ne,Ġ": 2644,
      "kund": 2645,
      ".ĠÃĢwá»įnĠ": 2646,
      "eĠd'": 2647,
      "Lugh": 2648,
      "Qu": 2649,
      "ostiĠ": 2650,
      "ajalis": 2651,
      "woĠ": 2652,
      "ĠáĪ½": 2653,
      "ort": 2654,
      "fer": 2655,
      "outĠ": 2656,
      "ail": 2657,
      "áīĨáĮ£áĮłáĪŃ": 2658,
      "essĠ": 2659,
      "ÉĹanĠ": 2660,
      "áĭįáį¢": 2661,
      "aĠt": 2662,
      "sá»įĠ": 2663,
      "9,Ġ": 2664,
      "fÃŃ": 2665,
      "ound": 2666,
      "ancinĠ": 2667,
      "Ã¡nĠ": 2668,
      "avec": 2669,
      "Ã¨gb": 2670,
      "áĮįáĭļáĬłáī¥": 2671,
      "NigeriaĠ": 2672,
      "Ġáī¦áī³": 2673,
      "iusĠ": 2674,
      "áĪµáī³": 2675,
      "8.": 2676,
      "áĮģ": 2677,
      "lÃ³rÃŃĠ": 2678,
      "say": 2679,
      "ett": 2680,
      "jin": 2681,
      "iyeĠ": 2682,
      "Georg": 2683,
      "leg": 2684,
      "ĠáĬłáĪŃ": 2685,
      "Ser": 2686,
      "ownĠ": 2687,
      "Ã¨reĠ": 2688,
      "áī¥áĪ«": 2689,
      "chiniĠyaĠ": 2690,
      "NiĠ": 2691,
      "isiĠ": 2692,
      "rub": 2693,
      "sukaĠ": 2694,
      "wambaĠ": 2695,
      "wanam": 2696,
      "Et": 2697,
      "jÃ¡Ġ": 2698,
      "itsĠ": 2699,
      "onaĠ": 2700,
      "rib": 2701,
      "já»į": 2702,
      "rec": 2703,
      "Wor": 2704,
      "dab": 2705,
      "áĮĨáī½": 2706,
      "AmerikaĠ": 2707,
      "aĠkas": 2708,
      "i'arĠ": 2709,
      "owoĠ": 2710,
      "emi": 2711,
      "áĪ³áīµ": 2712,
      "áĭ¬": 2713,
      "ejiĠ": 2714,
      "col": 2715,
      "áĬŀáī½": 2716,
      "Ġá»įjá»įÌģÃ¬bÃŃĠnÃŃĠ": 2717,
      "Ingil": 2718,
      "Ãī": 2719,
      "áĪµáĬĵ": 2720,
      "ore": 2721,
      "ĠáĬĲáīłáĪ©": 2722,
      "wasanĠÆĻwallonĠÆĻ": 2723,
      "jiĠwaĠ": 2724,
      "Bir": 2725,
      "oreĠ": 2726,
      "http://": 2727,
      "ani,Ġ": 2728,
      "Af": 2729,
      "Eng": 2730,
      "sontĠ": 2731,
      "Ġáī°áī¥": 2732,
      "Ġáīħáĭ±áĪµ": 2733,
      "emiĠ": 2734,
      "áĪŃáĪµáī²áĭ«áĬķ": 2735,
      "Ġáĭ¨áīĢ": 2736,
      "uataĠ": 2737,
      "War": 2738,
      "histor": 2739,
      "27": 2740,
      "hut": 2741,
      "Ã¬wÃ©Ġ": 2742,
      "Ã©,Ġ": 2743,
      "Agb": 2744,
      "oĠchaĠ": 2745,
      "2-": 2746,
      "ayÃ©Ġ": 2747,
      "aĠtaĠ": 2748,
      "Id": 2749,
      "asharik": 2750,
      "Ã§": 2751,
      "oroĠ": 2752,
      "Ã¨sĠ": 2753,
      "24": 2754,
      "áĭķáĪ«": 2755,
      "Car": 2756,
      "áĮįáĭļáĬłáī¥áĪĶáĪŃ": 2757,
      "báº¹Ìģ": 2758,
      "kutokaĠMarekani": 2759,
      "(200": 2760,
      "LaĠ": 2761,
      "ograp": 2762,
      "³áĪµ": 2763,
      "ĠáĭŃáĮĪáĬĽ": 2764,
      "akanĠ": 2765,
      "utĠ": 2766,
      "ĠH": 2767,
      "umeĠ": 2768,
      "comp": 2769,
      "JanuariĠ": 2770,
      "iam": 2771,
      "Jamhur": 2772,
      "Ik": 2773,
      "kunaĠ": 2774,
      "TazamaĠ": 2775,
      "Paul": 2776,
      "ĠáĪĿáĬŃáĬķáĭ«": 2777,
      "6)Ġ": 2778,
      "ká»į": 2779,
      "asoĠ": 2780,
      "áĪµáĪ«": 2781,
      "ĠáĪ¨": 2782,
      "anninĠ": 2783,
      "ĠáĬłáĪī": 2784,
      "iakaĠ": 2785,
      "Ġáĭĵ/áĪĿĠ-": 2786,
      "áī£áĪĪáĭį": 2787,
      "al-": 2788,
      "JulaiĠ": 2789,
      "hiz": 2790,
      "Ġáº¹ÌĢká»įÌģĠ": 2791,
      "eĠduĠ": 2792,
      "Ã¬nrinĠ": 2793,
      "áĭ¶áī½": 2794,
      "Fil": 2795,
      "mb": 2796,
      "ĠáĬ¨áĪĺ": 2797,
      "ver": 2798,
      "áĪº": 2799,
      "ráº¹Ġ": 2800,
      "ĠáīłáĭļáĪħ": 2801,
      "Muhamm": 2802,
      "abil": 2803,
      "áĮ¥áĬķ": 2804,
      "yÃŃ": 2805,
      "kuuĠ": 2806,
      "whi": 2807,
      "áĮ£áĪį": 2808,
      "áĮįáĪ«": 2809,
      "uxĠ": 2810,
      "atuĠ": 2811,
      "áī¤áīµ": 2812,
      "Ã¬já»įbaĠ": 2813,
      "eraĠ": 2814,
      "MwakaĠ": 2815,
      "umaĠ": 2816,
      "ime": 2817,
      "amfaniĠ": 2818,
      "áĬķáĬķ": 2819,
      "orn": 2820,
      "bin": 2821,
      "iĠwaĠm": 2822,
      "\"Ġ(": 2823,
      "fa": 2824,
      "Afric": 2825,
      "áĬŃáīµ": 2826,
      "áĮĪáĬĵ": 2827,
      "'Ġ": 2828,
      "okeaĠ": 2829,
      "ki": 2830,
      "Ã©esĠ": 2831,
      "Wakrist": 2832,
      "Ã©g": 2833,
      "andĠtheĠ": 2834,
      "Ġáĭ¨áĭĪ": 2835,
      "ofinĠ": 2836,
      "wandishiĠ": 2837,
      ",000": 2838,
      "Mon": 2839,
      "tan": 2840,
      "wÃ²": 2841,
      "is,Ġ": 2842,
      "kumaĠm": 2843,
      "ogunĠ": 2844,
      "dig": 2845,
      "MtakatifuĠ": 2846,
      "ĠAgostiĠ": 2847,
      "áĮĪáī£": 2848,
      "Â«Ġ": 2849,
      "Pet": 2850,
      "achiĠ": 2851,
      "ĠáĬ¥.áĬ¤.áĬł.": 2852,
      "áī³áĭŃ": 2853,
      "aisĠwaĠ": 2854,
      "7)Ġ": 2855,
      "wanz": 2856,
      "kunĠ": 2857,
      "iaĠnaĠ": 2858,
      "shineĠ": 2859,
      "áĬĸáĪŃ": 2860,
      "Ġáĭ¨áĬĲáīłáĪ¨": 2861,
      "with": 2862,
      "nÃŃgbÃł": 2863,
      "áĬĴáĭ«": 2864,
      "ashenĠ": 2865,
      "en,Ġ": 2866,
      "Amur": 2867,
      "ĠáĬŃáįįáĪį": 2868,
      "26": 2869,
      "bÃŃiĠ": 2870,
      "niĠÃ³Ġ": 2871,
      "agharib": 2872,
      "atunĠ": 2873,
      "Ãłp": 2874,
      "ĠtÃºnĠ": 2875,
      "4)Ġ": 2876,
      "rah": 2877,
      "imat": 2878,
      "ukĠ": 2879,
      "gar": 2880,
      "Ãºká»įĠ": 2881,
      "ĠáĪŃ": 2882,
      "auxĠ": 2883,
      "hiyoĠ": 2884,
      "Ġáĭ²": 2885,
      "áĪľáĬķ": 2886,
      "NÃŃĠá»įdÃºnĠ": 2887,
      "cinĠ": 2888,
      "aĠkanĠ": 2889,
      "ĠáĭŃáī£": 2890,
      "samuĠ": 2891,
      "áĭ°áĪ¨áĮĪ": 2892,
      "Ġ/": 2893,
      "Lib": 2894,
      "Mut": 2895,
      "Ij": 2896,
      "istĠ": 2897,
      "áĮ½áĪĲáįį": 2898,
      "has": 2899,
      "elek": 2900,
      "áĪĪáī°": 2901,
      "LesĠ": 2902,
      "ĠáĬłáĬ«áī£áī¢": 2903,
      "gbá»įÌģnĠ": 2904,
      "If": 2905,
      "áº¹ÌĢká»įÌģĠ": 2906,
      "áĬķáį¡": 2907,
      "gáº¹Ìģgáº¹ÌģĠbÃŃĠ": 2908,
      "And": 2909,
      "wÃŃ": 2910,
      "ĠK": 2911,
      "áĪ«áĪį": 2912,
      "yoĠ": 2913,
      "ĠáĬ¥áĬķáĮį": 2914,
      "âĢĺ": 2915,
      "lor": 2916,
      "iceĠ": 2917,
      "jÃº": 2918,
      "LÃ¡": 2919,
      "10Ġ": 2920,
      "iniĠm": 2921,
      "mp": 2922,
      "ini.": 2923,
      "Ç¹": 2924,
      "Ġáįĸ": 2925,
      "wigiz": 2926,
      "áī£áĭŃ": 2927,
      "alm": 2928,
      "ViungoĠvyaĠnjeĠ": 2929,
      "28": 2930,
      "alip": 2931,
      "her": 2932,
      "áĪįáīħ": 2933,
      "dayaĠ": 2934,
      "alam": 2935,
      "Ã³nĠ": 2936,
      "shindiĠwaĠTuzoĠyaĠNobelĠyaĠTib": 2937,
      "Man": 2938,
      "siy": 2939,
      "atolikiĠ": 2940,
      "cent": 2941,
      "ĠF": 2942,
      "vil": 2943,
      "áĬķáĮĭ": 2944,
      "ine": 2945,
      "áĪŃáĭĿ": 2946,
      "k.": 2947,
      "anzaĠ": 2948,
      "Ã©kerÃ©Ġ": 2949,
      "ini": 2950,
      "áĮĪáĬķ": 2951,
      "eweĠ": 2952,
      "sehemuĠyaĠ": 2953,
      "ĠáĬłáīĨáĮ£áĮłáĪŃ": 2954,
      "umiaĠ": 2955,
      "br": 2956,
      "Jos": 2957,
      "wá»įÌģĠ": 2958,
      "lil": 2959,
      "saiĠ": 2960,
      "ĠáĮįáĭĽáīµ": 2961,
      "als": 2962,
      "juuĠyaĠ": 2963,
      "AfirkaĠ": 2964,
      ".ĠItokasi": 2965,
      "áīĢáĪŃ": 2966,
      "Amáº¹ÌģrÃŃkÃł": 2967,
      "al'": 2968,
      "aniĠyaĠ": 2969,
      "áĪ¨áĮį": 2970,
      "ĠáĬłáĬķáĭ±": 2971,
      "wá»įÌĢ": 2972,
      "yp": 2973,
      "áĮłáīĥ": 2974,
      "ĠáĬ¥áĭ«": 2975,
      "akinĠ": 2976,
      "NÃłÃ¬jÃŃrÃŃÃł.": 2977,
      "Ã©n": 2978,
      "uzikiĠ": 2979,
      "utarĠ": 2980,
      "KwaĠ": 2981,
      "onn": 2982,
      "19Ġ": 2983,
      "áĭµáĪŀ": 2984,
      "lÃ³g": 2985,
      "enoĠ": 2986,
      "áįĪáĪŃ": 2987,
      "áĮĪáĪĪ": 2988,
      "3)Ġ": 2989,
      "ojaĠ": 2990,
      "ĠáĬ¥áĬķáĭ°áĪļ": 2991,
      "áĮİáĪŃ": 2992,
      "wasanĠÆĻwallonĠÆĻafaĠtaĠ": 2993,
      "ĠáĬłáĪĭ": 2994,
      "Mas": 2995,
      "áī³áĪį": 2996,
      "usiĠ": 2997,
      "ĠáĬ¨áī°áĪŀáī½": 2998,
      "á»įÌģkasÃŃĠ": 2999,
      "tÃŃ": 3000,
      "keĠ": 3001,
      "áįĢ": 3002,
      "áĭŃáĬĵ": 3003,
      "iyanĠ": 3004,
      "lÃ¡n": 3005,
      "eyĠ": 3006,
      "shenĠ": 3007,
      "Brit": 3008,
      "Ipin": 3009,
      "áīµáĪŃ": 3010,
      "waf": 3011,
      "á»įÌģÃ¬d": 3012,
      "áº¹Ìģrá»įÌģÃ¬d": 3013,
      "baadaĠyaĠ": 3014,
      "Ã©l": 3015,
      "áĭ°áīµ": 3016,
      "áį£ĠáĬ¨": 3017,
      "Ã¡st": 3018,
      "Se": 3019,
      "rew": 3020,
      "wÃłĠnÃŃĠ": 3021,
      "Ã¡stáº¹Ìģrá»įÌģÃ¬d": 3022,
      "JuniĠ": 3023,
      "Ir": 3024,
      "soci": 3025,
      "Ġáº¹láº¹Ìģ": 3026,
      "Eb": 3027,
      "ojo": 3028,
      "itionĠ": 3029,
      "ajalisarĠ": 3030,
      "lÃ³Ġ": 3031,
      "ĠáĬĥáĭŃ": 3032,
      "IS": 3033,
      "asheĠ": 3034,
      "ĠáĪ¶": 3035,
      "For": 3036,
      "Uch": 3037,
      "wÃ²Ġ": 3038,
      "Kir": 3039,
      "ubaĠ": 3040,
      "ingĠtheĠ": 3041,
      "us,Ġ": 3042,
      "sĠandĠ": 3043,
      "kutokaĠMarekaniĠ": 3044,
      "Eur": 3045,
      "áĬĺ": 3046,
      "vol": 3047,
      "Ġáº¹gbáº¹ÌģĠ": 3048,
      "wasanĠÆĻwallonĠÆĻafaĠtaĠÆĻasarĠ": 3049,
      "hiop": 3050,
      "Kib": 3051,
      "Franc": 3052,
      "LughaĠ": 3053,
      "áī¥áĪµ": 3054,
      "áĪĽáĬĸ": 3055,
      "sannanĠ": 3056,
      "Od": 3057,
      "daĠt": 3058,
      "peke": 3059,
      "áĭ¨áīµ": 3060,
      "endeleaĠ": 3061,
      "indiĠ": 3062,
      "adil": 3063,
      "ĠáĪģáĪĪáīµ": 3064,
      "eĠdeĠ": 3065,
      "ition": 3066,
      "ĠáĭĺáĪĺ": 3067,
      "áĪı": 3068,
      "áĪĳ": 3069,
      "tÃ¬Ġk": 3070,
      "eniĠ": 3071,
      "ĠáĭŃáī½": 3072,
      "áĬŃáĪµ": 3073,
      "orÃŃláº¹ÌĢĠ": 3074,
      "40": 3075,
      "Ã¹ĠK": 3076,
      "29": 3077,
      "Mis": 3078,
      "áĪĪáĭ«áĭ©": 3079,
      "ungiyarĠ": 3080,
      "áĪ°áĪ«": 3081,
      "ĠáĪĽáĪŃ": 3082,
      "kungiyarĠ": 3083,
      "mÃ¬n": 3084,
      "oisĠ": 3085,
      "wish": 3086,
      "avecĠ": 3087,
      "aim": 3088,
      "wilayaĠ": 3089,
      "Ġáĭ©": 3090,
      "Of": 3091,
      "lÃ¡raĠ": 3092,
      "Ã²k": 3093,
      "áĬ¬": 3094,
      "UnitedĠ": 3095,
      "pÃ¨Ġ": 3096,
      "udiĠ": 3097,
      "wasuĠ": 3098,
      "Haus": 3099,
      "ĠáĪ¸": 3100,
      "Ġáī´": 3101,
      "lakeĠ": 3102,
      "185": 3103,
      "shekararĠ201": 3104,
      "ĠáĪĿáĬķáĮ": 3105,
      "uss": 3106,
      "Ã¡stáº¹Ìģrá»įÌģÃ¬dÃ¬": 3107,
      "mÃ©j": 3108,
      "áº¸": 3109,
      "yenyeĠ": 3110,
      "FebruariĠ": 3111,
      "ika.": 3112,
      "áĭĸ": 3113,
      "áīµĠáĬ¨": 3114,
      "áĪĪáĭŃ": 3115,
      "omiĠ": 3116,
      "nÃŃĠibiĠ": 3117,
      "ishaĠm": 3118,
      "ĠáĬłáīłáī£": 3119,
      "atedĠ": 3120,
      "ilom": 3121,
      "shindiĠwaĠTuzoĠyaĠNobelĠyaĠFizik": 3122,
      "lâĢĻ": 3123,
      "ÃłkÃ³": 3124,
      "aĠyaĠm": 3125,
      "1)Ġ": 3126,
      "rá»įÌĢĠ": 3127,
      "Char": 3128,
      "ĠáĪĮáĪĭ": 3129,
      "oph": 3130,
      "aĠkwaĠm": 3131,
      "áĪĺáĪ¨": 3132,
      "ĠnaĠ": 3133,
      "edĠtheĠ": 3134,
      ",000Ġ": 3135,
      "wÃ©Ġ": 3136,
      "emp": 3137,
      "ĠáĭĪáīħ": 3138,
      "ĠáĭĺáĪĺáĬĲ": 3139,
      "anĠhaifeĠshiĠ": 3140,
      "publ": 3141,
      "yÃ©Ġ": 3142,
      "áīµĠáĬł": 3143,
      "bÃ¹nĠ": 3144,
      "asiasaĠ": 3145,
      "erĠ(": 3146,
      "na": 3147,
      "ĠáĮ¦áĪŃáĬĲáīµ": 3148,
      "iaĠ(": 3149,
      "ĠáĭĵáĪĺáī³áīµ": 3150,
      "wa.": 3151,
      "³áį": 3152,
      "áĪŃáĪĺáĬķ": 3153,
      "ĠáĬ¥áĬĵĠáĭ¨": 3154,
      "ĠáĪĥáĭŃ": 3155,
      "elop": 3156,
      "áī±áĪĿ": 3157,
      "asharaĠ": 3158,
      "áĪĿáĪŃ": 3159,
      "UlayaĠ": 3160,
      "áĮįáī£": 3161,
      "whichĠ": 3162,
      "áĭ°áĪį": 3163,
      "Nd": 3164,
      "áĪªáĬ«áĭĬ": 3165,
      "Worl": 3166,
      "áĪįáĮį": 3167,
      "Ug": 3168,
      "ashiĠ": 3169,
      "lá»įĠsÃŃĠ": 3170,
      "ĠáĪµáĪ«": 3171,
      "ĠáĪµáĪŃ": 3172,
      "yaĠKem": 3173,
      "hab": 3174,
      "wandaĠyaĠ": 3175,
      "Ap": 3176,
      "Mad": 3177,
      "jáº¹ÌģĠp": 3178,
      "IpinleĠ": 3179,
      "Uk": 3180,
      "lÃº": 3181,
      "Pl": 3182,
      "Ġáĭ¨áĪĺáĮĢáĪĺáĪªáĭ«": 3183,
      "Ùħ": 3184,
      "áĮłáĪ¨": 3185,
      "22": 3186,
      "onÃŃ": 3187,
      "ĠáĪ²áĭ«": 3188,
      "ĠáĬłáĭŃáĬĲáīµ": 3189,
      "Lond": 3190,
      "AĠcikinĠ": 3191,
      "kiĠ": 3192,
      "kan": 3193,
      "áĪįáĭµ": 3194,
      "Ãłá¹£": 3195,
      "w.": 3196,
      "aĠkamaĠ": 3197,
      "UjerumaniĠ": 3198,
      "akarĠ": 3199,
      "niĠwá»įÌģnĠ": 3200,
      "ojoibiĠ": 3201,
      "Rob": 3202,
      "dr": 3203,
      "allyĠ": 3204,
      "Mor": 3205,
      "tonĠ": 3206,
      "autiĠ": 3207,
      "lÃ¡náº¹Ìģ": 3208,
      "áĪĭáĪĪ": 3209,
      "Waliozali": 3210,
      "Cr": 3211,
      "ubwaĠ": 3212,
      "ĠáĬłáĪ¨": 3213,
      "oĠkatikaĠ": 3214,
      "terĠ": 3215,
      "já»įÌģ": 3216,
      "áĪŃáĭµ": 3217,
      "acceĠ": 3218,
      "aun": 3219,
      "esĠ(": 3220,
      "ahaif": 3221,
      "áĪĲáĬķáĪµ": 3222,
      "qu'": 3223,
      "ĠáĬĲáīłáĪ¨áį¢": 3224,
      "eziĠ": 3225,
      "JinaĠ": 3226,
      "jÃ¡deĠ": 3227,
      "Dec": 3228,
      "Oc": 3229,
      "ishiĠwaĠ": 3230,
      "KatikaĠ": 3231,
      "Pe": 3232,
      "áĭĵáĪĪáĪĿ": 3233,
      "ĠáĭŃáī³": 3234,
      "ĠáĭĽ": 3235,
      "io": 3236,
      "áĭ®áĬķ": 3237,
      "áĭįĠáīł": 3238,
      "kuz": 3239,
      "Ã¬gb": 3240,
      "Ġáį²áį±áį»áį": 3241,
      "áīłáī¥": 3242,
      "ĠMachiĠ": 3243,
      "ManazartaĠ": 3244,
      "áĬĲáĮĪáĪŃ": 3245,
      "esĠdeĠ": 3246,
      ",ĠÃ³Ġ": 3247,
      "aĠh": 3248,
      "umm": 3249,
      "áĪĿáį¡": 3250,
      "áĭįáĪ®áįĵ": 3251,
      "ishwaĠ": 3252,
      "Ã¬gbÃłjÃ¡Ġ": 3253,
      "iiĠ": 3254,
      "má»įÌģ": 3255,
      "UingerezaĠ": 3256,
      "tÃ¬ĠkÃ©kerÃ©Ġ": 3257,
      "ment": 3258,
      "fÃºn": 3259,
      "ukanĠ": 3260,
      "Tanzania": 3261,
      "awoĠ": 3262,
      "ĠáĭĪáĪŃ": 3263,
      "landĠ": 3264,
      "aliĠyaĠ": 3265,
      "ĠáĬĲáĮĪáĪ¥áī³áīµ": 3266,
      "sÃŃláº¹ÌĢĠ": 3267,
      "adiĠyaĠ": 3268,
      "áįįáĪ«": 3269,
      "lÃ¡náº¹ÌģtÃ¬ĠkÃ©kerÃ©Ġ": 3270,
      "jinaĠlaĠ": 3271,
      "Per": 3272,
      "etaĠ": 3273,
      "ĠáĪĮáĪİáī½": 3274,
      "ĠMeiĠ": 3275,
      "shugabanĠ": 3276,
      "ĠáĬ³áĪµ": 3277,
      "bug": 3278,
      "ĠáĪłáĪ": 3279,
      "Jami'arĠ": 3280,
      "ar.": 3281,
      "ĠApriliĠ": 3282,
      "www.": 3283,
      "iĠkamaĠ": 3284,
      "nÃŃĠibiĠÃ¬gbÃłjÃ¡Ġ": 3285,
      "itÃ©Ġ": 3286,
      "áĮĢáĪĺáĪŃáĭ«": 3287,
      "ĠáĬ¥áĪŃ": 3288,
      "bas": 3289,
      "Ã¬pÃŃnláº¹ÌĢĠ": 3290,
      "á¹£eĠ": 3291,
      "Ã¨gbÃ¨Ġ": 3292,
      "duniyaĠ": 3293,
      "lÃ¡náº¹ÌģtÃ¬ĠkÃ©kerÃ©ĠnÃŃĠibiĠÃ¬gbÃłjÃ¡Ġ": 3294,
      "kuk": 3295,
      "ĠáĬ¥áĮħ": 3296,
      "kamaĠ": 3297,
      "áĪĭáĪĿ": 3298,
      "lÃ¡náº¹ÌģtÃ¬ĠkÃ©kerÃ©ĠnÃŃĠibiĠÃ¬gbÃłjÃ¡ĠÃ¡stáº¹Ìģrá»įÌģÃ¬dÃ¬": 3299,
      "ĠáĪĽáĪµ": 3300,
      "aĠaĠ": 3301,
      "by": 3302,
      "aĠmwakaĠwaĠ": 3303,
      "red": 3304,
      "áĭĮ": 3305,
      "akwaiĠ": 3306,
      "ĠáĬ©": 3307,
      "ĠtÃŃ": 3308,
      "sur": 3309,
      "60": 3310,
      "áīµáį£": 3311,
      "jáº¹ÌģĠplÃ¡náº¹ÌģtÃ¬ĠkÃ©kerÃ©ĠnÃŃĠibiĠÃ¬gbÃłjÃ¡ĠÃ¡stáº¹Ìģrá»įÌģÃ¬dÃ¬": 3312,
      "Her": 3313,
      "2)Ġ": 3314,
      "ĠáĪĽáĪĪáīµĠáĬĲáĭįáį¢": 3315,
      "Min": 3316,
      "The": 3317,
      "ustĠ": 3318,
      "bayaĠ": 3319,
      "cour": 3320,
      "iliĠyaĠ": 3321,
      "áĬĵĠáĭ¨": 3322,
      "®áī½": 3323,
      "zab": 3324,
      "inat": 3325,
      "ĠáĪįáĭ©": 3326,
      "áīłáĪĭ": 3327,
      "áį¦Ġ": 3328,
      "hanyarĠ": 3329,
      "ainĠ": 3330,
      "odaĠ": 3331,
      "áĪµáĪĪ": 3332,
      "áĭ°áī¡áī¥": 3333,
      "orÃŃláº¹ÌĢĠÃ¨dÃ¨Ġ": 3334,
      "orÃŃĠ": 3335,
      "áĮ£áĪĿ": 3336,
      "reg": 3337,
      "Ã´": 3338,
      "una": 3339,
      "gabaĠ": 3340,
      "áįĪáĪ¨áĬķ": 3341,
      "car": 3342,
      "fur": 3343,
      "aikinĠ": 3344,
      "amad": 3345,
      "ĠáĪĿáĭµáĪŃ": 3346,
      "May": 3347,
      "haÉĹ": 3348,
      "anb": 3349,
      "ÃłbÃŃĠ": 3350,
      "áĬĵĠáīł": 3351,
      "pakaĠ": 3352,
      "atĠtheĠ": 3353,
      "cons": 3354,
      "áī¶áĪµ": 3355,
      "oleĠ": 3356,
      "ostĠ": 3357,
      "iakaĠm": 3358,
      "i)Ġ": 3359,
      "ongoĠ": 3360,
      "gwamn": 3361,
      "aká»į": 3362,
      "shekaruĠ": 3363,
      "Hu": 3364,
      "áĪªáĭİáī½": 3365,
      "wakatiĠwaĠ": 3366,
      "áĭĪáĭ°": 3367,
      "Sout": 3368,
      "ini,Ġ": 3369,
      "DolaĠ": 3370,
      "Gab": 3371,
      "Marej": 3372,
      "Ã¬má»įÌĢĠ": 3373,
      "VĠ": 3374,
      "ifuat": 3375,
      "ĠáĪĿáĬķ": 3376,
      "184": 3377,
      "wereĠ": 3378,
      "ĠáĭķáĪĪáīµ": 3379,
      "ojÃºĠ": 3380,
      "5Ġ-Ġ": 3381,
      "áĮ¨áĪĽáĪª": 3382,
      "NationalĠ": 3383,
      "sit": 3384,
      "2020": 3385,
      "AfricanĠ": 3386,
      "ĠáĭĻ": 3387,
      "ful": 3388,
      "Ġáĭľ": 3389,
      "3-": 3390,
      "zinaz": 3391,
      "Ã¡t": 3392,
      "endaĠ": 3393,
      "Ã²á¹£": 3394,
      "áīĢáīµ": 3395,
      "ungan": 3396,
      "NewĠYor": 3397,
      "i:Ġ": 3398,
      "School": 3399,
      "áĭ«áĭį": 3400,
      "áĭ²áĪµĠáĬłáīłáī£": 3401,
      "okuwaĠ": 3402,
      "Stat": 3403,
      "Yun": 3404,
      "Ġtr": 3405,
      "áĭİáĪµ": 3406,
      "laĠk": 3407,
      "Shugab": 3408,
      "áĬ¨áĭļáĪħ": 3409,
      "áĮ¢": 3410,
      "pat": 3411,
      "Ãłti": 3412,
      "áī²áĬ«": 3413,
      "omeĠ": 3414,
      "wur": 3415,
      "9)Ġ": 3416,
      "mÃŃ": 3417,
      "anyaĠ": 3418,
      "treĠ": 3419,
      "áĪĭáīħ": 3420,
      "dÃ©Ġ": 3421,
      "ĠáĬłáĭį": 3422,
      "omin": 3423,
      "áĪ¹": 3424,
      "Ger": 3425,
      "aĠK": 3426,
      "Re": 3427,
      "ÙĬ": 3428,
      "sĠdeĠ": 3429,
      "ultur": 3430,
      "NÃŃĠ": 3431,
      "ener": 3432,
      "Wah": 3433,
      "Farans": 3434,
      "unguĠ": 3435,
      "sababuĠ": 3436,
      "Pop": 3437,
      "eneoĠlaĠ": 3438,
      "wengiĠ": 3439,
      "má»įÌĢ": 3440,
      "Waliofariki": 3441,
      "Ã³ĠtiĠ": 3442,
      "thatĠ": 3443,
      "áĬ¨áĪĪ": 3444,
      "shindiĠwaĠTuzoĠyaĠNobelĠyaĠKem": 3445,
      "jag": 3446,
      "sikuĠyaĠ": 3447,
      "oir": 3448,
      "aduĠ": 3449,
      "old": 3450,
      "Sik": 3451,
      "iny": 3452,
      "30Ġ": 3453,
      "ĠáĬ¨áįįáī°áĬĽ": 3454,
      "ĠáĪĽáĭķ": 3455,
      "Waliozaliwa": 3456,
      "Ã²á¹£Ã¨rÃ©": 3457,
      "HeĠ": 3458,
      "hivyoĠ": 3459,
      "Leg": 3460,
      ".ĠK": 3461,
      "ĠáīĥáĪį": 3462,
      "lÃ¡ti": 3463,
      "e:Ġ": 3464,
      "Ġáī¥áĪİ": 3465,
      "áĪĭáĭĬ": 3466,
      "yáº¹": 3467,
      "áĪĭáĬŃ": 3468,
      "áĭ°áĪĿ": 3469,
      "áīłáĪį": 3470,
      "Roma,Ġ": 3471,
      "áī«": 3472,
      "ziliz": 3473,
      "esab": 3474,
      "áĮįáĪŃĠáĬ³áĪµ": 3475,
      "Wh": 3476,
      "¹¢": 3477,
      "oul": 3478,
      "wacceĠ": 3479,
      "anaĠnaĠm": 3480,
      "gbajÃº": 3481,
      "iĠkar": 3482,
      "ĠáĬłáĪµáī°áĭ³": 3483,
      "utawalaĠ": 3484,
      "UniversityĠofĠ": 3485,
      "100": 3486,
      "Be": 3487,
      "arenĠ": 3488,
      "má»į": 3489,
      "ominĠ": 3490,
      "Ts": 3491,
      "áīłáĭļáĪħ": 3492,
      "oduc": 3493,
      "Ã¨tÃ²Ġ": 3494,
      "Part": 3495,
      "áĬĵĠáĪĺ": 3496,
      "King": 3497,
      "áĬ¢áīµáĭ®áĮµáĭ«": 3498,
      "atikaĠk": 3499,
      "ĠáīµáĪĿáĪħáĪŃáīµ": 3500,
      "egeĠ": 3501,
      "Kit": 3502,
      "Mt": 3503,
      "awai": 3504,
      "ĠáĪĪáĪĿ": 3505,
      "Europ": 3506,
      "hukoĠ": 3507,
      "ÃłĠlaĠ": 3508,
      "Ġm": 3509,
      "áīµĠáį": 3510,
      "ham": 3511,
      "wenyeĠm": 3512,
      "áī¨": 3513,
      "ĠáĬłáĪ«": 3514,
      "áīĢáĪĺ": 3515,
      "aĠS": 3516,
      "atinĠ": 3517,
      "Ã²á¹£Ã¨rÃ©Ġ": 3518,
      "tob": 3519,
      "ilion": 3520,
      "áĪĬáĭ«": 3521,
      "laf": 3522,
      "Ġáīłáī¥": 3523,
      "ĠáĭĭáĬĵĠáĬ¨áī°áĪĽ": 3524,
      "Ethiop": 3525,
      "Igb": 3526,
      "abilaĠ": 3527,
      "Ġáī°áĪ«": 3528,
      "kal": 3529,
      "áīĢáĭį": 3530,
      "Ġáī£áĪħ": 3531,
      "MwakaĠwaĠ": 3532,
      "ariĠwaĠ": 3533,
      "80": 3534,
      "nyingiĠ": 3535,
      "ajiĠwaĠfilamuĠ": 3536,
      "Ġáĭ¨áĮį": 3537,
      "áĭ®áī½": 3538,
      "Kiswah": 3539,
      "nÃłĠ": 3540,
      "Op": 3541,
      "ÃłgbÃ©": 3542,
      "edĠinĠ": 3543,
      "roup": 3544,
      "nÃ¬": 3545,
      "lĠ": 3546,
      "Ãºgb": 3547,
      "kumaĠtaĠ": 3548,
      "utiĠ": 3549,
      "Ã¡r": 3550,
      "amfaninĠ": 3551,
      "akos": 3552,
      "suk": 3553,
      "Waz": 3554,
      "Ã¬nĠ": 3555,
      "edĠbyĠ": 3556,
      "ĠáĪĦ": 3557,
      "áįĮ": 3558,
      "ĠØ": 3559,
      "afr": 3560,
      "Ġ(áĬ¨": 3561,
      "fáº¹ÌģĠ": 3562,
      "allĠ": 3563,
      "ys": 3564,
      "chang": 3565,
      "nÃŃbiĠ": 3566,
      "pop": 3567,
      "ableĠ": 3568,
      "aguz": 3569,
      "Hisp": 3570,
      "TazamaĠpiaĠ": 3571,
      "ux": 3572,
      "dis": 3573,
      "ukuĠ": 3574,
      "daĠtaĠ": 3575,
      "áĭĪáĮ£": 3576,
      "utuĠ": 3577,
      "waĠkatikaĠ": 3578,
      "áįįáĪªáĬ«": 3579,
      "Di": 3580,
      "Uingerez": 3581,
      "áī³áĭį": 3582,
      "umbaĠ": 3583,
      "oĠsiĠ": 3584,
      "atib": 3585,
      "sÃ¬nĠ": 3586,
      "imaĠ": 3587,
      "Kad": 3588,
      "Ġáĭ®áĪĲáĬķáĪµ": 3589,
      "lik": 3590,
      "1,": 3591,
      "Ġáī¥áĪŃ": 3592,
      "1Ġ-Ġ": 3593,
      "AwonĠ": 3594,
      "adayeĠ": 3595,
      "áīłáĪ«": 3596,
      "wanaf": 3597,
      "Abd": 3598,
      "jáº¹ÌģĠplÃ¡náº¹ÌģtÃ¬ĠkÃ©kerÃ©ĠnÃŃĠibiĠÃ¬gbÃłjÃ¡ĠÃ¡stáº¹Ìģrá»įÌģÃ¬dÃ¬.ĠItokasiĠ": 3599,
      "8)Ġ": 3600,
      "ensĠ": 3601,
      ".ĠB": 3602,
      "ryĠ": 3603,
      "áĮĬáĭľ": 3604,
      "On": 3605,
      "enz": 3606,
      "arĠm": 3607,
      "imoĠ": 3608,
      "Ġ(áĬ¥": 3609,
      "olon": 3610,
      "WorldĠ": 3611,
      "oaĠ": 3612,
      "ĠáĬłáĪĽ": 3613,
      "aĠyaĠk": 3614,
      "áĬĸáĪµ": 3615,
      "odeĠ": 3616,
      "iyyarĠ": 3617,
      "áīłáī°": 3618,
      "serv": 3619,
      "ojaĠwaĠ": 3620,
      "áĪ³áĭĬ": 3621,
      "mÃºĠ": 3622,
      "ĠáĬ¨áĪļ": 3623,
      "uĠzaĠ": 3624,
      "eny": 3625,
      "akatifuĠ": 3626,
      "Ġáį¡áį¡": 3627,
      "áĮĪáĪ©": 3628,
      "ĠáĪ¥áĪ«": 3629,
      "tain": 3630,
      "al,Ġ": 3631,
      "ĠáĭŃáī³áĭĪ": 3632,
      "9Ġ-Ġ": 3633,
      "eurĠ": 3634,
      "o:Ġ": 3635,
      "jiniĠ": 3636,
      "yÃ³": 3637,
      "áĪ«áĪ±": 3638,
      ".ĠManazartaĠ": 3639,
      "ÃłĠl'": 3640,
      "AareĠ": 3641,
      "Musul": 3642,
      "Dr": 3643,
      "rat": 3644,
      "inter": 3645,
      "Colleg": 3646,
      "RomaĠ": 3647,
      "ĠkwaĠ": 3648,
      "Dav": 3649,
      "Ġ(áĭ¨": 3650,
      "toĠtheĠ": 3651,
      "ĠáĬ£": 3652,
      "sheĠ": 3653,
      "esĠetĠ": 3654,
      "owĠ": 3655,
      "yad": 3656,
      ")Ġáĭ¨": 3657,
      "má»įÌģĠ": 3658,
      "áĬķáī²": 3659,
      "ĠáĬ¥áĬķáĭ²áĪģáĪĿ": 3660,
      "Og": 3661,
      "WilayaĠ": 3662,
      "áĪĿáį£": 3663,
      "áī£áī¸áĭį": 3664,
      "awa,Ġ": 3665,
      "Os": 3666,
      "wa,Ġ": 3667,
      "un,Ġ": 3668,
      "Kil": 3669,
      "Kim": 3670,
      "InternationalĠ": 3671,
      "pÃł": 3672,
      "tsakaninĠ": 3673,
      "ier": 3674,
      "fas": 3675,
      "áĪ³áī¥": 3676,
      "cont": 3677,
      "alik": 3678,
      "butĠ": 3679,
      "aĠma": 3680,
      "Ng": 3681,
      "wakil": 3682,
      "kuanziaĠ": 3683,
      "ĠáīĭáĬķáīĭáĭİáī½": 3684,
      "IIĠ": 3685,
      "Wam": 3686,
      "Ġ4": 3687,
      "ÙĨ": 3688,
      "atiĠyaĠm": 3689,
      "Ã¡l": 3690,
      "KenyaĠ": 3691,
      "overn": 3692,
      "EnĠ": 3693,
      "niĠnaĠ": 3694,
      "ahariĠ": 3695,
      "áĭĪáĪ°": 3696,
      "nÃ¡Ãł": 3697,
      "tit": 3698,
      "lant": 3699,
      "erÃ©": 3700,
      "yÃłĠ": 3701,
      "Kal": 3702,
      "hat": 3703,
      "Ã©c": 3704,
      "angaz": 3705,
      "waĠniĠ": 3706,
      "ait": 3707,
      "áĪ¬áīµ": 3708,
      "7Ġ-Ġ": 3709,
      "abl": 3710,
      "NigerianĠ": 3711,
      "gÃŃ": 3712,
      "s'": 3713,
      "ĠáĪ±": 3714,
      "oloj": 3715,
      "Mag": 3716,
      "ĠáĪĪáĬł": 3717,
      "12Ġ": 3718,
      "70": 3719,
      "áĪįáĪµ": 3720,
      "kutokaĠnchiĠyaĠ": 3721,
      "Ġáĭ¶": 3722,
      "WakristoĠ": 3723,
      "eriaĠ": 3724,
      "akoĠ": 3725,
      "ĠáĬ¨áĭļáĭ«": 3726,
      "itaĠceĠ": 3727,
      "ĠáĬłáĪľáĪªáĬ«": 3728,
      "MkoaĠwaĠ": 3729,
      "iĠdaĠ": 3730,
      "áĬĸáĪ©": 3731,
      "IlĠ": 3732,
      "NijeriyaĠ": 3733,
      "otherĠ": 3734,
      "uis": 3735,
      "shindiĠwaĠTuzoĠyaĠNobelĠyaĠTibaĠmwakaĠwaĠ": 3736,
      "ight": 3737,
      "Ġáĭ°áĪ¨áĮĥ": 3738,
      "kir": 3739,
      "ĠáĭĪáĬķáĭµ": 3740,
      "Ġkm": 3741,
      "Bab": 3742,
      "áĭĲ": 3743,
      "oĠkwaĠ": 3744,
      "Najeriya.": 3745,
      "âĢİ": 3746,
      "ĠáĪª": 3747,
      "okinĠ": 3748,
      "Ġáī½": 3749,
      "áĭŃáĬķ": 3750,
      "áįĪáĭį": 3751,
      "hor": 3752,
      "anis": 3753,
      "ĠáĪĺáĮł": 3754,
      "ertĠ": 3755,
      "ĠáĪĨáĬĲáį¢": 3756,
      "ĠáĭĵáĬŃáĪįáīł.ĠáĮį": 3757,
      "6-": 3758,
      "áįĭáīµ": 3759,
      "BaadaĠyaĠ": 3760,
      "ĠáĬłáĭµáĪŃ": 3761,
      "istanĠ": 3762,
      "eliĠ": 3763,
      "Ph": 3764,
      "ÃĮj": 3765,
      "n,Ġ": 3766,
      "ref": 3767,
      "Ġáĭ¨áĪħ": 3768,
      "lo": 3769,
      "8-": 3770,
      "Lak": 3771,
      "oloniĠ": 3772,
      "kutokanaĠnaĠ": 3773,
      "fromĠtheĠ": 3774,
      "áĪĪáĭ°": 3775,
      "ĠáĪĺáĪ°": 3776,
      "Ġáĭ«áĪµ": 3777,
      "stit": 3778,
      "orÃºká»įĠ": 3779,
      "iweĠ": 3780,
      "Ah": 3781,
      "yanz": 3782,
      "15Ġ": 3783,
      "Ex": 3784,
      "Ã®": 3785,
      "áįĲ": 3786,
      "garinĠ": 3787,
      "sch": 3788,
      "Bal": 3789,
      "notĠ": 3790,
      "Ġáĭ¨áĬ¤": 3791,
      "irginĠ": 3792,
      "Wal": 3793,
      "áĪĬáĬŃ": 3794,
      "Sain": 3795,
      "ilip": 3796,
      "TareheĠ": 3797,
      "Ber": 3798,
      "kumb": 3799,
      "famil": 3800,
      "ĠáĪ¥áĬĲ": 3801,
      "DagaĠ": 3802,
      "commeĠ": 3803,
      "áĪŃáĪµáī¶áĪµ": 3804,
      "icsĠ": 3805,
      "score": 3806,
      "...": 3807,
      "visiwaĠ": 3808,
      "Ã©d": 3809,
      "áįįáīµ": 3810,
      "Comm": 3811,
      "]Ġ": 3812,
      "áĬķáį£": 3813,
      "lamb": 3814,
      "aniĠm": 3815,
      "ĠáĭĪáĬķáĭĿ": 3816,
      "sim": 3817,
      "||": 3818,
      "áīĥáĪµ": 3819,
      "BNĠ": 3820,
      "ÃĮb": 3821,
      "aĠc": 3822,
      "He": 3823,
      "tuĠ": 3824,
      "iter": 3825,
      "ĠáĪįáĮĨáī½": 3826,
      "kÃłn": 3827,
      "áĬĻ": 3828,
      "Ġáī°áī¥áĪİ": 3829,
      "YorÃ¹bÃ¡Ġ": 3830,
      "asharikiĠ": 3831,
      "as,Ġ": 3832,
      "ĠáĭĿáĪŃáĭĿ": 3833,
      "yankinĠ": 3834,
      "áĪĿáĬĲáīµ": 3835,
      "báº¹Ìģáº¹ÌĢĠ": 3836,
      "samunĠ": 3837,
      "iwaĠkuwaĠ": 3838,
      "ÃłmÃ¬": 3839,
      "Go": 3840,
      "yl": 3841,
      "Med": 3842,
      "OrÃŃ": 3843,
      "ĠáĬĲáīłáĪ©áį¢": 3844,
      "Awá»įnĠ": 3845,
      "u.Ġ": 3846,
      "ĠáīłáīĢ": 3847,
      "áĭĭáīĤ": 3848,
      "alsoĠ": 3849,
      "rin": 3850,
      "wardĠ": 3851,
      "wigizajiĠwaĠfilamuĠ": 3852,
      "on.": 3853,
      "wasanĠÆĻwallonĠÆĻafaĠtaĠÆĻasarĠIngil": 3854,
      "iĠwaĠk": 3855,
      "DolaĠlaĠ": 3856,
      "otaĠ": 3857,
      "lÃ¹": 3858,
      "nuĠ": 3859,
      "ĠáĮ¥áīħáĪĿ": 3860,
      "firstĠ": 3861,
      "áĪįáį£": 3862,
      "imm": 3863,
      "ĠáĮŃ": 3864,
      "ĠáĬŃáįįáĪĪĠáĭĺáĪĺáĬķ": 3865,
      "áĪĪáĪĽ": 3866,
      "tsoh": 3867,
      "bilaĠ": 3868,
      "ĠáīłáĮį": 3869,
      "áĬĲáĭį": 3870,
      "Je": 3871,
      "sÃ³": 3872,
      "áĭŃáīµ": 3873,
      "Ek": 3874,
      "etteĠ": 3875,
      "áīŃ": 3876,
      "17Ġ": 3877,
      "ĠtÃłbÃŃĠ": 3878,
      "Christ": 3879,
      "Ba": 3880,
      "uoĠ": 3881,
      "Ġáĭ¨áĭį": 3882,
      "Ġáĭ¨áĬ¢": 3883,
      "áĪ¥áĪ«": 3884,
      "lamuĠ": 3885,
      "RaisĠwaĠ": 3886,
      "áĮĪáĪ«": 3887,
      "artaĠ": 3888,
      "2Ġ-Ġ": 3889,
      "áĭĵáīµ": 3890,
      "ĠáĮįáī¥": 3891,
      "resĠ": 3892,
      "ingineĠ": 3893,
      "|ĠRD1-": 3894,
      "ambayoĠ": 3895,
      "ejÃ¬": 3896,
      "mÃ¬": 3897,
      "alab": 3898,
      "baĠdaĠ": 3899,
      "Ġáī¥áĪĶ": 3900,
      "ret": 3901,
      "Kas": 3902,
      "oĠmak": 3903,
      "ink": 3904,
      "http://www.": 3905,
      "alim": 3906,
      "ĠÂ«áĭ¨": 3907,
      "ĠáĪĺáĬķáĮĪáĭµ": 3908,
      "ĠC": 3909,
      "áĪĺáīµ": 3910,
      "hadaĠ": 3911,
      "ĠáĮ¥áĬĵáīµ": 3912,
      "wajenĠ": 3913,
      "Mk": 3914,
      "áĮłáīħ": 3915,
      ".Ġ(": 3916,
      "ĠáĬłáĪģ": 3917,
      "akarantarĠ": 3918,
      "áĪ½áĬķ": 3919,
      "jih": 3920,
      "Ta": 3921,
      "ta,Ġ": 3922,
      "ĠkatikaĠ": 3923,
      "KanisaĠ": 3924,
      "áĪĪáī²áĬ«": 3925,
      "samiĠ": 3926,
      "4-": 3927,
      "auĠm": 3928,
      "vileĠ": 3929,
      "AN": 3930,
      "ĠáĬ¨áĬĲ": 3931,
      "not": 3932,
      "Aj": 3933,
      "áĪ®áĪµ": 3934,
      "lokac": 3935,
      "rad": 3936,
      "áĬĶáī³": 3937,
      "kumaĠyaĠ": 3938,
      "uriĠ": 3939,
      "adha": 3940,
      "áĭŃáĭĪáīµ": 3941,
      "ĠáĪĺáĮ½áĪĲáįį": 3942,
      "áĭĺáĮĭ": 3943,
      "áĪĺáĬĵáĭĬ": 3944,
      "litt": 3945,
      "ÃłwonĠ": 3946,
      "gameĠ": 3947,
      "onĠtheĠ": 3948,
      "áĭĪáī½": 3949,
      "11Ġ": 3950,
      "áĪµáįĭ": 3951,
      "jÃ¹lá»įĠ": 3952,
      "Aug": 3953,
      "waz": 3954,
      "Â°": 3955,
      ",ĠandĠ": 3956,
      "peluĠ": 3957,
      "2Ġáĭĵ.áĪĿ.": 3958,
      "ert": 3959,
      "ĠáĮ¥áĬķ": 3960,
      "awa": 3961,
      "ayans": 3962,
      "ongĠ": 3963,
      "kÃ¹n": 3964,
      "ammaĠ": 3965,
      "ÃŃrÃłnĠ": 3966,
      "wÃŃpÃ©Ġ": 3967,
      "Up": 3968,
      "áĪĭáĭį": 3969,
      "ilis": 3970,
      "Ġáī°áĪ°": 3971,
      "oá¹£Ã¹Ġkáº¹": 3972,
      "enez": 3973,
      "kÃ¡": 3974,
      "sa": 3975,
      "18Ġ": 3976,
      "GhanaĠ": 3977,
      "14Ġ": 3978,
      "áĪŁ": 3979,
      "Ġáĭ¨áĪķ": 3980,
      "Ut": 3981,
      "aĠmap": 3982,
      "premi": 3983,
      "o,Ġm": 3984,
      "ortĠ": 3985,
      "Ġ(200": 3986,
      "áĪ¾": 3987,
      "ĠáĬłáįĪ": 3988,
      "ull": 3989,
      "ĠáĪ®": 3990,
      "kaz": 3991,
      "áĪ¨áĪĿ": 3992,
      "183": 3993,
      "Mich": 3994,
      "áĬĲáĪ³": 3995,
      "L'": 3996,
      "lÃ³rÃŃ": 3997,
      "atarĠdaĠ": 3998,
      "anazarta": 3999,
      "nÃŃĠÃ¬lÃºĠ": 4000,
      "vitaĠ": 4001,
      "fuataĠ": 4002,
      "ionsĠ": 4003,
      "áĪįáĪĿ": 4004,
      "ahariĠyaĠ": 4005,
      "shindiĠwaĠTuzoĠyaĠNobelĠyaĠFizikiaĠmwakaĠwaĠ": 4006,
      "YaĠ": 4007,
      "er,Ġm": 4008,
      "ĠáĪīáīĥáĪµ": 4009,
      "juĠ": 4010,
      "tÃłbÃŃĠ": 4011,
      "occ": 4012,
      "engineĠ": 4013,
      "Ġ5": 4014,
      "Map": 4015,
      "áĪ«áĬķ": 4016,
      "ĠáĬ¥áĬķáĮĤ": 4017,
      "oyÃ¨Ġ": 4018,
      "San": 4019,
      "er.": 4020,
      "áįĪáĪį": 4021,
      "Ãłráº¹Ġ": 4022,
      "ograph": 4023,
      "stitut": 4024,
      "tab": 4025,
      "ĠáīłáįĬáīµ": 4026,
      "áĭķáĪ«áī¥": 4027,
      "sup": 4028,
      "Ġáĭ¨áĬłáĪľáĪªáĬ«": 4029,
      "sel": 4030,
      "Award": 4031,
      "ĠáĭŃáī£áĪĭáĪįáį¢": 4032,
      "á¹£áº¹ÌģĠ": 4033,
      "AfrikaĠKus": 4034,
      "eursĠ": 4035,
      "rik": 4036,
      "NaijiriaĠ": 4037,
      "wanasiasaĠ": 4038,
      "16Ġ": 4039,
      "agbÃ¡": 4040,
      "áįİáī½": 4041,
      "Ã©ri": 4042,
      "gbá»įÌĢ": 4043,
      "imataif": 4044,
      "Bib": 4045,
      "jum": 4046,
      "ĠáĭĪáĭŃ": 4047,
      "new": 4048,
      "wang": 4049,
      "ĠáīħáĪŃ": 4050,
      "ĠáĮīáĭ³": 4051,
      "daĠyawanĠ": 4052,
      "AS": 4053,
      "iref": 4054,
      "0)Ġ": 4055,
      "Ġáĭ¨áĪļáĪĪáĭį": 4056,
      "ĠáĪģáĪĪ": 4057,
      "pres": 4058,
      "ĠáĬłáīĢ": 4059,
      "n.k.": 4060,
      "u-": 4061,
      "iyyaĠ": 4062,
      "tof": 4063,
      "áī¥áĪ¨áīµ": 4064,
      "áī³áĪªáĬŃ": 4065,
      "ifoĠch": 4066,
      "Pres": 4067,
      "arabuĠ": 4068,
      "iaĠyaĠK": 4069,
      "ĠR": 4070,
      "faĠ": 4071,
      "amin": 4072,
      "6Ġ-Ġ": 4073,
      "ipoĠ": 4074,
      "Pas": 4075,
      "Ã¢": 4076,
      "ific": 4077,
      "rang": 4078,
      "ĠáĪĽáĬķ": 4079,
      "má»įĠ": 4080,
      "De": 4081,
      "ĠáīłáĪŃ": 4082,
      "ĠáĬķáĮį": 4083,
      "ĠáĮĮ": 4084,
      "ost": 4085,
      "padÃłĠ": 4086,
      "ightĠ": 4087,
      "ĠáĬŃáĪį": 4088,
      "ÙĪ": 4089,
      "ĠáĪķáĭĿáī¥": 4090,
      "sinim": 4091,
      "yr": 4092,
      "Dis": 4093,
      "lav": 4094,
      "shaĠ": 4095,
      "Æĺ": 4096,
      "mas": 4097,
      "ráº¹": 4098,
      "âĢ¢": 4099,
      "páº¹l": 4100,
      "Alex": 4101,
      "ĠáĬ¥áĬķáĭ²áĪħ": 4102,
      "fÃŃÃ¬m": 4103,
      "Ġáį²áį": 4104,
      "nunaĠ": 4105,
      "ĠáīµáĬķ": 4106,
      "áĬĲáī±": 4107,
      "ĠáįķáĪ¬": 4108,
      "Yoh": 4109,
      "97": 4110,
      "wamb": 4111,
      "0-": 4112,
      "IlÃ©": 4113,
      "áĪĺáĭµ": 4114,
      "prÃ©s": 4115,
      "upandeĠwaĠ": 4116,
      "woteĠ": 4117,
      "Ġáī³áĪªáĬ«áĭĬ": 4118,
      "ablaĠ": 4119,
      "Ġthe": 4120,
      "hum": 4121,
      "entiĠ": 4122,
      "áĪĽáīµ": 4123,
      "Dem": 4124,
      "áĪĪáĬķ": 4125,
      "arch": 4126,
      "rasm": 4127,
      "ĠáĪĺáĪłáĪ¨": 4128,
      "lÃ³gÃºnĠ": 4129,
      "BayanĠ": 4130,
      "bad": 4131,
      "ĠBKĠ(BaadaĠyaĠKristo).ĠMatukioĠWaliozaliwaĠWaliofarikiĠKarneĠyaĠ": 4132,
      "ali.": 4133,
      "áĬŃáĪī": 4134,
      "ĠáĭŃáī³áĭĪáīĥ": 4135,
      "fan": 4136,
      "iwaĠk": 4137,
      "Ø§ÙĦ": 4138,
      "Ny": 4139,
      "Ã©.": 4140,
      "Mb": 4141,
      "ĠáĬ¨áĬ¥": 4142,
      "45": 4143,
      "Uh": 4144,
      "app": 4145,
      "iti": 4146,
      "opoĠ": 4147,
      "ItaliaĠ": 4148,
      "UmojaĠwaĠ": 4149,
      "13Ġ": 4150,
      "oĠtaĠ": 4151,
      "oryĠ": 4152,
      "áĪ¨áĪ°": 4153,
      "wasanĠk": 4154,
      "ĠáĬĲáĭįáį¡áį¡": 4155,
      "ĠáĭĿáĪŃáĭĿáĪŃ": 4156,
      "mus": 4157,
      "atom": 4158,
      "ĠáĬ¨áĭļáĪħ": 4159,
      "unĠniĠ": 4160,
      "8Ġ-Ġ": 4161,
      "CO": 4162,
      "Az": 4163,
      "anzib": 4164,
      "Gir": 4165,
      "Yar": 4166,
      "dag": 4167,
      "áĭļáĪģ": 4168,
      "/Ġ": 4169,
      "ĠáĬĵáī¸áĭį": 4170,
      "agesĠ": 4171,
      "'yanĠ": 4172,
      "atarĠ": 4173,
      "aĠmaiĠ": 4174,
      "bec": 4175,
      "hasĠ": 4176,
      "¶áį": 4177,
      "180": 4178,
      "áĪĺáĪį": 4179,
      "áĪŃáī²": 4180,
      "daĠyaĠ": 4181,
      "balimbaliĠ": 4182,
      "ideĠ": 4183,
      "Ã¬f": 4184,
      "áĬĵáī¸áĭį": 4185,
      "akosoĠ": 4186,
      "ĠáĪģáĬĶáī³": 4187,
      "bor": 4188,
      "áĬĵáĪįáį¢": 4189,
      "aliye": 4190,
      "Ġáº¹láº¹ÌģbÃ¹nĠ": 4191,
      "Gb": 4192,
      "da": 4193,
      "áīłáĬł": 4194,
      "DuniyaĠ": 4195,
      "áĭ«áĭĬ": 4196,
      "ana": 4197,
      "Ø±": 4198,
      "ĠáĬ¥áĬĵĠáīł": 4199,
      "aniĠ(": 4200,
      "sec": 4201,
      "JamesĠ": 4202,
      "ĠáĮĬ": 4203,
      "olos": 4204,
      "takrib": 4205,
      ")Ġáīł": 4206,
      "MataĠ": 4207,
      "Fas": 4208,
      "ywo": 4209,
      "ovutiĠ": 4210,
      "Zanzib": 4211,
      "prop": 4212,
      "Ã¨dÃ¨": 4213,
      "shiry": 4214,
      "Ã¬gbÃłĠ": 4215,
      "William": 4216,
      "jama'aĠ": 4217,
      "imeĠ": 4218,
      "ĠkanĠ": 4219,
      "Sam": 4220,
      "Ã¬p": 4221,
      "wakatiĠ": 4222,
      "oseĠ": 4223,
      "ock": 4224,
      "Ha": 4225,
      "YanĠ": 4226,
      "ori": 4227,
      "Ã¹gbá»įÌģnĠ": 4228,
      "orsĠ": 4229,
      "uduĠ": 4230,
      "LagosĠ": 4231,
      "áĬ¨áī°áĪĽ": 4232,
      "áĮĦ": 4233,
      "Mart": 4234,
      "Engl": 4235,
      "Ka": 4236,
      "samaĠ": 4237,
      "Ãłj": 4238,
      "ayarĠ": 4239,
      "Ann": 4240,
      "áĬ¨áīµ": 4241,
      "Maj": 4242,
      "ĠáĭŃáīĢ": 4243,
      "aireĠ": 4244,
      "askaziniĠ": 4245,
      "ĠáīłáĬ©": 4246,
      "okeoĠyaĠ": 4247,
      "Fir": 4248,
      "S.": 4249,
      "35": 4250,
      "Ġáī»": 4251,
      "áī¤áī°": 4252,
      "en.": 4253,
      "BabbanĠ": 4254,
      "21Ġ": 4255,
      "áī¥áīµ": 4256,
      "ĠáĬĲáĮ»": 4257,
      "gudan": 4258,
      "-áº¹ÌĢ": 4259,
      "áĪ«áĪ²": 4260,
      "unanĠ": 4261,
      "ureĠ": 4262,
      "Ant": 4263,
      "pekeeĠ": 4264,
      "Er": 4265,
      "Jum": 4266,
      "Mil": 4267,
      "sesĠ": 4268,
      "awezaĠ": 4269,
      "áĬĲáīłáĪ¨": 4270,
      "áĪ¶áī½": 4271,
      "A.": 4272,
      "Ni": 4273,
      "Ġáī±": 4274,
      "idadiĠyaĠ": 4275,
      "Ġtáº¹Ìģ": 4276,
      "yÃ¬ÃŃ": 4277,
      "kumbu": 4278,
      "ananĠhukum": 4279,
      "ĠáĬ¨áĬłáĪ": 4280,
      "ott": 4281,
      "áĪĪáī½": 4282,
      "Ġáĭ¨áĪµ": 4283,
      "aĠkasanceĠ": 4284,
      "ĠáĪĺáĮ¨áĪ¨áĪ»": 4285,
      "áĭ°áĭį": 4286,
      "so": 4287,
      "sabodaĠ": 4288,
      "áĭļáīĥ": 4289,
      "wanamuzikiĠ": 4290,
      "ĠáįĪáĪŃ": 4291,
      "cesĠ": 4292,
      "aliz": 4293,
      "ĠAfr": 4294,
      "ikish": 4295,
      "ĠáĪļáĬĴ": 4296,
      "anĠ(": 4297,
      "ĠáĬŃáĪŃáĪµáī²áĭ«áĬķ": 4298,
      "kamarĠ": 4299,
      "nyingineĠ": 4300,
      "kuhusuĠ": 4301,
      "Sar": 4302,
      "dauk": 4303,
      "daĠakeĠ": 4304,
      "áĬ¸": 4305,
      "icaĠ": 4306,
      "3Ġ-Ġ": 4307,
      "sing": 4308,
      "ĠMtoĠ": 4309,
      "loriĠ": 4310,
      "áĪĿáĬķ": 4311,
      "Ġáįĭ": 4312,
      "wany": 4313,
      "yab": 4314,
      "awarĠ": 4315,
      "sabab": 4316,
      "áĮĪáĬĺáĭį": 4317,
      "adem": 4318,
      "75": 4319,
      "ĠáĬĲáĮĪáĪ®áī½": 4320,
      "contr": 4321,
      "agbÃ¨gbÃ¨Ġ": 4322,
      "shindiĠwaĠTuzoĠyaĠNobelĠyaĠKemiaĠmwakaĠwaĠ": 4323,
      "sar": 4324,
      "yÃłnĠ": 4325,
      "Ġáī¢áĪĨáĬķ": 4326,
      "hadiĠk": 4327,
      "áī´áĭİáĪµ": 4328,
      "Gl": 4329,
      "ÃłgbÃłĠ": 4330,
      "áĪĺáĮ£": 4331,
      "popul": 4332,
      "ole": 4333,
      "bl": 4334,
      "ograf": 4335,
      "22Ġ": 4336,
      "fĠ": 4337,
      "esiĠ": 4338,
      "Ġáĭ¨áĪĽáĭŃ": 4339,
      "Pat": 4340,
      "OlÃ³": 4341,
      "Bi": 4342,
      "Cor": 4343,
      "Del": 4344,
      "uguĠ": 4345,
      "ÆĻas": 4346,
      "Ãłwá»įnĠÃ¨nÃ¬yÃłnĠ": 4347,
      "jiĠmkuuĠwaĠ": 4348,
      "ijiĠyaĠ": 4349,
      "aĠjiharĠ": 4350,
      "byĠtheĠ": 4351,
      "aud": 4352,
      "áī»áī¸áĭį": 4353,
      "ĠáĭŃáĮĪáĬĽáĪįáį¢": 4354,
      "ungu": 4355,
      "Láº¹Ìģ": 4356,
      "tÃºnĠ": 4357,
      "pá»įÌĢlá»į": 4358,
      "quesĠ": 4359,
      "adhim": 4360,
      "ĠáĭĺáĪŃ": 4361,
      "ÃĢwá»įnĠÃ¬t": 4362,
      "ĠáĪ¦": 4363,
      "áįĶ": 4364,
      "áĮĪáĭ°": 4365,
      "prot": 4366,
      "ĠáĭµáĪŃáĮħ": 4367,
      "ĠáīłáĪĻ": 4368,
      "oot": 4369,
      "áĪ±áĪµ": 4370,
      "incl": 4371,
      "4Ġ-Ġ": 4372,
      "alib": 4373,
      "tat": 4374,
      "Afirk": 4375,
      "uĠK": 4376,
      "áĮĢáĪŃáĪĺáĬķ": 4377,
      "áĭĭáĬĵ": 4378,
      "jir": 4379,
      "áº¹Ìģká»įÌĢ": 4380,
      "ident": 4381,
      "ĠdinĠ": 4382,
      "-áĬł": 4383,
      "áĪĤ": 4384,
      "áĪĺáĭį": 4385,
      "áī·áĪįáį¢": 4386,
      "GeorgeĠ": 4387,
      "ondĠ": 4388,
      "ĠáĬłáīµ": 4389,
      "jimb": 4390,
      "fun": 4391,
      "ĠáĬ¥áĬĲ": 4392,
      "Sab": 4393,
      "áĪĺáĪ°": 4394,
      "ilÃ©-áº¹ÌĢká»įÌģĠ": 4395,
      "Peop": 4396,
      "Ã³ĠtÃ³Ġ": 4397,
      "tanguĠ": 4398,
      "babaĠ": 4399,
      "ĠáĬ¡": 4400,
      "áĬķáĭ°": 4401,
      "áĬķáĭ±": 4402,
      "wÃ³nĠ": 4403,
      "ararĠ": 4404,
      "kumbukumb": 4405,
      "erg": 4406,
      "á»įÌģkasÃŃ": 4407,
      "okeĠ": 4408,
      "age": 4409,
      "ectionĠ": 4410,
      "ĠáĪĿáĬŃáĬķáĭ«áīµ": 4411,
      "stat": 4412,
      "akam": 4413,
      "(201": 4414,
      "cor": 4415,
      "Äģ": 4416,
      "nÃŃnÃº": 4417,
      "oĠyaĠk": 4418,
      "ĠáīłáĪ½": 4419,
      "idiĠyaĠ": 4420,
      "ox": 4421,
      "ÃĢwá»įnĠáº¹láº¹ÌģbÃ¹nĠ": 4422,
      "le-": 4423,
      "ĠáĪł": 4424,
      "ÃłrÃŃ": 4425,
      "JanuaryĠ": 4426,
      "ĠáĪĿáĬķáĪĿ": 4427,
      "ÃłgbÃł": 4428,
      "Ġ(áīł": 4429,
      "ick": 4430,
      "ĠáĪĿáĬķáĮ®áī½": 4431,
      "eauĠ": 4432,
      "wanaĠ": 4433,
      ")ĠnaĠ": 4434,
      "oor": 4435,
      "90": 4436,
      "US": 4437,
      "ĠáĪĿáĪŃ": 4438,
      "ectĠ": 4439,
      "Ãłb": 4440,
      "inĠg": 4441,
      "bayyanaĠ": 4442,
      "anĠhaifeĠshiĠaĠshekaraĠtaĠ": 4443,
      "Bay": 4444,
      "cap": 4445,
      "Ġáĭ¨áĬ«": 4446,
      "Octob": 4447,
      "áĪĭáĪ´": 4448,
      "afuĠ": 4449,
      "ijobaĠ": 4450,
      "nÃ¡Ãł.": 4451,
      "Ġáĭĭáī¢": 4452,
      "Ã²rÃ¹nĠ": 4453,
      "Ã³Ġá¹£eĠ": 4454,
      "offic": 4455,
      "Ġáī°áįĪ": 4456,
      "uĠkwaĠ": 4457,
      "ship": 4458,
      "haveĠ": 4459,
      "Rep": 4460,
      "áĪ·": 4461,
      "nÃŃnuĠ": 4462,
      "ationĠofĠ": 4463,
      "naaĠ": 4464,
      "waik": 4465,
      "waÉĹ": 4466,
      "25Ġ": 4467,
      "áĪµáĭ«": 4468,
      "ectr": 4469,
      "Ġáĭ¨áī°áĪ°": 4470,
      "eder": 4471,
      "biasharaĠ": 4472,
      "wá»įĠ": 4473,
      "ãĥ": 4474,
      "itz": 4475,
      "rá»įÌĢ": 4476,
      "forĠtheĠ": 4477,
      "ourn": 4478,
      "Tanb": 4479,
      "TanbihiĠ": 4480,
      "7-": 4481,
      "Ãłg": 4482,
      "Ð°": 4483,
      "aĠmat": 4484,
      "ewarĠ": 4485,
      "burg": 4486,
      "3,": 4487,
      "áīłáĪĺ": 4488,
      "inz": 4489,
      "ĠáĪĺáĪįáĬŃ": 4490,
      "ativeĠ": 4491,
      "Najeriya,Ġ": 4492,
      "gbajÃºmá»įÌĢĠ": 4493,
      "Ġá»įjá»įÌģĠ": 4494,
      "tÃ¬Ġ": 4495,
      "·áį": 4496,
      "áĬŃáĪŃ": 4497,
      "ĠL": 4498,
      "Ã©tÃ©Ġ": 4499,
      "unt": 4500,
      "áĮĪáĪį": 4501,
      "ajaĠ": 4502,
      "waikway": 4503,
      "ĠáĮ½áĪĳ": 4504,
      "tel": 4505,
      "34": 4506,
      "ĠáĪĺáĪŃ": 4507,
      "áĭ²áĭ«": 4508,
      "áĬ¥áĬķáĭ°": 4509,
      "2,": 4510,
      "aĠkwenyeĠ": 4511,
      "áīłáĪĪ": 4512,
      "áīĨáĪµ": 4513,
      "ce,Ġ": 4514,
      "alementĠ": 4515,
      "des": 4516,
      "entreĠ": 4517,
      "ihinĠ": 4518,
      "gudaĠ": 4519,
      "''": 4520,
      "dif": 4521,
      "okanaĠnaĠ": 4522,
      "ejÃ¬Ġ": 4523,
      "Vol": 4524,
      "anch": 4525,
      "Ã³mÃ¬n": 4526,
      "Ã¬lÃº": 4527,
      "Far": 4528,
      "naf": 4529,
      "pia": 4530,
      "emaĠ": 4531,
      "ibiyarĠ": 4532,
      "áĭĪáĪŃ": 4533,
      "ojÃº": 4534,
      "áĪĭáĪĽ": 4535,
      "Atlant": 4536,
      "sÃŃĠnÃŃĠ": 4537,
      "alÃ¡Ã¬": 4538,
      "ilioniĠ": 4539,
      "muĠ": 4540,
      "Ãłwá»įnĠá»įjá»įÌģÃ¬bÃŃĠnÃŃĠ": 4541,
      "zaidiĠ": 4542,
      "aitĠ": 4543,
      "áĬĵáĭĬ": 4544,
      "istr": 4545,
      "ĠáĪµáĪĻ": 4546,
      "iá¹£áº¹Ġ": 4547,
      "Sc": 4548,
      "VI": 4549,
      "ahaliĠ": 4550,
      "ĠáĬħ": 4551,
      "áĭ³áĪŃ": 4552,
      "sunanĠ": 4553,
      "ĠáĬ¥áĮįáĪŃĠáĬ³áĪµ": 4554,
      "ahiĠ": 4555,
      "DecemberĠ": 4556,
      "áĪİáīµ": 4557,
      "ĠáĮłáĪ": 4558,
      "ĠáĪ¥áĪŃáĭĪ": 4559,
      "áĮłáĭį": 4560,
      "ĠáĪłáĪ«": 4561,
      "iá¹£áº¹Ìģ": 4562,
      "arÃ¡ĠAmáº¹ÌģrÃŃkÃł": 4563,
      "ĠáĪĿáĪįáĬŃ": 4564,
      "the": 4565,
      "oĠdaĠ": 4566,
      "taf": 4567,
      "Ãłf": 4568,
      "áĭĪáīħ": 4569,
      "ÅĦĠá¹£": 4570,
      "Josep": 4571,
      "Ġáįª": 4572,
      "Ġáĭ°áĪ´": 4573,
      "ĠáĭŃáĪĨ": 4574,
      "ÉĹayaĠ": 4575,
      "jiĠmkuuĠ": 4576,
      "Kh": 4577,
      "ĠáĬłáĪ³": 4578,
      "yaaniĠ": 4579,
      "Â²": 4580,
      "are": 4581,
      "nÃŃĠÃĮpÃŃnláº¹ÌĢĠ": 4582,
      "samarĠdaĠ": 4583,
      "kÃ³paĠ": 4584,
      "ivy": 4585,
      "ilomitaĠ": 4586,
      "ĠáĪĤ": 4587,
      "taĠyiĠ": 4588,
      "áĪµáįĵ": 4589,
      ".ĠH": 4590,
      "Mu": 4591,
      "Eg": 4592,
      "ĠáĬłáĭ«": 4593,
      "áĭķáĪį": 4594,
      "ÃĴg": 4595,
      "91": 4596,
      "KunaĠ": 4597,
      "ĠáĬłáĪĪáīĥ": 4598,
      "áº¹ÌĢáº¹Ìģ": 4599,
      "ĠAgostiĠ-Ġ": 4600,
      "áįĪáĪ¨áĬķáĪ³áĭŃ": 4601,
      "ĠkatikaĠm": 4602,
      "áĪ¡": 4603,
      "wakaz": 4604,
      "Tanzani": 4605,
      "iĠneĠ": 4606,
      "Ġáº¸ÌĢ": 4607,
      "prof": 4608,
      "atukio": 4609,
      "Bel": 4610,
      "ĠáĬĸ": 4611,
      "á»įÌģá»įÌĢ": 4612,
      "ÃĢÃłráº¹Ġ": 4613,
      "AmericanĠ": 4614,
      "EbunĠ": 4615,
      "mÃŃĠ": 4616,
      "jirginĠ": 4617,
      "áĪ¯": 4618,
      "ginaĠ": 4619,
      "Ġáĭ¨áĪ¥": 4620,
      "áĭĭáĬķ": 4621,
      "BB": 4622,
      "yaliy": 4623,
      ".,Ġ": 4624,
      "dev": 4625,
      "pasĠ": 4626,
      "ont": 4627,
      "ĠáĬĴ": 4628,
      "inn": 4629,
      "Ã²g": 4630,
      "ikanĠ": 4631,
      "Ã¼": 4632,
      "aĠkatikaĠm": 4633,
      "Hen": 4634,
      "sol": 4635,
      "yawanĠ": 4636,
      "áī¥áĭĻ": 4637,
      "ĠáĭĪáĪ¨áĭ³": 4638,
      "Ibad": 4639,
      "alum": 4640,
      "entom": 4641,
      "vis": 4642,
      "uchum": 4643,
      "áĮ¥áĪ¨": 4644,
      "áĭ¨áĪĿ": 4645,
      "aĠnaĠm": 4646,
      "pÃ¨ĠnÃŃĠ": 4647,
      "ym": 4648,
      "onek": 4649,
      "wenyeweĠ": 4650,
      "abab": 4651,
      "nje": 4652,
      "áĪĪáī½áį¢": 4653,
      "StateĠ": 4654,
      "Wais": 4655,
      "ĠáĮħ": 4656,
      "áĪĽáĬķ": 4657,
      "cer": 4658,
      "ambay": 4659,
      "oĠyaĠm": 4660,
      "III": 4661,
      "áĪłáĪ«": 4662,
      "áĬķáī°": 4663,
      "áĪĺáĪ«": 4664,
      "Ġáį¤": 4665,
      "egb": 4666,
      "Alim": 4667,
      "mÃ¡aĠÅĦĠ": 4668,
      "36": 4669,
      "áĭĳ": 4670,
      "ciĠgabaĠ": 4671,
      "ráº¹ÌĢ.": 4672,
      "áĭİáī½áĬķ": 4673,
      "anyanĠ": 4674,
      ")áį£": 4675,
      "kÃŃ": 4676,
      "tabiĠ": 4677,
      "wap": 4678,
      "alb": 4679,
      "áĭ²áĪħ": 4680,
      "ĠáĭķáĪĪ": 4681,
      "Ã¬tÃłnĠ": 4682,
      "ĠáĪĺáĮĢáĪĺáĪŃáĭ«": 4683,
      "láº¹ÌĢ-Ã¨dÃ¨Ġ": 4684,
      "á»įnĠ": 4685,
      "áĭ¨áĬł": 4686,
      "ation,Ġ": 4687,
      "28Ġ": 4688,
      "ĠáĬ¥áĭį": 4689,
      "aĠmwakaĠ": 4690,
      "over": 4691,
      "1892Ġáĭĵ.áĪĿ.": 4692,
      "yayinĠ": 4693,
      "ĠáĭŃáĪĺáĪµ": 4694,
      "ĠáĬłáĪ¸": 4695,
      "ackĠ": 4696,
      "yoteĠ": 4697,
      "ĠáīłáĮ£áĪĿ": 4698,
      "Ã²yÃ¬nĠ": 4699,
      "ĠáĬŃáįįáĪĭ": 4700,
      "ĠT": 4701,
      "Ã²unĠ": 4702,
      "lÃ²Ġ": 4703,
      "áĮĪáī¥": 4704,
      "auranĠ": 4705,
      "OktobaĠ-Ġ": 4706,
      "oin": 4707,
      "páº¹luĠ": 4708,
      "Phil": 4709,
      "ifÃ¡": 4710,
      "Cap": 4711,
      "ĠdesĠ": 4712,
      "Ġáīłáī°áĪĪáĭŃ": 4713,
      "áĬĵĠáĬ¨": 4714,
      "áĭĺáĪŃ": 4715,
      "Bank": 4716,
      "oku": 4717,
      "endele": 4718,
      "áĮįáī¥áĮ½": 4719,
      "Are": 4720,
      "rem": 4721,
      "áĮ¦áĪŃ": 4722,
      "usi": 4723,
      "áĬ®áī½": 4724,
      "ambaoĠ": 4725,
      "ubuĠ": 4726,
      "rÃ©g": 4727,
      "fre": 4728,
      "pers": 4729,
      "áĮĪáīł": 4730,
      "Ġáī³áĭĭáīĤ": 4731,
      ":ĠTheĠ": 4732,
      "Chin": 4733,
      "ÃłÃły": 4734,
      "orÃŃ": 4735,
      "Co": 4736,
      "adinĠ": 4737,
      "ĠáīłáĪĮ": 4738,
      "ĠáĪº": 4739,
      "aseĠ": 4740,
      "áĬ¹": 4741,
      "áĭ°áĮį": 4742,
      "yÃ³Ã²Ġ": 4743,
      "Riv": 4744,
      "iranĠ": 4745,
      "huadhim": 4746,
      "centur": 4747,
      "day": 4748,
      "ĠáīłáĪģ": 4749,
      "ukeĠ": 4750,
      "áįĪáĪµ": 4751,
      "cel": 4752,
      "mod": 4753,
      "yank": 4754,
      "entsĠ": 4755,
      "áĪįáĮ£áĬķ": 4756,
      "awal": 4757,
      "insaĠ": 4758,
      "abakiĠ": 4759,
      "áĪķáĪŃ": 4760,
      "JulaiĠ-Ġ": 4761,
      "Coun": 4762,
      "áĮ£áīµ": 4763,
      "ĠáĬ¥áĭ¨áī°": 4764,
      "Sept": 4765,
      "onc": 4766,
      "áĭĬáīµ": 4767,
      "Ġáº¹niĠ": 4768,
      "iki.": 4769,
      "walikuwaĠ": 4770,
      "ĠMachiĠ-Ġ": 4771,
      "Wab": 4772,
      "ambaz": 4773,
      "alifĠ": 4774,
      "24Ġ": 4775,
      "pÃ¨": 4776,
      "ipin": 4777,
      "aniĠk": 4778,
      "uisĠ": 4779,
      "áĮ¥áĪ®": 4780,
      "watoĠ": 4781,
      "ĠáĬłáĭŃáĭ°": 4782,
      "nolog": 4783,
      "alij": 4784,
      "Nigeria": 4785,
      "VisiwaĠ": 4786,
      "gid": 4787,
      "arwaĠ": 4788,
      "ÃĢwá»įnĠáº¹láº¹ÌģbÃ¹nĠNobelĠ": 4789,
      "hakaĠ": 4790,
      "wengi,Ġ": 4791,
      "zakeĠ": 4792,
      "áĪ³áī¸áĭį": 4793,
      "AlÃ¡": 4794,
      "já»įÌģĠ": 4795,
      "oyeĠ": 4796,
      "áĭįáĪĿ": 4797,
      "ĠBKĠ(BaadaĠyaĠKristo).ĠMatukioĠWaliozaliwaĠ": 4798,
      "hukumarĠ": 4799,
      "Wom": 4800,
      "Ġ17": 4801,
      "nÃŃnÃºĠerÃ©Ġ": 4802,
      "9-": 4803,
      "áĪĺáī±": 4804,
      "ÃŃláº¹ÌĢĠ": 4805,
      "labar": 4806,
      "MarejeoĠ": 4807,
      "taĠhanyarĠ": 4808,
      "áĮįáĪį": 4809,
      "áĪĿáĪħáĪŃ": 4810,
      "Ãºs": 4811,
      "ÃłgbÃ©lÃ©": 4812,
      "Waf": 4813,
      "ĠáīĢáĮ¥": 4814,
      ",ĠmshindiĠwaĠTuzoĠyaĠNobelĠyaĠTibaĠmwakaĠwaĠ": 4815,
      "áĮłáĪ©": 4816,
      "láº¹ÌģyÃ¬nĠ": 4817,
      "áīłáĪ©áīµ": 4818,
      "tsĠ": 4819,
      "walej": 4820,
      "YorÃ¹bÃ¡": 4821,
      "5-": 4822,
      "oniĠm": 4823,
      "ĠáĬ¥áĬķáĮįáĪĬáĭĿ": 4824,
      "áįĳ": 4825,
      "Italia": 4826,
      "áĭµáĪ¨áĮį": 4827,
      "Thom": 4828,
      ".ĠÃĢ": 4829,
      "áĪ¨áī¥": 4830,
      "ĠáĬłáĮĪáĪįáĮį": 4831,
      "rap": 4832,
      "torÃŃĠ": 4833,
      "Sec": 4834,
      "Ã³p": 4835,
      "vo": 4836,
      "yaw": 4837,
      "ĠáĬłáĪĺáīµ": 4838,
      "UN": 4839,
      "tele": 4840,
      "agbaĠ": 4841,
      "áĭ®áĪµ": 4842,
      "ĠáĪ»": 4843,
      "âĢº": 4844,
      "andik": 4845,
      "ane": 4846,
      "ammanĠ": 4847,
      "áĭĪáĪ¨": 4848,
      "Kais": 4849,
      "sub": 4850,
      "sanyaĠ": 4851,
      "ly": 4852,
      "ough": 4853,
      "Shir": 4854,
      "yaoĠ": 4855,
      "sá»į": 4856,
      "shaw": 4857,
      "egem": 4858,
      "ĠáĪĺáĪĨáĬĳ": 4859,
      "jagor": 4860,
      "áĪ¨áĮĭ": 4861,
      "áĬĹ": 4862,
      "waĠkwanzaĠ": 4863,
      "lilikuwaĠ": 4864,
      "ikuuĠ": 4865,
      "zaiĠ": 4866,
      "elez": 4867,
      "JuniĠ-Ġ": 4868,
      "37": 4869,
      "awá»įn": 4870,
      "oĠM": 4871,
      "asih": 4872,
      "onom": 4873,
      "ity": 4874,
      "áĬĥ": 4875,
      "iya.Ġ": 4876,
      "kn": 4877,
      "alil": 4878,
      "áī£áĪŃ": 4879,
      "Kats": 4880,
      "Braz": 4881,
      "bÃł": 4882,
      "e)": 4883,
      "neĠaĠ": 4884,
      "YohaneĠ": 4885,
      "tiĠwonĠ": 4886,
      "mag": 4887,
      "ĠD": 4888,
      "kÃº": 4889,
      "dang": 4890,
      "pap": 4891,
      "ayyarĠ": 4892,
      "ĠáĭĪáīħáīµ": 4893,
      "oloseluĠ": 4894,
      "ĠáĬ¥áĬĲáĭļáĪħ": 4895,
      "nas": 4896,
      "Â»Ġ": 4897,
      "ijerum": 4898,
      "prov": 4899,
      "áĮĭáĪį": 4900,
      "ĠáĪĥáĭŃáĪĽáĬĸ": 4901,
      "moj": 4902,
      "kwaĠm": 4903,
      "ientĠ": 4904,
      "ĠáĪµáīµ": 4905,
      "tÃŃĠaĠ": 4906,
      "ĠáĭŃáĭĺ": 4907,
      "Lov": 4908,
      ",ĠM": 4909,
      "ÆĻasaĠ": 4910,
      "ndaniĠyaĠ": 4911,
      "pÃłt": 4912,
      "´áį": 4913,
      "rá»įĠ": 4914,
      "FebruaryĠ": 4915,
      "Ġáĭįáĭµ": 4916,
      "engaĠ": 4917,
      "oldĠ": 4918,
      "a-fin": 4919,
      "ternĠ": 4920,
      "CharlesĠ": 4921,
      "amaĠk": 4922,
      "taĠnaĠ": 4923,
      "áį²áį": 4924,
      "áĪģáĬķ": 4925,
      "ģáĬĳ": 4926,
      "áĭ¨áĪ±áĪµ": 4927,
      "ĠáĬ¬": 4928,
      "áī£áĭĬ": 4929,
      "âĢĶ": 4930,
      "ĠáĪĽáī´áĭİáĪµ": 4931,
      "uĠniĠ": 4932,
      "akaĠk": 4933,
      "áĪ«áĪīáį¢": 4934,
      "2006": 4935,
      "ĠáĭķáĪĪáī³áīµ": 4936,
      ",ĠS": 4937,
      "Ġáĭ´": 4938,
      "ThisĠ": 4939,
      "Jer": 4940,
      "ÃŃnĠ": 4941,
      "babb": 4942,
      "ary": 4943,
      ".ĠÃĮ": 4944,
      "Ġá»įÌĢkanĠ": 4945,
      "ĠthatĠ": 4946,
      "Sikuku": 4947,
      "son": 4948,
      "Ġ'": 4949,
      "uatanaĠnaĠ": 4950,
      "aĠgasarĠ": 4951,
      "Al-": 4952,
      "já»įÌģĠk": 4953,
      "ifaĠ": 4954,
      ",ĠmwandishiĠ": 4955,
      "undiĠ": 4956,
      "FebruariĠ-Ġ": 4957,
      "amfaniĠdaĠ": 4958,
      "fim": 4959,
      "ĠAm": 4960,
      "TazamaĠpiaĠOrodhaĠyaĠ": 4961,
      "wasanĠkwaikway": 4962,
      "vent": 4963,
      "AfrikaĠyaĠM": 4964,
      "agu": 4965,
      "hadiĠkifoĠch": 4966,
      "DarĠ": 4967,
      "wez": 4968,
      "ekaĠ": 4969,
      "ViungoĠvyaĠnje": 4970,
      "kuch": 4971,
      "áĭ¨áī°": 4972,
      "áĮłáĬĵ": 4973,
      "áĭ®áĪŃ": 4974,
      "Rich": 4975,
      "Ã³mÃ¬nÃłĠ": 4976,
      "27Ġ": 4977,
      "áĮįáĬķ": 4978,
      "sinimÃ¡Ġ": 4979,
      "aruf": 4980,
      "ĠáīĢáĬĵáīµ": 4981,
      "ÃĢwá»įnĠÃ¨nÃ¬yÃłnĠ": 4982,
      "ĠáĭŃáĪħáĬķ": 4983,
      "ai,Ġ": 4984,
      "commun": 4985,
      "toĠgbaĠ": 4986,
      "Ele": 4987,
      "áĪĽáī½": 4988,
      "shindiĠwaĠTuzoĠyaĠNobelĠyaĠFasih": 4989,
      "ShugabanĠ": 4990,
      "pá»įÌĢlá»įpá»įÌĢĠ": 4991,
      "2003": 4992,
      "taraĠ": 4993,
      "ed.": 4994,
      "Kig": 4995,
      "cc": 4996,
      "sal": 4997,
      "Ġ10": 4998,
      "upandeĠwaĠm": 4999,
      "aene": 5000,
      "yanay": 5001,
      "ÃĢwá»įnĠá»įjá»įÌģÃ¬bÃŃĠnÃŃĠ": 5002,
      "dok": 5003,
      "olu": 5004,
      "áĪ«áĪµ": 5005,
      "kasuwan": 5006,
      "t,Ġ": 5007,
      "web": 5008,
      "Ġáĭ¨áĪĻ": 5009,
      "esĠofĠ": 5010,
      "ĠáĭŃáĪ°": 5011,
      "wakifuat": 5012,
      "áĪħáĬķ": 5013,
      "Adam": 5014,
      "áī³áĭ°": 5015,
      "ĠáĪĿáĪµ": 5016,
      "trans": 5017,
      "lá»įÌģdÃºnĠ": 5018,
      "mark": 5019,
      "Ahm": 5020,
      "ĠáĮ¥áĬķáī³áĭĬ": 5021,
      "23Ġ": 5022,
      "ndÃŃn": 5023,
      "tofautiĠ": 5024,
      "elyĠ": 5025,
      "arsaĠ": 5026,
      "áĪįáĭ°": 5027,
      "ĠáĭĵáĪĪáĪĿ": 5028,
      "áĪ»áĭİáī½": 5029,
      "áº¹s": 5030,
      "erĠofĠ": 5031,
      "iograf": 5032,
      "kaskaz": 5033,
      "ĠáīłáĬłáĬķáĭµ": 5034,
      "Ġá»įmá»įĠorÃŃláº¹ÌĢ-Ã¨dÃ¨Ġ": 5035,
      "áĮĪáĪª": 5036,
      "á¹£Ã¨lÃºĠ": 5037,
      "Cong": 5038,
      "Kif": 5039,
      "ellĠ": 5040,
      "Dar": 5041,
      "emĠ": 5042,
      "áī»áĭŃáĬĵ": 5043,
      "binĠ": 5044,
      "mak": 5045,
      "Arg": 5046,
      "Ġáĭ«áĪħáĪį": 5047,
      "uhuruĠ": 5048,
      "Tim": 5049,
      "ron": 5050,
      "saf": 5051,
      "áī³áī¸áĭįáĬķ": 5052,
      "Es": 5053,
      "Ġ16": 5054,
      "CC": 5055,
      "eĠnaĠ": 5056,
      "dayaĠdagaĠcikinĠ": 5057,
      "canĠ": 5058,
      "fÃ©r": 5059,
      "ĠáĬłáĬķáĭ³": 5060,
      "áįĦ": 5061,
      "áįĪáĪĪ": 5062,
      "Ġá»įdÃºnĠ201": 5063,
      "JanuariĠ-Ġ": 5064,
      "ĪáĪĿ": 5065,
      "lasheĠ": 5066,
      "sasaĠ": 5067,
      "ChinaĠ": 5068,
      "Comp": 5069,
      "ĠáĪĺáĬķáĮįáĪµáīµ": 5070,
      "yaĠmwakaĠ": 5071,
      "askof": 5072,
      "ne.": 5073,
      "ĠáĪĺáĭµ": 5074,
      "ĠáĭĪáĪ¨": 5075,
      "áĪłĠáĬĲáĮĪ": 5076,
      "iĠmaiĠ": 5077,
      "attalinĠ": 5078,
      "ali,Ġ": 5079,
      "áĪŃáĪµáī²áĭ«": 5080,
      "Ãģfr": 5081,
      "iniĠnaĠ": 5082,
      "Ã¹n-": 5083,
      "'y": 5084,
      "fáº¹Ìģ": 5085,
      "oĠtiĠ": 5086,
      "áĪĽáĪŃ": 5087,
      "áĪĵ": 5088,
      "polit": 5089,
      "ya.": 5090,
      "ĠáįĵáĪŃáī²": 5091,
      "hann": 5092,
      "amiĠ": 5093,
      "áĬķĠ(": 5094,
      "iâĢĻ": 5095,
      "ity,Ġ": 5096,
      "al.": 5097,
      "ativ": 5098,
      "Sala": 5099,
      "OnĠ": 5100,
      "inap": 5101,
      "ĠáĪĺáĪª": 5102,
      "ajir": 5103,
      "kasaĠ": 5104,
      "watakatifuĠ": 5105,
      "mi": 5106,
      "rÃ¨Ġ": 5107,
      "inÃºĠ": 5108,
      "Ð¸": 5109,
      "nÃŃnÃºĠÃłwá»įnĠ": 5110,
      "ollywo": 5111,
      "syst": 5112,
      "AlakosoĠ": 5113,
      "usĠ(": 5114,
      "Â»Ġ(": 5115,
      "ĠáĪ´áīµ": 5116,
      "ÙĲ": 5117,
      "endĠ": 5118,
      "incip": 5119,
      "Den": 5120,
      "roĠ": 5121,
      "niĠaĠ": 5122,
      "Arab": 5123,
      "irefu": 5124,
      "a;Ġ": 5125,
      "ba.": 5126,
      "ĠáīĢáĬķĠáīłáĬ¢áīµáĭ®áĮµáĭ«": 5127,
      "Ã³Ġá¹£": 5128,
      "nÃŃĠá»įjá»įÌģĠk": 5129,
      "Ġáī¥áĪĪáĭį": 5130,
      "ÃĪkÃ³": 5131,
      "á»ĮÌĢ": 5132,
      "Alexand": 5133,
      "ĠáĪ¥áĪŃáĭĪĠáĪĺáĬķáĮįáĪ¥áīµ": 5134,
      "Kih": 5135,
      "Lou": 5136,
      "let": 5137,
      "arz": 5138,
      "áĮ¹": 5139,
      "dhidiĠyaĠ": 5140,
      "orig": 5141,
      "utt": 5142,
      "nor": 5143,
      "me": 5144,
      ".Ġ-": 5145,
      "taim": 5146,
      "anĠhaifeĠtaĠ": 5147,
      "doĠ": 5148,
      "ingiaĠ": 5149,
      "shair": 5150,
      "Lab": 5151,
      "aĠÆĻasarĠ": 5152,
      "aribuĠ": 5153,
      "Fin": 5154,
      "nÃŃĠorÃŃláº¹ÌĢ-Ã¨dÃ¨Ġ": 5155,
      "IF": 5156,
      "a.ĠM": 5157,
      "masuĠ": 5158,
      "score0": 5159,
      "aĠmapokeoĠyaĠ": 5160,
      "Port": 5161,
      "zoteĠ": 5162,
      "ika,Ġ": 5163,
      "Ro": 5164,
      "Te": 5165,
      "bel": 5166,
      "ÃģfrÃŃ": 5167,
      "epend": 5168,
      "DesembaĠ-Ġ": 5169,
      "vid": 5170,
      "á»įÌģn": 5171,
      "Ã¶": 5172,
      "Ä«": 5173,
      "EneoĠ": 5174,
      "OpenĠ": 5175,
      "etĠdeĠ": 5176,
      "sign": 5177,
      "ile": 5178,
      "ibuĠ": 5179,
      "ĠáĬķáĮīáĪµ": 5180,
      "berg": 5181,
      "NovemberĠ": 5182,
      "babbanĠbirninĠ": 5183,
      "soj": 5184,
      "igbaĠ": 5185,
      "áīº": 5186,
      "akaf": 5187,
      "áĪĮáĬŃáīµ": 5188,
      "sakeĠ": 5189,
      "anÃ§": 5190,
      "yaĠkasanceĠ": 5191,
      "ikiĠwaĠ": 5192,
      "ĠáĭµáĪĿ": 5193,
      "ĠáĬłáĬ«áĪį": 5194,
      "bertĠ": 5195,
      "ernĠ": 5196,
      "Ġáĭ°áī¡áī¥": 5197,
      "dur": 5198,
      "jim": 5199,
      "áĬĲáīłáĪŃ": 5200,
      "elsĠ": 5201,
      "DesembaĠ": 5202,
      "darÃŃĠ": 5203,
      "áĬĲáī¶áī½": 5204,
      "ammacinĠ": 5205,
      "jeshiĠ": 5206,
      "OctoberĠ": 5207,
      "ling": 5208,
      "vir": 5209,
      "mutaneĠ": 5210,
      "iakaĠmirefu": 5211,
      "ĠáįĪáĪŃáĭĸ": 5212,
      "abakiĠsikuĠ": 5213,
      "yá»į": 5214,
      "alich": 5215,
      "huadhimishaĠ": 5216,
      "sanaĠ": 5217,
      "áī¼": 5218,
      "Ġá¹¢": 5219,
      "baadayeĠ": 5220,
      "anzish": 5221,
      "aĠwatanĠ": 5222,
      "adir": 5223,
      "Roma,ĠhuadhimishaĠ": 5224,
      "uisheĠ": 5225,
      "ĠkatikaĠmiakaĠmirefu": 5226,
      "wakifuataĠmapokeoĠyaĠ": 5227,
      "wakifuataĠmapokeoĠyaĠRoma,ĠhuadhimishaĠ": 5228,
      "áĪĪáī¥": 5229,
      "North": 5230,
      "áĬķĠáĪĪ": 5231,
      "Ġ6": 5232,
      "Ġáĭ¨áĪļáĪį": 5233,
      "produc": 5234,
      "ia.Ġ": 5235,
      "akonĠ": 5236,
      "kush": 5237,
      "onye": 5238,
      "wendaĠ": 5239,
      "zinabakiĠsikuĠ": 5240,
      "Ġáĭ¨áĪĿáīµ": 5241,
      "WakristoĠwengi,Ġ": 5242,
      "uisheĠzinabakiĠsikuĠ": 5243,
      "WakristoĠwengi,ĠwakifuataĠmapokeoĠyaĠRoma,ĠhuadhimishaĠ": 5244,
      "bÃ¬nrinĠ": 5245,
      "ĠAr": 5246,
      "KK": 5247,
      "atun": 5248,
      "Ãłl": 5249,
      "ĠMeiĠ-Ġ": 5250,
      "Sen": 5251,
      "áĪĭáĪīáį¢": 5252,
      "idg": 5253,
      "áĮłáīĥáĪĭáĭŃ": 5254,
      "áĪįáį¡áį¡": 5255,
      "áĬĽáį¦Ġ": 5256,
      "Oá¹£Ã¹ĠK": 5257,
      "Haif": 5258,
      "ĠáĪĺáĬĲ": 5259,
      "uĠyaĠm": 5260,
      "hadĠ": 5261,
      "portĠ": 5262,
      "neĠdagaĠ": 5263,
      "Amáº¹ÌģrÃŃkÃłĠ": 5264,
      "0Ġ-Ġ": 5265,
      "oĠh": 5266,
      "ed,Ġ": 5267,
      "n'": 5268,
      "uelĠ": 5269,
      "amiaĠ": 5270,
      "eĠdansĠ": 5271,
      "áĬ¨áĪ«": 5272,
      "rop": 5273,
      "sĠinĠ": 5274,
      "áĪŃáĭ«áĪĿ": 5275,
      "pakaĠuisheĠzinabakiĠsikuĠ": 5276,
      "itoĠ": 5277,
      "aux": 5278,
      "TanaĠ": 5279,
      "mÃº": 5280,
      "watum": 5281,
      "ÃłtiĠÃłwá»įnĠ": 5282,
      "ablaĠyaĠ": 5283,
      "jul": 5284,
      "piaĠm": 5285,
      "erc": 5286,
      "tsarinĠ": 5287,
      "entomonĠ": 5288,
      "fum": 5289,
      "|-Ġ": 5290,
      "LughaĠzaĠ": 5291,
      "ism": 5292,
      "Sud": 5293,
      "ĠáĬ¥áĬķáĪµ": 5294,
      "ĠáĬłáĮ¥": 5295,
      "onĠ(": 5296,
      "ĠáĪ³áĭŃáĪĨáĬķ": 5297,
      "walejinĠ": 5298,
      "Apr": 5299,
      "yanzuĠ": 5300,
      "áĬ©áĪį": 5301,
      "áĪĦáĭµ": 5302,
      "Vic": 5303,
      "áĮĪáĭį": 5304,
      "reeĠ": 5305,
      "Ġáº¹ÌĢyÃłĠ": 5306,
      "&Ġ": 5307,
      "ĠBKĠ(BaadaĠyaĠKristo).ĠMatukioĠ": 5308,
      "gÃŃgaĠ": 5309,
      "Way": 5310,
      "astr": 5311,
      "áĪįáįį": 5312,
      "ĠáĭĪáĮĪáĬķ": 5313,
      "Ã³l": 5314,
      "uĠkatikaĠ": 5315,
      "Tun": 5316,
      "anniĠ": 5317,
      "áĮ³": 5318,
      "naĠM": 5319,
      "iziĠ": 5320,
      "áĪĪáĭ±": 5321,
      "Ã²finĠ": 5322,
      "áĮłáįĭ": 5323,
      "Had": 5324,
      "RobertĠ": 5325,
      "WestĠ": 5326,
      "Amurk": 5327,
      "Ġáī°áĬĲ": 5328,
      "igaĠ": 5329,
      "29Ġ": 5330,
      "arĠk": 5331,
      "Arm": 5332,
      "Ã¤": 5333,
      "ĠApriliĠ-Ġ": 5334,
      "BahariĠyaĠ": 5335,
      "uiĠ": 5336,
      "áĪµáī±": 5337,
      "Ġáī³áĪĭáīħ": 5338,
      "AlimfuataĠ": 5339,
      "chez": 5340,
      "AgbegbeĠ": 5341,
      "nau": 5342,
      "aĠlokacinĠ": 5343,
      "ĠáĪĽáĪħ": 5344,
      "Hukum": 5345,
      "mataĠ": 5346,
      "áĭ°áĮĭ": 5347,
      "Ġáĭ¨áī°áĪĪáĭ«áĭ©": 5348,
      "ana,Ġ": 5349,
      "alÃłÃły": 5350,
      "ĠáĪĽáĪµáī³áĭĪ": 5351,
      "jar": 5352,
      "ami": 5353,
      "ipindiĠ": 5354,
      "DP": 5355,
      "Ġáĭ¨áīµ": 5356,
      "áĪ°áĬķ": 5357,
      "com/": 5358,
      "áī¬": 5359,
      "NovembaĠ-Ġ": 5360,
      "sil": 5361,
      "Ġáĭ¨áĬłáĪĽáĪŃáĬĽĠáĪĿáĪ³áĪĮĠáĬĲáĭįáį¢ĠáīµáĪŃáĮīáĪĻĠáĪĺáĭ°áī¥Ġ:Ġáī°áĪ¨áīµáĬĵĠáĪĿáĪ³áĪĮ": 5362,
      "dominĠ": 5363,
      "ĠáĬŃáĪįáĪį": 5364,
      "pÃłtÃłk": 5365,
      "nit": 5366,
      "udaĠ": 5367,
      "ifeĠ": 5368,
      "ĠáĭĲ": 5369,
      "ĠáĬĳ": 5370,
      "26Ġ": 5371,
      "cheoĠ": 5372,
      "ĠáĪ²áĪĨáĬķĠáĭŃáĪħ": 5373,
      "IIIĠ": 5374,
      "wengineĠ": 5375,
      "ĠáīłáĬ¥áĬķáĮįáĪĬáĭĿáĬĽ": 5376,
      "arm": 5377,
      "iniĠk": 5378,
      "aguziĠwaĠ": 5379,
      "Bibl": 5380,
      "ananĠhukumominĠ": 5381,
      "µáį": 5382,
      "wararr": 5383,
      "cin": 5384,
      "ĠáĪĺáĭĿ": 5385,
      "affunĠ": 5386,
      "obÃ¬nrinĠ": 5387,
      "DarĠesĠ": 5388,
      "lambarĠ": 5389,
      "Pal": 5390,
      "Wil": 5391,
      "ce": 5392,
      "olÃ³rinĠ": 5393,
      "pay": 5394,
      "pwan": 5395,
      "taĠkasanceĠ": 5396,
      "áįĪáīµ": 5397,
      "pÃŃnláº¹ÌĢ": 5398,
      "isaĠgaĠ": 5399,
      "un.": 5400,
      "Ã©m": 5401,
      "Sah": 5402,
      "dir": 5403,
      "ing,Ġ": 5404,
      "áĪŃáĮį": 5405,
      "ayyaĠ": 5406,
      "agharibiĠ": 5407,
      "Ø¨": 5408,
      "abis": 5409,
      "áº¹Ìģká»įÌĢá»įÌģĠ": 5410,
      "ikip": 5411,
      "wÃł": 5412,
      "ikubwaĠ": 5413,
      "kumbukumbuĠzaĠ": 5414,
      "áĬĲáĮĪ": 5415,
      "áĭ³áĪĿ": 5416,
      "iamĠ": 5417,
      "aĠshekararĠ201": 5418,
      "isionĠ": 5419,
      "ĠáĬĲáĭįáį¢Ġáĭ¨": 5420,
      "beenĠ": 5421,
      "gameĠdaĠ": 5422,
      "Ġáĭ¨áī°áī£áĪĪáĭį": 5423,
      "John": 5424,
      "o)Ġ": 5425,
      "áĮłáĪį": 5426,
      "walip": 5427,
      "kumbukumbuĠzaĠwatakatifuĠ": 5428,
      "Ùı": 5429,
      "atanĠ": 5430,
      "aĠkasarĠ": 5431,
      "kiraĠ": 5432,
      "inaĠm": 5433,
      "kundiĠ": 5434,
      "áį¢Ġáīł": 5435,
      "ĠáĪĪáĭį": 5436,
      ",ĠmwigizajiĠwaĠfilamuĠ": 5437,
      "autarĠ": 5438,
      "ĠáĪĢáĮĪáĪŃ": 5439,
      "sk": 5440,
      "Offic": 5441,
      "asayans": 5442,
      "bak": 5443,
      "nem": 5444,
      "atikaĠkar": 5445,
      "Oy": 5446,
      "wag": 5447,
      "ĠáĪ©": 5448,
      "band": 5449,
      "Ġáĭ¨áĪĮ": 5450,
      "áĮ¥áĬķáī³áĭĬ": 5451,
      "bang": 5452,
      "áĭ«áĪµ": 5453,
      "Ibrah": 5454,
      "unz": 5455,
      "áī½áĭį": 5456,
      "nchiĠzaĠ": 5457,
      "aan": 5458,
      "áĬķĠáĪµáĪĿ": 5459,
      "etiĠ": 5460,
      "uth": 5461,
      "ĠáĪĨáĬĲáĭį": 5462,
      "ĠáĬ¥áĮħáĮį": 5463,
      "ĠáĭĻáĪªáĭ«": 5464,
      "áĪĭáĪī": 5465,
      "ĠkatikaĠmiakaĠmirefu).ĠM": 5466,
      "yn": 5467,
      "a)": 5468,
      "aliwaĠnaĠ": 5469,
      "áĬĽáĭįĠáĬŃáįįáĪĪĠáĭĺáĪĺáĬķ": 5470,
      "IlÃ©-": 5471,
      "Lat": 5472,
      "nomb": 5473,
      "kÃ¹nrinĠ": 5474,
      "ÃłgbÃ¡": 5475,
      "áī¶áī¹": 5476,
      "á»įÌĢn": 5477,
      "avy": 5478,
      "isiwaĠchaĠ": 5479,
      "ĠSeptembaĠ-Ġ": 5480,
      "dog": 5481,
      "nip": 5482,
      "warĠ": 5483,
      "Ã³paĠ": 5484,
      "Ã¬gbÃ©": 5485,
      "áĭ°áĬķ": 5486,
      "áīłáĪĮ": 5487,
      "franÃ§": 5488,
      "áĭŃáĬĲáīµ": 5489,
      "áī½áĪį": 5490,
      "ext": 5491,
      "zamaniĠ": 5492,
      "áī°áĭĭáĪįáį¢": 5493,
      "olÃº": 5494,
      "âĢĿĠ": 5495,
      "áī¨áĪŃ": 5496,
      "ĠáĮĨ": 5497,
      "antuĠ": 5498,
      "moĠ": 5499,
      "'YanĠ": 5500,
      "Ã©ta": 5501,
      "IjobaĠ": 5502,
      "Bo": 5503,
      "bo": 5504,
      "eshiĠ": 5505,
      "ana.": 5506,
      "áį¤Ġáīł": 5507,
      "HaifaffunĠ": 5508,
      "AĠwatanĠ": 5509,
      "iriĠnaĠ": 5510,
      "Rh": 5511,
      "Wag": 5512,
      "áĮĪáĬĽ": 5513,
      "LakiniĠ": 5514,
      "Soci": 5515,
      "rom": 5516,
      "áĮĪáĬĲ": 5517,
      "JulyĠ": 5518,
      "pyaĠ": 5519,
      "elaĠ": 5520,
      "áĬŃáĪĪ": 5521,
      "Abub": 5522,
      "fÃłĠ": 5523,
      "EĠ": 5524,
      "aâĢĻ": 5525,
      "encesĠ": 5526,
      "ba,Ġ": 5527,
      "áĬ¨áĪŃ": 5528,
      "hiv": 5529,
      "partic": 5530,
      "cik": 5531,
      "eniyanĠ": 5532,
      "antsĠ": 5533,
      "siyas": 5534,
      "Hak": 5535,
      "fÃł": 5536,
      "âĢ¦": 5537,
      "JamhuriĠyaĠ": 5538,
      "áĭĺáī¥": 5539,
      "ĠáĬ«áĪį": 5540,
      "tionsĠ": 5541,
      "ya,Ġ": 5542,
      "chaĠm": 5543,
      "áĬŃáĪŃáĪµáī²áĭ«áĬķ": 5544,
      "agbegbeĠ": 5545,
      "wandaĠakaĠ": 5546,
      "harĠzuwaĠ": 5547,
      "Ter": 5548,
      "coun": 5549,
      "aff": 5550,
      "dÃ¬": 5551,
      "áĪªáī³": 5552,
      "ItĠ": 5553,
      "ikiaĠ": 5554,
      "áī½áĪģ": 5555,
      "áĭ¨áĪĺ": 5556,
      "áĬ«áī£áī¢": 5557,
      "Alit": 5558,
      "dukĠ": 5559,
      "uĠmasoĠ": 5560,
      "áī°áĬķ": 5561,
      "idayarĠ": 5562,
      "DarĠesĠSala": 5563,
      "kim": 5564,
      "Ġáĭ¨áī³": 5565,
      "áī£áĪįáį¢": 5566,
      "1)": 5567,
      "AgbaĠ": 5568,
      "apr": 5569,
      "yÃ¬n": 5570,
      "ISBNĠ": 5571,
      "omĠ": 5572,
      "Sark": 5573,
      "kubwaĠyaĠ": 5574,
      "LeoĠ": 5575,
      "enneĠ": 5576,
      "kulaĠ": 5577,
      "Ãłká»įÌģká»įÌģĠ": 5578,
      "NchiĠzaĠ": 5579,
      "ĠáĬłáįį": 5580,
      "whoĠ": 5581,
      "hel": 5582,
      "oni": 5583,
      "2007": 5584,
      "fac": 5585,
      "Ġáĭ¨áĭĵ": 5586,
      "ojuĠ": 5587,
      "UfaransaĠ": 5588,
      "Yes": 5589,
      "ayyunĠ": 5590,
      "áī²áĬŃ": 5591,
      "met": 5592,
      "áĬ½": 5593,
      "osereĠ": 5594,
      "iĠmwakaĠ": 5595,
      "ĠAb": 5596,
      "Ġá¹£Ã¹gbá»įÌģnĠ": 5597,
      "wÃ¡jÃºĠ": 5598,
      "lem": 5599,
      "Ãłn.": 5600,
      "aĠfanninĠ": 5601,
      "osiĠ": 5602,
      "=\"": 5603,
      "ĠáīłáĪį": 5604,
      "áī¥áĪŃáĪĥ": 5605,
      "áĪĪáī°áĬĽáĭį": 5606,
      "áĬĭáĪĭ": 5607,
      "ĠáĪĽáĮ£": 5608,
      "áĬ¾": 5609,
      "ĠáĬ¥áĭµ": 5610,
      "áĪ³áī°": 5611,
      "NovembaĠ": 5612,
      "ĠáĭŃáī½áĪĭáĪįáį¢": 5613,
      "ĠáĭĵáĬŃáĪįáīł.ĠáĮįáĭµáĪĿ": 5614,
      "lÃ¨": 5615,
      "áĪŃ-": 5616,
      "yautarĠ": 5617,
      "Ġ7": 5618,
      "ĠáĭŃáī³áĭĪáīĥáĪįáį¢": 5619,
      "áĪ«áī¸áĭį": 5620,
      "Kud": 5621,
      "ida": 5622,
      "ÃĵĠk": 5623,
      "Musulun": 5624,
      "gbÃ³": 5625,
      "ĠáĬ¥áĬķáĭ°áĪĨáĬĲ": 5626,
      "Ġáĭ¨áĪĨáĬĳ": 5627,
      "Ġáĭ©áĬĴ": 5628,
      "áīĥáĪį": 5629,
      "áĬĳáĪµ": 5630,
      "Ð¾": 5631,
      "Nair": 5632,
      "Ġáī°áīĭ": 5633,
      "tsohonĠ": 5634,
      "mill": 5635,
      "asĠtheĠ": 5636,
      "bil": 5637,
      "sáº¹ÌĢĠ": 5638,
      "áĭ«áĭ«": 5639,
      "utaneĠ": 5640,
      "AmurkaĠ": 5641,
      "Kin": 5642,
      "Pap": 5643,
      "birniĠ": 5644,
      "NchiĠ": 5645,
      "iung": 5646,
      "auch": 5647,
      "ĠáĬłáĭ²áĪµ": 5648,
      "áī¥áĪĬáĬŃ": 5649,
      "duniaĠ": 5650,
      "áĬ«áĪį": 5651,
      "parti": 5652,
      "daĠkar": 5653,
      "lughaĠzaĠ": 5654,
      "ÃĮbÃłd": 5655,
      "etoĠ": 5656,
      "Democ": 5657,
      "láº¹": 5658,
      "áī£áĪī": 5659,
      "Ġáĭ¨áĬĲáīłáĪ¨áĭį": 5660,
      "awaidaĠ": 5661,
      "ax": 5662,
      "Mit": 5663,
      "áīłáĬĽ": 5664,
      ";Ġ(": 5665,
      "Som": 5666,
      "áĬ¡": 5667,
      "ininĠ": 5668,
      "alk": 5669,
      "áī£áĪħ": 5670,
      "áĬłáĪĿ": 5671,
      "RayayyunĠ": 5672,
      "ItaĠ": 5673,
      "daĠg": 5674,
      "ĠáĭŃáĮłáīĢ": 5675,
      "Ġá»įÌĢd": 5676,
      ",ĠmshindiĠwaĠTuzoĠyaĠNobelĠyaĠFizikiaĠmwakaĠwaĠ": 5677,
      "ÃĢwá»įnĠÃ¨nÃ¬yÃłnĠalÃłÃły": 5678,
      "áĬķáĮ«": 5679,
      "ulaĠ": 5680,
      "falmeĠm": 5681,
      "gbá»įÌĢnĠ": 5682,
      "ĠáĭŃáī»": 5683,
      "KiingerezaĠ": 5684,
      "sos": 5685,
      "arkashinĠ": 5686,
      "96": 5687,
      "85": 5688,
      "JuneĠ": 5689,
      "ere": 5690,
      "inĠ(": 5691,
      "utamad": 5692,
      "áĪ±áĪĿ": 5693,
      "ĠáĬ«áĪĮ": 5694,
      "falmeĠwaĠ": 5695,
      "Ã²á¹£erÃ©Ġ": 5696,
      "hataĠ": 5697,
      "ambul": 5698,
      "ĠáĪĪáĬ¥": 5699,
      "iyaĠtaĠ": 5700,
      "waoĠ": 5701,
      "hukumaĠ": 5702,
      "Wad": 5703,
      "larg": 5704,
      "tĠofĠ": 5705,
      "AllahĠ": 5706,
      "Ġáĭ«áĪī": 5707,
      "ĠáĪ«áĪµ": 5708,
      "HispaniaĠ": 5709,
      "TovutiĠ": 5710,
      "AĠranarĠ": 5711,
      "sci": 5712,
      "áĭĽáĪ¬": 5713,
      "fÃºnĠÃłwá»įnĠ": 5714,
      "conc": 5715,
      "yau": 5716,
      "Wash": 5717,
      "binc": 5718,
      "áĮ¼": 5719,
      "33": 5720,
      "annaĠ": 5721,
      "eyiĠ": 5722,
      "lÃ²": 5723,
      "t-": 5724,
      "Ġti": 5725,
      "nÃŃtorÃŃĠ": 5726,
      "in-": 5727,
      "ĠduĠ": 5728,
      "withĠtheĠ": 5729,
      "47": 5730,
      "Can": 5731,
      "Nij": 5732,
      "jÃ¹Ġ": 5733,
      "ake.": 5734,
      "áī³áī½áĬķ": 5735,
      "dÃ¡raĠ": 5736,
      "áº¸ÌĢ": 5737,
      "siteĠ": 5738,
      "iyoĠ": 5739,
      "Republ": 5740,
      "Ġáīłáĭį": 5741,
      "ĠáĪŀáīµ": 5742,
      "uhim": 5743,
      "ĠáĭįáĪµáĮ¥Ġáĭ¨áĪļáĮĪáĬĿ": 5744,
      "WakatiĠwaĠ": 5745,
      "áĭ°áĪ¨áĮī": 5746,
      "Ulay": 5747,
      "girmaĠ": 5748,
      "áĮĪáĭĽ": 5749,
      "istoriaĠ": 5750,
      "ulkinĠ": 5751,
      "Ã¬sÃłnĠ": 5752,
      "Ġáĭ¨áī°áĬŃáĪī": 5753,
      "ĠAug": 5754,
      "áīģáĪŃ": 5755,
      "4,": 5756,
      "niĠsikuĠyaĠ": 5757,
      "iĠkatikaĠm": 5758,
      "ilimaĠyaĠ": 5759,
      "Pak": 5760,
      "ĠáīłáĪ¨": 5761,
      "uck": 5762,
      "Kor": 5763,
      "iĠkwenyeĠ": 5764,
      "ĠáĭĵáĪĺáī±": 5765,
      "Ã¨tÃ²": 5766,
      "C.": 5767,
      "ix": 5768,
      "olanz": 5769,
      "fina-fin": 5770,
      "njiaĠ": 5771,
      "ZiwaĠ": 5772,
      "wid": 5773,
      "group": 5774,
      "áĬĿáĬĲáīµ": 5775,
      "Lang": 5776,
      "abi": 5777,
      "namoĠ": 5778,
      "Ġáī¤áī°ĠáĬŃáĪŃáĪµáī²áĭ«áĬķ": 5779,
      "wá»įÌģn": 5780,
      "áĬłáĪį": 5781,
      "haliĠ": 5782,
      "áĭµáĪµáīµ": 5783,
      "KiswahiliĠ": 5784,
      "mÃ¹Ġ": 5785,
      "áĭ£": 5786,
      "wamnanĠ": 5787,
      "Ã¬rÃ²yÃ¬nĠ": 5788,
      "âĢ¢ĠMtoĠ": 5789,
      "ĠáīłáĬ©áĪį": 5790,
      "Ne": 5791,
      "nadaĠ": 5792,
      "rÃ¨": 5793,
      "ajiĠm": 5794,
      "awaĠnaĠ": 5795,
      "Ilim": 5796,
      "overnmentĠ": 5797,
      "Kut": 5798,
      "struc": 5799,
      "rĠ": 5800,
      "Mah": 5801,
      "wing": 5802,
      "áĬķáĭ²": 5803,
      "áĬķáĭ¶": 5804,
      ",ĠtheĠ": 5805,
      "tim": 5806,
      "utilis": 5807,
      "ĠáīµáĪįáīħ": 5808,
      "ĠáĪľáīµáĪŃ": 5809,
      "Ġáĭ±": 5810,
      "áĮłáĪĭ": 5811,
      "iĠkwaĠm": 5812,
      "obiĠ": 5813,
      "waĠki": 5814,
      "Ġd'": 5815,
      "ĠáĬłáĪ°": 5816,
      "ĠáįķáĪ¬áĭļ": 5817,
      "Mac": 5818,
      "fus": 5819,
      "áĪ©áīµ": 5820,
      "ĠáĭįáĮ¤": 5821,
      "jaĠ": 5822,
      "ĠáĮĪáī¥": 5823,
      "nÃ¡Ãł,Ġ": 5824,
      "rough": 5825,
      "ste": 5826,
      "Makar": 5827,
      "ĠáįĢ": 5828,
      "áīħáĪµ": 5829,
      "2005": 5830,
      "ĠáĪ¥áĪĭáĪ´": 5831,
      "ĠáĪķáĭĿ": 5832,
      "iliyanĠ": 5833,
      "'yarĠ": 5834,
      "ES": 5835,
      "báº¹ÌģĠ": 5836,
      "film": 5837,
      "South": 5838,
      "ĠáĮįáī¥áĮ½": 5839,
      ".ĠS": 5840,
      ".ĠÃĢwá»įnĠÃ¬t": 5841,
      "shairiĠ": 5842,
      "WakristoĠwengi,ĠwakifuataĠmapokeoĠyaĠRoma,ĠhuadhimishaĠkumbukumbuĠzaĠwatakatifuĠ": 5843,
      "Born": 5844,
      "ana'": 5845,
      "onÃŃá¹£": 5846,
      "ĠáĮ½áĪĳáįį": 5847,
      "iĠkoĠ": 5848,
      "Najeriya": 5849,
      "(yaĠ": 5850,
      "Ø¯": 5851,
      "undĠ": 5852,
      "áĭķáĭĿ": 5853,
      "Ġáĭ¨áĪ°áĭį": 5854,
      "a\"Ġ": 5855,
      "aniĠnaĠ": 5856,
      ")ĠáĬ¨": 5857,
      "GÃ³mÃ¬nÃłĠ": 5858,
      "gidanĠ": 5859,
      "áĪĪáĪģ": 5860,
      "nÃŃgbÃłĠtÃŃĠ": 5861,
      "Ġáĭŀ": 5862,
      "ine,Ġ": 5863,
      "ĠáĭŃáĪħáĪĿ": 5864,
      "Æ´": 5865,
      "Ã¬á¹£áº¹ÌĢ": 5866,
      "Î±": 5867,
      "ote.": 5868,
      "áĪįáīµ": 5869,
      "Ġ(201": 5870,
      "ÅĦĠá¹£eĠ": 5871,
      "jÃ©Ġ": 5872,
      "ĠáĬłáĬĲ": 5873,
      "ilimiaĠ": 5874,
      "DavidĠ": 5875,
      "48": 5876,
      "writ": 5877,
      "2009": 5878,
      "MariaĠ": 5879,
      "áĬ¨áī°áĪĪáĭį": 5880,
      "áĬķáĭ³áĪŃ": 5881,
      "includ": 5882,
      "owaĠ": 5883,
      "áĬķĠáĪĪáĪĺ": 5884,
      "aniĠdaĠ": 5885,
      "Abuj": 5886,
      "halar": 5887,
      "ajiliĠyaĠ": 5888,
      "uhimuĠ": 5889,
      "ĠáīłáĭĺáĪĺáĬĲĠáĭ®áĪĲáĬķáĪµ": 5890,
      "áĬ¨áįį": 5891,
      "efuĠ": 5892,
      "Ã¬dÃŃĠ": 5893,
      "t.": 5894,
      "ÃĢwá»įnĠÃĮt": 5895,
      "ÅĦĠk": 5896,
      "ĠáĭµáĬķ": 5897,
      "mwakaĠ": 5898,
      "chaĠk": 5899,
      "waĠmwakaĠ": 5900,
      "hiliĠ": 5901,
      "Ãį": 5902,
      "áīĢáĪį": 5903,
      "ÃĪkÃ³Ġ": 5904,
      "ies": 5905,
      "áĪµáī°áĬĽ": 5906,
      "ĠSch": 5907,
      "iĠaĠ": 5908,
      "áīĢáĭµáĪŀ": 5909,
      "walit": 5910,
      "Turk": 5911,
      "NÃŃĠá»įdÃºnĠ201": 5912,
      "áĬ¨áī¥": 5913,
      "lá»įÌģwá»įÌģĠ": 5914,
      "ĠáĪĺáĪ¨áĮĥ": 5915,
      "zoĠyaĠ": 5916,
      "atum": 5917,
      "rayuwaĠ": 5918,
      "ĠáĪĿáĬķáĮŃ": 5919,
      "anyĠ": 5920,
      "el,Ġ": 5921,
      "áĭ³áĮħ": 5922,
      "ĠáīłáĪĺáĪĨáĬĳ": 5923,
      "ine.": 5924,
      "áº¹ráº¹Ġ": 5925,
      "ondeĠ": 5926,
      "ÃºÃºs": 5927,
      "Ġáīłáĭ¨": 5928,
      "áį¡áĭ¨": 5929,
      "lÃ©Ġráº¹ÌĢĠ": 5930,
      "Dam": 5931,
      "ĠáĬłáĭµ": 5932,
      "ĠáĬŃáĪŃáĪµáī¶áĪµ": 5933,
      "Ã¬dÃŃ": 5934,
      "ilich": 5935,
      "dâĢĻ": 5936,
      "ĠáĪµáĪĪáĭļáĪħ": 5937,
      "IbileĠ": 5938,
      "áĮİáĪŃáĮİáĪŃ": 5939,
      "ÙĴ": 5940,
      "ungeĠlaĠ": 5941,
      "TV": 5942,
      "onsĠ": 5943,
      "Moh": 5944,
      "uldĠ": 5945,
      "Greg": 5946,
      "Bell": 5947,
      "d,Ġ": 5948,
      "eff": 5949,
      "tech": 5950,
      "resp": 5951,
      "áīłáĭį": 5952,
      "ĠáīłáĪĨ": 5953,
      "áĭ³áĬķáīµ": 5954,
      "aussiĠ": 5955,
      "áĪ¥áī±": 5956,
      ")Ġt": 5957,
      "Ver": 5958,
      "oireĠ": 5959,
      "ĠáĬłáī£áĪį": 5960,
      "wadan": 5961,
      "eĠdaĠ": 5962,
      "MarchĠ": 5963,
      "áĬªáĭ«": 5964,
      "shiĠneĠdanĠ": 5965,
      "FM": 5966,
      "Pi": 5967,
      "Ġáĭ¨áĬĸ": 5968,
      "toĠgbaĠEbunĠ": 5969,
      "áĬķĠáī°": 5970,
      "awa.": 5971,
      "ileĠniĠ": 5972,
      "ger": 5973,
      "vij": 5974,
      "ambakoĠ": 5975,
      "ĠáĬ¥áĬķáĭ°áī°": 5976,
      "rank": 5977,
      "Reg": 5978,
      "áī£áī¥": 5979,
      "ĠáįķáĪ®": 5980,
      "KamusiĠ": 5981,
      "pá»į": 5982,
      "ĠÐ": 5983,
      "yaĠmwakaĠ(yaĠ": 5984,
      "pil": 5985,
      "ÃŃnÃºĠ": 5986,
      ".ĠT": 5987,
      "aiĠnaĠ": 5988,
      "work": 5989,
      "ones": 5990,
      "haifiĠ": 5991,
      "izaĠ": 5992,
      "vers": 5993,
      "ĠáīłáĮ¥": 5994,
      "ulikuwaĠ": 5995,
      "ĠáĬ¥áĬķáĬ³": 5996,
      "Gar": 5997,
      "áĭĭáīµ": 5998,
      "ĠáĪħáĭĿáī¥": 5999,
      "ĠáĬłáĬķáĭ³áĬķáĭµ": 6000,
      "biliĠ": 6001,
      "eyeĠ": 6002,
      "ranĠ": 6003,
      "áĬķĠáīłáĪĺ": 6004,
      "identĠ": 6005,
      "áī§": 6006,
      "ÉĹinĠ": 6007,
      "ÃºrÃ²Ġ": 6008,
      "ĠáīłáĪĻáĪī": 6009,
      "anci": 6010,
      "oundĠ": 6011,
      "Air": 6012,
      "CityĠ": 6013,
      "áĭĿáĪĽáī½": 6014,
      ",ĠmshindiĠwaĠTuzoĠyaĠNobelĠyaĠKemiaĠmwakaĠwaĠ": 6015,
      "ĠáįĬáĭ°áĪį": 6016,
      "baraĠ": 6017,
      "hiĠ": 6018,
      "jÃłĠ": 6019,
      "áĪ³áĪį": 6020,
      "ĠáīłáĪ«": 6021,
      "igu": 6022,
      "ĠáīģáĮ¥": 6023,
      "ĠáĬłáĭŃáĭ°áĪĪáĪĿ": 6024,
      "div": 6025,
      "hank": 6026,
      "yauĠ": 6027,
      "harshenĠ": 6028,
      "vari": 6029,
      "áĮ¾": 6030,
      "áĪµáī¶": 6031,
      "induz": 6032,
      "class": 6033,
      "ĠáĬłáĪĿáĪĭáĬŃ": 6034,
      "fimĠ": 6035,
      "yam": 6036,
      "ianoĠ": 6037,
      "Lagos": 6038,
      "Láº¹ÌģyÃ¬nĠ": 6039,
      "Roy": 6040,
      "áĮĬáĪµ": 6041,
      "áĪµáĪ«áīħ": 6042,
      "iyoy": 6043,
      "ivyoĠ": 6044,
      "huoĠ": 6045,
      "ĠáĪĽáĪŃáīĨáĪµ": 6046,
      "imp": 6047,
      "áĭ¨áĭį": 6048,
      "inrinĠ": 6049,
      "pÃłÃ¡Ġ": 6050,
      "ĠkatikaĠmiakaĠmirefu).ĠMpakaĠuisheĠzinabakiĠsikuĠ": 6051,
      "ĠáĪĺáĮ»": 6052,
      "olojiaĠ": 6053,
      "áĬłáĭŃ": 6054,
      "áīłáĪ¬": 6055,
      "abub": 6056,
      "Nam": 6057,
      "et,Ġ": 6058,
      "ĠáĬ¥áĬķáĭ°áĮĪáĬĵ": 6059,
      "ĠáĪļáĪĬ": 6060,
      "Ġ15": 6061,
      "ina,Ġ": 6062,
      "áĪ«áĪĿ": 6063,
      "iakaĠyaĠ": 6064,
      "ĠáĬ¥áĪµáĬ¨Ġ20": 6065,
      "ĠáīłáĪ½áī³": 6066,
      "sinimÃ¡ĠÃłgbÃ©lÃ©": 6067,
      "ombeĠ": 6068,
      "IjobaĠIbileĠ": 6069,
      "ayáº¹": 6070,
      "áĬ«áī³": 6071,
      "kumaĠk": 6072,
      "bahar": 6073,
      "Ðµ": 6074,
      "okaĠ": 6075,
      "enĠ(": 6076,
      "adhiĠyaĠ": 6077,
      "DĠ": 6078,
      "du": 6079,
      "loc": 6080,
      "maj": 6081,
      "Ãłwá»įnĠá»įmá»įĠ": 6082,
      "farkonĠ": 6083,
      "diniĠ": 6084,
      "alÃ¡Ã¬sÃŃĠnÃŃĠ": 6085,
      "ĠáīłáĬ¢": 6086,
      "1999": 6087,
      "nÃŃgbÃłĠ": 6088,
      "Academ": 6089,
      "áĬķĠáĪĽ": 6090,
      "neĠnaĠ": 6091,
      "jÃ¬Ġ": 6092,
      "ĠáĪĪáī°": 6093,
      "iláº¹": 6094,
      "agul": 6095,
      "tas": 6096,
      "áĪŀáĬŃ": 6097,
      "tanaĠdaĠ": 6098,
      "lilil": 6099,
      "ĠáĬ«áĪĮáĬķáĭ³áĪŃ": 6100,
      "dÃ³": 6101,
      "daiĠ": 6102,
      "ambapoĠ": 6103,
      "áĪµáīµáĬĵ": 6104,
      "BĠ": 6105,
      "umiĠ": 6106,
      "Alb": 6107,
      "isĠ(": 6108,
      "aĠyankinĠ": 6109,
      "ThomasĠ": 6110,
      "ÃĢwá»įnĠá»įjá»įÌģ": 6111,
      "asayansiĠwaĠ": 6112,
      "WannanĠ": 6113,
      "isteĠ": 6114,
      "Chi": 6115,
      "odiĠ": 6116,
      "áīĭáĬķáīĭ": 6117,
      "Kur": 6118,
      "ãĤ": 6119,
      "ekoĠ": 6120,
      "áĪģáĪī": 6121,
      "Ġá»ĮdÃºnĠ": 6122,
      "áĮİáĪŃáĮİáĪŃáĭ«áĬķ": 6123,
      "áĮłáīĢáĪĿ": 6124,
      "ZanzibarĠ": 6125,
      "itinĠ": 6126,
      "abinc": 6127,
      "áĬķáĭ³áĬķáĭµ": 6128,
      "aelĠ": 6129,
      "ĠáĭŃáĭĪ": 6130,
      "Kiingerez": 6131,
      "Î¿": 6132,
      "eneĠ": 6133,
      "YunifÃ¡": 6134,
      "takeĠ": 6135,
      "ymp": 6136,
      "nÃŃĠá»įdÃºnĠ201": 6137,
      "31Ġ": 6138,
      "gÃ©n": 6139,
      "áĪµáĪĽ": 6140,
      "ĠtoĠtheĠ": 6141,
      "Ã¬dÃ¡": 6142,
      "VitaĠ": 6143,
      "áĭĽáĭĿ": 6144,
      "Ã¨-": 6145,
      "ĠáĪĺáī¶": 6146,
      "iquesĠ": 6147,
      "UgandaĠ": 6148,
      "ÃĢwá»įnĠá»įjá»įÌģalÃ¡Ã¬sÃŃĠnÃŃĠ": 6149,
      "99": 6150,
      "Dev": 6151,
      "Ros": 6152,
      "him": 6153,
      "áĪįáĮħ": 6154,
      "HistoriaĠyaĠ": 6155,
      "38": 6156,
      "ai.": 6157,
      "zur": 6158,
      "Mlim": 6159,
      "niĠá»įdunĠ": 6160,
      "WilliamĠ": 6161,
      "ambayoĠniĠ": 6162,
      "áĭ«áĭĿ": 6163,
      "umz": 6164,
      "amba": 6165,
      "izariĠwaĠ": 6166,
      "áĭ³áĬķáĭ±": 6167,
      "WanasayansiĠwaĠ": 6168,
      "áĮ£áĪįáĭ«áĬķ": 6169,
      "HasaĠ": 6170,
      "wá»įÌĢĠ": 6171,
      "ars": 6172,
      "Ġáį«": 6173,
      "áįįáĬĵ": 6174,
      "BritishĠ": 6175,
      "lá»į.": 6176,
      "MajalisarĠ": 6177,
      "on-": 6178,
      "ĠáĬĹ": 6179,
      "ers,Ġ": 6180,
      "AgbegbeĠIjobaĠIbileĠ": 6181,
      "eo": 6182,
      "apÃ¡Ġ": 6183,
      "áĬ¥áĮįáĭļáĬłáī¥áĪĶáĪŃ": 6184,
      "46": 6185,
      "imboĠ": 6186,
      "arsĠ": 6187,
      "asalinĠ": 6188,
      "maĠÅĦĠ": 6189,
      "áī²áĬķ": 6190,
      "Iv": 6191,
      "tÃłĠ": 6192,
      "utum": 6193,
      "azim": 6194,
      "uatwaĠnaĠ": 6195,
      "ĠáĪĿáĬĵáĪį": 6196,
      "hiziĠ": 6197,
      "ĠáĪĽáĮ£áīĢ": 6198,
      "ĠáĪĿáĬĵáĪįáī£áīµ": 6199,
      "iedĠ": 6200,
      "Ġáī£áĪį": 6201,
      "yake.": 6202,
      "áĪįáīģ": 6203,
      "usul": 6204,
      "ipeĠ": 6205,
      "ation.": 6206,
      "áĭ®áĪŃáĮĬáĪµ": 6207,
      "dak": 6208,
      "ĠáĬłáī£áīµ": 6209,
      "áĪ«áĪ½": 6210,
      "ajuĠ": 6211,
      "Ġáīµáĭį": 6212,
      "áĪİáĬķ": 6213,
      "áĬķáīĢ": 6214,
      "ĠáĬłáĪģáĬķ": 6215,
      "attalinĠarz": 6216,
      "long": 6217,
      "áīµáĪĿ": 6218,
      "31": 6219,
      "kuw": 6220,
      "amarĠhukumarĠ": 6221,
      "91Ġáĭĵ.áĪĿ.": 6222,
      "shiĠneĠdanĠwasanĠÆĻwallonĠÆĻafaĠtaĠÆĻasarĠIngil": 6223,
      "Kong": 6224,
      "artĠ": 6225,
      "áīłáĪ°": 6226,
      "áĪ¥áĪ«áīħ": 6227,
      "áĮİáĪŃáĮİáĪŃáĭ«áĬķĠáĬ«áĪĮáĬķáĭ³áĪŃ": 6228,
      "kÃ¬": 6229,
      "hay": 6230,
      "ĠáĪİ": 6231,
      "OL": 6232,
      "gá»įÌģ": 6233,
      "áĮĪáī¡": 6234,
      "ĠáĪ¹": 6235,
      "progr": 6236,
      "---": 6237,
      "Fark": 6238,
      "áº¹ÌĢ.": 6239,
      "duk": 6240,
      "¹áį": 6241,
      "ºáį": 6242,
      "áīłáĪī": 6243,
      "Institut": 6244,
      "Ã¬má»įÌĢ": 6245,
      "hadaĠdaĠ": 6246,
      "tÃ²": 6247,
      "áĪıáĪįáį¢": 6248,
      "rubutaĠ": 6249,
      "Ã³n": 6250,
      "Hot": 6251,
      "Su": 6252,
      "hy": 6253,
      "2000": 6254,
      "2008": 6255,
      "oĠmwakaĠ": 6256,
      "ĠáįĪáĪ¨áĬķ": 6257,
      "Ġáĭ³áĪŃ": 6258,
      "asiĠyaĠ": 6259,
      "áĪªáīµ": 6260,
      "bet": 6261,
      "ierĠ": 6262,
      ",ĠB": 6263,
      "ĠáīłáĪķ": 6264,
      "fordĠ": 6265,
      "amarĠhukumaĠ": 6266,
      "peop": 6267,
      "Ful": 6268,
      "Kol": 6269,
      "eanĠ": 6270,
      "ta.": 6271,
      "NewĠYorkĠ": 6272,
      "angaĠ": 6273,
      "DanĠ": 6274,
      "2004": 6275,
      "leur": 6276,
      "Gwamn": 6277,
      "ĠáĪįáī¥": 6278,
      "Ġáī°áĬĵ": 6279,
      "aniĠwaĠ": 6280,
      "ĠáĭµáĬķáĮĭ": 6281,
      "ĠáĪĽáĪµáī³áĭĪáĪ»áĭİáī½": 6282,
      "39": 6283,
      "AF": 6284,
      "MunguĠ": 6285,
      "We": 6286,
      "utanenĠ": 6287,
      "ĠØ§ÙĦ": 6288,
      "AliĠ": 6289,
      "leoĠ": 6290,
      "áĭ«áĬķáĭ³áĬķáĭ±": 6291,
      "walik": 6292,
      "Ġáī¶": 6293,
      "ĠáĪĺáĮ¥": 6294,
      "Ãł-": 6295,
      "Ãłgb": 6296,
      "bugaĠ": 6297,
      "ká»įÌĢĠ": 6298,
      "mam": 6299,
      "takaĠ": 6300,
      "ongez": 6301,
      "Ã©lÃ©": 6302,
      "ansuĠ": 6303,
      "pÃ²Ġ": 6304,
      "anti": 6305,
      "akk": 6306,
      "osp": 6307,
      "OlÃº": 6308,
      "NewĠYork": 6309,
      "Sil": 6310,
      "a,Ġk": 6311,
      "imbab": 6312,
      "fitoĠ": 6313,
      "Pul": 6314,
      "ĠdeĠ": 6315,
      "áĪµáĪį": 6316,
      "ĠáĮ³": 6317,
      "huuĠ": 6318,
      "haliĠyaĠ": 6319,
      "Ġáĭ¨áĬ®": 6320,
      "Ot": 6321,
      "Sing": 6322,
      "tsar": 6323,
      "ammal": 6324,
      "atikaĠkarneĠyaĠ": 6325,
      "OgunĠ": 6326,
      "áĬķáĪ³áĭĬ": 6327,
      "enaĠ": 6328,
      "leyĠ": 6329,
      "Frank": 6330,
      "akanaĠnaĠ": 6331,
      "áĬĲáī±áĬķ": 6332,
      "afutaĠ": 6333,
      "Ġáī°áĭĭ": 6334,
      "Ġáĭ¨áĪļáĭ«áĪµ": 6335,
      "low": 6336,
      "¸áį": 6337,
      "utionĠ": 6338,
      "Marekani.": 6339,
      "AlakosoĠAgbaĠ": 6340,
      "Hind": 6341,
      "wataĠ": 6342,
      "Ġá¹£ÃŃá¹£": 6343,
      "ĠáīĢáĬķĠáį²áį±áį»áį": 6344,
      "Æ³": 6345,
      "2010": 6346,
      "ĠSt": 6347,
      "dagaĠbayaĠ": 6348,
      "ÃªmeĠ": 6349,
      "der": 6350,
      "u:Ġ": 6351,
      "aboutĠ": 6352,
      "Ġáĭ¨áĪŀ": 6353,
      "KanananĠhukumominĠ": 6354,
      "sir": 6355,
      "Isra": 6356,
      "Mw": 6357,
      "rÃº": 6358,
      "áĬķĠáĪĪáĪĽ": 6359,
      "ĠáĬłáĮĪáĪ«áīµ": 6360,
      "takribanĠ": 6361,
      "MjiĠ": 6362,
      "áĭĺáĬķ": 6363,
      "AĠshekararĠ": 6364,
      "jáº¹ÌģĠá»įmá»įĠ": 6365,
      "ooĠ": 6366,
      "pá»įĠ": 6367,
      "ĠáĪĺáĪ³": 6368,
      "Law": 6369,
      "a'aik": 6370,
      "áīĢáĪ¨": 6371,
      "ĠáĪĪáĪĿáĪ³áĪĮ": 6372,
      "ĠáĮ«": 6373,
      "áį¤Ġáĭ¨": 6374,
      "ĠáĬŃáįįáĪİáī½": 6375,
      "kuwaĠnaĠ": 6376,
      "PiaĠ": 6377,
      "áī³áī½": 6378,
      "daĠnaĠ": 6379,
      "iwonĠ": 6380,
      "SaintĠ": 6381,
      "uceĠ": 6382,
      "ony": 6383,
      "shirinĠ": 6384,
      "su.": 6385,
      "Str": 6386,
      "ĠáĭĿáĪŃáĭ«": 6387,
      "ninuĠawonĠ": 6388,
      "Ayy": 6389,
      "fÃŃÃ¬mÃ¹Ġ": 6390,
      "áĪ³áĪ³áĭŃ": 6391,
      "Ġáī¥áĭĽáīµ": 6392,
      "gasarĠ": 6393,
      "abr": 6394,
      "Janair": 6395,
      "Ã²:Ġ": 6396,
      "edik": 6397,
      "esp": 6398,
      "áº¹ÌĢ,Ġ": 6399,
      "indaĠtaĠ": 6400,
      "prÃ©sent": 6401,
      "intoĠ": 6402,
      "Ã¨yÃŃ": 6403,
      "azz": 6404,
      "oá¹£Ã¹ĠK": 6405,
      "Bak": 6406,
      "press": 6407,
      "lÃ¡raĠÃłwá»įnĠ": 6408,
      "áĮĪáĪªáī±": 6409,
      "AR": 6410,
      "pÃ¡": 6411,
      "áī¾": 6412,
      "wasem": 6413,
      "150": 6414,
      "LondonĠ": 6415,
      "Publ": 6416,
      "Zimbab": 6417,
      "lov": 6418,
      "vik": 6419,
      "aĠJiharĠ": 6420,
      "iâĢĻarĠ": 6421,
      "bÃº": 6422,
      "áĬķáĭ°áĪŃ": 6423,
      "Ã¬tÃłg": 6424,
      "2007Ġ": 6425,
      "ulikanaĠ": 6426,
      "rashinĠ": 6427,
      "Ã¯": 6428,
      "ons": 6429,
      "Stud": 6430,
      "dabanĠ": 6431,
      "ĠáīłáĮİáĪŃáĮİáĪŃáĭ«áĬķĠáĬ«áĪĮáĬķáĭ³áĪŃ": 6432,
      "ellesĠ": 6433,
      "toĠjeĠ": 6434,
      "ÅĦĠjáº¹ÌģĠ": 6435,
      "kuv": 6436,
      "áīħáĭ±áĪµ": 6437,
      "ĠáĮĢáĪĿáĪ®ĠáĬ¥áĪµáĬ¨Ġ20": 6438,
      "Lim": 6439,
      "ulĠ": 6440,
      "tÃŃĠÃ³Ġt": 6441,
      "ood": 6442,
      "aĠkoĠ": 6443,
      "princip": 6444,
      "áĭ©áĪµ": 6445,
      "oirĠ": 6446,
      "yayiĠ": 6447,
      "ĠáĭĪáĪįáĭ°": 6448,
      "waĠkar": 6449,
      "Ig": 6450,
      "áĪŃáī±": 6451,
      "2012": 6452,
      "ĠáĬłáīĨáĮ£áĮłáĪŃĠ(áĬ¨": 6453,
      "1892Ġáĭĵ.áĪĿ.ĠáĮĢáĪĿáĪ®ĠáĬ¥áĪµáĬ¨Ġ20": 6454,
      "ĠáīĢáĬķĠáīłáĬ¢áīµáĭ®áĮµáĭ«ĠáĬłáīĨáĮ£áĮłáĪŃĠ(áĬ¨": 6455,
      "1892Ġáĭĵ.áĪĿ.ĠáĮĢáĪĿáĪ®ĠáĬ¥áĪµáĬ¨Ġ2091Ġáĭĵ.áĪĿ.": 6456,
      "ĠáīĢáĬķĠáīłáĬ¢áīµáĭ®áĮµáĭ«ĠáĬłáīĨáĮ£áĮłáĪŃĠ(áĬ¨1892Ġáĭĵ.áĪĿ.ĠáĮĢáĪĿáĪ®ĠáĬ¥áĪµáĬ¨Ġ2091Ġáĭĵ.áĪĿ.": 6457,
      "yst": 6458,
      "AdÃ©": 6459,
      "ĠáĪ²áĪĨáĬķáį£": 6460,
      "ĠáĮłáīħ": 6461,
      "ĠáĬĲáĮĪáĪŃĠáĮįáĬķ": 6462,
      "ayenĠ": 6463,
      "anyik": 6464,
      "ÃĢwá»įnĠÃ¬tá»įÌģkasÃŃĠ": 6465,
      "áĪĮáĬŃáīµáĪªáĬŃ": 6466,
      "cinĠk": 6467,
      "pass": 6468,
      "jáº¹sÃ¡": 6469,
      "falmeĠmkuuĠwaĠ": 6470,
      "Nuw": 6471,
      "Oj": 6472,
      "tÃ³": 6473,
      "ÃĢwá»įnĠarÃ¡Ġ": 6474,
      "Ġ(áĬ¥áĬķáĮįáĪĬáĭĿáĬĽ": 6475,
      "Ms": 6476,
      "anaĠm": 6477,
      "Ġáĭ¨áĬ¦": 6478,
      "2011": 6479,
      "Ġáĭ¨áīĢáĬķĠáĪµáĪĿ": 6480,
      "ĠáĪ²áĪĨáĬķĠáĭŃáĪħĠáīĢáĬķĠáīłáĬ¢áīµáĭ®áĮµáĭ«ĠáĬłáīĨáĮ£áĮłáĪŃĠ(áĬ¨1892Ġáĭĵ.áĪĿ.ĠáĮĢáĪĿáĪ®ĠáĬ¥áĪµáĬ¨Ġ2091Ġáĭĵ.áĪĿ.": 6481,
      "ĠáīłáĬ¥áĬķáĮįáĪĬáĭĿáĬĽĠáĪ²áĪĨáĬķĠáĭŃáĪħĠáīĢáĬķĠáīłáĬ¢áīµáĭ®áĮµáĭ«ĠáĬłáīĨáĮ£áĮłáĪŃĠ(áĬ¨1892Ġáĭĵ.áĪĿ.ĠáĮĢáĪĿáĪ®ĠáĬ¥áĪµáĬ¨Ġ2091Ġáĭĵ.áĪĿ.": 6482,
      "ĠáīłáĮİáĪŃáĮİáĪŃáĭ«áĬķĠáĬ«áĪĮáĬķáĭ³áĪŃĠáĭ¨áīĢáĬķĠáĪµáĪĿ": 6483,
      "ĠáīłáĮİáĪŃáĮİáĪŃáĭ«áĬķĠáĬ«áĪĮáĬķáĭ³áĪŃĠáĭ¨áīĢáĬķĠáĪµáĪĿĠáīłáĬ¥áĬķáĮįáĪĬáĭĿáĬĽĠáĪ²áĪĨáĬķĠáĭŃáĪħĠáīĢáĬķĠáīłáĬ¢áīµáĭ®áĮµáĭ«ĠáĬłáīĨáĮ£áĮłáĪŃĠ(áĬ¨1892Ġáĭĵ.áĪĿ.ĠáĮĢáĪĿáĪ®ĠáĬ¥áĪµáĬ¨Ġ2091Ġáĭĵ.áĪĿ.": 6484,
      "Ġáĭĺáĭ´": 6485,
      "Kifarans": 6486,
      "áº¹taĠ": 6487,
      "áĪ©áĪĿ": 6488,
      "(m": 6489,
      "re,Ġ": 6490,
      "ruwaĠ": 6491,
      "áī°áį¢": 6492,
      "áĪĪáĪĺ": 6493,
      "ipÃ²Ġ": 6494,
      "uwa": 6495,
      "Fren": 6496,
      "zaÉĵ": 6497,
      "atak": 6498,
      "onyĠ": 6499,
      "Sok": 6500,
      "hus": 6501,
      "adam": 6502,
      "Ġáīłáī°áĮ¨áĪĽáĪª": 6503,
      "serikaliĠyaĠ": 6504,
      "áī¥áĪ«áĭŃ": 6505,
      "áĪĲáįĬ": 6506,
      "wallonĠk": 6507,
      "ĠáĬĥáĭŃáĪį": 6508,
      "88": 6509,
      "á»įkÃłn": 6510,
      "ision": 6511,
      "ObaĠ": 6512,
      "urg": 6513,
      "ĠáīĢáĬķĠáĪĽáĪĪáīµĠáĬĲáĭįáį¢": 6514,
      "Pasif": 6515,
      "ini-": 6516,
      "ember": 6517,
      "kit": 6518,
      "asiliĠ": 6519,
      "gboyÃ¨Ġ": 6520,
      "ceĠtaĠ": 6521,
      "Ġáĭ¨áĪĺáĮĢáĪĺáĪªáĭ«áĭį": 6522,
      "OrÃŃláº¹ÌĢ-Ã¨dÃ¨Ġ": 6523,
      "áīłáīĥ": 6524,
      "araĠnyingiĠ": 6525,
      "engenez": 6526,
      "anarĠ": 6527,
      "áĮįáĪªáĬŃ": 6528,
      "Ùĩ": 6529,
      "ĠáĮĪáĭ°": 6530,
      "Ã¬bÃŃláº¹ÌĢĠ": 6531,
      "áīĢáĮ¥": 6532,
      "ĠSeptembaĠ": 6533,
      "CCM": 6534,
      "PP": 6535,
      "aunaĠ": 6536,
      "wajeĠ": 6537,
      "56": 6538,
      "Feder": 6539,
      "Sw": 6540,
      "hap": 6541,
      "aĠNajeriyaĠ": 6542,
      "ĠáĬłáĭ¨áĪŃ": 6543,
      "islamuĠ": 6544,
      "ĠáĬ¥áĬĶ": 6545,
      "tiĠaĠ": 6546,
      "eteĠ": 6547,
      "ĠtÃŃĠaĠ": 6548,
      "ĠâĢĵ": 6549,
      "suchĠ": 6550,
      "siyasaĠ": 6551,
      "ĠáĬĥáĭŃáĪĪ": 6552,
      "dat": 6553,
      "ala": 6554,
      "istaĠ": 6555,
      "2015": 6556,
      "Bon": 6557,
      "bá»įÌģá»įÌĢ": 6558,
      "cy": 6559,
      "les": 6560,
      "Åį": 6561,
      "Ġá»įbaĠ": 6562,
      "stud": 6563,
      "leĠm": 6564,
      "ĠáĮįáĭĽ": 6565,
      "ĠAd": 6566,
      "orÃŃá¹£": 6567,
      "áĭŃáĪŃ": 6568,
      "esaĠ": 6569,
      "áĪ©áį¢": 6570,
      "conn": 6571,
      "Ġ*": 6572,
      "serikaliĠ": 6573,
      "BahariĠ": 6574,
      "Ġáĭ¨áĪĢ": 6575,
      "ensiĠ": 6576,
      "isc": 6577,
      "Ġáĭ¨áĪļáī³áĭĪ": 6578,
      "áĭĺáĭį": 6579,
      "áīłáīµĠáĮĬáĭľ": 6580,
      "ĠáĮĪáĬķ": 6581,
      "jáº¹ÌģĠá»įÌĢkanĠ": 6582,
      "áĬłáĪĪ": 6583,
      "view": 6584,
      "sanĠ": 6585,
      "Ã¨meĠ": 6586,
      "áĬ¨áĭļáĭ«": 6587,
      "500": 6588,
      "Jon": 6589,
      "áĪ°áĪŃ": 6590,
      "ĠáĬłáĪĪáĪĿ": 6591,
      "Rad": 6592,
      "Zamb": 6593,
      "ariĠyaĠ": 6594,
      "urr": 6595,
      "ĠáīĢáĭ³": 6596,
      "anaĠkwaĠ": 6597,
      "lÃ¹Ġ": 6598,
      "plac": 6599,
      "flu": 6600,
      "aiĠdaĠ": 6601,
      "2014": 6602,
      "own": 6603,
      "Afrika": 6604,
      "ographi": 6605,
      "antiĠ": 6606,
      "Ã©ĠparĠ": 6607,
      "áĪ²áĬķ": 6608,
      "Ġá»įÌĢpá»įÌĢlá»įpá»įÌĢĠ": 6609,
      "ÃłwÃ³Ġ": 6610,
      "deuxĠ": 6611,
      "Sat": 6612,
      "nasar": 6613,
      "akat": 6614,
      "wandishiĠwaĠ": 6615,
      "ĠáĪĻáĪī": 6616,
      "KatikaĠm": 6617,
      "áĭ³áĪį": 6618,
      "áĭĽáĬĽáĭį": 6619,
      "ookĠ": 6620,
      "ĠáĬłáĪħ": 6621,
      "B.": 6622,
      "amoĠ": 6623,
      "Ġáīłáī¥áĭĽáīµ": 6624,
      "IV": 6625,
      "ianiĠ": 6626,
      "uliĠ": 6627,
      "itwaĠ\"": 6628,
      "Arew": 6629,
      "ĠáĬłáĭ²áĪµĠáĬłáīłáī£": 6630,
      ")ĠáĬ¥áĬĵ": 6631,
      "EastĠ": 6632,
      "ĠáīĢáĬķĠ-": 6633,
      "ium": 6634,
      "Muhammad": 6635,
      "zabenĠ": 6636,
      "áĬĵáĭŃáīµ": 6637,
      "ĠáĭŃáĪĦ": 6638,
      "ÃªtreĠ": 6639,
      "ambal": 6640,
      ",ĠmwanamuzikiĠ": 6641,
      "ial": 6642,
      "ĠáĪĺáĪĪ": 6643,
      "nÃŃĠÃ¬": 6644,
      "waĠmasoĠ": 6645,
      "1998": 6646,
      "Ãłká»įÌģlÃ©Ġráº¹ÌĢĠ": 6647,
      "Hung": 6648,
      "anth": 6649,
      "áĮĪáĪ«áīµ": 6650,
      "uzikiĠwaĠ": 6651,
      "a,": 6652,
      "áĬ¥áĬķáĭ²": 6653,
      "haz": 6654,
      "yÃ¨Ġ": 6655,
      "áīłáīħ": 6656,
      "aĠmas": 6657,
      "áĭ´áīµ": 6658,
      "htm": 6659,
      "Ġáī¥áĪĶáĪ«áĭĬ": 6660,
      "herĠ": 6661,
      "áĪ°áĪĽ": 6662,
      "Ġáī£áĭŃ": 6663,
      "hesh": 6664,
      "ĠáĬłáĮĪáĪ®áī½": 6665,
      "ĠáĪĺáĪįáĬŃáĭĵ": 6666,
      "cul": 6667,
      "Ġ~": 6668,
      "áī°áĬĽáĭį": 6669,
      "ĠáĬ¥áĮįáĭļáĬłáī¥áĪĶáĪŃ": 6670,
      "Ġáį³áį": 6671,
      "ementsĠ": 6672,
      "katiĠyaĠ": 6673,
      "oÃ²rÃ¹nĠ": 6674,
      "áĪŀáīµ": 6675,
      "awaĠdaĠ": 6676,
      "áĪĪáĪĿáĪ³áĪĮ": 6677,
      "Kiarab": 6678,
      "SĠ": 6679,
      "bÃłĠ": 6680,
      "ÃĵĠjáº¹ÌģĠ": 6681,
      "akaoĠmak": 6682,
      "PopeĠ": 6683,
      "uraĠ": 6684,
      "áīłáĪ³": 6685,
      "Ġáĭ¨áī°áĪĺ": 6686,
      "ĠáīĢáĮ¥áĪİ": 6687,
      "2013": 6688,
      "nguv": 6689,
      ",000.": 6690,
      "UnitedĠStat": 6691,
      "Tel": 6692,
      "áĭµáĪ¨áĪµ": 6693,
      "play": 6694,
      "ĠáĪµáĪĪáĪļ": 6695,
      "ráº¹ÌĢ,Ġ": 6696,
      "Ġ20": 6697,
      "aĠsh": 6698,
      "emok": 6699,
      "languageĠ": 6700,
      "oodĠ": 6701,
      "kunaĠm": 6702,
      "illĠ": 6703,
      "Ġáĭ¨áī°áįĪ": 6704,
      "acheĠ": 6705,
      "AnĠhaifeĠ": 6706,
      "ĠáĭĪáĭŃáĬķáĪĿ": 6707,
      "atsay": 6708,
      "succ": 6709,
      "jerinĠ": 6710,
      "consid": 6711,
      "banĠ": 6712,
      "zim": 6713,
      "Ãłn,Ġ": 6714,
      "cultur": 6715,
      "áįįáĮ¥": 6716,
      "kufuatanaĠnaĠ": 6717,
      "Dur": 6718,
      "TĠ": 6719,
      "áĬķáĬŃ": 6720,
      "áĪŃáī£": 6721,
      "NÃŃgbÃł": 6722,
      "Bah": 6723,
      "ji": 6724,
      "alamaĠ": 6725,
      "azing": 6726,
      "estiv": 6727,
      "TuzoĠyaĠNobelĠyaĠ": 6728,
      "weenĠ": 6729,
      "bid": 6730,
      "iĠma": 6731,
      "ikiped": 6732,
      "Luc": 6733,
      "gbÃ²": 6734,
      "oliĠ": 6735,
      "Ġáī°áīĥ": 6736,
      "ever": 6737,
      "ilik": 6738,
      "yakeĠniĠ": 6739,
      "kÃ¨Ġ": 6740,
      "tall": 6741,
      "asilimiaĠ": 6742,
      "áĪªáĪµ": 6743,
      "áĭ³áĭµ": 6744,
      "KiarabuĠ": 6745,
      "TanguĠ": 6746,
      "MuhammadĠ": 6747,
      "tĠ(": 6748,
      "áį¡áīł": 6749,
      "ĠáĮ¥áĪ©": 6750,
      "utawalaĠwaĠ": 6751,
      "áīłáĪµ": 6752,
      ".ĠManazarta": 6753,
      "pamojaĠnaĠm": 6754,
      "jimboĠlaĠ": 6755,
      "dunian": 6756,
      "kujit": 6757,
      "JinaĠlakeĠ": 6758,
      "áĪ¸áĬĲ": 6759,
      "uatwaĠnaĠPapaĠ": 6760,
      "Ġá¹£iá¹£áº¹ÌģĠ": 6761,
      "jam'": 6762,
      "ĠáĬłáĪīáį¢": 6763,
      "Tanzania.": 6764,
      "nipaĠ": 6765,
      "sá»įÌĢ": 6766,
      "áĬķĠáĭ¨áĪļ": 6767,
      "Ã©rÃ©": 6768,
      "WatuĠ": 6769,
      "poss": 6770,
      "ongoziĠwaĠ": 6771,
      "Argent": 6772,
      "saur": 6773,
      "ĠáīłáĪħ": 6774,
      "ipp": 6775,
      "100Ġ": 6776,
      "Hel": 6777,
      "Oh": 6778,
      "Ġáī£áĪħáĪŃ": 6779,
      "KwaĠm": 6780,
      "HistoriaĠ": 6781,
      "FIF": 6782,
      "hom": 6783,
      "nye": 6784,
      "ĠáĪĺáĮ£": 6785,
      "contin": 6786,
      "noĠ": 6787,
      "is.": 6788,
      ".ĠÃĢwá»įnĠÃĮt": 6789,
      "jinsiĠ": 6790,
      "49": 6791,
      "linal": 6792,
      "Nijeriya.": 6793,
      "HukumarĠ": 6794,
      "Sim": 6795,
      "oraĠ": 6796,
      "áĬłáĪµ": 6797,
      "intaĠnaĠ": 6798,
      "Ġtrans": 6799,
      "ĠáĪĽáĮ£áīĢáĪ»": 6800,
      "abinĠ": 6801,
      "juuĠ": 6802,
      "hud": 6803,
      "jÃ¬": 6804,
      "nen": 6805,
      "Ġtele": 6806,
      "eĠdÃ©": 6807,
      "AfricaĠ": 6808,
      "ElezoĠyaĠ": 6809,
      "AlimfuataĠPapaĠ": 6810,
      "KamusiĠElezoĠyaĠ": 6811,
      "KamusiĠElezoĠyaĠKik": 6812,
      "áĭµáĪĺ": 6813,
      "áīħáĭ«": 6814,
      "ÆĻungiyarĠ": 6815,
      "Vit": 6816,
      "áį¡áĬ¥": 6817,
      "yawan": 6818,
      "yanaĠdaĠ": 6819,
      "aĠkatiĠyaĠ": 6820,
      "areĠdaĠ": 6821,
      "Litt": 6822,
      "euĠ": 6823,
      "sáº¹Ìģ": 6824,
      "áĮįáī£áĪŃ": 6825,
      "BBCĠ": 6826,
      "chamaĠ": 6827,
      "ĠáĪ³áĭŃáĬķáĪ³áĭĬ": 6828,
      "Fre": 6829,
      "áĬķáī³": 6830,
      "2016": 6831,
      "ĠáīłáĪĽáĪĪáīµ": 6832,
      "JapaniĠ(": 6833,
      "Pulitz": 6834,
      "gbÃ¡Ġ": 6835,
      "kulikoĠ": 6836,
      "gabatarĠdaĠ": 6837,
      "pet": 6838,
      "insuĠ": 6839,
      "taĠfarkoĠ": 6840,
      "ÃĮá¹£": 6841,
      "Ath": 6842,
      "iki,Ġ": 6843,
      "agn": 6844,
      "ĠáĪĽáĪŃáĭ«áĪĿ": 6845,
      "lá»įÌģwá»įÌģ": 6846,
      "Mand": 6847,
      "áĬķĠáĬ¥áĬĵ": 6848,
      "arkokinĠ": 6849,
      "VisiwaĠvyaĠ": 6850,
      "ĠáĬ¥áĬķáĮįáĪĬáĭĿáĬĽ": 6851,
      "KanoĠ": 6852,
      "ilÃ©-iá¹£áº¹ÌģĠ": 6853,
      "KadunaĠ": 6854,
      "ĠáĮīáĭ³áĭŃ": 6855,
      "rÃŃnĠ": 6856,
      "proc": 6857,
      "áĮ«áĭĪ": 6858,
      "áī¥áĪ«áĭŃáĪµáĮ¥": 6859,
      "áĪŃáĮİ": 6860,
      "islam": 6861,
      "ĠáĬłáī¶": 6862,
      "iyoyinĠ": 6863,
      "ÃĮlÃºĠ": 6864,
      "uhus": 6865,
      "Kijerum": 6866,
      "pÃ¡Ġ": 6867,
      "som": 6868,
      "áĬłáĬķáĭµ": 6869,
      "sÃ¬kÃ²Ġ": 6870,
      "Centr": 6871,
      "CibiyarĠ": 6872,
      "Sol": 6873,
      "raisĠ": 6874,
      "á»įdÃºnĠ": 6875,
      "ahud": 6876,
      "alikuwaĠPapaĠ": 6877,
      "UpandeĠ": 6878,
      "Trans": 6879,
      "ĠáįĸáĪĪáī²áĬ«": 6880,
      "us.": 6881,
      "aĠmak": 6882,
      "ChuoĠ": 6883,
      "ĠáĭĽáĪ¬": 6884,
      "</": 6885,
      "Mov": 6886,
      "etĠleĠ": 6887,
      "halafuĠ": 6888,
      "shiryaĠ": 6889,
      "Ã²rÃ²Ġ": 6890,
      "kÃ¬Ġ": 6891,
      "ĠáĪ¬": 6892,
      "import": 6893,
      "sehemuĠzaĠ": 6894,
      "ĠAugustĠ": 6895,
      "Bas": 6896,
      "KingĠ": 6897,
      "kafinĠ": 6898,
      "alish": 6899,
      "baĠtaĠ": 6900,
      "wá»įn.": 6901,
      "Ġáī³áĪªáĬ«áĭĬĠáĪĽáĪµáī³áĭĪáĪ»áĭİáī½": 6902,
      "ĠáĭµáĪŃáĮħáīµ": 6903,
      "Democrat": 6904,
      "toĠgbaĠEbunĠNobelĠ": 6905,
      "Æ³anĠ": 6906,
      "alabij": 6907,
      "isĠtheĠ": 6908,
      "yiĠaikiĠ": 6909,
      "ĠáĬ¥áĬķáĭ³áĭŃ": 6910,
      "How": 6911,
      "useĠ": 6912,
      "haih": 6913,
      "ĠáĬĵáīµáį¢": 6914,
      "áº¹lif": 6915,
      "Nollywo": 6916,
      "Ġáįİ": 6917,
      "ovuĠ": 6918,
      "inform": 6919,
      "áĬ®áĬĸ": 6920,
      "shigaĠ": 6921,
      "akafuatwaĠnaĠPapaĠ": 6922,
      "biyarĠ": 6923,
      "AM": 6924,
      "IleĠ": 6925,
      "kÃ¹": 6926,
      "áĮŃáĪŃ": 6927,
      "ĠáĪĺáĪįáĬŃáĭĵĠáĪĿáĭµáĪŃ": 6928,
      "dÃºgb": 6929,
      "áĭ«áĪį": 6930,
      "áį£Ġ": 6931,
      "áĬ«áĪŃ": 6932,
      "ion,Ġ": 6933,
      "gwamnatinĠ": 6934,
      "crÃ©": 6935,
      "Ġáīłáīµ": 6936,
      "ĠáĪļáĬĴáĪµáīµ": 6937,
      "áĪµáī´": 6938,
      "áĮ¥áĪĿ": 6939,
      "re.": 6940,
      "edĠasĠ": 6941,
      "ĠáĮĬáĭ®áĪŃáĮĬáĪµ": 6942,
      "AnnabiĠ": 6943,
      "pre": 6944,
      "°áį»áį": 6945,
      "ari,Ġ": 6946,
      "áĬķáĮİ": 6947,
      "1980": 6948,
      "ĠáĬłáįĪĠáī³áĪªáĬŃ": 6949,
      "Cent": 6950,
      "2002": 6951,
      "áĬĵáĭŃáīµáĭµ": 6952,
      "e),Ġ": 6953,
      "amer": 6954,
      "aki": 6955,
      "ĠáīłáĬĭáĪĭĠáĬ¥áĪµáĬ¨": 6956,
      "áįĸáĪĪáī²áĬ«": 6957,
      "ĠáīłáĪµáī°": 6958,
      "AmerikaĠyaĠK": 6959,
      "Wany": 6960,
      "huwaĠ": 6961,
      "ibleĠ": 6962,
      "AsiaĠ": 6963,
      "oĠchaĠm": 6964,
      "Ãłká»įÌģká»įÌģ": 6965,
      "ĠáīłáĬ®": 6966,
      "oĠkwenyeĠ": 6967,
      "conom": 6968,
      "tenaĠ": 6969,
      "ĠáĮ¸áī£áĭŃ": 6970,
      "Ġáĭĭáī¢ĠáĪĿáĬķáĮ®áī½": 6971,
      "RichardĠ": 6972,
      "italĠ": 6973,
      "amboĠ": 6974,
      "ambayeĠ": 6975,
      "daĠdamaĠ": 6976,
      "dÃºr": 6977,
      "gÃ¡": 6978,
      "ikaĠlaĠ": 6979,
      "ĠAn": 6980,
      "ĠáīłáĭĺáĪĺáĬĲĠáĪīáīĥáĪµ": 6981,
      "ijobaĠib": 6982,
      "55": 6983,
      "eeĠ": 6984,
      "ChuoĠKik": 6985,
      "daĠc": 6986,
      "áĪĭáīģ": 6987,
      "okanĠ": 6988,
      "Ash": 6989,
      "a),Ġ": 6990,
      "tal": 6991,
      "ÃłÃ¬sÃłnĠ": 6992,
      "aminĠ": 6993,
      "áº¹n": 6994,
      "Historia": 6995,
      "Emp": 6996,
      "dontĠ": 6997,
      "ga": 6998,
      "enĠm": 6999,
      "ĠSh": 7000,
      "org/": 7001,
      "yĠandĠ": 7002,
      "Sehem": 7003,
      "ton": 7004,
      "ualĠ": 7005,
      "áĪŃáī¶": 7006,
      "ominaĠ": 7007,
      "áĪ«áĪįáį¢": 7008,
      "Ġáį»áį": 7009,
      "áĬ¨áī³": 7010,
      "Ã©rÃ©Ġ": 7011,
      "à¤ķ": 7012,
      "86": 7013,
      "Nik": 7014,
      "Sci": 7015,
      "cetteĠ": 7016,
      "owÃ³Ġ": 7017,
      "Ġáĭ¨áī°áī£áĪĪ": 7018,
      "AP": 7019,
      "ĠáīħáĪŃáĪµ": 7020,
      "mÃ©jÃ¬": 7021,
      "bat": 7022,
      "irÃŃá¹£": 7023,
      "áįĪáĪĭ": 7024,
      "Ġáĭ°áĪ«áĪ²": 7025,
      "Sel": 7026,
      "Zam": 7027,
      "áĬ¨áĪĭ": 7028,
      "|ĠRD2-": 7029,
      "BÃŃĠ": 7030,
      "áĭµáĪ®": 7031,
      "áĪİáĮĤ": 7032,
      "ariĠtaraĠ": 7033,
      "Gáº¹ÌĢáº¹Ìģ": 7034,
      "rÃłnĠ": 7035,
      "Ġáĭ¨áĪļáĮĪáĬĻ": 7036,
      "áĮĭáī¢": 7037,
      "lÃł": 7038,
      "áĭĪáĭŃáĪĿ": 7039,
      "kubwaĠwaĠ": 7040,
      "Rev": 7041,
      "alig": 7042,
      "wandaĠkeĠ": 7043,
      "wÃ¡yÃ©Ġ": 7044,
      "Jiograf": 7045,
      "Mex": 7046,
      "kÃł.": 7047,
      "eroĠ": 7048,
      "Ã²s": 7049,
      "ĠáīłáĬ¦": 7050,
      "epoĠ": 7051,
      "jami'": 7052,
      "argaj": 7053,
      ".ĠL": 7054,
      "ational": 7055,
      "AD": 7056,
      "ĠP": 7057,
      "ubuc": 7058,
      "ne,ĠdaĠkeĠ": 7059,
      "Ġáī°áĪ«áĪ«": 7060,
      "Maur": 7061,
      "ocinĠ": 7062,
      "jami": 7063,
      "aĠgarinĠ": 7064,
      "Hab": 7065,
      "gáº¹": 7066,
      "auy": 7067,
      "nÃ¡ÃłĠniĠ": 7068,
      "tureĠ": 7069,
      "iláº¹ÌĢ": 7070,
      "ĠáĪµáī¥áĪµ": 7071,
      "afrikaĠ": 7072,
      "JosephĠ": 7073,
      "pÃłtÃłkÃ¬Ġ": 7074,
      "Ø©": 7075,
      "áĮĪáĪ¨": 7076,
      "ĠáĭįáĮŃ": 7077,
      "abilaĠlaĠ": 7078,
      "iel": 7079,
      "áĪĮáĪİáī½": 7080,
      "ugu": 7081,
      "áĮłáī¥": 7082,
      "leurĠ": 7083,
      "TarayyarĠ": 7084,
      "elopmentĠ": 7085,
      "Nk": 7086,
      "ifuĠ": 7087,
      "áĬłáīµ": 7088,
      "waĠkamaĠ": 7089,
      "1960": 7090,
      "aifaĠ": 7091,
      "áĪĪáĭµ": 7092,
      ".ĠD": 7093,
      "faitĠ": 7094,
      "c.": 7095,
      "Ġáī°áĬ¨áī³": 7096,
      "Sir": 7097,
      "ĠáĬ¥áĪĿáĬĲáīµ": 7098,
      "tsawonĠ": 7099,
      "ĠáĬ¥áĬķáĭ²áĭ«": 7100,
      "áĬŀáī¹": 7101,
      "fanoĠ": 7102,
      "log": 7103,
      "mostĠ": 7104,
      "apá»įÌĢĠ": 7105,
      "áĬ®áīµ": 7106,
      "iliyo": 7107,
      "ossĠ": 7108,
      "ĠáĪ²áĪĨáĬĳ": 7109,
      "áĭĺáĪĺ": 7110,
      "jáº¹sÃ¡raĠ": 7111,
      "Ile-": 7112,
      "ĠaĠ": 7113,
      "ongo": 7114,
      "Que": 7115,
      "ĠáĪ¦áĪµáīµ": 7116,
      "natur": 7117,
      "u)Ġ": 7118,
      "WatuĠwaĠ": 7119,
      "yth": 7120,
      "2017": 7121,
      "LegasĠ": 7122,
      "AlitokeaĠ": 7123,
      "kejÃ¬Ġ": 7124,
      "intern": 7125,
      "ĠáĭŃáĪĭáĪįáį¢": 7126,
      "ĠáĭĪáī³áĭ°": 7127,
      "iĠmwakaĠwaĠ": 7128,
      "tÃŃĠÃ³ĠsÃ¬Ġ": 7129,
      "Ã¬kÃ¬": 7130,
      "fasah": 7131,
      "itaceĠ": 7132,
      "lÃŃ": 7133,
      "vin": 7134,
      "ama,Ġ": 7135,
      "aĠmar": 7136,
      "ijiĠm": 7137,
      "etĠlaĠ": 7138,
      "NÃłÃ¬jÃŃrÃŃÃł,Ġ": 7139,
      "ĠáĬ¨áī°áĪĽĠáĬĲáĭįáį¢": 7140,
      "WilayaĠyaĠ": 7141,
      "esabiwaĠkuwaĠ": 7142,
      "jumlaĠ": 7143,
      "Mab": 7144,
      "áĪĿĠáĪĪ": 7145,
      "ĠáĭįáĪĥ": 7146,
      "ĠáĬłáįįáĪªáĬ«": 7147,
      "áĮįáĬĺ": 7148,
      "ĠáĭµáĪį": 7149,
      "askofuĠ": 7150,
      "300": 7151,
      "do": 7152,
      "dÃ¨Ġ": 7153,
      "gl": 7154,
      "ward": 7155,
      "ĠáĬ¥áĪŃáĪ±": 7156,
      "kuzaliwaĠ": 7157,
      "atiĠm": 7158,
      "1918": 7159,
      "áīħáĭ°": 7160,
      "áĭ²áĭ®": 7161,
      "áīĥáĪ´": 7162,
      "áĪ²áī²": 7163,
      "TuzoĠyaĠPulitz": 7164,
      "ĠáĪµáĪĪáĪĨáĬĲ": 7165,
      "tot": 7166,
      "áĮ¡áīµ": 7167,
      "Res": 7168,
      "Val": 7169,
      "kusiniĠ": 7170,
      "inayo": 7171,
      "elekeaĠ": 7172,
      "WaislamuĠ": 7173,
      "Mo": 7174,
      "sousĠ": 7175,
      "2000Ġ": 7176,
      "1997": 7177,
      "iaĠmwakaĠ": 7178,
      "yaĠmutuĠ": 7179,
      "Zar": 7180,
      "ĠáĪ¥áįįáĪ«": 7181,
      "ÃĪyÃŃĠ": 7182,
      "sark": 7183,
      "wÃŃĠ": 7184,
      "ĠâĢ¢": 7185,
      "D-": 7186,
      "Kip": 7187,
      "anoĠyaĠ": 7188,
      "ajeĠ": 7189,
      "áĪĨáĬĸ": 7190,
      "Olymp": 7191,
      "autresĠ": 7192,
      ".ĠItokasiĠÃĢwá»įnĠarÃ¡Ġ": 7193,
      "áīħáĪµáīĥáĪ´": 7194,
      "Ram": 7195,
      "vic": 7196,
      "gbá»įÌģĠ": 7197,
      "elim": 7198,
      "áĬ«áĪĿ": 7199,
      "95": 7200,
      "din": 7201,
      "dist": 7202,
      "Ġ(m": 7203,
      "áī£áī³": 7204,
      "sÃ¬ĠtÃºnĠ": 7205,
      "kuduĠmasoĠ": 7206,
      "BungeĠlaĠ": 7207,
      "áĬ¨áĪ¨áĪĿ": 7208,
      "áĬ«áĬ¨áĪĪ": 7209,
      "ÆĻidayarĠ": 7210,
      "Ġá»įÌĢrá»įÌĢĠ": 7211,
      "BÃ¡": 7212,
      "âĢ¹": 7213,
      "azaĠ": 7214,
      "ÅĦĠd": 7215,
      "whenĠ": 7216,
      "beg": 7217,
      "gen": 7218,
      "áĮª": 7219,
      "yaddaĠ": 7220,
      "mÃ¬ÃŃrÃłnĠ": 7221,
      "FirstĠ": 7222,
      "mit": 7223,
      "RaisĠwaĠMarekaniĠ": 7224,
      "ĠáĪĺáĮ¨áĪ¨áĪ»ĠáĭµáĪ¨áĪµ": 7225,
      "gan": 7226,
      "katikaĠm": 7227,
      "áĪĿĠáĪĨáĬĲ": 7228,
      "ĠáĮįáĬķáĬĻ": 7229,
      "daĠyawanĠjama'aĠ": 7230,
      "áĪµáįĵáĬķáĭ«": 7231,
      "MakarantarĠ": 7232,
      "Kwam": 7233,
      "waĠnaĠm": 7234,
      "nÃŃĠÃ¬pÃŃnláº¹ÌĢĠ": 7235,
      "ĠáĪµáĪĭ": 7236,
      "ĠáĬĲáĮĪáĪł": 7237,
      "iliyop": 7238,
      "gÃ©nÃ©r": 7239,
      "ĠáĪĺáĪłáĪ¨áīµ": 7240,
      "áĭµáĬĵ": 7241,
      "áĬŃáĪ²": 7242,
      "ĠáĪ²áīĢ": 7243,
      "betweenĠ": 7244,
      "áĪ°áĪį": 7245,
      "Ġáĭĺáįĭ": 7246,
      "Ly": 7247,
      "fad": 7248,
      "Ġáīłáī°áĪĪ": 7249,
      "ĠáīłáĬĭáĪĭĠáĬ¥áĪµáĬ¨ĠáĭĵáĪĺáī±": 7250,
      "le,Ġ": 7251,
      "áĮĪáīµ": 7252,
      "ukw": 7253,
      "nÃŃĠÃłwá»įnĠ": 7254,
      "itanĠ": 7255,
      "áĪµáĪĪáĭļáĪħ": 7256,
      "dÃŃn": 7257,
      "ĠáĬłáīħ": 7258,
      "2006Ġ": 7259,
      "unguzaĠ": 7260,
      "Nic": 7261,
      "atiz": 7262,
      "ĠáīµáĪĿáĪħáĪŃ": 7263,
      "Art": 7264,
      "dec": 7265,
      ",ĠÃłtiĠ": 7266,
      "ordĠ": 7267,
      "ĠáĬ¥áĪĿ": 7268,
      "wanaj": 7269,
      "ĠáĭĺáĪĺáĬĵáĭĬ": 7270,
      "áĪģáĪĪáīµ": 7271,
      "\"M": 7272,
      "1=": 7273,
      "asiliĠyaĠ": 7274,
      "AwardĠ": 7275,
      "reat": 7276,
      "asarautarĠ": 7277,
      "AfirkaĠtaĠ": 7278,
      "Ev": 7279,
      "kupit": 7280,
      "Denmark": 7281,
      "nemanĠ": 7282,
      "yiĠm": 7283,
      "ĠáīµáĪŃ": 7284,
      "ilÃ©Ġáº¹ÌĢká»įÌģĠ": 7285,
      "dam": 7286,
      "ĠáĪµáĪŀáī½": 7287,
      "IlÃ©Ġ": 7288,
      "daĠyawaĠ": 7289,
      "Ã¡Ã¡": 7290,
      "1996": 7291,
      "RoyalĠ": 7292,
      "ammalaĠkar": 7293,
      "Prof": 7294,
      "d'unĠ": 7295,
      "ollow": 7296,
      "origin": 7297,
      "KamusiĠElezoĠyaĠKikatolikiĠ": 7298,
      "eĠtaĠ": 7299,
      "ignĠ": 7300,
      "áĪİáĪµ": 7301,
      "peutĠ": 7302,
      "English": 7303,
      "ving": 7304,
      "áĪĽáĪį": 7305,
      "áĪĽáĪ½": 7306,
      "Alh": 7307,
      "Ġáī¡áĭµáĬķ": 7308,
      "mÃ©jÃ¬Ġ": 7309,
      "uuĠyaĠ": 7310,
      "akokoĠ": 7311,
      "uruĠ": 7312,
      "angĠ": 7313,
      "ayyukanĠ": 7314,
      "UchaguziĠwaĠ": 7315,
      "Ġáī¥áĪŃáĪĥ": 7316,
      "ĠáĭŃáīĢáĪ«áĪīáį¢": 7317,
      "pour": 7318,
      "iĠkatiĠyaĠ": 7319,
      "Ġáĭ¨áī°áĭĪ": 7320,
      "nigb": 7321,
      "lit": 7322,
      "tabb": 7323,
      "iaĠniĠ": 7324,
      "iĠkanĠ": 7325,
      "FranceĠ": 7326,
      "team": 7327,
      "zaidiĠyaĠ": 7328,
      "ÙİÙ": 7329,
      "ĠáĪĿáĭķáĪ«áī¥": 7330,
      "Sun": 7331,
      "kam": 7332,
      "á¹¢": 7333,
      "Ġáĭ¨áĭĵáĪĪáĪĿ": 7334,
      "áĮħáĪĿ": 7335,
      "ĠáĮĪáĮ½": 7336,
      "gudanarĠdaĠ": 7337,
      "kwenyeĠ": 7338,
      "iaĠkutokaĠnchiĠyaĠ": 7339,
      "angl": 7340,
      "ĠáĮĭáĪ«": 7341,
      "dansĠleĠ": 7342,
      "DolaĠlaĠRomaĠ": 7343,
      "ipinleĠ": 7344,
      "lambarĠyab": 7345,
      "pÃº": 7346,
      "temp": 7347,
      "iĠtaĠ": 7348,
      "Ġ(áĬł": 7349,
      "Ġáĭ¨áĪ®": 7350,
      "shuleĠ": 7351,
      "ansis": 7352,
      "áĪ²áĭ«": 7353,
      "adhaaĠ": 7354,
      "kinĠ": 7355,
      "sens": 7356,
      "yali": 7357,
      "ulim": 7358,
      "ing.": 7359,
      "stant": 7360,
      "Ġáī¢áĭ«": 7361,
      "nambaĠ": 7362,
      "spec": 7363,
      "ĠSeptemberĠ": 7364,
      "shirye-": 7365,
      "Kon": 7366,
      "Mung": 7367,
      "s)Ġ": 7368,
      "ĠáĭŃáĭ©": 7369,
      "opĠ": 7370,
      "áįĪáĬķ": 7371,
      "ĠáĭįáĪĢ": 7372,
      "sÃŃwÃ¡jÃºĠ": 7373,
      "han": 7374,
      "liv": 7375,
      "ram": 7376,
      "ĠáĭĪáĮĪ": 7377,
      "áĪľáīµ": 7378,
      "ijobaĠibileĠniĠ": 7379,
      "A)Ġ": 7380,
      "Ġá»įÌģ": 7381,
      "ÆĻinĠ": 7382,
      "assanĠ": 7383,
      "link": 7384,
      "alikuwaĠPapaĠkuanziaĠ": 7385,
      "kÃ¡Ġ": 7386,
      "rá»į": 7387,
      ".ĠMatukio": 7388,
      "Ã¬dÃŃl": 7389,
      "Amerika": 7390,
      "ĠáīłáĬĭáĪĭĠáĬ¥áĪµáĬ¨ĠáĭĵáĪĺáī±ĠáĪĺáĮ¨áĪ¨áĪ»ĠáĭµáĪ¨áĪµ": 7391,
      "RĠ": 7392,
      "def": 7393,
      "já»įÌĢ": 7394,
      "ijeĠ": 7395,
      "áĪĿáįĴ": 7396,
      "a,ĠnaĠ": 7397,
      "aularĠ": 7398,
      "Flor": 7399,
      "bahariĠ": 7400,
      "gbáº¹Ìģ": 7401,
      "uliz": 7402,
      "ĠáĬ¥áĬķáĭ°Ġáī°": 7403,
      "Naijiria": 7404,
      "ĠáĭŃáĪĨáĬĵáĪįáį¢": 7405,
      "ijobaĠibileĠniĠIpinleĠ": 7406,
      "Kingdom": 7407,
      "\"m": 7408,
      "mesĠ": 7409,
      "Ġ8": 7410,
      "ĠáĪįáĮģ": 7411,
      "pwaniĠ": 7412,
      "Ø³": 7413,
      "ĠáĬłáĮĭ": 7414,
      "imaninĠ": 7415,
      "coll": 7416,
      "anay": 7417,
      "indaĠyaĠ": 7418,
      "ChuoĠKikuuĠ": 7419,
      "44": 7420,
      "gbáº¹ÌģĠ": 7421,
      "yaut": 7422,
      "Urus": 7423,
      "PeterĠ": 7424,
      "AnaĠ": 7425,
      "Ġáĭ¨áĪ´": 7426,
      "áĬ«áĬ¤áĪį": 7427,
      "ihÃłnĠ": 7428,
      "áĬ¥áĬĲáĭļáĪħ": 7429,
      "ĠáĭķáĪĪáī°": 7430,
      "Ujerumani": 7431,
      "ĠáĮ½áĪķ": 7432,
      "áĬķáĮįáĪį": 7433,
      "Ġáĭ¨áĬĲáīłáĪ©": 7434,
      "má»įÌĢĠsÃŃĠ": 7435,
      "Washing": 7436,
      "cikiĠ": 7437,
      "KanananĠhukumominĠjiharĠ": 7438,
      "uist": 7439,
      "ÃłdÃºgb": 7440,
      "Ã¡lÃŃ": 7441,
      "77": 7442,
      "nouv": 7443,
      "ĠáĬŃáĪŃáĪµáī²áĭ«": 7444,
      "ItokasiĠÃĢwá»įnĠ": 7445,
      "ĠáĪļáĪĬáĭ®áĬķ": 7446,
      "Bag": 7447,
      "ĠáĬĽ": 7448,
      "ĠáįįáĪ¬": 7449,
      "ren": 7450,
      "Ġáī£áĪķáĪŃ": 7451,
      "estĠunĠ": 7452,
      "ball": 7453,
      "huk": 7454,
      "runĠ": 7455,
      "áī¨áĪŃáĪ²áī²": 7456,
      "Ġá»ĮbaĠ": 7457,
      "ari'": 7458,
      "Ġáĭ¨áĭįáĮŃ": 7459,
      "AbubakarĠ": 7460,
      "Ġáĭ¨áĪ±": 7461,
      "1990": 7462,
      "áĮłáĪĪ": 7463,
      "áĮ»áįĪ": 7464,
      "ris": 7465,
      "Ġáīłáīħ": 7466,
      "á¹£áº¹Ìģ": 7467,
      "ansaĠ": 7468,
      "iliminĠ": 7469,
      "to": 7470,
      "ainsiĠ": 7471,
      "ĠáĪĿáĬķáĮĬáĭľ": 7472,
      "MkuuĠwaĠ": 7473,
      "yÃ©": 7474,
      "ĠthisĠ": 7475,
      "opol": 7476,
      "ashir": 7477,
      "tainĠ": 7478,
      "áīĤáīµ": 7479,
      "ie": 7480,
      "áĬ£": 7481,
      "prim": 7482,
      "lÃ¡báº¹ÌģĠ": 7483,
      "Mos": 7484,
      "esĠandĠ": 7485,
      "agenĠ": 7486,
      "AlexanderĠ": 7487,
      "AT": 7488,
      "Do": 7489,
      "Ã²n": 7490,
      "Island": 7491,
      "áīĤáĭ«": 7492,
      "áĪĿĠáĪĺ": 7493,
      "áĪİáī¹": 7494,
      ".ĠIS": 7495,
      "pÃŃnláº¹ÌĢĠá»ĮÌĢ": 7496,
      "Sa": 7497,
      "Sult": 7498,
      "val": 7499,
      "ild": 7500,
      "ector": 7501,
      "kÃºĠ": 7502,
      "ÑĢ": 7503,
      "illaĠ": 7504,
      "watuĠwaĠ": 7505,
      "ÉĹauk": 7506,
      "walio": 7507,
      "ara.": 7508,
      "akabil": 7509,
      "onimoĠ": 7510,
      "ĠáĭŃáĬĲ": 7511,
      "áĬ¨áĪ°": 7512,
      "áīĥáĭįáĬķ": 7513,
      "ĠáĭĺáĪĺáĬķĠáĬłáīĨáĮ£áĮłáĪŃ": 7514,
      "áĬķáĮĮ": 7515,
      "ĠáĪĺáĮ»áĪķ": 7516,
      "lib": 7517,
      "Ã³ĠsÃ¬Ġ": 7518,
      "Ġáĭ¨áĬłáĭ¨áĪŃ": 7519,
      "orukoĠ": 7520,
      "Ġáī°áĮ½": 7521,
      "emokras": 7522,
      "Russ": 7523,
      "aldĠ": 7524,
      "áĪĪáį¢": 7525,
      "tÃŃĠwá»įÌģnĠbÃŃĠ": 7526,
      "pend": 7527,
      "178": 7528,
      "egeĠbiĠ": 7529,
      "HivyoĠ": 7530,
      "Sup": 7531,
      "bÃ³": 7532,
      "áĭįáĪµ": 7533,
      ",ĠmshindiĠwaĠTuzoĠyaĠNobelĠyaĠFasih": 7534,
      "olÃ¹darÃŃĠ": 7535,
      "hadiĠkifoĠchake.": 7536,
      "ge": 7537,
      "iko": 7538,
      "oĠkamaĠ": 7539,
      "Cali": 7540,
      "Fer": 7541,
      "inceĠ": 7542,
      "ĠáīłáĪĺáĪĨáĬķ": 7543,
      "expl": 7544,
      "Australi": 7545,
      "iniĠmwaĠ": 7546,
      "EnglishĠ": 7547,
      "3)": 7548,
      "Ã²Ġk": 7549,
      "áĬŃáĪŃáĪµáī¶áĪµ": 7550,
      "Ġáīłáĭĵ": 7551,
      "uĠkar": 7552,
      "Kilat": 7553,
      "LouisĠ": 7554,
      "iev": 7555,
      "sen": 7556,
      "Ġáīª": 7557,
      "wasaĠ": 7558,
      "Wá»įÌģnĠbÃŃĠ": 7559,
      "YunifÃ¡sÃŃ": 7560,
      "ty": 7561,
      "umoĠ": 7562,
      "waĠkwaĠm": 7563,
      "aiss": 7564,
      "ĠáĭŃáĪĺáĪµáĪĭáĪįáį¢": 7565,
      "bab": 7566,
      "ise": 7567,
      "áĭ«áĪľ": 7568,
      "que,Ġ": 7569,
      "wÃ³Ġ": 7570,
      "Ã¹d": 7571,
      "lev": 7572,
      "fiĠs": 7573,
      "shirik": 7574,
      "Ã¬wÃ©": 7575,
      "\")Ġ": 7576,
      "BestĠ": 7577,
      "La": 7578,
      "gur": 7579,
      "áĭŃáĪģ": 7580,
      "kasaĠdaĠ": 7581,
      "ĠáĬłáĪĪáĭį": 7582,
      "tay": 7583,
      "orunĠ": 7584,
      "Columb": 7585,
      "fe": 7586,
      "Ã©qu": 7587,
      "azam": 7588,
      "2019,Ġ": 7589,
      "Tech": 7590,
      "pas": 7591,
      "rig": 7592,
      "ĠandĠ": 7593,
      "áįĪáĪ«": 7594,
      "cheĠ": 7595,
      "ianzaĠ": 7596,
      "ie,Ġ": 7597,
      "áĪĭáĪµ": 7598,
      "oweĠ": 7599,
      "ĠáĬłáĪĪáĭįáį¢": 7600,
      "Iy": 7601,
      "kiĠyaĠ": 7602,
      "udeĠ": 7603,
      "ĠG": 7604,
      "Ġáĭ¨áī£": 7605,
      "áīħáĬĵ": 7606,
      "Ġáĭ¨áĪļáĪ°": 7607,
      "call": 7608,
      "tattalinĠarz": 7609,
      "Marc": 7610,
      "áĬ¥áĬĵ": 7611,
      "ĠáĭķáĪĪáīµĠáīłáĬĭáĪĭĠáĬ¥áĪµáĬ¨ĠáĭĵáĪĺáī±ĠáĪĺáĮ¨áĪ¨áĪ»ĠáĭµáĪ¨áĪµ": 7612,
      "ciĠgabaĠdaĠ": 7613,
      "76": 7614,
      "ĠáĮĥ": 7615,
      "andikaĠ": 7616,
      "CE": 7617,
      "ĠáīĦ": 7618,
      "ĠáīłáĬ¤": 7619,
      "Rec": 7620,
      "áĭ«áĭĺ": 7621,
      "ĠáīłáĪĭ": 7622,
      "ráº¹ÌĢĠnÃŃĠ": 7623,
      "Arch": 7624,
      "YorubaĠ": 7625,
      "i,ĠmwakaĠwaĠ": 7626,
      "áĬķáĮīáĪ¥": 7627,
      "onlyĠ": 7628,
      "RayuwarĠ": 7629,
      "ĠáĮĮáī³": 7630,
      "lati": 7631,
      "otum": 7632,
      "ungumz": 7633,
      "Ã¨rÃ¨Ġ": 7634,
      "Ġáĭ¨áīĨ": 7635,
      "ĠáĭĪáĮ¥": 7636,
      "2005Ġ": 7637,
      "mÃŃrÃłnĠ": 7638,
      "anyaĠk": 7639,
      "arew": 7640,
      "áĪĽáĭįáĭ«áĬķ": 7641,
      "nyotaĠ": 7642,
      "Tangany": 7643,
      "knownĠ": 7644,
      "lineĠ": 7645,
      "azarinĠ": 7646,
      "ng'": 7647,
      "compl": 7648,
      "centuryĠ": 7649,
      "ĠSchool": 7650,
      "ique,Ġ": 7651,
      "ĠáĭŃáī»áĪĭáĪįáį¢": 7652,
      "Ox": 7653,
      "tarĠ": 7654,
      "akatif": 7655,
      "awiĠ": 7656,
      "áĭĵáĬķ": 7657,
      "ĠáīĢáĬķĠ": 7658,
      "....": 7659,
      "Dut": 7660,
      "Po": 7661,
      "baliĠ": 7662,
      ",ĠaĠ": 7663,
      "ĠáĬłáĪįáī°": 7664,
      "Guin": 7665,
      "MijiĠyaĠ": 7666,
      "táº¹Ìģ": 7667,
      "alsĠ": 7668,
      "onj": 7669,
      "iaĠkatikaĠ": 7670,
      "áĬŃáĬķ": 7671,
      "ĠáĮįáĭµ": 7672,
      "áī³áĭĪáīĢ": 7673,
      "JinaĠlakeĠlaĠ": 7674,
      "2)": 7675,
      "ĠáĬ¨áĪĽ": 7676,
      "ĠáĪ°áĬĲ": 7677,
      "ĠáĪįáĭ°áīµ": 7678,
      "akh": 7679,
      "ĠáīłáĬĲ": 7680,
      "ĠáĬĲáĭįáį¢ĠáĬ¨": 7681,
      "áī¸áĭĭáĪįáį¢": 7682,
      "ainaĠyaĠ": 7683,
      "Guine": 7684,
      "ĠáīĨáĭŃ": 7685,
      "áĬĵĠáĪĺáĭĭ": 7686,
      "Iá¹£áº¹ÌģĠ": 7687,
      "uel": 7688,
      "oĠjeĠ": 7689,
      "áĭµáĪ¨": 7690,
      "usal": 7691,
      "Ġáį©": 7692,
      "Ġáī°áĬŃáĪį": 7693,
      "áĪªáīĥ": 7694,
      "MichaelĠ": 7695,
      "aish": 7696,
      "kin": 7697,
      "áĪªáĬ®áī½": 7698,
      "Islam": 7699,
      "utamadun": 7700,
      "áĪ¨áĪŃ": 7701,
      "ĠáįĮ": 7702,
      "á»įÌĢĠsÃŃĠ": 7703,
      "áĬ¨áĭļáĪħĠáĭķáĪĪáīµĠáīłáĬĭáĪĭĠáĬ¥áĪµáĬ¨ĠáĭĵáĪĺáī±ĠáĪĺáĮ¨áĪ¨áĪ»ĠáĭµáĪ¨áĪµ": 7704,
      "1920": 7705,
      "idd": 7706,
      "thod": 7707,
      "ĠâĢĺ": 7708,
      "auriĠ": 7709,
      "aÉĹ": 7710,
      "ibnĠ": 7711,
      "áī¸áĭī": 7712,
      "lead": 7713,
      "UchaguziĠwaĠPapaĠ": 7714,
      "daraĠ": 7715,
      "Ã©ĠdeĠ": 7716,
      "ĠáĪĬáīĢ": 7717,
      "Ġáĭ¨áĪļáĮĪáĬĿáīłáīµ": 7718,
      "ugaĠ": 7719,
      "1970": 7720,
      "patakiĠ": 7721,
      "hup": 7722,
      "tum": 7723,
      "ĠáĬłáĭ³": 7724,
      "ceĠdakeĠ": 7725,
      "AnĠginaĠ": 7726,
      "Tab": 7727,
      "olf": 7728,
      "ekeĠ": 7729,
      "Ġáĭ«áĪ³": 7730,
      "áįĬáĭ«": 7731,
      "bÃłbÃ¡Ġ": 7732,
      "Hany": 7733,
      "ĠáĬĲáĮ¥": 7734,
      "ojoĠ": 7735,
      "1994": 7736,
      "jamhur": 7737,
      "MartinĠ": 7738,
      "áĪµáĪĿ": 7739,
      "ingaĠ": 7740,
      "áĬĴáĪįáĬŃ": 7741,
      "ĠáĪĺáĬķáĮįáĪ¥áī³áīµ": 7742,
      "ĠáĬķáĮīáĪłĠáĬĲáĮĪ": 7743,
      "vip": 7744,
      "aruĠ": 7745,
      "ĠáīłáĪĢ": 7746,
      "Egyp": 7747,
      "UK": 7748,
      "aĠG": 7749,
      "apt": 7750,
      "azi": 7751,
      "overĠ": 7752,
      "Dok": 7753,
      "Jar": 7754,
      "aal": 7755,
      "inĠjirginĠ": 7756,
      "áĪĪáīĢ": 7757,
      "áĪĺáĮ¥": 7758,
      "áĬ¨áĬĲ": 7759,
      "2015Ġ": 7760,
      "nameĠ": 7761,
      "ĠáĬłáĪĺáī³áīµ": 7762,
      "MtoĠ": 7763,
      "áĬ«áĪĦ": 7764,
      "179": 7765,
      "bÃŃbÃŃĠ": 7766,
      "Ã©galementĠ": 7767,
      "Ġáįªáį»áį": 7768,
      "hÃłnĠ": 7769,
      "áĭµáĪį": 7770,
      "áĭ°áĪŃáĮį": 7771,
      "ĠáĬ¥áĪ±": 7772,
      "Bos": 7773,
      "máº¹Ìģr": 7774,
      "ĠáĪĨáĬĳ": 7775,
      "njiaĠyaĠ": 7776,
      "ulkiĠ": 7777,
      "onyesh": 7778,
      "a).": 7779,
      "Ã²p": 7780,
      "eje": 7781,
      "áįĸáĪĬ": 7782,
      "mÃ¡Ġ": 7783,
      "Ġá»įlá»įÌģ": 7784,
      "ni:Ġ": 7785,
      "WakaziĠ": 7786,
      "olÃ³á¹£Ã¨lÃºĠ": 7787,
      "ÃĢwá»įnĠáº¹láº¹ÌģbÃ¹nĠNobelĠnÃŃnÃºĠ": 7788,
      "Sur": 7789,
      "ĠN": 7790,
      "ic,Ġ": 7791,
      "áĭ¨áĪļ": 7792,
      "ĠáĬ¥áĬķáīħáĪµáīĥáĪ´": 7793,
      "ĠáĪ²áĪį": 7794,
      "áĭŀáī½": 7795,
      "HataĠ": 7796,
      "áįı": 7797,
      "Ear": 7798,
      "velop": 7799,
      "kuku": 7800,
      "áĭ°áĮĪ": 7801,
      "wake.": 7802,
      "uka": 7803,
      "Ġáī¤áī¶áī½": 7804,
      "Jo": 7805,
      "Î¹": 7806,
      "usin": 7807,
      "WaingerezaĠ": 7808,
      "villeĠ": 7809,
      "falmeĠmkuuĠwaĠJapaniĠ(": 7810,
      "gidaĠ": 7811,
      "ĠniĠ": 7812,
      "olud": 7813,
      "áĬ¨áĬĵ": 7814,
      "IbnĠ": 7815,
      "aziĠyaĠ": 7816,
      "and,Ġ": 7817,
      "ĠtÃŃĠÃ³Ġt": 7818,
      "ĠáĮĪáĭ¥": 7819,
      "KwalejinĠ": 7820,
      "ĠáĬ¥áĬ©áĪį": 7821,
      "ĠáĬ¨áĪĨáĬĲ": 7822,
      "iyaĠdaĠ": 7823,
      "ĠáĮĪáī¥áĪ¨": 7824,
      "ĠáĪĬáĭ«": 7825,
      "ĠáīłáĬłáĪģáĬĳ": 7826,
      "AwardsĠ": 7827,
      "Domin": 7828,
      "intĠ": 7829,
      "agoĠ": 7830,
      "áĬķáĮĢ": 7831,
      "ukiĠ": 7832,
      "atikanaĠ": 7833,
      "tenĠ": 7834,
      "ĠáĬĥ": 7835,
      "lá»įÌģgbá»įÌĢnĠ": 7836,
      "wá»įÌĢny": 7837,
      "ĠtheirĠ": 7838,
      "aanishaĠ": 7839,
      "inoĠ": 7840,
      "áĪµáĬķ": 7841,
      "ĠáīłáĪŀ": 7842,
      "Ġáī¥áĪĶáĪŃ": 7843,
      "Ġáº¹ÌĢyáº¹Ġ": 7844,
      "jour": 7845,
      "ada": 7846,
      "compos": 7847,
      "amfan": 7848,
      "ĠáĪĿáĪįáĬŃáīµ": 7849,
      "Dani": 7850,
      "oÃ¹Ġ": 7851,
      "zak": 7852,
      "ambr": 7853,
      "kutumiaĠ": 7854,
      "Angel": 7855,
      "ominiraĠ": 7856,
      "Sikukuu": 7857,
      "shiĠneĠdanĠwasanĠÆĻwallonĠÆĻafaĠtaĠÆĻasarĠIngila.": 7858,
      "Jac": 7859,
      "Ġáī°áĬ¨áī³áĭŃ": 7860,
      "Ã´t": 7861,
      "Hous": 7862,
      "káº¹Ìģ": 7863,
      "nus": 7864,
      "ofaut": 7865,
      "ibit": 7866,
      "ÆĻir": 7867,
      "round": 7868,
      "ĠáīĤ": 7869,
      "áĪ³áĪįáį¢": 7870,
      "Afrika.": 7871,
      "MutaneĠ": 7872,
      "Bauch": 7873,
      "áĭ²áĪ±": 7874,
      "olÃ³rÃŃĠ": 7875,
      "NÃŃĠá»įjá»įÌģĠk": 7876,
      "COVI": 7877,
      "Ġáĭ¨áĪģ": 7878,
      "AlbertĠ": 7879,
      "ÃĮtum": 7880,
      "AfrikaĠKusiniĠ": 7881,
      "YanaĠ": 7882,
      "áĪĿáī¥": 7883,
      "Ã¬bÃ¡": 7884,
      "ici": 7885,
      "66": 7886,
      "amuaĠ": 7887,
      "daĠsukeĠ": 7888,
      "aryĠSchool": 7889,
      "AL": 7890,
      "nuf": 7891,
      "s.Ġ": 7892,
      "Ġ9": 7893,
      "ĠáĬŃáĪĪáī¥": 7894,
      "seed": 7895,
      "áĮĬáĭ«": 7896,
      "KatsinaĠ": 7897,
      "Lok": 7898,
      "gaĠm": 7899,
      "yat": 7900,
      "arabaraĠ": 7901,
      "Allah": 7902,
      "Libr": 7903,
      "wishoĠ": 7904,
      "Plat": 7905,
      "RaisĠ": 7906,
      "áĭ·": 7907,
      "wach": 7908,
      "leyinĠ": 7909,
      "ĠáīµáĬķáĪ½": 7910,
      "ChuoĠKikuuĠchaĠ": 7911,
      "COVID-": 7912,
      "2=": 7913,
      "Bad": 7914,
      "áĮĭáīµ": 7915,
      "jáº¹ÌģĠÃ²á¹£Ã¨rÃ©Ġ": 7916,
      "ĠáĪºáĪħ": 7917,
      "Tom": 7918,
      "vonĠ": 7919,
      "áĪĪáĭĭáĪįáį¢": 7920,
      "afir": 7921,
      "KanisaĠK": 7922,
      "MaiĠ": 7923,
      "U.": 7924,
      "idarĠ": 7925,
      "áĪ©áĬķ": 7926,
      "oluiluĠ": 7927,
      "iungaĠnaĠ": 7928,
      "Progr": 7929,
      "ĠáĪĺáĪ°áĪ¨áīµ": 7930,
      "áĮ¥áĪ¨ĠáĬĲáĮĪáĪ®áī½": 7931,
      "áĭŃáĪį": 7932,
      "off": 7933,
      "trav": 7934,
      "Ġ1.": 7935,
      "Ġáī°áĪĺáĪ³áĪ³áĭŃ": 7936,
      "Bol": 7937,
      "boĠ": 7938,
      "zaoĠ": 7939,
      "ilos": 7940,
      "Ã³r": 7941,
      "aya,Ġ": 7942,
      "ĠáĭŃáīĨ": 7943,
      "ĠáĪĪáĪļ": 7944,
      "Ali": 7945,
      "2011Ġ": 7946,
      "Ð½": 7947,
      "áĪįáĮĭ": 7948,
      "Ã²t": 7949,
      "Oá¹£Ã¹Ġk": 7950,
      "ĠkmÂ²": 7951,
      "%),Ġ": 7952,
      "Ãłjáº¹sÃ¡raĠ": 7953,
      "unic": 7954,
      "2010Ġ": 7955,
      "cit": 7956,
      "ĠáĬłáĪĿáī£": 7957,
      "ungeĠniĠ": 7958,
      "FilmĠ": 7959,
      "MapapaĠ": 7960,
      "u,Ġm": 7961,
      "2012Ġ": 7962,
      "takatif": 7963,
      "Brazil": 7964,
      "Ã¨resĠ": 7965,
      "ĠáĭĺáĪĺáĬĲĠáĪĽáī´áĭİáĪµ": 7966,
      "DemocraticĠ": 7967,
      "e\"Ġ": 7968,
      "nÃł": 7969,
      "Ġáĭ¨áĮ¥": 7970,
      "fiel": 7971,
      "áĪįáĪµáįįáĬĵ": 7972,
      "kat": 7973,
      "ikuĠ": 7974,
      "áī°áīµ": 7975,
      "kumaĠanĠ": 7976,
      "olÃ³gunĠ": 7977,
      "áĬ®áĬĸáĪļ": 7978,
      "Hon": 7979,
      "WarĠ": 7980,
      "nÃŃgbÃłĠtÃŃĠÃ³Ġ": 7981,
      "::": 7982,
      "Don": 7983,
      "ainaĠ": 7984,
      "elem": 7985,
      "esternĠ": 7986,
      "usammanĠ": 7987,
      "worl": 7988,
      "digiriĠnaĠ": 7989,
      "v.": 7990,
      "Ġáĭ¨áĪĪáĭį": 7991,
      "áĪ³áĪ°": 7992,
      "ĠáĪµáĬķ": 7993,
      "ĠáĮĢáĪŃáĪĺáĬķ": 7994,
      "áĬ¨áī°áĪĽáĭį": 7995,
      "ry": 7996,
      "anal": 7997,
      "ĠáįĴ": 7998,
      "AnĠhaifiĠ": 7999,
      "----": 8000,
      "BiranenĠ": 8001,
      "tam": 8002,
      "uny": 8003,
      "apinduz": 8004,
      "ndegeĠ": 8005,
      "Ġ12": 8006,
      "peri": 8007,
      "rasmiĠ": 8008,
      "EdwardĠ": 8009,
      "ĠáīĥáĪĭáīµ": 8010,
      "sayensiĠ": 8011,
      "ĠáĬłáīĢáįį": 8012,
      "undaĠ": 8013,
      "Ġáĭ¨áĬ¡": 8014,
      "uwez": 8015,
      "áī¦áĪŃ": 8016,
      "áįĵáĬķ": 8017,
      "JamhuriĠyaĠK": 8018,
      "nipas": 8019,
      "JinaĠlakeĠlaĠkuzaliwaĠ": 8020,
      "lenyeĠ": 8021,
      "rest": 8022,
      "ĠáīłáĭĪ": 8023,
      "perm": 8024,
      "August": 8025,
      "ikishoĠlaĠ": 8026,
      "5,": 8027,
      "Å«": 8028,
      "shindiĠwaĠTuzoĠyaĠNobelĠyaĠAm": 8029,
      "FarkonĠ": 8030,
      "Ġáĭ¨áĪļáĪ°áĪ«": 8031,
      "áī¦áīµ": 8032,
      "kutum": 8033,
      "PartyĠ(": 8034,
      "ĠáĬŃáįįáĪĭáĮĪáĪŃ": 8035,
      "arunĠ": 8036,
      "ilsĠ": 8037,
      "itaĠm": 8038,
      "ĠáĬ¨áĪ°": 8039,
      "ĠáĪĺáĪįáĬ©": 8040,
      "DarĠesĠSalaam": 8041,
      "Mur": 8042,
      "á»įÌģkaĠ": 8043,
      "andishiĠwaĠ": 8044,
      "ts,Ġ": 8045,
      "áĪµáī°áĪŃ": 8046,
      "MuhammaduĠ": 8047,
      "Kat": 8048,
      "ĠáĬ¥áĪ«áĪ±": 8049,
      "Fl": 8050,
      "ĠáĪĽáĬħ": 8051,
      "bisaĠgaĠ": 8052,
      "jÃŃ": 8053,
      "nÃ¬Ġ": 8054,
      "áĮİáī½": 8055,
      "aliĠm": 8056,
      "Champ": 8057,
      "ĠáīłáĪĺáī£áĪį": 8058,
      "57": 8059,
      "Liv": 8060,
      "someĠ": 8061,
      "ugb": 8062,
      "áĪĭáĪĭ": 8063,
      "ĠáĪįáĪĽ": 8064,
      "¢áīµáĭ®áĮµáĭ«áĬķ": 8065,
      "d'uneĠ": 8066,
      "html": 8067,
      "ĠáĮįáĬķáĬĻáĬĲáīµ": 8068,
      "ifĠ": 8069,
      "áĭ¨áĪ©": 8070,
      "aveĠ": 8071,
      "uwa,Ġ": 8072,
      "karniĠnaĠ": 8073,
      "ĠáĮĢáĪĺáĪ¨": 8074,
      "aimakinĠ": 8075,
      "Kuf": 8076,
      "áī½áĪī": 8077,
      "imep": 8078,
      "unguz": 8079,
      "wayaĠ": 8080,
      "Ġáĭ¨áī°áī£": 8081,
      "Ġáĭ¨áĬłáĭįáĪ®áįĵ": 8082,
      "ÃĮjá»įbaĠ": 8083,
      "Li": 8084,
      "awan": 8085,
      "aanaĠ": 8086,
      "oung": 8087,
      "asa.": 8088,
      "ĠáĮĦ": 8089,
      "1914": 8090,
      "ellaĠ": 8091,
      "aĠmakarantarĠ": 8092,
      "wananch": 8093,
      "afterĠ": 8094,
      "ĠáĪµáĭ«áĪľ": 8095,
      "ĠáĭĵáĭŃáĬĲáīµ": 8096,
      "2018,Ġ": 8097,
      "ĠáĪĽáĪŃáīĨáĪµĠáĭ°áĮįáĪŀ": 8098,
      "alorsĠ": 8099,
      "ionalĠ": 8100,
      "ashariki.": 8101,
      "DeĠ": 8102,
      ":Ġmb": 8103,
      "1960Ġ": 8104,
      "oluk": 8105,
      "áĭ³áĪª": 8106,
      "Ġáĭ«áĪĭáī¸áĭį": 8107,
      "Maka": 8108,
      "franÃ§ais": 8109,
      "Ġ~Ġ": 8110,
      "Ju": 8111,
      "chu": 8112,
      "áĪĪáīłáīµ": 8113,
      "000": 8114,
      "áįĸáĪŃáīµ": 8115,
      "sakand": 8116,
      "Black": 8117,
      "Kab": 8118,
      "áĬķáĮ»": 8119,
      "HenryĠ": 8120,
      "jeshiĠlaĠ": 8121,
      "Bill": 8122,
      "ÃłrinĠ": 8123,
      "áĪĪáī±": 8124,
      "Ã²bÃŃĠ": 8125,
      "áįĪáĪ¨": 8126,
      "tÃŃĠÃ³Ġjáº¹ÌģĠ": 8127,
      "Uaj": 8128,
      "Ġáī°áĮ«": 8129,
      "ĠáĪĿáĪħ": 8130,
      "Ã©eĠparĠ": 8131,
      "isĠaĠ": 8132,
      "ĠáĮ£áĪį": 8133,
      "Cath": 8134,
      "Festiv": 8135,
      "á»įd": 8136,
      "ikaĠkwaĠ": 8137,
      "áĬĲáĬĽ": 8138,
      "JamiâĢĻarĠ": 8139,
      "Ugand": 8140,
      "ĠáĬłáĪ«áīµ": 8141,
      "dinĠ": 8142,
      "ven": 8143,
      "zik": 8144,
      "ÏĤ": 8145,
      "olĠ": 8146,
      "Ġáī°áĭ°áĪŃ": 8147,
      "leĠofĠ": 8148,
      "UnionĠ": 8149,
      "waÉĹan": 8150,
      "babbarĠ": 8151,
      "68": 8152,
      "TVĠ": 8153,
      "bend": 8154,
      "shah": 8155,
      "Ã¡tÃ³l": 8156,
      "ĠkatikaĠKamusiĠElezoĠyaĠKikatolikiĠ": 8157,
      "riv": 8158,
      "Ïģ": 8159,
      "as.": 8160,
      "empl": 8161,
      "2001": 8162,
      "1987": 8163,
      "tarihinĠ": 8164,
      "ĠáĪĥáĭŃáĪĽáĬĸáīµ": 8165,
      ")áį¢": 8166,
      "yá»įĠ": 8167,
      "ÃĵĠtÃºnĠ": 8168,
      "abrair": 8169,
      "Kul": 8170,
      "Maz": 8171,
      ")ĠjeĠosereĠ": 8172,
      "baadaĠyaĠm": 8173,
      "ĠBKĠ(BaadaĠyaĠKristo).ĠMatukioĠWaliozaliwa": 8174,
      "Ġáĭ¨áĭĵáĪĺáī±": 8175,
      "IN": 8176,
      "ishwaĠnaĠ": 8177,
      "lokacinĠdaĠ": 8178,
      "ĠáĭľáĬĵĠáĪĺáĭĭ": 8179,
      "Mer": 8180,
      "áĪŃáī³": 8181,
      "ĠáĬłáĪĪáį¢": 8182,
      "habariĠ": 8183,
      "áįĲáī¥áĪĬáĬŃ": 8184,
      "KÃ¡tÃ³l": 8185,
      "mor": 8186,
      "asc": 8187,
      "ĠáĬłáĭĭ": 8188,
      "EthiopiaĠ": 8189,
      "-áº¹ÌĢyáº¹Ġ": 8190,
      "Ġáĭ©áĬĴáī¨áĪŃáĪ²áī²": 8191,
      "Mohamm": 8192,
      "FIFAĠ": 8193,
      "Wap": 8194,
      "geĠ": 8195,
      "mÃ¹": 8196,
      "pal": 8197,
      "atic": 8198,
      "Ġáīłáĭļáĭ«": 8199,
      "áīłáī³áĪįáį¢": 8200,
      "ajiĠyaĠ": 8201,
      "ekĠ": 8202,
      "Chur": 8203,
      "karneĠyaĠ": 8204,
      "umbeĠ": 8205,
      "áĮĭáĪ«": 8206,
      "atiĠawá»įnĠ": 8207,
      "áĪªáī³áĬķáĭ«": 8208,
      "Kog": 8209,
      "nchiĠm": 8210,
      "uhusuĠ": 8211,
      "TazamaĠpia": 8212,
      "OfficialĠ": 8213,
      "gam": 8214,
      "wanak": 8215,
      "airesĠ": 8216,
      "BirninĠ": 8217,
      "Victor": 8218,
      "ipl": 8219,
      "1988": 8220,
      "Ach": 8221,
      "GB": 8222,
      "áīĭáīĭ": 8223,
      "áĬłáĪģ": 8224,
      "nigbaĠ": 8225,
      "Ġáĭ¨áĬĲáĮĪ": 8226,
      "áĬĲáĮĪáĪŃĠáĮįáĬķ": 8227,
      "oorunĠ": 8228,
      "ĠáĪ³áĭŃáĬķáĪ³áĭĬĠáĮ¸áī£áĭŃ": 8229,
      "67": 8230,
      "PÃ³p": 8231,
      "Ze": 8232,
      "numb": 8233,
      "Usw": 8234,
      "áĭµáīħ": 8235,
      "erĠandĠ": 8236,
      "daban-": 8237,
      "Ġáĭ¨áĪħáĭĿáī¥": 8238,
      "gwamnanĠ": 8239,
      "niĠodunĠ": 8240,
      "edĠbyĠtheĠ": 8241,
      "ArewacinĠ": 8242,
      "faf": 8243,
      "kÃ¹nĠ": 8244,
      ",ĠleĠ": 8245,
      "sĠofĠtheĠ": 8246,
      "ĠáīĢáĭŃ": 8247,
      "BeninĠ": 8248,
      "ots": 8249,
      "trad": 8250,
      "ĠáĬ¥áĬķáĭ°ĠáĬĲáīłáĪŃ": 8251,
      "ViungoĠvyaĠN": 8252,
      "ĠáĬłáī£áĪĭáīµ": 8253,
      "Oá¹£uĠK": 8254,
      "CollegeĠ": 8255,
      "Ġáĭ¨áĪĻáĭļáīĥ": 8256,
      "Cal": 8257,
      "ilaĠm": 8258,
      "ĠáĮ¤": 8259,
      "ĠáĪĿáĭķáĪ«": 8260,
      "2012,Ġ": 8261,
      "Ã¬dÃŃjeĠ": 8262,
      "98": 8263,
      "Gener": 8264,
      "hÃ¬nĠ": 8265,
      "piliĠ": 8266,
      "áĬķáĮįáĪ¥áīµ": 8267,
      "yake,Ġ": 8268,
      "áĬĵáĮĪáĪŃ": 8269,
      "áĬĽáį¦": 8270,
      "1993": 8271,
      "1995": 8272,
      "uĠyaĠk": 8273,
      "tunz": 8274,
      "rabaĠ": 8275,
      "ĠáĬłáĬĵ": 8276,
      "áº¹ráº¹": 8277,
      "Ġáī°áĪĺáĪį": 8278,
      "GuineaĠ": 8279,
      "Laf": 8280,
      "barĠ": 8281,
      "áĭĿáĪĿ": 8282,
      "ÃĮjá»įĠ": 8283,
      "ion.": 8284,
      "cinĠkofinĠ": 8285,
      "áįĪáĪĭáĮĬ": 8286,
      "AnĠginaĠbirninĠ": 8287,
      "á»įrÃŃĠ": 8288,
      "Ġáĭ°áī¥": 8289,
      "d.Ġ": 8290,
      "uiyaĠ": 8291,
      "yaĠyiĠ": 8292,
      "áĭįáĪį": 8293,
      "áĮįáĪĪ": 8294,
      "áĭĿáī¡": 8295,
      "áĪµáīµáĪª": 8296,
      "rubut": 8297,
      "Ukrist": 8298,
      "Eos": 8299,
      "Fabrair": 8300,
      "PortĠ": 8301,
      "oĠaĠ": 8302,
      "ata,Ġ": 8303,
      "illeĠ": 8304,
      "Ġáī°áĮĪ": 8305,
      "áĮĭáĮĪáĪŃ": 8306,
      "ĠâĢ¹": 8307,
      "ĠáĬ¥áĪµáĬ«": 8308,
      "dÃ©part": 8309,
      "halarciĠ": 8310,
      "CN": 8311,
      "GovernmentĠ": 8312,
      "Jun": 8313,
      "shidaĠ": 8314,
      "áĮįáĪĽáĭĬ": 8315,
      "ojinĠ": 8316,
      "jeĠijobaĠibileĠniĠIpinleĠ": 8317,
      "áĮĢáīµ": 8318,
      "Ã¬wá»įÌĢ": 8319,
      "\"TheĠ": 8320,
      "(N": 8321,
      "Dir": 8322,
      "Mir": 8323,
      "SanĠ": 8324,
      "ara,Ġ": 8325,
      "Ã¨Ã¨": 8326,
      "áĬĲáĪ£": 8327,
      "Gold": 8328,
      "iniĠkwaĠ": 8329,
      "alesĠ": 8330,
      "áĬŃáĪĿáĬĵ": 8331,
      "wigizajiĠ": 8332,
      ":ĠmbungeĠniĠ": 8333,
      "Larab": 8334,
      "Ow": 8335,
      "ĠáīłáĪ¥": 8336,
      "awarĠdaĠ": 8337,
      "Ãłwá»įnĠáº¹": 8338,
      "áº¹rin": 8339,
      "nÃŃb": 8340,
      "Serik": 8341,
      "kumaĠmaiĠ": 8342,
      "alikuwaĠPapaĠkuanziaĠtareheĠ": 8343,
      "aineĠ": 8344,
      "gin": 8345,
      "ÃĢĠ": 8346,
      "al'umm": 8347,
      "2ĠâĢĵĠ": 8348,
      "Gi": 8349,
      "IVĠ": 8350,
      "dep": 8351,
      "ati,Ġ": 8352,
      "ediaĠ": 8353,
      "ĠáĪ°áĪŃ": 8354,
      "áī¢áĭŃ": 8355,
      "undum": 8356,
      "ĠáĪĬáīĥáĭįáĬķ": 8357,
      "áĭ°áī¥áĪ¨": 8358,
      "áīħáĭ«áĬĸáĪµ": 8359,
      "vitabuĠ": 8360,
      "áĭ°áĪ¨áĮĪáĭį": 8361,
      "wayĠ": 8362,
      "imam": 8363,
      "áį£ĠáĪĪ": 8364,
      "akaĠdaĠ": 8365,
      "1966": 8366,
      "namoĠmwakaĠ": 8367,
      "nasaraĠ": 8368,
      "kundiĠlaĠ": 8369,
      "400": 8370,
      "AB": 8371,
      "yas": 8372,
      "fÃŃl": 8373,
      "aswaĠ": 8374,
      "áĪĽáī¸áĭį": 8375,
      "ĠáĭĪáĮ£": 8376,
      "á»įÌĢkanĠ": 8377,
      "angwaĠ": 8378,
      "ndog": 8379,
      "reĠdeĠ": 8380,
      "áįĬáĭİáī½": 8381,
      "ĠáīµáĪŃáĮīáĪĿ": 8382,
      "road": 8383,
      "ĠáĪļáĬĴáĪµáīµáĪŃ": 8384,
      "Itokasi": 8385,
      "cal": 8386,
      "ĠáĪĺáĬ®": 8387,
      "1999Ġ": 8388,
      "ĠáĬŃáĪŃ": 8389,
      "ĠáĮ¥áīłáī¥": 8390,
      "ĠáĭĭáĮĭ": 8391,
      "Ãīt": 8392,
      "Abdull": 8393,
      "ÃĮjáº¹ÌĢ": 8394,
      "ĠáĪģáĪĪáī°áĬĽ": 8395,
      "Philip": 8396,
      "Califor": 8397,
      "áĭµáĪľ": 8398,
      "watumwaĠ": 8399,
      ");Ġ": 8400,
      "gener": 8401,
      "ammentĠ": 8402,
      "oĠniĠm": 8403,
      "Ãºn,Ġ": 8404,
      "partĠ": 8405,
      "ogboĠ": 8406,
      "wishoĠwaĠ": 8407,
      "\".Ġ": 8408,
      "moreĠ": 8409,
      "Ġáĭ¨áĪĭ": 8410,
      "ukolon": 8411,
      "2002Ġ": 8412,
      "áĮĭáĪª": 8413,
      "Ġáĭĺáĭį": 8414,
      "1989": 8415,
      "hul": 8416,
      "áį¡áĬł": 8417,
      "177": 8418,
      "ĠáĪļáĬ«áĬ¤áĪį": 8419,
      "MusulunciĠ": 8420,
      "rÃ¹nĠ": 8421,
      "ĠáĪĺáĪ¬áīµ": 8422,
      "amboĠyaĠ": 8423,
      "2014Ġ": 8424,
      "áī¤áī±": 8425,
      "AfrikaĠyaĠK": 8426,
      "áĬĽáĭįáĪĿ": 8427,
      "Ġá»Įjá»įÌģĠk": 8428,
      "akarant": 8429,
      "ahaifiy": 8430,
      "gbá»įÌģ": 8431,
      "ers.": 8432,
      "J.": 8433,
      "tatuĠ": 8434,
      "anim": 8435,
      "age,Ġ": 8436,
      "ĠáĪĿáĬĴáĪįáĬŃ": 8437,
      "yanayinĠ": 8438,
      "ĠáĬ¢áĭ¨áĪ±áĪµ": 8439,
      "wanasiasaĠwaĠ": 8440,
      "fumoĠwaĠ": 8441,
      "ĠáĮłáīħáĪĭáĭŃ": 8442,
      "pi": 8443,
      "Ã£": 8444,
      "Ġáīłáĭ°áī¡áī¥": 8445,
      "abisaĠ": 8446,
      "áĭ«áīĦ": 8447,
      "ĠáĬłáĭĺ": 8448,
      "iaĠwaĠ": 8449,
      "ĠkoĠ": 8450,
      "Alg": 8451,
      "ĠáĮ¨áĪĿáĪ®": 8452,
      "istĠofĠ": 8453,
      "BaadayeĠ": 8454,
      "hannuĠ": 8455,
      "Ham": 8456,
      "ra'": 8457,
      "yÃ¨": 8458,
      "ikaĠm": 8459,
      "taĠzamaĠ": 8460,
      "ĠáĪ¥áĮĭ": 8461,
      "attaf": 8462,
      "áīĢáĪĺáĮ«": 8463,
      "Kem": 8464,
      "áĭ°áĪŃáĪµ": 8465,
      "ahiyarĠ": 8466,
      "áĮ»áįį": 8467,
      "AareĠorile-edeĠ": 8468,
      "Ġáĭ¨áĪļáĮĪáĬĿáīłáīµĠáĪĺáĪįáĬŃáĭĵĠáĪĿáĭµáĪŃ": 8469,
      ".ĠÃĵĠ": 8470,
      "2020Ġ": 8471,
      "áĪĲáĭŃ": 8472,
      "áĪĲáĪ´": 8473,
      "Ãłká»į": 8474,
      "ĠáĬłáĪµáī°áĭ³áĭ°áĮį": 8475,
      "Uholanz": 8476,
      "ĠáįĪáĪ¨áĬķáĪ³áĭŃ": 8477,
      "Est": 8478,
      "Round": 8479,
      "yÃ¡Ġ": 8480,
      "áĮįáĬĵ": 8481,
      "ĠáĬĲáįĥ": 8482,
      "umuĠ": 8483,
      "2008Ġ": 8484,
      "asihi": 8485,
      "nchiniĠTanzaniaĠ": 8486,
      "ĠáĪľáĭ³": 8487,
      "MfalmeĠ": 8488,
      "á¹£áº¹Ġ": 8489,
      "tÃŃĠÃłwá»įnĠ": 8490,
      "IbadanĠ": 8491,
      "paysĠ": 8492,
      "dÃŃĠ": 8493,
      "kasashenĠ": 8494,
      "ufalmeĠ": 8495,
      "Associ": 8496,
      "filmĠ": 8497,
      "ifup": 8498,
      "aweĠ": 8499,
      "Ġáĭķáĭį": 8500,
      "Mediter": 8501,
      "yaraĠ": 8502,
      "áĪĿáīłáĪŃ": 8503,
      "ĠáĪĬáĪĨáĬķ": 8504,
      "1917": 8505,
      "áĪ«áĪª": 8506,
      "wann": 8507,
      "acikinĠ": 8508,
      "imboĠyaĠ": 8509,
      "áĮĥáĭĿáĪĽáī½": 8510,
      "áĪ£áĪªáĭ«": 8511,
      "Ã²á¹£Ã¨lÃºĠ": 8512,
      "jÃ¡d": 8513,
      "atureĠ": 8514,
      "SouthĠ": 8515,
      "Me": 8516,
      "202": 8517,
      "áĪ«áĭįáĭ«áĬķ": 8518,
      "Ġáĭ¨áĪĺáĮ£": 8519,
      "Indones": 8520,
      "dÃŃjeĠ": 8521,
      "present": 8522,
      "Langu": 8523,
      "ĠáĬĽáĭį": 8524,
      "-áĬ¢": 8525,
      "ress": 8526,
      "áĭ«áĭįáĭ«áĬķ": 8527,
      "engiĠ": 8528,
      "follow": 8529,
      "sand": 8530,
      "uy": 8531,
      "ĠáĬªáĪİ": 8532,
      "al'ad": 8533,
      "Press,Ġ": 8534,
      "ayáº¹yáº¹Ġ": 8535,
      "ĠáĭķáĪĪáī°ĠáĪŀáīµ": 8536,
      ",Ġá»įdÃºnĠ": 8537,
      "ton,Ġ": 8538,
      "áĪ¦": 8539,
      "Ġáī²": 8540,
      "ator": 8541,
      "ĠáĭŃáĪĺ": 8542,
      "87": 8543,
      "áī°áĬĵ": 8544,
      "aye.": 8545,
      "uluĠ": 8546,
      "ĠáĭĪáĭĺ": 8547,
      "2013Ġ": 8548,
      "ÃĮgbÃ©": 8549,
      "ĠáĬłáĪµáī°áĭ³áĭ°áĪŃ": 8550,
      "High": 8551,
      "afiĠk": 8552,
      "awap": 8553,
      "OlÃ¹": 8554,
      "wadandaĠ": 8555,
      "ĠáĮ¸áĪĲáįĬ": 8556,
      "EosentomonĠ": 8557,
      "):Ġ": 8558,
      "Hor": 8559,
      "dá»įÌģ": 8560,
      "ªáĭ«": 8561,
      "áī£áī±": 8562,
      "i,ĠnaĠ": 8563,
      "Ġ14": 8564,
      "manyĠ": 8565,
      "ÃĢwá»įnĠÃ¨nÃ¬yÃłnĠalÃłÃłyÃ¨Ġ": 8566,
      "inj": 8567,
      "áº¹tÃł": 8568,
      "ĠáĬ¨áĭĪ": 8569,
      "áĭ«áĪįáį¢": 8570,
      "taĠfaraĠ": 8571,
      "ĠáĭĵáĪĭáĪĽ": 8572,
      "etĠlesĠ": 8573,
      "1975": 8574,
      "máº¹ÌģtaĠ": 8575,
      "oniĠmwaĠ": 8576,
      "onneĠ": 8577,
      "bornĠ": 8578,
      "kÃ©": 8579,
      "mÂ²": 8580,
      "à¥": 8581,
      "2006,Ġ": 8582,
      "ĠdagaĠ": 8583,
      "hadiĠm": 8584,
      "daĠsaur": 8585,
      "pup": 8586,
      "ikiĠk": 8587,
      "áĪĬáĭ«áĬķ": 8588,
      ",ĠmshairiĠ": 8589,
      "e).": 8590,
      "fÃŃrÃŃ": 8591,
      "Åĵ": 8592,
      "oĠs": 8593,
      "etnam": 8594,
      "áīłáĪ®": 8595,
      "angazaĠ": 8596,
      "ÃĢÃłráº¹Ġiláº¹ÌĢĠ": 8597,
      "sosaiĠ": 8598,
      "ĠáĭĺáĪĺáĬķĠáĬłáīĨáĮ£áĮłáĪŃĠáĭ¨áĭĵáĪĺáī±": 8599,
      "jah": 8600,
      "ĠtunĠ": 8601,
      "áįįáĪ¬": 8602,
      "áĬķáĭµáĪµáĬĵ": 8603,
      "achĠ": 8604,
      "50Ġ": 8605,
      "dáº¹Ìģ": 8606,
      "pemb": 8607,
      "ĠtiĠk": 8608,
      "oss": 8609,
      "1986": 8610,
      "walim": 8611,
      "Ã²rÃ¡nĠ": 8612,
      "KÃ¡tÃ³lÃ¬kÃ¬": 8613,
      "Bern": 8614,
      "annÃ©esĠ": 8615,
      "RomanĠ": 8616,
      "ounĠ": 8617,
      "Ø¹": 8618,
      "ari.": 8619,
      "adin": 8620,
      "ĠáĭŃáĮł": 8621,
      "áĮĬáĭľáĭį": 8622,
      "ekanaĠ": 8623,
      "mafiĠ": 8624,
      "GrandĠ": 8625,
      "ies,Ġ": 8626,
      "áīłáĬłáĪ": 8627,
      ",Ġmwan": 8628,
      "ĠáĬłáĪĽáĬ«": 8629,
      "aprÃ¨sĠ": 8630,
      "a:": 8631,
      "ikĠ": 8632,
      "ÃĴunĠ": 8633,
      "Hum": 8634,
      "Ġ=Ġ": 8635,
      "áĮ£áĪª": 8636,
      "huÉĹ": 8637,
      "Ã¬dÃŃn": 8638,
      "Ġáī¥áĭĻĠáĮĬáĭľ": 8639,
      "DeltaĠ": 8640,
      "FrenchĠ": 8641,
      "Ġáīłáī°áĪĪáĭŃáĪĿ": 8642,
      "RÃ©": 8643,
      "áĮ©": 8644,
      "áĪ³áĭį": 8645,
      "AbuĠ": 8646,
      "áĭįáĬķĠáĭ¨": 8647,
      "ĠáĪŃáĭķ": 8648,
      "Pier": 8649,
      "ixĠ": 8650,
      "eph": 8651,
      "ĠáįĬáĪį": 8652,
      "fÃŃlmÃ¹Ġ": 8653,
      "Aut": 8654,
      "Group": 8655,
      "Mod": 8656,
      "áĪµĠ(": 8657,
      "ĠáĬ¥áĮ½": 8658,
      "egemeaĠ": 8659,
      "Seneg": 8660,
      "Hungar": 8661,
      "ĠáĬ¦áĪŃ": 8662,
      "anteĠ": 8663,
      "daĠsuk": 8664,
      "Ã¬yÃłn": 8665,
      "ĠáĬªáĭ³áĬķ": 8666,
      "pÃ©ri": 8667,
      "KaisariĠ": 8668,
      "nipasáº¹Ġ": 8669,
      "ĠáĬłáī¡": 8670,
      "opaĠ": 8671,
      "áĬķáĮįáĪµáīµ": 8672,
      "ujokoĠ": 8673,
      "fiimuĠ": 8674,
      "adarÃŃĠ": 8675,
      "ĠtÃŃtÃŃĠ": 8676,
      "ĠáĬłáĮĪáĪįáĮįáĪİáīµ": 8677,
      "Lá»įÌģ": 8678,
      "torĠ": 8679,
      "áĬķáĬ«": 8680,
      "áĪŃáį£": 8681,
      "erv": 8682,
      "ati.": 8683,
      "MarisĠ": 8684,
      "ataĠuhuruĠ": 8685,
      "birniĠne,ĠdaĠkeĠ": 8686,
      "DansĠ": 8687,
      "Tak": 8688,
      "son,Ġ": 8689,
      "Shek": 8690,
      "166": 8691,
      "perĠ": 8692,
      "wÃ©": 8693,
      "ilif": 8694,
      "ĠáĬłáĮł": 8695,
      "áĭ¨áĬłáĪ": 8696,
      "Ġáĭ°áĮĭ": 8697,
      "áº¹ÌĢ-Ã¨dÃ¨": 8698,
      "aientĠ": 8699,
      "ĠáĪĻáĭļáīĥ": 8700,
      "KitabuĠ": 8701,
      "UpandeĠwaĠ": 8702,
      ".ĠISBNĠ": 8703,
      "cas": 8704,
      "law": 8705,
      "raj": 8706,
      "áĬ»": 8707,
      "ikaĠk": 8708,
      "áī¥áĬĽ": 8709,
      "2003Ġ": 8710,
      "upĠ": 8711,
      "ilikuwaĠm": 8712,
      "PauloĠ": 8713,
      "AlhajiĠ": 8714,
      "luĠ": 8715,
      "viv": 8716,
      "Ġáīłáį": 8717,
      "adhar": 8718,
      "watotoĠ": 8719,
      "1979": 8720,
      "agbaraĠ": 8721,
      "alsaf": 8722,
      "Girl": 8723,
      "usieursĠ": 8724,
      "|-Ġ|": 8725,
      "CentralĠ": 8726,
      "BK": 8727,
      "Kum": 8728,
      "fup": 8729,
      "ĠtabiĠ": 8730,
      "1990Ġ": 8731,
      "AkwaiĠ": 8732,
      "áį²áį±áį»áį¶áį": 8733,
      "ĠáĭĺáĪĺáĬĲĠáĪĽáĪŃáīĨáĪµĠáĭ°áĮįáĪŀ": 8734,
      "ĠáįĪáĪŃáĭĸáĬķ": 8735,
      "daĠsh": 8736,
      "ĠáĬ¥áĬķáĭµ": 8737,
      "áĪĮáĪĭ": 8738,
      "AustraliaĠ": 8739,
      "áĪĽáĭŃáĪµáĮ¥": 8740,
      "(Ġ": 8741,
      "KaleĠ": 8742,
      "Mc": 8743,
      "Ã¡aĠ": 8744,
      "aganaĠ": 8745,
      "hawak": 8746,
      "though": 8747,
      "Ã¨yÃŃĠtÃŃĠ": 8748,
      "Ġáī¡áĭµ": 8749,
      "Uingereza.": 8750,
      "ĠáĬĹáĪª": 8751,
      "Web": 8752,
      "aliĠnaĠ": 8753,
      "áĪĺáĪĪáĪµ": 8754,
      "AugustĠ": 8755,
      "Ã©ĠenĠ": 8756,
      "daĠtakeĠ": 8757,
      "Kiswahil": 8758,
      "ambazoĠ": 8759,
      "ÃĮjá»įĠKÃ¡tÃ³lÃ¬kÃ¬": 8760,
      "Book": 8761,
      "gegeĠbiĠ": 8762,
      "sÃ©": 8763,
      "Ġ[": 8764,
      "prob": 8765,
      "ovi": 8766,
      "wurinĠ": 8767,
      "usalem": 8768,
      "40Ġ": 8769,
      "pÃŃnĠ": 8770,
      "áĬ¥áĪµ": 8771,
      "stand": 8772,
      "oĠkatiĠyaĠ": 8773,
      "WaarabuĠ": 8774,
      "ectiv": 8775,
      "aká»įrinĠ": 8776,
      "cheoĠchaĠ": 8777,
      "Utur": 8778,
      "jÃł": 8779,
      "tanĠ": 8780,
      "áĬ«áĭµ": 8781,
      "ĠáĭµáĬķáĮĭáĭŃ": 8782,
      "Tor": 8783,
      "gomaĠ": 8784,
      "áĭĭáĪŃáĭ«": 8785,
      "issionĠ": 8786,
      "ĠáĪļáĬĴáĪµáī´": 8787,
      "fimĠdinĠ": 8788,
      "maaĠ": 8789,
      "áĬķĠáĭĪáĭ°": 8790,
      "Â»)": 8791,
      "rÃ¹": 8792,
      "asaliĠ": 8793,
      "chakeĠ": 8794,
      "áĪĪáĪ°": 8795,
      "idemokras": 8796,
      "2004Ġ": 8797,
      "sher": 8798,
      "anzishaĠ": 8799,
      "Ġáĭ«áĪĪáĭįáĬķ": 8800,
      "ĠáĮĪáĬķáĭĺáī¥": 8801,
      "(M": 8802,
      "R.": 8803,
      "imaniĠ": 8804,
      "áĪĻáīµ": 8805,
      "ÃĮtÃłnĠ": 8806,
      "wouldĠ": 8807,
      "Marejeo": 8808,
      "Ye": 8809,
      "aroĠ": 8810,
      "yÃ¬ÃŃĠniĠ": 8811,
      "rac": 8812,
      "asis": 8813,
      "ÃĮbÃłdÃłnĠ": 8814,
      "Ġá¹£ÃŃá¹£eĠ": 8815,
      "ini-m": 8816,
      "áĮĲ": 8817,
      "Ã©s": 8818,
      "ĠáĪĪáĭĪ": 8819,
      "AĠshekaraĠtaĠ": 8820,
      "jej": 8821,
      "ne.Ġ": 8822,
      "qĠ": 8823,
      "sáº¹ÌĢ": 8824,
      "aĠB": 8825,
      "irikiĠ": 8826,
      "áĭ³áĭĬ": 8827,
      "aribuĠnaĠ": 8828,
      "wá»įÌģnĠá¹£eĠ": 8829,
      "FederalĠ": 8830,
      "akiwaĠ": 8831,
      "wanach": 8832,
      "Chil": 8833,
      "LoveĠ": 8834,
      "AĠk": 8835,
      "ame": 8836,
      "áĪĿáĪĮ": 8837,
      "es)Ġ": 8838,
      "a,ĠM": 8839,
      "ikaĠnaĠ": 8840,
      "áĮłáīµ": 8841,
      "ebiĠ": 8842,
      "ĠáĪķáĮį": 8843,
      "PÃ³pÃ¹": 8844,
      "ayÃ©": 8845,
      "Ġáĭ¨áĪļáī£áĪį": 8846,
      "ĠáĬ¥áĬķáĭ°ĠáĪĨáĬĲ": 8847,
      "duniya.": 8848,
      "ÃłyÃłnĠ": 8849,
      "Jack": 8850,
      "Ã¬yÃ¡Ġ": 8851,
      "dÃ©c": 8852,
      "whereĠ": 8853,
      "HanyoyinĠ": 8854,
      "sm": 8855,
      "Ġáĭ¨áĪĪáĪĿ": 8856,
      "mÃ¬niraĠ": 8857,
      "becameĠ": 8858,
      "PeopleĠ": 8859,
      "Yer": 8860,
      "ĠáĮĵ": 8861,
      "áĪ«áĬĴ": 8862,
      "appl": 8863,
      "aham": 8864,
      "edic": 8865,
      "aĠyaĠmwakaĠ": 8866,
      "iumĠ": 8867,
      "arĠg": 8868,
      "1984": 8869,
      "Sheh": 8870,
      "undish": 8871,
      "bayarĠdaĠ": 8872,
      "WakatiĠ": 8873,
      "ĠáĪħáĮį": 8874,
      "ĠáīµáĪĿáĪħáĪŃáīµĠáī¤áīµ": 8875,
      "Ġáĭ°áĪ´áīµ": 8876,
      "BabaĠ": 8877,
      ",ĠÃłwá»įnĠ": 8878,
      "iyaĠnaĠ": 8879,
      "ĠáĬĲáīłáĪŃáį¡áį¡": 8880,
      "ulikanaĠk": 8881,
      "KumaĠ": 8882,
      "MasharikiĠ": 8883,
      "araĠm": 8884,
      "kuwaĠk": 8885,
      "áĬĲáĪµ": 8886,
      "ĠáīłáĪ®": 8887,
      "áĭĿáĬĵ": 8888,
      "ÅĦĠpÃ¨ĠnÃŃĠ": 8889,
      "OmoĠ": 8890,
      "Fasah": 8891,
      "God": 8892,
      "cat": 8893,
      "udaĠm": 8894,
      "ilih": 8895,
      "ĠáĬłáĭ°": 8896,
      "ĠáĪµáī´": 8897,
      "Alek": 8898,
      "edĠt": 8899,
      "Ġáĭ°áĪŃ": 8900,
      "foreĠ": 8901,
      "Abdul": 8902,
      "SeptemberĠ": 8903,
      "ĠáĬĥáĭŃáĪĪĠáĪ¥áĪĭáĪ´": 8904,
      "e;Ġ": 8905,
      "kÃłnĠ": 8906,
      "wingineĠ": 8907,
      "Ðº": 8908,
      "inach": 8909,
      ".ĠTazamaĠpiaĠOrodhaĠyaĠ": 8910,
      "nÃŃĠÃĮ": 8911,
      "arÃ¡ĠNÃłÃ¬jÃŃrÃŃÃł": 8912,
      "Ã©taitĠ": 8913,
      "countr": 8914,
      "Ker": 8915,
      "imet": 8916,
      "áĪ«áĭį": 8917,
      "Ġáī¤áī°áĬŃáĪŃáĪµáī²áĭ«áĬķ": 8918,
      "ministr": 8919,
      "ĠáĪªáįĲáī¥áĪĬáĬŃ": 8920,
      "dÃ¹": 8921,
      "yammacinĠ": 8922,
      "Îµ": 8923,
      "inĠaĠ": 8924,
      "ĠáĭĪáĪ°": 8925,
      "aciĠ": 8926,
      "actor": 8927,
      "haoĠ": 8928,
      "kanĠtÃŃĠ": 8929,
      "ĠáĬłáĪįáįĭ": 8930,
      "áĮĪáĪĪáĮį": 8931,
      "Gen": 8932,
      "Magharib": 8933,
      "rab": 8934,
      "erĠofĠtheĠ": 8935,
      "áī¡áĪŃ": 8936,
      "Americ": 8937,
      "hizoĠ": 8938,
      "ĠáīĢáĬĵáīµĠáĭŃáīĢáĪ«áĪīáį¢": 8939,
      "Journ": 8940,
      "suneĠ": 8941,
      "influ": 8942,
      "Ġáĭ¨áī¥": 8943,
      "en'sĠ": 8944,
      "irdĠ": 8945,
      "2009,Ġ": 8946,
      "áĭļáĭ«áĬķ": 8947,
      "áī£áī¢áĪİáĬķ": 8948,
      "Yul": 8949,
      "rag": 8950,
      "ziwaĠ": 8951,
      "áĬĵáĬķ": 8952,
      "una,Ġ": 8953,
      "ĠáįįáīħáĪŃ": 8954,
      "inĠmall": 8955,
      "GÃºÃºs": 8956,
      "O.": 8957,
      "ÏĦ": 8958,
      "er'sĠ": 8959,
      "repr": 8960,
      "áĬ¥áĬķáĭ²áĪģ": 8961,
      "Wajer": 8962,
      "foisĠ": 8963,
      "jus": 8964,
      "many": 8965,
      "nin": 8966,
      "ahudiĠ": 8967,
      "Ġáīłáī°áĪĪáĭ«áĭ©": 8968,
      "hakanĠ": 8969,
      "áĪµáĪ«áĬ¤áĪį": 8970,
      "Wajerum": 8971,
      "Bul": 8972,
      "Pers": 8973,
      "Red": 8974,
      "wikiped": 8975,
      "isit": 8976,
      "áĪ«áĪŃ": 8977,
      "uĠkamaĠ": 8978,
      "ciĠgab": 8979,
      "philos": 8980,
      "kudancinĠ": 8981,
      "Nap": 8982,
      "Ġ18": 8983,
      "ĠáĬĶ": 8984,
      "áĪĪáĪį": 8985,
      "aji.": 8986,
      "anzuĠ": 8987,
      "Ġáĭ°áī¥áĪ¨": 8988,
      "Burtan": 8989,
      "historiaĠ": 8990,
      "fung": 8991,
      "walaĠ": 8992,
      "althĠ": 8993,
      "áī¥áĪĭ": 8994,
      "ingĠtoĠ": 8995,
      "ĠáĮįáĪį": 8996,
      "wanzaĠyaĠ": 8997,
      "DevelopmentĠ": 8998,
      "Civ": 8999,
      "Pan": 9000,
      "buk": 9001,
      "daid": 9002,
      "kÃ¹Ġ": 9003,
      "net": 9004,
      "sau": 9005,
      "Nijeriya.Ġ": 9006,
      "Ujerumani.": 9007,
      "ĠáĮłáĪĭ": 9008,
      "pp": 9009,
      "wiki": 9010,
      "Ð»": 9011,
      "áĪĿĠáĭŃ": 9012,
      "1919": 9013,
      "lex": 9014,
      "Add": 9015,
      "TarihinĠ": 9016,
      ".ĠItokasiĠÃĢwá»įnĠPÃ³pÃ¹": 9017,
      "Ġáĭ¨áīĢáĭµáĪŀ": 9018,
      "'estĠ": 9019,
      "Hol": 9020,
      "abadil": 9021,
      "Ã¨s": 9022,
      "obj": 9023,
      "ĠáĬķáĮīáĪ¥ĠáĬĲáīłáĪŃáį¢": 9024,
      "ĠáĮīáĪį": 9025,
      "sinimÃ¡ĠÃłgbÃ©lÃ©wÃ²": 9026,
      "jejen": 9027,
      "Dist": 9028,
      "Found": 9029,
      "baiĠ": 9030,
      "cut": 9031,
      "gÃ©": 9032,
      "taw": 9033,
      "alipo": 9034,
      "áį²áį±áį»áį·áį": 9035,
      "ĠáĪĿáĬķáĮĬáĭľáĪĿ": 9036,
      "Tour": 9037,
      "nes": 9038,
      "áĮįáĬĿ": 9039,
      "waÆĻ": 9040,
      "ĠáĬ¥áĬķáĭ°áĬĲáīłáĪŃ": 9041,
      "ĠáīłáĪĺáĮ¨áĪ¨áĪ»": 9042,
      "aureĠ": 9043,
      "MkatolikiĠ": 9044,
      "rikic": 9045,
      "agbÃ¡Ġtáº¹Ìģ": 9046,
      "Nairob": 9047,
      "eneoĠyaĠ": 9048,
      "Misr": 9049,
      "cutarĠ": 9050,
      "adamuĠ": 9051,
      "áĪ®áĪŀ": 9052,
      "therĠ": 9053,
      "Ġáĭ¨áī°áīĢ": 9054,
      "ĠAs": 9055,
      "ĠáĬłáĬķáĭ°": 9056,
      "ĠáīłáĬłáĪľáĪªáĬ«": 9057,
      "ĠáĬłáĭįáĪ«": 9058,
      "familiaĠ": 9059,
      "tsohuwarĠ": 9060,
      "wakaziĠwaĠ": 9061,
      "Jáº¹Ìģ": 9062,
      "Nj": 9063,
      "del": 9064,
      "anĠNajeriyaĠ": 9065,
      "ingawaĠ": 9066,
      "ĠáĬ¢áĬķ": 9067,
      "WaandishiĠwaĠ": 9068,
      "Vietnam": 9069,
      "outh": 9070,
      "Ugir": 9071,
      "lÃ¡ÃłrÃŃ": 9072,
      "territ": 9073,
      "University,Ġ": 9074,
      "ongoziĠ": 9075,
      "nombre": 9076,
      "ĠáīĢáĬķĠáĬĲáĭįáį¢": 9077,
      "ĠáįĬáĭ°": 9078,
      "áī£áĪħáĪŃ": 9079,
      "Ġáīłáī¥áĭĽáīµĠáĭ¨áĪļáĮĪáĬĿáīłáīµĠáĪĺáĪįáĬŃáĭĵĠáĪĿáĭµáĪŃ": 9080,
      "RaisĠwaĠMarekaniĠ(": 9081,
      "Day": 9082,
      "ET": 9083,
      "áĬĵĠáĪĪ": 9084,
      "unc": 9085,
      "Â»,Ġ": 9086,
      "Doc": 9087,
      "ĠáīłáĪ±": 9088,
      "Ãłn-": 9089,
      "aaruf": 9090,
      "ØŃ": 9091,
      "1991": 9092,
      "aeneoĠyaĠ": 9093,
      "bungeĠ": 9094,
      "euxĠ": 9095,
      "thisĠ": 9096,
      "ere,Ġ": 9097,
      "áĪ³áī¸áĭįáĬķ": 9098,
      "aĠki": 9099,
      "Chad": 9100,
      "SarkinĠ": 9101,
      "ĠáĭĪáĭĺáī°": 9102,
      "Hal": 9103,
      "nkanĠ": 9104,
      "isip": 9105,
      "áĪµáī²": 9106,
      "ide": 9107,
      "ĠáĬĲáĭįĠáį¢": 9108,
      "samoĠ": 9109,
      "ologieĠ": 9110,
      "báº¹ÌĢráº¹ÌĢ": 9111,
      "ĠáĬ¥áĬķáĪµáĪ³": 9112,
      "inst": 9113,
      "electr": 9114,
      "ĠáĬłáĬŃ": 9115,
      "áĪ¨áįĪ": 9116,
      "izeĠ": 9117,
      "áĪ©áĬŃ": 9118,
      "1983": 9119,
      "o'": 9120,
      "áīµáĪµ": 9121,
      "áīħáĪį": 9122,
      "i,Ġk": 9123,
      "odoĠ": 9124,
      "haka,Ġ": 9125,
      "Kenya": 9126,
      "pwaniĠyaĠ": 9127,
      "lerĠ": 9128,
      "tek": 9129,
      "áĬķáĪ°": 9130,
      "uĠdaĠ": 9131,
      "ĠáĮ»": 9132,
      "Ġáĭ¨áĪ¶": 9133,
      "ĠáĬ¥áĬķáĭ´áīµ": 9134,
      "ÃłkÃ¡": 9135,
      "kÃŃĠÃ³Ġ": 9136,
      "nau'": 9137,
      "kinaĠ": 9138,
      "Ñģ": 9139,
      "nÃŃĠiláº¹ÌĢĠ": 9140,
      "Ġáĭ«áĭĺ": 9141,
      "Ġáĭ¨áī°áĬĲáĪ³": 9142,
      "1985": 9143,
      "Buk": 9144,
      "ilarĠ": 9145,
      "agueĠ": 9146,
      "egunĠ": 9147,
      "yaĠKi": 9148,
      "áĪłáī¥": 9149,
      "ĠáĪµáī¥áĪµáī¥": 9150,
      "Dang": 9151,
      "dÃº": 9152,
      "áĪĽáĪ¨": 9153,
      ":Ġ\"": 9154,
      "ĠdonĠ": 9155,
      "C)Ġ": 9156,
      "led": 9157,
      "ĠáĪĺáĮĢáĪĺáĪªáĭ«": 9158,
      "aĠkarkashinĠ": 9159,
      "ickĠ": 9160,
      "NollywoodĠ": 9161,
      "áī°áĬŀáī½": 9162,
      "ndaniĠ": 9163,
      "ĠáīłáĬĭáĪĭĠáīł": 9164,
      "ĠáĭŃáĮĪáĪĺ": 9165,
      "ĠáĬłáĪµáī°áĭĭ": 9166,
      "cycl": 9167,
      "ÃłdÃºgbÃ²Ġ": 9168,
      "89": 9169,
      "Uz": 9170,
      "alendaĠ": 9171,
      "kusaĠ": 9172,
      "ndogoĠ": 9173,
      "exist": 9174,
      "Ã¬wÃ¡": 9175,
      "ká»įÌĢwÃ©Ġ": 9176,
      "ĠáĭĺáĪĺáī»": 9177,
      "JinaĠlaĠ": 9178,
      "à¤ķà¤": 9179,
      "IX": 9180,
      "ĠáĪĺáĬĸ": 9181,
      "áį¡áī°": 9182,
      "ojiĠ": 9183,
      "watsaĠ": 9184,
      "ezaliwaĠ": 9185,
[...]
