{
  "version": "1.0",
  "truncation": null,
  "padding": null,
  "added_tokens": [
    {
      "id": 0,
      "content": "<pad>",
      "single_word": false,
      "lstrip": false,
      "rstrip": false,
      "normalized": false,
      "special": true
    },
    {
      "id": 1,
      "content": "<bos>",
      "single_word": false,
      "lstrip": false,
      "rstrip": false,
      "normalized": false,
      "special": true
    },
    {
      "id": 2,
      "content": "<eos>",
      "single_word": false,
      "lstrip": false,
      "rstrip": false,
      "normalized": false,
      "special": true
    }
  ],
  "normalizer": {
    "type": "Sequence",
    "normalizers": [
      {
        "type": "NFC"
      }
    ]
  },
  "pre_tokenizer": {
    "type": "ByteLevel",
    "add_prefix_space": false,
    "trim_offsets": true,
    "use_regex": false
  },
  "post_processor": {
    "type": "TemplateProcessing",
    "single": [
      {
        "SpecialToken": {
          "id": "<bos>",
          "type_id": 0
        }
      },
      {
        "Sequence": {
          "id": "A",
          "type_id": 0
        }
      },
      {
        "SpecialToken": {
          "id": "<eos>",
          "type_id": 0
        }
      }
    ],
    "pair": [
      {
        "SpecialToken": {
          "id": "<bos>",
          "type_id": 0
        }
      },
      {
        "Sequence": {
          "id": "A",
          "type_id": 0
        }
      },
      {
        "SpecialToken": {
          "id": "<eos>",
          "type_id": 0
        }
      },
      {
        "SpecialToken": {
          "id": "<bos>",
          "type_id": 0
        }
      },
      {
        "Sequence": {
          "id": "B",
          "type_id": 0
        }
      },
      {
        "SpecialToken": {
          "id": "<eos>",
          "type_id": 0
        }
      }
    ],
    "special_tokens": {
      "<bos>": {
        "id": "<bos>",
        "ids": [
          1
        ],
        "tokens": [
          "<bos>"
        ]
      },
      "<eos>": {
        "id": "<eos>",
        "ids": [
          2
        ],
        "tokens": [
          "<eos>"
        ]
      }
    }
  },
  "decoder": {
    "type": "ByteLevel",
    "add_prefix_space": true,
    "trim_offsets": true,
    "use_regex": true
  },
  "model": {
    "type": "BPE",
    "dropout": null,
    "unk_token": null,
    "continuing_subword_prefix": null,
    "end_of_word_suffix": null,
    "fuse_unk": false,
    "byte_fallback": true,
    "ignore_merges": false,
    "vocab": {
      "<pad>": 0,
      "<bos>": 1,
      "<eos>": 2,
      "!": 3,
      "\"": 4,
      "#": 5,
      "$": 6,
      "%": 7,
      "&": 8,
      "'": 9,
      "(": 10,
      ")": 11,
      "*": 12,
      "+": 13,
      ",": 14,
      "-": 15,
      ".": 16,
      "/": 17,
      "0": 18,
      "1": 19,
      "2": 20,
      "3": 21,
      "4": 22,
      "5": 23,
      "6": 24,
      "7": 25,
      "8": 26,
      "9": 27,
      ":": 28,
      ";": 29,
      "<": 30,
      "=": 31,
      ">": 32,
      "?": 33,
      "@": 34,
      "A": 35,
      "B": 36,
      "C": 37,
      "D": 38,
      "E": 39,
      "F": 40,
      "G": 41,
      "H": 42,
      "I": 43,
      "J": 44,
      "K": 45,
      "L": 46,
      "M": 47,
      "N": 48,
      "O": 49,
      "P": 50,
      "Q": 51,
      "R": 52,
      "S": 53,
      "T": 54,
      "U": 55,
      "V": 56,
      "W": 57,
      "X": 58,
      "Y": 59,
      "Z": 60,
      "[": 61,
      "\\": 62,
      "]": 63,
      "^": 64,
      "_": 65,
      "`": 66,
      "a": 67,
      "b": 68,
      "c": 69,
      "d": 70,
      "e": 71,
      "f": 72,
      "g": 73,
      "h": 74,
      "i": 75,
      "j": 76,
      "k": 77,
      "l": 78,
      "m": 79,
      "n": 80,
      "o": 81,
      "p": 82,
      "q": 83,
      "r": 84,
      "s": 85,
      "t": 86,
      "u": 87,
      "v": 88,
      "w": 89,
      "x": 90,
      "y": 91,
      "z": 92,
      "{": 93,
      "|": 94,
      "}": 95,
      "~": 96,
      "¡": 97,
      "¢": 98,
      "£": 99,
      "¤": 100,
      "¥": 101,
      "¦": 102,
      "§": 103,
      "¨": 104,
      "©": 105,
      "ª": 106,
      "«": 107,
      "¬": 108,
      "®": 109,
      "¯": 110,
      "°": 111,
      "±": 112,
      "²": 113,
      "³": 114,
      "´": 115,
      "µ": 116,
      "¶": 117,
      "·": 118,
      "¸": 119,
      "¹": 120,
      "º": 121,
      "»": 122,
      "¼": 123,
      "½": 124,
      "¾": 125,
      "¿": 126,
      "À": 127,
      "Á": 128,
      "Â": 129,
      "Ã": 130,
      "Ä": 131,
      "Å": 132,
      "Æ": 133,
      "Ç": 134,
      "È": 135,
      "É": 136,
      "Ê": 137,
      "Ë": 138,
      "Ì": 139,
      "Í": 140,
      "Î": 141,
      "Ï": 142,
      "Ð": 143,
      "Ñ": 144,
      "Ò": 145,
      "Ó": 146,
      "Ô": 147,
      "Õ": 148,
      "Ö": 149,
      "×": 150,
      "Ø": 151,
      "Ù": 152,
      "Ú": 153,
      "Û": 154,
      "Ü": 155,
      "Ý": 156,
      "Þ": 157,
      "ß": 158,
      "à": 159,
      "á": 160,
      "â": 161,
      "ã": 162,
      "ä": 163,
      "å": 164,
      "æ": 165,
      "ç": 166,
      "è": 167,
      "é": 168,
      "ê": 169,
      "ë": 170,
      "ì": 171,
      "í": 172,
      "î": 173,
      "ï": 174,
      "ð": 175,
      "ñ": 176,
      "ò": 177,
      "ó": 178,
      "ô": 179,
      "õ": 180,
      "ö": 181,
      "÷": 182,
      "ø": 183,
      "ù": 184,
      "ú": 185,
      "û": 186,
      "ü": 187,
      "ý": 188,
      "þ": 189,
      "ÿ": 190,
      "Ā": 191,
      "ā": 192,
      "Ă": 193,
      "ă": 194,
      "Ą": 195,
      "ą": 196,
      "Ć": 197,
      "ć": 198,
      "Ĉ": 199,
      "ĉ": 200,
      "Ċ": 201,
      "ċ": 202,
      "Č": 203,
      "č": 204,
      "Ď": 205,
      "ď": 206,
      "Đ": 207,
      "đ": 208,
      "Ē": 209,
      "ē": 210,
      "Ĕ": 211,
      "ĕ": 212,
      "Ė": 213,
      "ė": 214,
      "Ę": 215,
      "ę": 216,
      "Ě": 217,
      "ě": 218,
      "Ĝ": 219,
      "ĝ": 220,
      "Ğ": 221,
      "ğ": 222,
      "Ġ": 223,
      "ġ": 224,
      "Ģ": 225,
      "ģ": 226,
      "Ĥ": 227,
      "ĥ": 228,
      "Ħ": 229,
      "ħ": 230,
      "Ĩ": 231,
      "ĩ": 232,
      "Ī": 233,
      "ī": 234,
      "Ĭ": 235,
      "ĭ": 236,
      "Į": 237,
      "į": 238,
      "İ": 239,
      "ı": 240,
      "Ĳ": 241,
      "ĳ": 242,
      "Ĵ": 243,
      "ĵ": 244,
      "Ķ": 245,
      "ķ": 246,
      "ĸ": 247,
      "Ĺ": 248,
      "ĺ": 249,
      "Ļ": 250,
      "ļ": 251,
      "Ľ": 252,
      "ľ": 253,
      "Ŀ": 254,
      "ŀ": 255,
      "Ł": 256,
      "ł": 257,
      "Ń": 258,
      "áĪ": 259,
      "Ġá": 260,
      "aĠ": 261,
      "áī": 262,
      "áĬ": 263,
      "áĭ": 264,
      "nĠ": 265,
      "iĠ": 266,
      "áĮ": 267,
      "Ġáĭ": 268,
      "eĠ": 269,
      "ĠáĬ": 270,
      "ar": 271,
      "ĠáĪ": 272,
      "áį": 273,
      "an": 274,
      "áĬķ": 275,
      "Ġáī": 276,
      ",Ġ": 277,
      "áīµ": 278,
      "áĪŃ": 279,
      "in": 280,
      "Ġáĭ¨": 281,
      "áĭį": 282,
      "»į": 283,
      "ÃŃ": 284,
      "at": 285,
      "oĠ": 286,
      "al": 287,
      "inĠ": 288,
      "sĠ": 289,
      "łáĪ": 290,
      "er": 291,
      "áĪĿ": 292,
      "áĪį": 293,
      "á»į": 294,
      "am": 295,
      "daĠ": 296,
      "áĪµ": 297,
      "as": 298,
      "yaĠ": 299,
      "anĠ": 300,
      "waĠ": 301,
      "Ãł": 302,
      "º¹": 303,
      "uĠ": 304,
      "ak": 305,
      "arĠ": 306,
      "áº¹": 307,
      "ik": 308,
      "en": 309,
      "áį¢": 310,
      "il": 311,
      "áĬĵ": 312,
      "Ġáīł": 313,
      "áī°": 314,
      "Ã©": 315,
      "áĭ«": 316,
      "áĪĪ": 317,
      "ku": 318,
      "or": 319,
      "sh": 320,
      "ĠáĮ": 321,
      "áº¹Ì": 322,
      "Ã¬": 323,
      "áĭŃ": 324,
      "naĠ": 325,
      "áĪĺ": 326,
      "ĠáĬ¥": 327,
      "on": 328,
      "it": 329,
      "áī½": 330,
      "ÃŃĠ": 331,
      "Ã¡": 332,
      "ab": 333,
      "ĠáĬł": 334,
      "taĠ": 335,
      "áĭ°": 336,
      "áĬĲ": 337,
      "ir": 338,
      "tĠ": 339,
      "un": 340,
      "is": 341,
      "áī¥": 342,
      "áĪ¨": 343,
      "áĮĪ": 344,
      "áĭµ": 345,
      "ay": 346,
      "á»įÌ": 347,
      "dĠ": 348,
      "ur": 349,
      "19": 350,
      "áĪĭ": 351,
      "ĠáĬĲ": 352,
      "áĮį": 353,
      "ĠáĪĺ": 354,
      "Ãº": 355,
      "th": 356,
      "onĠ": 357,
      "áīł": 358,
      "áĪ«": 359,
      ".Ġ": 360,
      "ch": 361,
      "áī³": 362,
      "ĠáĬ¨": 363,
      "Ã³": 364,
      "ad": 365,
      "gb": 366,
      "el": 367,
      "áĬŃ": 368,
      "om": 369,
      "im": 370,
      "Ã¨": 371,
      "es": 372,
      "áĪĽ": 373,
      "ol": 374,
      "iy": 375,
      "20": 376,
      "áĪ³": 377,
      "áī£": 378,
      "Ġ(": 379,
      "Ġáį": 380,
      "esĠ": 381,
      "áº¹ÌĢ": 382,
      "ag": 383,
      "áº¹Ìģ": 384,
      "áĬĽ": 385,
      "Ġáī°": 386,
      "niĠ": 387,
      "á»įÌģ": 388,
      "áĪª": 389,
      "ĠáĭŃ": 390,
      "ĠáīłáĪ": 391,
      "unĠ": 392,
      "Ġáĭ¨áĪ": 393,
      "of": 394,
      "ĠáĬłáĪ": 395,
      "a,Ġ": 396,
      "áĪħ": 397,
      "em": 398,
      "áĮ¥": 399,
      "áĬ¨": 400,
      ")Ġ": 401,
      "aĠm": 402,
      "áį£": 403,
      "yĠ": 404,
      "us": 405,
      "¹£": 406,
      "ok": 407,
      "ĠáĪĿ": 408,
      "ic": 409,
      "Ġáĭ¨áĬ": 410,
      "ul": 411,
      "tiĠ": 412,
      "af": 413,
      "Ã²": 414,
      "kar": 415,
      "ĠáĭĪ": 416,
      "áį¡": 417,
      "aw": 418,
      "aj": 419,
      "áįį": 420,
      "deĠ": 421,
      "áĭ³": 422,
      "ĠáĬĲáĭį": 423,
      "áīĢ": 424,
      "ÃłĠ": 425,
      "áĭ¨": 426,
      "um": 427,
      "âĢ": 428,
      "ĠáĬ¥áĬķ": 429,
      "iaĠ": 430,
      "áĭĪ": 431,
      "Ã©Ġ": 432,
      "wan": 433,
      "enĠ": 434,
      "wá»į": 435,
      "theĠ": 436,
      "a.": 437,
      "uk": 438,
      "ali": 439,
      "áĪ°": 440,
      "áīħ": 441,
      "ut": 442,
      "ac": 443,
      "ing": 444,
      "áĪĮ": 445,
      "áĬ«": 446,
      "ĠáĪĪ": 447,
      "Ã¹": 448,
      "ai": 449,
      "aĠk": 450,
      "kum": 451,
      "Ã³Ġ": 452,
      "Ġá»į": 453,
      "áĬł": 454,
      "aiĠ": 455,
      "ah": 456,
      "ofĠ": 457,
      "ĠáĬĲáĭįáį¢": 458,
      "á¹£": 459,
      "ĠáĪµ": 460,
      "áī¸": 461,
      "Ġáĭ«": 462,
      "ap": 463,
      "áĪī": 464,
      "erĠ": 465,
      "Ġáĭĵ": 466,
      "ig": 467,
      "ib": 468,
      "ÆĻ": 469,
      "id": 470,
      "az": 471,
      "áīłáĪ": 472,
      "áĭĬ": 473,
      "áĭĭ": 474,
      "akaĠ": 475,
      "áĪ®": 476,
      "áī±": 477,
      "İáī½": 478,
      "re": 479,
      "áī¸áĭį": 480,
      "áįĪ": 481,
      "wá»įnĠ": 482,
      "tÃŃĠ": 483,
      "áº¹ÌĢĠ": 484,
      "Ġáĭ¨áĪļ": 485,
      "á»įÌĢ": 486,
      "áĭĿ": 487,
      "áĮ£": 488,
      "e,Ġ": 489,
      "áĪįáį¢": 490,
      "laĠ": 491,
      "áĪĨ": 492,
      "ĠáĪĽ": 493,
      "baĠ": 494,
      "os": 495,
      "edĠ": 496,
      "ati": 497,
      "tr": 498,
      "áĭļ": 499,
      "áī¶": 500,
      "toĠ": 501,
      "anaĠ": 502,
      "áĪ³áĪĮ": 503,
      "áĮł": 504,
      "áĮī": 505,
      "iĠyaĠ": 506,
      "she": 507,
      "Ã¡Ġ": 508,
      "áĮĭ": 509,
      "neĠ": 510,
      "-Ġ": 511,
      "ceĠ": 512,
      "ĠáīłáĬ": 513,
      "áĭ®": 514,
      "leĠ": 515,
      ":Ġ": 516,
      "shekar": 517,
      "nÃŃĠ": 518,
      "ĠáĪĿáĪ³áĪĮ": 519,
      "áº¹ÌģĠ": 520,
      "andĠ": 521,
      "ÃºĠ": 522,
      "kumaĠ": 523,
      "ti": 524,
      "ÃºnĠ": 525,
      "201": 526,
      "ug": 527,
      "iyaĠ": 528,
      "ÃĢ": 529,
      "ĠáĪ²": 530,
      "op": 531,
      "áĭ²": 532,
      "qu": 533,
      "áĬķáĭµ": 534,
      "i,Ġ": 535,
      "ĠáĮį": 536,
      "á»įĠ": 537,
      "alĠ": 538,
      "Ġáīµ": 539,
      "ish": 540,
      "ash": 541,
      "áĭİáī½": 542,
      "uwaĠ": 543,
      "Ġáĭĺ": 544,
      "200": 545,
      "nÃŃ": 546,
      "ikinĠ": 547,
      "ang": 548,
      "áĪ¥": 549,
      "áīĥ": 550,
      "ot": 551,
      "áĬĸ": 552,
      "áĪŀ": 553,
      "áĭĺ": 554,
      "Al": 555,
      "Ġáĭ¨áī°": 556,
      "all": 557,
      "ĠáĬ¥áĬĵ": 558,
      "Ã¨Ġ": 559,
      "áĬĲáīµ": 560,
      "og": 561,
      "ĠáĪ°": 562,
      "pr": 563,
      "iĠwaĠ": 564,
      "ikaĠ": 565,
      "zaĠ": 566,
      "Ġáī¥": 567,
      "áĬ¥": 568,
      "18": 569,
      "áĪĬ": 570,
      "ob": 571,
      "áĪ©": 572,
      "ip": 573,
      "isĠ": 574,
      "Ġáĭį": 575,
      "áĪĻ": 576,
      "araĠ": 577,
      "aniĠ": 578,
      "et": 579,
      "ih": 580,
      "akeĠ": 581,
      "áĬķáĮį": 582,
      "ec": 583,
      "ĠáīĢ": 584,
      "aĠtaĠ": 585,
      "ub": 586,
      "asĠ": 587,
      "wat": 588,
      "od": 589,
      "áīłáĪŃ": 590,
      "tok": 591,
      "Ġáĭ°": 592,
      "Ã¬Ġ": 593,
      "ĭáĭŃ": 594,
      "kas": 595,
      "iv": 596,
      "ij": 597,
      "i.": 598,
      "ĠáĬ¥áĬķáĭ°": 599,
      "oj": 600,
      "if": 601,
      "ud": 602,
      "áĭĽ": 603,
      "Ġáĭ¨áĬłáĪ": 604,
      "agaĠ": 605,
      "ist": 606,
      "AĠ": 607,
      "cikinĠ": 608,
      "áĪļ": 609,
      "ek": 610,
      "Ã²Ġ": 611,
      "amaĠ": 612,
      "ĠáĬŃ": 613,
      "entĠ": 614,
      "Th": 615,
      "ÌĢ": 616,
      "ow": 617,
      "00": 618,
      "áĪİ": 619,
      "e.": 620,
      "iĠm": 621,
      "and": 622,
      "áĮħ": 623,
      "áī²": 624,
      "áī¢": 625,
      "fr": 626,
      "amb": 627,
      "ts": 628,
      "iĠk": 629,
      "áĬĳ": 630,
      "áįĭ": 631,
      "ĠáĪį": 632,
      "á»įÌģĠ": 633,
      "ingĠ": 634,
      "ÃĮ": 635,
      "etĠ": 636,
      "ent": 637,
      "lÃ¡": 638,
      "áĬĿ": 639,
      "ed": 640,
      "Ġáº¹": 641,
      "áĪ±": 642,
      "áį¤": 643,
      "dagaĠ": 644,
      "áĪĨáĬķ": 645,
      "atiĠ": 646,
      "ou": 647,
      "áĪ½": 648,
      "tar": 649,
      "anc": 650,
      "ung": 651,
      "áĮİ": 652,
      "ĠáĪĭáĭŃ": 653,
      "áĭ«áĬķ": 654,
      "áĪĪáĭį": 655,
      "Ġáī³": 656,
      "Ġáĭµ": 657,
      "Am": 658,
      "ÉĹ": 659,
      "le": 660,
      "st": 661,
      "áĪŃáĬĽ": 662,
      "áĭ±": 663,
      "áĪģ": 664,
      "rÃŃ": 665,
      "Ġáī£": 666,
      "ann": 667,
      "Ġá¹£": 668,
      "au": 669,
      "Ch": 670,
      "ew": 671,
      "jeĠ": 672,
      "áº¹Ġ": 673,
      "ikiĠ": 674,
      "ov": 675,
      "áĭļáĪħ": 676,
      "¢áīµ": 677,
      "ant": 678,
      "was": 679,
      "Mar": 680,
      "av": 681,
      "á»įÌĢĠ": 682,
      "iyarĠ": 683,
      "Â«": 684,
      "wakaĠ": 685,
      "ĽáĪŃáĬĽ": 686,
      "¢áīµáĭ®": 687,
      "áĮµ": 688,
      "áĬĴ": 689,
      "áĭķ": 690,
      "uw": 691,
      "199": 692,
      "ans": 693,
      "áīĨ": 694,
      "áĮĢ": 695,
      "ĠáīłáĪĺ": 696,
      "gaĠ": 697,
      "¢áīµáĭ®áĮµ": 698,
      "In": 699,
      "Ãłwá»įnĠ": 700,
      "orĠ": 701,
      "áĪĪáīµ": 702,
      "adaĠ": 703,
      "iz": 704,
      "áĮ½": 705,
      "áĮĪáĪŃ": 706,
      "áĪ¬": 707,
      "iĠnaĠ": 708,
      "0Ġ": 709,
      "oy": 710,
      "ark": 711,
      "oc": 712,
      "),Ġ": 713,
      "áī¡": 714,
      "o,Ġ": 715,
      "awaĠ": 716,
      "áĪµáĮ¥": 717,
      "eĠdaĠ": 718,
      "¢áīµáĭ®áĮµáĭ«": 719,
      "Ġáĭ¨áĬłáĪĽáĪŃáĬĽ": 720,
      "aif": 721,
      "a'": 722,
      "Â»": 723,
      "áĪ¨áīµ": 724,
      "Sh": 725,
      "shiĠ": 726,
      "amm": 727,
      "ĠáĪĿáĪ³áĪĮĠáĬĲáĭįáį¢": 728,
      "áīłáīµ": 729,
      "Ġáĭ¨áĬłáĪĽáĪŃáĬĽĠáĪĿáĪ³áĪĮĠáĬĲáĭįáį¢": 730,
      "ĠáĬĲáīłáĪŃ": 731,
      "áĭľ": 732,
      "ĠáĮ¥": 733,
      "Ġ1": 734,
      "ind": 735,
      "elĠ": 736,
      "áĪĺáĬķ": 737,
      "aĠdaĠ": 738,
      "ep": 739,
      "arĠdaĠ": 740,
      "oĠyaĠ": 741,
      "áĪ»": 742,
      "eĠd": 743,
      "oh": 744,
      "ĠáĭĪáĭ°": 745,
      "ayaĠ": 746,
      "su": 747,
      "ĠáĪĨ": 748,
      "yan": 749,
      "aĠyaĠ": 750,
      "ĠáĮĪ": 751,
      "aĠnaĠ": 752,
      "áĪµáīµ": 753,
      "ĠáĬ¨áī°": 754,
      "Ġá»įd": 755,
      "ÃĢwá»įnĠ": 756,
      "aĠh": 757,
      "Ã¹Ġ": 758,
      "ats": 759,
      "áī»": 760,
      "ÅĦ": 761,
      "a.Ġ": 762,
      "ĠáĬķ": 763,
      "ĵĠ": 764,
      "ÃłtiĠ": 765,
      "An": 766,
      "ajer": 767,
      "1Ġ": 768,
      "á»įÌģnĠ": 769,
      "auĠ": 770,
      "áĭ©": 771,
      "bÃŃĠ": 772,
      "e-": 773,
      "kanĠ": 774,
      "5Ġ": 775,
      "2Ġ": 776,
      "our": 777,
      "TheĠ": 778,
      "tÃŃĠÃ³Ġ": 779,
      "âĢĻ": 780,
      "áĭĵ": 781,
      "jáº¹ÌģĠ": 782,
      "ter": 783,
      "áįĬ": 784,
      ";Ġ": 785,
      "áĭįáĬķ": 786,
      "áī¶áī½": 787,
      "sam": 788,
      "kat": 789,
      "Najer": 790,
      "waĠm": 791,
      "ĠáĬ¥áĪµ": 792,
      "ej": 793,
      "ÃłnĠ": 794,
      "ĠáĭįáĪµáĮ¥": 795,
      "ĠáĬłáĭŃ": 796,
      "iniĠ": 797,
      "lesĠ": 798,
      "198": 799,
      "áĪŃáĮī": 800,
      "ong": 801,
      "láº¹ÌĢĠ": 802,
      "Ab": 803,
      "Ĭáĭľ": 804,
      "shekararĠ": 805,
      "áĮłáĪ": 806,
      "usĠ": 807,
      "áĪªáĭ«": 808,
      "ation": 809,
      "áĬĶ": 810,
      "wen": 811,
      "inaĠ": 812,
      "asarĠ": 813,
      "uĠm": 814,
      "uz": 815,
      "áīĭ": 816,
      "ĠáĪģ": 817,
      "áĭ¶": 818,
      "ariĠ": 819,
      "eg": 820,
      "6Ġ": 821,
      "hu": 822,
      "áĪ²": 823,
      "yiĠ": 824,
      "con": 825,
      ").": 826,
      "áĬĽáĭį": 827,
      "7Ġ": 828,
      "áĬłáĪ": 829,
      "wandaĠ": 830,
      "ayinĠ": 831,
      "iwaĠ": 832,
      "wak": 833,
      "4Ġ": 834,
      "áī¦": 835,
      "áĭŃáĪĿ": 836,
      "3Ġ": 837,
      "ineĠ": 838,
      "Wali": 839,
      "áĪŃáĪµ": 840,
      "Ġd": 841,
      "ta": 842,
      "áĬ¤": 843,
      "áĪľ": 844,
      "sÃŃĠ": 845,
      "Ġáīłáī°": 846,
      "eb": 847,
      "anz": 848,
      "áĪĲ": 849,
      "com": 850,
      "áĭĻ": 851,
      "áĬ®": 852,
      "ráº¹ÌĢĠ": 853,
      "197": 854,
      ",Ġm": 855,
      "ran": 856,
      "ataĠ": 857,
      "pl": 858,
      "estĠ": 859,
      "áī¤": 860,
      "Ġáīħ": 861,
      "196": 862,
      "ĠáĬłáĪµ": 863,
      "Ġá»įdÃºnĠ": 864,
      "Afr": 865,
      "ĠáĪ¥": 866,
      "kutok": 867,
      "atĠ": 868,
      "ers": 869,
      "Ġáī¤": 870,
      "ĠáĬ«": 871,
      "ĠáīµáĪŃáĮī": 872,
      "Ġáĭ¨áĪĺ": 873,
      "ev": 874,
      "any": 875,
      "áĬ©": 876,
      "Ar": 877,
      "ĠáĮįáĬķ": 878,
      "áĪªáĬŃ": 879,
      "hĠ": 880,
      "ĠáĬ¥áĬķáĭ²": 881,
      "eĠm": 882,
      "ationĠ": 883,
      "ex": 884,
      "ĠÂ«": 885,
      "ĠáĮĭ": 886,
      "siĠ": 887,
      "Ġáĭ¨áĬł": 888,
      "áīģ": 889,
      "áĮ¨": 890,
      "abb": 891,
      "ill": 892,
      "aĠcikinĠ": 893,
      "asiĠ": 894,
      "lÃºĠ": 895,
      "áī¹": 896,
      "Ã¨d": 897,
      "iharĠ": 898,
      "ez": 899,
      "shekaraĠtaĠ": 900,
      "áīłáĪ¨": 901,
      "Ã¬j": 902,
      "ÃŃn": 903,
      "bay": 904,
      "ĠáĪ²áĪĨáĬķ": 905,
      "áį¡áį¡": 906,
      "Itok": 907,
      "ĭáĪĭ": 908,
      "l'": 909,
      "Ad": 910,
      "ion": 911,
      "áĮĥ": 912,
      "áĬŃáĪį": 913,
      "uh": 914,
      "áĪĥ": 915,
      "»áį": 916,
      "ĠáīµáĪŃáĮīáĪĻ": 917,
      "ĠáĬĲáīłáĪŃáį¢": 918,
      "icĠ": 919,
      "arinĠ": 920,
      "suk": 921,
      "ĠáīłáĬł": 922,
      "end": 923,
      "ĠáĬłáĬķ": 924,
      "keĠ": 925,
      "áĪ´": 926,
      "asaĠ": 927,
      "up": 928,
      ".áĪĿ": 929,
      "kun": 930,
      "wá»įn": 931,
      "eh": 932,
      "kw": 933,
      "ach": 934,
      "ĠáĪ³": 935,
      "ef": 936,
      "²áį": 937,
      "áī´": 938,
      "wá»įÌģnĠ": 939,
      "anceĠ": 940,
      "oz": 941,
      "ich": 942,
      "áĮŃ": 943,
      "ĠáĪĺáĬķáĮį": 944,
      "Ġáĭ¨áĬłáĪĽáĪŃáĬĽĠáĪĿáĪ³áĪĮĠáĬĲáĭįáį¢ĠáīµáĪŃáĮīáĪĻ": 945,
      "suĠ": 946,
      "Ã¨dÃ¨Ġ": 947,
      ".ĠM": 948,
      "ĠáĮĬáĭľ": 949,
      "naĠm": 950,
      "8Ġ": 951,
      "o.": 952,
      "ĠáīĢáĬķ": 953,
      "ĠáĭĪáĭŃáĪĿ": 954,
      "ofĠtheĠ": 955,
      "Ġáĭĭ": 956,
      "und": 957,
      "áī³áīµ": 958,
      "ileĠ": 959,
      "\"Ġ": 960,
      "ÅĦĠ": 961,
      "Ġáĭĵ.áĪĿ": 962,
      "itaĠ": 963,
      "»Į": 964,
      "nch": 965,
      "ikuwaĠ": 966,
      "aninĠ": 967,
      "air": 968,
      "Ġ-": 969,
      "áĪªáĬ«": 970,
      "Ã©r": 971,
      "uc": 972,
      "ain": 973,
      "kwaĠ": 974,
      "zuwaĠ": 975,
      "oĠm": 976,
      "Pr": 977,
      "ani": 978,
      "9Ġ": 979,
      "aĠb": 980,
      "reĠ": 981,
      "aur": 982,
      "ĠáĪµáĪĪ": 983,
      "yÃ¬": 984,
      "ĠáĬłáĪĪ": 985,
      "St": 986,
      "ĠáĬĵ": 987,
      "áĪ¨áīµáĬĵ": 988,
      "áĮ»": 989,
      "ĠáĪĬ": 990,
      "par": 991,
      "kutokaĠ": 992,
      "Ġáī¢": 993,
      "ĠáįĪ": 994,
      "ionĠ": 995,
      "nÃ¡": 996,
      "ĠáĬ¥áĪµáĬ¨": 997,
      "aĠd": 998,
      "Jam": 999,
      "areĠ": 1000,
      "áĪĪáĪĿ": 1001,
      "ass": 1002,
      "ĠáīłáĬĭáĪĭ": 1003,
      "áĪ¨áīµáĬĵĠáĪĿáĪ³áĪĮ": 1004,
      "ĠáĬķáĮī": 1005,
      "u,Ġ": 1006,
      "lÃ³": 1007,
      "nÃŃn": 1008,
      "ciĠ": 1009,
      "agb": 1010,
      "yeĠ": 1011,
      "acinĠ": 1012,
      "áĪ¥áīµ": 1013,
      "áį»áį": 1014,
      "ĠáĭŃáĪħ": 1015,
      "ĠáĭĺáĪĺáĬķ": 1016,
      "Ã¹nĠ": 1017,
      "aĠs": 1018,
      "áĪ¨áĪµ": 1019,
      "áĬķáĪĿ": 1020,
      "atsayinĠ": 1021,
      "ĠáĬŃáįį": 1022,
      "áĪ®áī½": 1023,
      "uĠyaĠ": 1024,
      "aĠf": 1025,
      "áĪķ": 1026,
      "195": 1027,
      "ioĠ": 1028,
      "jam": 1029,
      "áĮ«": 1030,
      "emb": 1031,
      "uf": 1032,
      "Un": 1033,
      "Ġáī°áĪ¨áīµáĬĵĠáĪĿáĪ³áĪĮ": 1034,
      "ĠáĬ¨áī°áĪĽ": 1035,
      "itĠ": 1036,
      "ell": 1037,
      "ess": 1038,
      "láº¹ÌĢ": 1039,
      "haif": 1040,
      "Ġáº¹ÌĢ": 1041,
      "ItokasiĠ": 1042,
      "kĠ": 1043,
      "iw": 1044,
      "anĠm": 1045,
      "iá¹£": 1046,
      "ewaĠ": 1047,
      "áĮĪáĬ": 1048,
      "áĭİ": 1049,
      "orÃŃ": 1050,
      "kinĠ": 1051,
      "aĠg": 1052,
      "for": 1053,
      "watanĠ": 1054,
      "tÃ³Ġ": 1055,
      "ĠáĭĵáĪĺ": 1056,
      "Br": 1057,
      "nd": 1058,
      "koĠ": 1059,
      "aut": 1060,
      "Ġá¹£eĠ": 1061,
      "tak": 1062,
      "biĠ": 1063,
      "yaĠK": 1064,
      "áĪŃáĭ«": 1065,
      "ĠáĪĪáĪĺ": 1066,
      "áįĵ": 1067,
      "Ġáĭķ": 1068,
      "áĮĢáĪĺ": 1069,
      "rinĠ": 1070,
      "áī°áĬĽ": 1071,
      "ereĠ": 1072,
      "wam": 1073,
      "aliĠ": 1074,
      "amarĠ": 1075,
      "áĭ´": 1076,
      "Ġáĭĵ.áĪĿ.": 1077,
      "NajeriyaĠ": 1078,
      "war": 1079,
      "gbÃłĠ": 1080,
      "inc": 1081,
      "queĠ": 1082,
      "fir": 1083,
      "áĮįáĪŀ": 1084,
      "fÃºnĠ": 1085,
      "17": 1086,
      "sÃŃ": 1087,
      "ni": 1088,
      "Ġá»įm": 1089,
      "áį¦": 1090,
      "Ġáĭ«áĪį": 1091,
      "sÃ¬Ġ": 1092,
      "s,Ġ": 1093,
      "ÃŃrÃŃ": 1094,
      "áĭµáĪŃ": 1095,
      "Mak": 1096,
      "As": 1097,
      "Ġá»įÌĢ": 1098,
      "rÃ©": 1099,
      "ĠáĮĢ": 1100,
      "áĪ¶": 1101,
      "Nob": 1102,
      "ĠáĬĲáĮĪ": 1103,
      "Ġáįį": 1104,
      "wasanĠ": 1105,
      "yaw": 1106,
      "AnĠ": 1107,
      "ĠáĬ¢": 1108,
      "ugh": 1109,
      "omĠ": 1110,
      "áī³áĭĪ": 1111,
      "har": 1112,
      "azar": 1113,
      "Ġáīģ": 1114,
      "Kar": 1115,
      "u.": 1116,
      "eri": 1117,
      "gbaĠ": 1118,
      "Il": 1119,
      "asuĠ": 1120,
      "áīµáĬķ": 1121,
      "ĠáĪķ": 1122,
      "Ġá»Į": 1123,
      "ĠáĮĭáĪŃ": 1124,
      "yanaĠ": 1125,
      "ĠáīłáĪĽ": 1126,
      "16": 1127,
      "NobelĠ": 1128,
      "bir": 1129,
      "amĠ": 1130,
      "ny": 1131,
      "meĠ": 1132,
      "áĬŃáĪįáīł": 1133,
      "15": 1134,
      "ilĠ": 1135,
      "Ġáį¡": 1136,
      "iĠdaĠ": 1137,
      "maiĠ": 1138,
      "aĠmatsayinĠ": 1139,
      "ha": 1140,
      "utan": 1141,
      "est": 1142,
      "uneĠ": 1143,
      "áĪīáį¢": 1144,
      "Man": 1145,
      "Ãłk": 1146,
      "aĠl": 1147,
      "áīĤ": 1148,
      "ugab": 1149,
      "thĠ": 1150,
      "awonĠ": 1151,
      "âĢĵĠ": 1152,
      "ĠáĭĵáĬŃáĪįáīł": 1153,
      "áĪİáī½": 1154,
      "aliwaĠ": 1155,
      "áĮ¡": 1156,
      "194": 1157,
      "áĭ°áĪ¨": 1158,
      "ÆĻasarĠ": 1159,
      "Ol": 1160,
      "nanĠ": 1161,
      "ká»įÌģĠ": 1162,
      "wasĠ": 1163,
      "kuwaĠ": 1164,
      "ĠáĪļ": 1165,
      "¦áĪŃ": 1166,
      "Ġáĭ°áĮįáĪŀ": 1167,
      "ieĠ": 1168,
      "ĠáĬłáĬķáĭµ": 1169,
      "ÃĵĠ": 1170,
      "a-": 1171,
      "áĭ°áĪŃ": 1172,
      "NÃł": 1173,
      "ĠáĬłáĪį": 1174,
      "erÃ©Ġ": 1175,
      "aadaĠ": 1176,
      "ansĠ": 1177,
      "áī°áĪ¨": 1178,
      "|Ġ": 1179,
      "gab": 1180,
      "áĪĺáĬĲ": 1181,
      "Ġá»įj": 1182,
      "iiĠ": 1183,
      "eoĠ": 1184,
      "ond": 1185,
      "raĠ": 1186,
      "unaĠ": 1187,
      "ityĠ": 1188,
      "áĮĪáĬĿ": 1189,
      "Ãłn": 1190,
      "imb": 1191,
      "amf": 1192,
      "nÃŃnÃºĠ": 1193,
      "yarĠ": 1194,
      "áĪŃáīµ": 1195,
      "arr": 1196,
      "antĠ": 1197,
      "andaĠ": 1198,
      "NÃłÃ¬j": 1199,
      "xĠ": 1200,
      "Nig": 1201,
      "eng": 1202,
      "Ã¬n": 1203,
      "sunĠ": 1204,
      "áĬķáīµ": 1205,
      "ementĠ": 1206,
      "es,Ġ": 1207,
      "iliĠ": 1208,
      "fark": 1209,
      "NÃłÃ¬jÃŃrÃŃ": 1210,
      "wa": 1211,
      "bÃŃ": 1212,
      "katikaĠ": 1213,
      "Ġáĭ¨áĬ¢áīµáĭ®áĮµáĭ«": 1214,
      "uĠwaĠ": 1215,
      "ĠáĪĺáĬķáĮįáĪ¥áīµ": 1216,
      "tareĠdaĠ": 1217,
      "forĠ": 1218,
      "áĬķáĪµ": 1219,
      "áĪĶ": 1220,
      "Ãºn": 1221,
      "urĠ": 1222,
      "Or": 1223,
      "shir": 1224,
      "ĠáĪĪáĪĽ": 1225,
      "ayeĠ": 1226,
      "Ã¬y": 1227,
      "Kan": 1228,
      "áīłáĪ©": 1229,
      "..": 1230,
      "Ġ2": 1231,
      "áĬķáīĭ": 1232,
      "áī½áĬķ": 1233,
      "áĬª": 1234,
      "desĠ": 1235,
      "áĪĭáĪįáį¢": 1236,
      "ĠáĪĨáĬĲ": 1237,
      "Ġáĭ¨áĬĲ": 1238,
      "áĬĵáīµ": 1239,
      "mat": 1240,
      "ĠáĪįáĮħ": 1241,
      "rÃŃĠ": 1242,
      "'sĠ": 1243,
      "aĠwaĠ": 1244,
      "diĠ": 1245,
      "wall": 1246,
      "oĠwaĠ": 1247,
      "sab": 1248,
      "Ã¬d": 1249,
      "jiharĠ": 1250,
      "wonĠ": 1251,
      "ĠáĭµáĪ¨áĪµ": 1252,
      "wit": 1253,
      "ĠáĭĿ": 1254,
      "aĠaĠ": 1255,
      "áĭļáĭ«": 1256,
      "áįī": 1257,
      "y,Ġ": 1258,
      "wh": 1259,
      "fiĠ": 1260,
      "ersĠ": 1261,
      "tur": 1262,
      "byĠ": 1263,
      "att": 1264,
      "eĠ(": 1265,
      "ĠáĭĵáĬŃáĪįáīł.": 1266,
      "biy": 1267,
      "Ġáĭ«áĪįáī°": 1268,
      "ĠâĢ": 1269,
      "II": 1270,
      "Ib": 1271,
      "wakaĠwaĠ": 1272,
      "i'": 1273,
      "waniĠ": 1274,
      "daĠkumaĠ": 1275,
      "ins": 1276,
      "Is": 1277,
      "áĭ°áī¥": 1278,
      "ninĠ": 1279,
      "kaf": 1280,
      "áī°áĪ¨áĮİ": 1281,
      "193": 1282,
      "mĠ": 1283,
      "apaĠ": 1284,
      "ĠáĪħ": 1285,
      "áĮĬ": 1286,
      "Walioz": 1287,
      "ibiĠ": 1288,
      "áī£áĪį": 1289,
      "ĠáĬ¤": 1290,
      "Ġáĭ¨áĬ¥": 1291,
      "Ġáīĭ": 1292,
      "ĠáĪµáĪĿ": 1293,
      "donĠ": 1294,
      "ĠáĪĮ": 1295,
      "Nij": 1296,
      "áĪ£": 1297,
      "áĪĨáĬĳ": 1298,
      "aceĠ": 1299,
      "10": 1300,
      "funĠ": 1301,
      "áĪ¸": 1302,
      "lÃ¡tiĠ": 1303,
      "yakeĠ": 1304,
      "ĠáĬłáĮĪ": 1305,
      "ĠáīłáĬ¥": 1306,
      "aik": 1307,
      "ĠáĪĢ": 1308,
      "wal": 1309,
      "wali": 1310,
      "atikaĠ": 1311,
      "art": 1312,
      "chaĠ": 1313,
      "²áį±": 1314,
      "ro": 1315,
      "áī¸áĭįáį¢": 1316,
      "áĬķáĭ«": 1317,
      "nÃ¡ÃłĠ": 1318,
      "ĠáĪĽáĪĪáīµ": 1319,
      "En": 1320,
      "arikiĠ": 1321,
      "e.Ġ": 1322,
      "áĪĬáĭĿ": 1323,
      "had": 1324,
      "seĠ": 1325,
      "indaĠ": 1326,
      "annanĠ": 1327,
      "áĪłáĪ": 1328,
      "lÃ©": 1329,
      "abbanĠ": 1330,
      "14": 1331,
      "aĠshekaraĠtaĠ": 1332,
      "ĠáĪĥ": 1333,
      "áī¸áĭįáĬķ": 1334,
      "san": 1335,
      "á¹£Ã¨": 1336,
      "ĠáĬķáĮīáĪ¥": 1337,
      "lá»įÌģ": 1338,
      "áĬ¨áī°": 1339,
      "áī±áĬķ": 1340,
      "Waliof": 1341,
      "áĪµáī°": 1342,
      "á¹£Ã¹Ġ": 1343,
      "uzoĠyaĠ": 1344,
      "aĠt": 1345,
      "ranarĠ": 1346,
      "áĭįáĭ«áĬķ": 1347,
      "iya.": 1348,
      "áįķ": 1349,
      "pÃŃn": 1350,
      "Tar": 1351,
      "áī°áĪ¨áĮİáĪĺ": 1352,
      "Ġáĭ¨áĪļáĭ«": 1353,
      "áĪĢ": 1354,
      "yaĠm": 1355,
      "duĠ": 1356,
      "aryĠ": 1357,
      "TuzoĠyaĠ": 1358,
      "zam": 1359,
      "láº¹ÌĢ-": 1360,
      "irĠ": 1361,
      "áī£áī¢": 1362,
      "ilim": 1363,
      "ĠáĬłáĪĺ": 1364,
      "s.": 1365,
      "âĢĿ": 1366,
      "Ġáī³áĪªáĬŃ": 1367,
      "ey": 1368,
      "por": 1369,
      "áĬķáĮ": 1370,
      "ĠáīłáĬłáĪ": 1371,
      "Ġáĭ«áĪįáī°áī°áĪ¨áĮİáĪĺ": 1372,
      "Ġáĭ«áĪįáī°áī°áĪ¨áĮİáĪĺĠáĪĿáĪ³áĪĮ": 1373,
      "ais": 1374,
      "okacinĠ": 1375,
      "²áį±áį»áį": 1376,
      "alis": 1377,
      "ahĠ": 1378,
      "Marek": 1379,
      "edeĠ": 1380,
      "áĪĦ": 1381,
      "haifeĠ": 1382,
      "ÃĴ": 1383,
      "shind": 1384,
      "Ã¬t": 1385,
      "ĠáĮī": 1386,
      "ĠáĪ°áĭį": 1387,
      "Ag": 1388,
      "bÃ¡Ġ": 1389,
      "áĭĽáīµ": 1390,
      "ĠáīĭáĬķáīĭ": 1391,
      "Ġáĭ¨áĬłáĪĽáĪŃáĬĽĠáĪĿáĪ³áĪĮĠáĬĲáĭįáį¢ĠáīµáĪŃáĮīáĪĻĠáĭ«áĪįáī°áī°áĪ¨áĮİáĪĺĠáĪĿáĪ³áĪĮ": 1392,
      "aĠ(": 1393,
      "áĪŀáī½": 1394,
      "Ãłr": 1395,
      "Ã¬lÃºĠ": 1396,
      "áĮ¥áĪŃ": 1397,
      "Mus": 1398,
      "tÃŃĠwá»įÌģnĠ": 1399,
      "an,Ġ": 1400,
      "áĪ«áīµ": 1401,
      "ayĠ": 1402,
      "Ġáĭ³": 1403,
      "dÃ©": 1404,
      "Ġáį£": 1405,
      "awá»į": 1406,
      "uwarĠ": 1407,
      "sunaĠ": 1408,
      "áī£áīµ": 1409,
      "umb": 1410,
      "to": 1411,
      "áī¥áĪŃ": 1412,
      "ĠáĬłáĬ«": 1413,
      "abuĠ": 1414,
      "áĪł": 1415,
      "inĠdaĠ": 1416,
      "áĪįáĬŃ": 1417,
      "/áĪĿ": 1418,
      "Ġáĭ¨áĪĽ": 1419,
      "ph": 1420,
      "uj": 1421,
      "áĭĭáĪįáį¢": 1422,
      "d'": 1423,
      "Ġáī¥áĭĻ": 1424,
      "deĠlaĠ": 1425,
      "âĢĵ": 1426,
      "iki": 1427,
      "eaĠ": 1428,
      "áĪĭáīµ": 1429,
      "ĠáĭŃáĮĪ": 1430,
      "ard": 1431,
      "áĬ¨áĪį": 1432,
      "neĠyaĠ": 1433,
      "áĪĿáĪ®": 1434,
      "afiĠ": 1435,
      "fin": 1436,
      "láº¹ÌĢ-Ã¨dÃ¨Ġ": 1437,
      "TuzoĠyaĠNobelĠ": 1438,
      "danĠ": 1439,
      "jir": 1440,
      "oĠniĠ": 1441,
      "inĠm": 1442,
      "Ġáĭĵ/áĪĿ": 1443,
      "imĠ": 1444,
      "Ġá»įmá»įĠ": 1445,
      "ateĠ": 1446,
      "ĠáĪŀ": 1447,
      "tionĠ": 1448,
      "áĪĭáĪį": 1449,
      "ĠáĮł": 1450,
      "lá»įĠ": 1451,
      "áĪ³áĭŃ": 1452,
      "ht": 1453,
      "adĠ": 1454,
      "ayy": 1455,
      "tanaĠ": 1456,
      "olog": 1457,
      "vyaĠ": 1458,
      "ĠáĪĻ": 1459,
      "áī³áĭĬ": 1460,
      "fil": 1461,
      "wÃłĠ": 1462,
      "oĠnaĠ": 1463,
      "12": 1464,
      "ĠáĬłáĪµáī°": 1465,
      "dun": 1466,
      "WaliozaliwaĠ": 1467,
      "áĪĿáĪħ": 1468,
      "áĮĤ": 1469,
      "ĠáĮ½": 1470,
      "Amer": 1471,
      "iya,Ġ": 1472,
      "amuĠ": 1473,
      "Fr": 1474,
      "ens": 1475,
      "azartaĠ": 1476,
      "lyĠ": 1477,
      "ĠáĮİ": 1478,
      "rist": 1479,
      "oun": 1480,
      "daĠm": 1481,
      "áĪĺáĪŃ": 1482,
      "shindiĠwaĠ": 1483,
      "ľáĪªáĬ«": 1484,
      "ile-": 1485,
      "inuĠ": 1486,
      "kub": 1487,
      "ĠáĪ³áĭŃ": 1488,
      "iĠ(": 1489,
      "bayanĠ": 1490,
      "withĠ": 1491,
      "istor": 1492,
      "arÃ¡Ġ": 1493,
      "Yor": 1494,
      "Jan": 1495,
      "ĠáĬ¥áĬķáĭ³": 1496,
      "áĬķáĭ³": 1497,
      "ĠáĭĭáĬĵ": 1498,
      "Mat": 1499,
      "ĠáĬ®": 1500,
      "oĠk": 1501,
      "yÃŃĠ": 1502,
      "áĮĨ": 1503,
      "ĠáīłáĪļ": 1504,
      "áĭ²áĪµ": 1505,
      "hal": 1506,
      "umĠ": 1507,
      "ya": 1508,
      ".áĬł": 1509,
      "13": 1510,
      "kir": 1511,
      "ivers": 1512,
      "ourĠ": 1513,
      "áĮįáĪŃ": 1514,
      "ĠáĪĺáĬķ": 1515,
      "ĠáĪĺáĪµ": 1516,
      "Nijer": 1517,
      "áī·": 1518,
      "Afir": 1519,
      "kus": 1520,
      "ikaĠm": 1521,
      "aus": 1522,
      "ezaĠ": 1523,
      "chĠ": 1524,
      "in,Ġ": 1525,
      "ashinĠ": 1526,
      "antaĠ": 1527,
      "áĮłáĪŃ": 1528,
      "gbÃł": 1529,
      "kasanceĠ": 1530,
      "aid": 1531,
      "BaadaĠ": 1532,
      "Ġáī¤áī°": 1533,
      "yanĠ": 1534,
      "ia": 1535,
      "Ġáį¢": 1536,
      "waj": 1537,
      "áĭĿáī¥": 1538,
      "áĪĭáĭŃ": 1539,
      "itt": 1540,
      "inĠtheĠ": 1541,
      "áĮĪáĬĺ": 1542,
      "WaliofarikiĠ": 1543,
      "org": 1544,
      "fromĠ": 1545,
      "paĠ": 1546,
      "Wak": 1547,
      "áĪĿĠáīł": 1548,
      "Ok": 1549,
      "Ã¹n": 1550,
      "áįĸ": 1551,
      "ká»įĠ": 1552,
      "far": 1553,
      "Ãłwá»įn": 1554,
      "embaĠ": 1555,
      "pe": 1556,
      "oll": 1557,
      "sun": 1558,
      "shindiĠwaĠTuzoĠyaĠNobelĠ": 1559,
      "omaĠ": 1560,
      "ĠáĪģáĪī": 1561,
      "PapaĠ": 1562,
      "ili": 1563,
      "iláº¹ÌĢĠ": 1564,
      "iá¹£áº¹ÌģĠ": 1565,
      "Ġáĭ¨áĪĨ": 1566,
      "aisĠ": 1567,
      "parĠ": 1568,
      "192": 1569,
      "omb": 1570,
      "áĭī": 1571,
      "pÃ©Ġ": 1572,
      "cr": 1573,
      "anaĠnaĠ": 1574,
      "yaĠk": 1575,
      "ĠáįĬ": 1576,
      "sonĠ": 1577,
      "cl": 1578,
      "Ġ:": 1579,
      "tÃł": 1580,
      "áĬŀ": 1581,
      "se": 1582,
      "osĠ": 1583,
      "láº¹Ìģ": 1584,
      "ÆĻwall": 1585,
      "ageĠ": 1586,
      "JiharĠ": 1587,
      "Ã¬w": 1588,
      "New": 1589,
      "atuk": 1590,
      "olÃ³": 1591,
      "bu": 1592,
      "Ã¨n": 1593,
      "ĠáĬłáĪĿ": 1594,
      "yinĠ": 1595,
      "áĮĢáĪĺáĪªáĭ«": 1596,
      "189": 1597,
      "er,Ġ": 1598,
      "Ġáĭ¨áĪĿ": 1599,
      "nam": 1600,
      "ogr": 1601,
      "aleĠ": 1602,
      "áĪŃáĪµáī²": 1603,
      "jer": 1604,
      ",00": 1605,
      "kaĠ": 1606,
      "áĪĨáĬĲ": 1607,
      "ari": 1608,
      "ĠM": 1609,
      "wad": 1610,
      "pÃŃnláº¹ÌĢĠ": 1611,
      "ĠáĪĺáĭ°áī¥": 1612,
      "à¤": 1613,
      "hak": 1614,
      "ontĠ": 1615,
      "Ã©-": 1616,
      "Tanz": 1617,
      "má»įÌĢĠ": 1618,
      "áĪ«áĭĬ": 1619,
      "Afric": 1620,
      "--": 1621,
      "alikuwaĠ": 1622,
      "soĠ": 1623,
      "Ã²r": 1624,
      "ien": 1625,
      "aniaĠ": 1626,
      "akar": 1627,
      "Ġáĭ¨áĬłáĪĽáĪŃáĬĽĠáĪĿáĪ³áĪĮĠáĬĲáĭįáį¢ĠáīµáĪŃáĮīáĪĻĠáĭ«áĪįáī°áī°áĪ¨áĮİáĪĺĠáĪĿáĪ³áĪĮĠáī°áĪ¨áīµáĬĵĠáĪĿáĪ³áĪĮ": 1628,
      "shugab": 1629,
      "It": 1630,
      "farkoĠ": 1631,
      "ĠáĪ°áĭİáī½": 1632,
      "awá»įnĠ": 1633,
      "anĠhaifeĠ": 1634,
      "dagaĠcikinĠ": 1635,
      "ath": 1636,
      "Ġ3": 1637,
      "Ki": 1638,
      "ayiĠ": 1639,
      "kÃ³": 1640,
      "áī½áį¢": 1641,
      "ogb": 1642,
      "ÃĪ": 1643,
      "gaĠwatanĠ": 1644,
      ").ĠM": 1645,
      "ancinĠ": 1646,
      "Ã¡n": 1647,
      "birninĠ": 1648,
      "alaĠ": 1649,
      "Ġáī¦": 1650,
      "ĠáĬĲáĮĪáĪŃ": 1651,
      "shekararĠ201": 1652,
      "áįİ": 1653,
      "ru": 1654,
      "fĠ": 1655,
      "wenyeĠ": 1656,
      "ri": 1657,
      "uĠmwakaĠ": 1658,
      "lÃ©Ġ": 1659,
      "asar": 1660,
      "Ġáīłáĭĺ": 1661,
      "o-": 1662,
      "El": 1663,
      "ajiĠ": 1664,
      "=Ġ": 1665,
      "Ãł.": 1666,
      "áĬķáĮįáĪĬáĭĿ": 1667,
      "te": 1668,
      "per": 1669,
      "orÃŃláº¹ÌĢ-Ã¨dÃ¨Ġ": 1670,
      "áī°áĭį": 1671,
      "Ġáī°áĪĺ": 1672,
      "áī¦áī½": 1673,
      "áĪĿáį¢": 1674,
      "es.": 1675,
      "di": 1676,
      "auk": 1677,
      "áĮ¸": 1678,
      "gu": 1679,
      "áīµĠáĭ¨": 1680,
      "yak": 1681,
      "aziĠ": 1682,
      "AfrikaĠ": 1683,
      "káº¹": 1684,
      "áĬķĠáĬł": 1685,
      "asi": 1686,
      "áį¥": 1687,
      "gr": 1688,
      "aul": 1689,
      "áĮłáīĢ": 1690,
      "ÆĻwallonĠ": 1691,
      "inger": 1692,
      "kul": 1693,
      "piaĠ": 1694,
      "áĪĽáĪª": 1695,
      "cor": 1696,
      "tion": 1697,
      "ĠáīĨ": 1698,
      "Ak": 1699,
      "teĠ": 1700,
      "Ġáĭ¨áĪļáĮĪáĬĿ": 1701,
      "uĠnaĠ": 1702,
      "kut": 1703,
      "ayanĠ": 1704,
      "shiĠneĠ": 1705,
      "Ing": 1706,
      "man": 1707,
      "aĠkwaĠ": 1708,
      "yar": 1709,
      "ĠáĭĵáĪĺáīµ": 1710,
      "áĪ¨áĭį": 1711,
      "ĠáĭĵáĪĿ": 1712,
      "sÃ¬": 1713,
      "Ã©t": 1714,
      "daĠkeĠ": 1715,
      "oá¹£Ã¹Ġ": 1716,
      "áĮĵ": 1717,
      "áĭŀ": 1718,
      "alinĠ": 1719,
      "ĠáĬª": 1720,
      "áį£Ġáĭ¨": 1721,
      "ÃĢwá»įn": 1722,
      "áĮįáī¥": 1723,
      "190": 1724,
      "1.": 1725,
      "esh": 1726,
      "ouĠ": 1727,
      "CĠ": 1728,
      "Gu": 1729,
      "oriĠ": 1730,
      "iss": 1731,
      "ilaĠ": 1732,
      "ĠáĪĿáĬŃ": 1733,
      "Joh": 1734,
      "Com": 1735,
      "áĬ¢": 1736,
      "áĭ±áĪµ": 1737,
      "áĬķĠáīł": 1738,
      "add": 1739,
      "kÃ²Ġ": 1740,
      "ĠáĬ¥áĭ¨": 1741,
      "kung": 1742,
      "ĠáĪĺáĭ°áī¥Ġ:": 1743,
      "thatĠ": 1744,
      "Éĵ": 1745,
      "iliy": 1746,
      ".ĠItokasiĠ": 1747,
      "aikiĠ": 1748,
      ".áĬ¤": 1749,
      "áĪĭáĬķáĭµ": 1750,
      "áĬĸáī½": 1751,
      "ser": 1752,
      "áįĴ": 1753,
      "All": 1754,
      "saĠ": 1755,
      "ationalĠ": 1756,
      "zamaĠ": 1757,
      "Univers": 1758,
      "pos": 1759,
      "ahus": 1760,
      "0.": 1761,
      "Ã¬yÃłnĠ": 1762,
      "abiĠ": 1763,
      "iiĠin": 1764,
      "ĠáĪĭ": 1765,
      "antarĠ": 1766,
      "áĮĮ": 1767,
      "áĭ³áĬķ": 1768,
      "º¸": 1769,
      "áĬ¥áĬķ": 1770,
      "áĮ¨áĪ¨": 1771,
      "latiĠ": 1772,
      "Ġáīĥ": 1773,
      "OĠ": 1774,
      "ear": 1775,
      "akiĠ": 1776,
      "tor": 1777,
      "áī³áī¸áĭį": 1778,
      "áĬłáī¥": 1779,
      "áīµĠáīł": 1780,
      "ask": 1781,
      "karat": 1782,
      "ile-edeĠ": 1783,
      "ris": 1784,
      "ju": 1785,
      "a)Ġ": 1786,
      "oĠ(": 1787,
      "áĭŃáĪħ": 1788,
      "waĠnaĠ": 1789,
      "1,Ġ": 1790,
      "ĠáĪĺáĬ«": 1791,
      "int": 1792,
      "ambaĠ": 1793,
      "tern": 1794,
      "aĠM": 1795,
      "áĮ¦": 1796,
      "áĪ¨áĮĥ": 1797,
      "áĪ¨áĬķ": 1798,
      "alÃ¡": 1799,
      "pá»įÌĢĠ": 1800,
      "ool": 1801,
      "áĪĿáĬĵ": 1802,
      "ĠáĪĲ": 1803,
      "peĠ": 1804,
      "iqu": 1805,
      "ko": 1806,
      "áº¹Ìģg": 1807,
      "IĠ": 1808,
      "alaĠh": 1809,
      "tunĠ": 1810,
      "way": 1811,
      "ĠáĬ¨áĬł": 1812,
      "TaĠ": 1813,
      "lugh": 1814,
      "áĪĪáĭ«": 1815,
      "arg": 1816,
      "áī°áĪŃ": 1817,
      "Ġáī°áīĢ": 1818,
      "lá»į": 1819,
      "ern": 1820,
      "nchiĠ": 1821,
      "ĠáĬĲáīłáĪ¨": 1822,
      "ÆĻaf": 1823,
      "áĭįĠáĭ¨": 1824,
      "ra": 1825,
      "áīµáĬĵ": 1826,
      "bÃ¡": 1827,
      "áĮĪáĭµ": 1828,
      "áīĨáĮ£": 1829,
      "aĠn": 1830,
      "kiĠ": 1831,
      "ĠáĪĨáĬĸ": 1832,
      "Afirk": 1833,
      "kan": 1834,
      "on,Ġ": 1835,
      "áĪĺáĬĵ": 1836,
      "ĠáīłáĪµ": 1837,
      "áĪ¨áĭ³": 1838,
      "Ac": 1839,
      "intaĠ": 1840,
      "manĠ": 1841,
      "ĠáīłáĬ¢áīµáĭ®áĮµáĭ«": 1842,
      "iriĠ": 1843,
      ".áĬ¤.áĬł": 1844,
      "risto": 1845,
      "cewaĠ": 1846,
      "oth": 1847,
      "áĬĲáĭļáĪħ": 1848,
      "ominĠ": 1849,
      "áĪĺáĪµ": 1850,
      "áĪĶáĪŃ": 1851,
      "tsak": 1852,
      "fic": 1853,
      "áīħáĪĿ": 1854,
      "áĪĽáĭĬ": 1855,
      "oteĠ": 1856,
      "ĠáĬĵáī¸áĭįáį¢": 1857,
      "áĪ°áī¥": 1858,
      "olaĠ": 1859,
      "ubl": 1860,
      "ĠáĪ´": 1861,
      "Ġáįķ": 1862,
      "ráº¹ÌĢ": 1863,
      "ĠS": 1864,
      "gir": 1865,
      "NÃŃ": 1866,
      "áīª": 1867,
      "i.Ġ": 1868,
      "ĠáĭĺáĬķáĭµ": 1869,
      "MakalaĠh": 1870,
      "hukum": 1871,
      "iiĠinahus": 1872,
      "Gr": 1873,
      "páº¹ÌĢ": 1874,
      "áĪ°áĭį": 1875,
      "ÆĻwallonĠÆĻaf": 1876,
      "MakalaĠhiiĠinahus": 1877,
      "áįħ": 1878,
      "Ġáĭ¨áĪ°": 1879,
      "áĮĪáĬĻ": 1880,
      "MakalaĠhiiĠinahusuĠmwakaĠ": 1881,
      "ĠáĮ¨": 1882,
      "yawanĠ": 1883,
      "kÃł": 1884,
      "ĠáĬłáī¥": 1885,
      "Ġáī£áĪĪ": 1886,
      "ĠáĮĢáĪĿáĪ®": 1887,
      "uĠdaĠ": 1888,
      "Rom": 1889,
      "Ã©eĠ": 1890,
      "shindiĠwaĠTuzoĠyaĠNobelĠyaĠ": 1891,
      "Ġáī¤áīµ": 1892,
      "gbeĠ": 1893,
      "maĠ": 1894,
      "ManazartaĠ": 1895,
      "icalĠ": 1896,
      "áĭ¥": 1897,
      "kÃŃĠ": 1898,
      "ĠáĪ«": 1899,
      "áĮ½áĪĲ": 1900,
      "Ġáĭ«áĪĪ": 1901,
      "eur": 1902,
      "dakeĠ": 1903,
      "abaĠ": 1904,
      "eyĠ": 1905,
      "mÃ¡": 1906,
      "áĪŃáĪ±": 1907,
      ").ĠMatuk": 1908,
      "Ġáįĵ": 1909,
      "áĬķĠáĬ¨": 1910,
      "áįĬáīµ": 1911,
      "ehem": 1912,
      "1-": 1913,
      "ishaĠ": 1914,
      "dÃ¡": 1915,
      "ĠáĬ¢áīµáĭ®áĮµáĭ«": 1916,
      "sukaĠ": 1917,
      "sĠ(": 1918,
      "eriaĠ": 1919,
      "yÃ¬nĠ": 1920,
      "yaĠKristo": 1921,
      "Ã¨nÃ¬yÃłnĠ": 1922,
      "ma": 1923,
      "Jul": 1924,
      "ĠáĬłáī£": 1925,
      "aniĠdaĠ": 1926,
      "ĠáĮ¦áĪŃ": 1927,
      "faraĠ": 1928,
      "lak": 1929,
      "mar": 1930,
      "sp": 1931,
      "ouv": 1932,
      "atif": 1933,
      "oci": 1934,
      "amp": 1935,
      "kasarĠ": 1936,
      "Tur": 1937,
      "yaĠKristo).ĠMatuk": 1938,
      "lokacinĠ": 1939,
      "wamn": 1940,
      "Ġ(BaadaĠ": 1941,
      "áĭ¨áĪŃ": 1942,
      "Ġáĭ«áĪĪáĭį": 1943,
      "áī¡áī¥": 1944,
      "Nigeri": 1945,
      "anciĠ": 1946,
      "ĠáĬłáĮĪáĪŃ": 1947,
      "yÃ¬ÃŃĠ": 1948,
      "wannanĠ": 1949,
      "ĠáĮ¸": 1950,
      "Ġ(BaadaĠyaĠKristo).ĠMatuk": 1951,
      "han": 1952,
      "orile-edeĠ": 1953,
      "Ã²á¹£Ã¨": 1954,
      "quiĠ": 1955,
      "Ġáī¥áī»": 1956,
      "uwanĠ": 1957,
      "ept": 1958,
      "áĪĿĠáĭ¨": 1959,
      "zin": 1960,
      "áī£áĪĪ": 1961,
      "weng": 1962,
      "gbÃ©": 1963,
      "áĬ¤áĪį": 1964,
      "Ġáī°áĭĪ": 1965,
      "hisĠ": 1966,
      "Wa": 1967,
      "anoĠ": 1968,
      "emi": 1969,
      "áĪłáĪ¨": 1970,
      "uku": 1971,
      "áĪįáĮ£": 1972,
      "Ø§": 1973,
      "uat": 1974,
      "\".": 1975,
      "ĥáĭŃ": 1976,
      "Ùİ": 1977,
      "áĭĭáĪį": 1978,
      "Ã¬l": 1979,
      "sak": 1980,
      "ĠáĪĺáĪį": 1981,
      "shig": 1982,
      "ananĠ": 1983,
      "áį£Ġáīł": 1984,
      "Ã¬á¹£": 1985,
      "áĪīáīµ": 1986,
      "nÃŃĠá»įdÃºnĠ": 1987,
      "áī³áĪįáį¢": 1988,
      "áĪĭáī¸áĭį": 1989,
      "báº¹ÌĢ": 1990,
      "stĠ": 1991,
      "eĠofĠ": 1992,
      "niĠm": 1993,
      "Far": 1994,
      "kud": 1995,
      "enc": 1996,
      "ĠáĬ¦": 1997,
      "0,Ġ": 1998,
      "Vi": 1999,
      "áĪĿĠáĬ¨": 2000,
      "ninuĠ": 2001,
      "yankinĠ": 2002,
      "ustr": 2003,
      "res": 2004,
      "fit": 2005,
      "Ġáī°áĬ¨": 2006,
      "akw": 2007,
      "pam": 2008,
      "Mal": 2009,
      "inĠk": 2010,
      "utaneĠ": 2011,
      "Sch": 2012,
      "jáº¹Ìģ": 2013,
      "idanĠ": 2014,
      "Ġ\"": 2015,
      "comm": 2016,
      "otĠ": 2017,
      "ast": 2018,
      "fi": 2019,
      "ilikuwaĠ": 2020,
      "2.": 2021,
      "Col": 2022,
      "áį²áį±áį»áį": 2023,
      "tÃºnĠ": 2024,
      ")ĠjeĠ": 2025,
      "ĠáĬ¥áĬķáĭ²áĪģ": 2026,
      "emberĠ": 2027,
      "ianĠ": 2028,
      "Dun": 2029,
      "kubwaĠ": 2030,
      "ray": 2031,
      "áĬħ": 2032,
      "2019": 2033,
      "ÆĻar": 2034,
      "áĭįáĪ®": 2035,
      "lin": 2036,
      "babbanĠ": 2037,
      "ous": 2038,
      "ĠáĬ¥.áĬ¤.áĬł": 2039,
      "áĭµáĬķ": 2040,
      "abar": 2041,
      "áĪļáĭ«": 2042,
      "ÙĦ": 2043,
      "tÃŃ": 2044,
      "Tr": 2045,
      "tel": 2046,
      "ĠáīģáĮ¥áĪŃ": 2047,
      "ardĠ": 2048,
      "Ben": 2049,
      "okoĠ": 2050,
      "Ã¨r": 2051,
      "saiĠ": 2052,
      "ia,Ġ": 2053,
      "Ingil": 2054,
      "isaĠ": 2055,
      "tÃ¬Ġ": 2056,
      "form": 2057,
      "2,Ġ": 2058,
      "uniĠ": 2059,
      "wÃ¡": 2060,
      "5,Ġ": 2061,
      "ĠáĪī": 2062,
      "rit": 2063,
      "ĠáĪ¥áĪŃ": 2064,
      "Ed": 2065,
      "6,Ġ": 2066,
      "deĠl'": 2067,
      "i'arĠ": 2068,
      "Ġ(BaadaĠyaĠKristo).ĠMatukioĠ": 2069,
      "hur": 2070,
      "we": 2071,
      "Con": 2072,
      "angu": 2073,
      "áĬĵáĪį": 2074,
      "Ġáĭ¨áĪĨáĬĲ": 2075,
      "uwan": 2076,
      "ait": 2077,
      "tan": 2078,
      "ÉĹanĠ": 2079,
      "Ġáĭ®": 2080,
      "jáº¹Ġ": 2081,
      "andeĠ": 2082,
      "já»įĠ": 2083,
      "idaĠ": 2084,
      "ia.": 2085,
      "jama'": 2086,
      "áĪ¥áī³áīµ": 2087,
      "ahar": 2088,
      "00Ġ": 2089,
      "dar": 2090,
      "ĠáĭĪáĬķ": 2091,
      "áĪŃáĬŃ": 2092,
      "ĠáĮ£": 2093,
      "Har": 2094,
      "Ind": 2095,
      "a:Ġ": 2096,
      "ĠáīłáĪĿ": 2097,
      "áī¢áĭ«": 2098,
      "gl": 2099,
      "ĠáĬłáīł": 2100,
      "ne,Ġ": 2101,
      "aĠshekararĠ": 2102,
      "aĠranarĠ": 2103,
      "ww": 2104,
      "áĬķĠáĭ«": 2105,
      "ajalis": 2106,
      "samuĠ": 2107,
      "kÃ³Ġ": 2108,
      "áĬ¦": 2109,
      "Le": 2110,
      "ord": 2111,
      "omoĠ": 2112,
      "áĮ¨áĪ¨áĪ»": 2113,
      "áº¹Ìģgáº¹ÌģĠ": 2114,
      "áĮłáĪ«": 2115,
      "ĠáĪĺáĭ°áī¥Ġ:Ġáī°áĪ¨áīµáĬĵĠáĪĿáĪ³áĪĮ": 2116,
      "áĮ¤": 2117,
      "áĭµáĪĿ": 2118,
      "arab": 2119,
      "5.": 2120,
      "ĠáĭµáĪŃ": 2121,
      "pÃł": 2122,
      "ĠáĪľ": 2123,
      "áĬķĠáĪĺ": 2124,
      "áīµĠáĪĺ": 2125,
      "ĠáĬ¨áįį": 2126,
      "Muh": 2127,
      "eneoĠ": 2128,
      "BK": 2129,
      "anĠk": 2130,
      "4.": 2131,
      "Ray": 2132,
      "8,Ġ": 2133,
      "gud": 2134,
      "jÃ¡": 2135,
      "enceĠ": 2136,
      "gbÃ©Ġ": 2137,
      "iĠyaĠm": 2138,
      "7,Ġ": 2139,
      "Wat": 2140,
      "iluĠ": 2141,
      "bal": 2142,
      "Ġáī¡": 2143,
      "ĠáĪĺáĬ«áĬ¨áĪį": 2144,
      "Ġá»įjá»įÌģĠ": 2145,
      "áĬķáĬĵ": 2146,
      "áĬķĠáĭ¨": 2147,
      "ĠáīłáĪĭáĭŃ": 2148,
      "áĭİáī¹": 2149,
      "eheĠ": 2150,
      "sĠofĠ": 2151,
      "áĮįáĭļ": 2152,
      "áº¹Ìģr": 2153,
      "ĠáīłáĭĺáĪĺáĬĲ": 2154,
      "áĬķáĮī": 2155,
      "in.": 2156,
      "akinĠ": 2157,
      "oyinĠ": 2158,
      "áĪĺáĪĪ": 2159,
      "áĬ³": 2160,
      "tiĠoĠ": 2161,
      "iseĠ": 2162,
      "NÃłÃ¬jÃŃrÃŃÃłĠ": 2163,
      "wasanĠÆĻwallonĠÆĻaf": 2164,
      "Ãª": 2165,
      "á»įbaĠ": 2166,
      "vi": 2167,
      "ĠáīłáĪ°": 2168,
      "ichĠ": 2169,
      "hany": 2170,
      "ojaĠnaĠ": 2171,
      "anninĠ": 2172,
      "kal": 2173,
      "NewĠ": 2174,
      "isiwaĠ": 2175,
      "4,Ġ": 2176,
      "rub": 2177,
      "áī¥áĪ¨": 2178,
      "áīħáĪŃ": 2179,
      "ĠáĬŃáįįáĪĪ": 2180,
      "KarneĠyaĠ": 2181,
      "6.": 2182,
      "MarekaniĠ": 2183,
      "áĪĽáĭŃ": 2184,
      "áĪħáĪį": 2185,
      "âĢľ": 2186,
      "be": 2187,
      "terĠ": 2188,
      "7.": 2189,
      "Bir": 2190,
      "oul": 2191,
      "beĠ": 2192,
      "mentĠ": 2193,
      "ĠáĬ¥áĪµáĬ¨Ġ": 2194,
      "asheĠ": 2195,
      "jÃºĠ": 2196,
      "áĪĿáĪħáĪŃáīµ": 2197,
      "akanĠ": 2198,
      "afinĠ": 2199,
      "weny": 2200,
      "Ge": 2201,
      "iesĠ": 2202,
      "áĭŃáĭĪ": 2203,
      "irinĠ": 2204,
      "orinĠ": 2205,
      "áįĥ": 2206,
      "sik": 2207,
      "áīĦ": 2208,
      "ukĠ": 2209,
      "pourĠ": 2210,
      "nying": 2211,
      "mÃ©": 2212,
      "áīµáį¢": 2213,
      "treĠ": 2214,
      "Ġá»įjá»įÌģ": 2215,
      "áĬķáĮįáĪĬáĭĿáĬĽ": 2216,
      "de": 2217,
      "áº¹ÌģrÃŃ": 2218,
      "NĠ": 2219,
      "odĠ": 2220,
      "oniĠ": 2221,
      "kuf": 2222,
      "part": 2223,
      "áĬķĠáĭŃ": 2224,
      "ráº¹Ġ": 2225,
      "20Ġ": 2226,
      "a,Ġm": 2227,
      "áīĨáĮ£áĮłáĪŃ": 2228,
      "toĠtheĠ": 2229,
      "dansĠ": 2230,
      "At": 2231,
      "Um": 2232,
      "ĠáĪ½": 2233,
      "shenĠ": 2234,
      "yoĠ": 2235,
      "áĪµáī³": 2236,
      ").Ġ": 2237,
      "ÃĮpÃŃnláº¹ÌĢĠ": 2238,
      "ká»įÌĢ": 2239,
      "Amáº¹ÌģrÃŃ": 2240,
      "ĠâĢľ": 2241,
      "an.": 2242,
      "utaĠ": 2243,
      "Ġáī¦áī³": 2244,
      "aliy": 2245,
      "áĮįáĭļáĬłáī¥": 2246,
      "ousĠ": 2247,
      "ĠáĬłáĪŃ": 2248,
      "áĭįáį¢": 2249,
      "áī¥áĪ«": 2250,
      "áĮģ": 2251,
      "ber": 2252,
      "kamaĠ": 2253,
      "adh": 2254,
      "i-": 2255,
      "Em": 2256,
      "Janu": 2257,
      "arĠm": 2258,
      "ect": 2259,
      "ikoĠ": 2260,
      "rel": 2261,
      "kej": 2262,
      "saur": 2263,
      "ireĠ": 2264,
      "dig": 2265,
      "kwan": 2266,
      "aĠmaiĠ": 2267,
      "siy": 2268,
      "aph": 2269,
      "Amur": 2270,
      "áĬŀáī½": 2271,
      "za": 2272,
      "3.": 2273,
      "shineĠ": 2274,
      "lÃ¨Ġ": 2275,
      "na": 2276,
      "ĠáĬĲáīłáĪ©": 2277,
      "ashenĠ": 2278,
      "áĪµáĬĵ": 2279,
      "sy": 2280,
      "áĭ¬": 2281,
      "áĮĨáī½": 2282,
      "po": 2283,
      "áĪ³áīµ": 2284,
      "bi": 2285,
      "Ãły": 2286,
      "Ġáĭ¨áīĢ": 2287,
      "Ġáī°áī¥": 2288,
      "áĪŃáĪµáī²áĭ«áĬķ": 2289,
      "asoĠ": 2290,
      "iqueĠ": 2291,
      "wasuĠ": 2292,
      "ÃĮt": 2293,
      "aĠmwakaĠwaĠ": 2294,
      "Ġáīħáĭ±áĪµ": 2295,
      "ÃŃá¹£": 2296,
      "acc": 2297,
      "áĭķáĪ«": 2298,
      "wor": 2299,
      "ÃŃr": 2300,
      "UniversityĠ": 2301,
      "188": 2302,
      "Nov": 2303,
      "tp": 2304,
      "ishiĠ": 2305,
      "3,Ġ": 2306,
      "ki": 2307,
      "dayaĠ": 2308,
      "str": 2309,
      "áĮįáĭļáĬłáī¥áĪĶáĪŃ": 2310,
      "lat": 2311,
      "ĠáĭŃáĮĪáĬĽ": 2312,
      "fal": 2313,
      "y.": 2314,
      "InĠ": 2315,
      "ar,Ġ": 2316,
      "//": 2317,
      "kup": 2318,
      "³áĪµ": 2319,
      "áĪµáĪ«": 2320,
      "ishĠ": 2321,
      "kÃłĠ": 2322,
      "ilÃ©-": 2323,
      "edĠbyĠ": 2324,
      "Ġáĭĵ/áĪĿĠ-": 2325,
      "al'": 2326,
      "yáº¹Ġ": 2327,
      "adeĠ": 2328,
      "ĠáĪĿáĬŃáĬķáĭ«": 2329,
      "miĠ": 2330,
      "ĠáĪ¨": 2331,
      "sehem": 2332,
      "áĭ¶áī½": 2333,
      "ĠáĬ¨áĪĺ": 2334,
      "tit": 2335,
      "áĪº": 2336,
      "ĠáīłáĭļáĪħ": 2337,
      "áī£áĪĪáĭį": 2338,
      "áĮ¥áĬķ": 2339,
      "Shugab": 2340,
      "harĠ": 2341,
      "kungiyarĠ": 2342,
      "ĠáĬłáĪī": 2343,
      "min": 2344,
      "á»įÌģkas": 2345,
      "áĮ£áĪį": 2346,
      "ne": 2347,
      "aĠkanĠ": 2348,
      "Ãł,Ġ": 2349,
      "sin": 2350,
      "wÃ¡Ġ": 2351,
      "Ãłm": 2352,
      "áī¤áīµ": 2353,
      "Par": 2354,
      "ueĠ": 2355,
      "wandaĠyaĠ": 2356,
      "wasanĠÆĻwallonĠÆĻafaĠtaĠ": 2357,
      "tiv": 2358,
      "áĬķáĬķ": 2359,
      "iteĠ": 2360,
      "Ã¬r": 2361,
      "ust": 2362,
      "Ãºr": 2363,
      "Cl": 2364,
      "daĠakaĠ": 2365,
      "áĮĪáĬĵ": 2366,
      "áĮįáĪ«": 2367,
      "odaĠ": 2368,
      "aim": 2369,
      "Ġáĭ¨áĭĪ": 2370,
      "biyuĠ": 2371,
      "áĬŃáīµ": 2372,
      ")Ġ(": 2373,
      "ras": 2374,
      "aun": 2375,
      "dab": 2376,
      "http": 2377,
      "jiĠ": 2378,
      "://": 2379,
      "gam": 2380,
      "Ã¬m": 2381,
      "áĮĪáī£": 2382,
      "obaĠ": 2383,
      "oĠvyaĠ": 2384,
      "ajiĠwaĠ": 2385,
      "si": 2386,
      "wasanĠÆĻwallonĠÆĻafaĠtaĠÆĻasarĠ": 2387,
      "áį¦Ġ": 2388,
      "Ãłw": 2389,
      "Ġáĭ¨áĬĲáīłáĪ¨": 2390,
      "páº¹ÌĢlÃºĠ": 2391,
      "tun": 2392,
      "ba": 2393,
      "ĠáĬ¥.áĬ¤.áĬł.": 2394,
      "Ken": 2395,
      "gáº¹Ìģgáº¹ÌģĠ": 2396,
      "áĬĴáĭ«": 2397,
      "istr": 2398,
      "áī³áĭŃ": 2399,
      "ĠáĬŃáįįáĪį": 2400,
      "áĬĸáĪŃ": 2401,
      "Ay": 2402,
      "laĠm": 2403,
      "Ġáº¹gb": 2404,
      "Muhamm": 2405,
      "áĪľáĬķ": 2406,
      "8.": 2407,
      "atur": 2408,
      "Ġáĭ²": 2409,
      "eleĠ": 2410,
      "uaĠ": 2411,
      "ĠáĪŃ": 2412,
      "ĠáĭŃáī£": 2413,
      "ungiyarĠ": 2414,
      "mon": 2415,
      "otoĠ": 2416,
      "Apr": 2417,
      "ani.": 2418,
      "áĪĪáī°": 2419,
      "iya": 2420,
      "ĠáĬłáĬ«áī£áī¢": 2421,
      "wand": 2422,
      "kÃ©": 2423,
      "Austr": 2424,
      "ĠáĬ¥áĬķáĮį": 2425,
      "áĭ°áĪ¨áĮĪ": 2426,
      "áĮ½áĪĲáįį": 2427,
      "igb": 2428,
      "aĠkatikaĠ": 2429,
      "Are": 2430,
      "akwaiĠ": 2431,
      "Ġáįĸ": 2432,
      "ofinĠ": 2433,
      "ign": 2434,
      "Bur": 2435,
      "sannanĠ": 2436,
      "wakeĠ": 2437,
      "áĬķáį¡": 2438,
      "áĪ«áĪį": 2439,
      "yanz": 2440,
      "pin": 2441,
      "abil": 2442,
      "Ã¨t": 2443,
      "daĠd": 2444,
      "áī£áĭŃ": 2445,
      "eth": 2446,
      "áĪįáīħ": 2447,
      "ilÃ©Ġ": 2448,
      "ĠáĬłáīĨáĮ£áĮłáĪŃ": 2449,
      "ail": 2450,
      "iĠkwaĠ": 2451,
      "Feb": 2452,
      "iraĠ": 2453,
      "AĠcikinĠ": 2454,
      "land": 2455,
      "Awar": 2456,
      "Im": 2457,
      "áĬķáĮĭ": 2458,
      "áĮĪáĬķ": 2459,
      "ĠáĬłáĬķáĭ±": 2460,
      "gbogb": 2461,
      "ká»į": 2462,
      "anĠhaifeĠshiĠ": 2463,
      "loĠ": 2464,
      "áĪ¨áĮį": 2465,
      "Ġ(BaadaĠyaĠKristo).ĠMatukioĠWaliozaliwaĠ": 2466,
      "autarĠ": 2467,
      "ajalisarĠ": 2468,
      "olÃ¹": 2469,
      "jin": 2470,
      "Ph": 2471,
      "ialĠ": 2472,
      "áĪŃáĭĿ": 2473,
      "áĮłáīĥ": 2474,
      "ĠáĮįáĭĽáīµ": 2475,
      "eluĠ": 2476,
      "lim": 2477,
      "ĠáĬ¥áĭ«": 2478,
      "Gre": 2479,
      "áīĢáĪŃ": 2480,
      "áįĪáĪŃ": 2481,
      "pamojaĠnaĠ": 2482,
      "an-": 2483,
      "áĭµáĪŀ": 2484,
      "áī³áĪį": 2485,
      "'Ġ": 2486,
      "LeĠ": 2487,
      "áĮĪáĪĪ": 2488,
      "Ã©sĠ": 2489,
      "Sept": 2490,
      "áĮİáĪŃ": 2491,
      "ĠáĬ¨áī°áĪŀáī½": 2492,
      "Ġá»įmá»į": 2493,
      "ĠáĬłáĪĭ": 2494,
      "umm": 2495,
      "sÃ¡": 2496,
      "áįĢ": 2497,
      "áį£ĠáĬ¨": 2498,
      "ĠáĬ¥áĬķáĭ°áĪļ": 2499,
      "je": 2500,
      "áĭŃáĬĵ": 2501,
      "áīµáĪŃ": 2502,
      "acceĠ": 2503,
      "itedĠ": 2504,
      "TanzaniaĠ": 2505,
      "igh": 2506,
      "Om": 2507,
      "ĠáĪ¶": 2508,
      "áĭ°áīµ": 2509,
      "ĠáĬĥáĭŃ": 2510,
      "oreĠ": 2511,
      "shugabanĠ": 2512,
      "Haus": 2513,
      "\",Ġ": 2514,
      "Lag": 2515,
      "plusĠ": 2516,
      "dr": 2517,
      "Bl": 2518,
      "atifuĠ": 2519,
      "Histor": 2520,
      "iaĠyaĠ": 2521,
      "áĬĺ": 2522,
      "50": 2523,
      "Ġáº¸": 2524,
      "ahaif": 2525,
      "zab": 2526,
      "áī¥áĪµ": 2527,
      "áĪĽáĬĸ": 2528,
      "Nai": 2529,
      "Bar": 2530,
      "Fas": 2531,
      "iaĠm": 2532,
      "ĠáĭŃáī½": 2533,
      "fl": 2534,
      "ĠáĪĽáĪŃ": 2535,
      "ĠáĪģáĪĪáīµ": 2536,
      "áĪĪáĭ«áĭ©": 2537,
      "Nor": 2538,
      "al-": 2539,
      "alam": 2540,
      "entsĠ": 2541,
      "kumaĠtaĠ": 2542,
      "Ob": 2543,
      "áĪı": 2544,
      "áĪĳ": 2545,
      "áĪ°áĪ«": 2546,
      "Sp": 2547,
      "kur": 2548,
      "port": 2549,
      "áīµĠáĬ¨": 2550,
      "daĠk": 2551,
      "Febru": 2552,
      "Ġ/": 2553,
      "Jami'arĠ": 2554,
      "áĬ¬": 2555,
      "áĬŃáĪµ": 2556,
      "ĠáĭĺáĪĺ": 2557,
      "uĠ(": 2558,
      "yĠofĠ": 2559,
      "the": 2560,
      "idĠ": 2561,
      "essĠ": 2562,
      "ĠáĪ¸": 2563,
      "oneĠ": 2564,
      "tÃłbÃŃĠ": 2565,
      "rik": 2566,
      "%Ġ": 2567,
      "ukoĠ": 2568,
      "RD": 2569,
      "bo": 2570,
      "ĠáĪĿáĬķáĮ": 2571,
      "áĭĸ": 2572,
      "Ġáī´": 2573,
      "Ġáĭ©": 2574,
      "kamarĠ": 2575,
      "allĠ": 2576,
      "áĭ¨áīµ": 2577,
      "gbÃ¡": 2578,
      "áĪĪáĭŃ": 2579,
      "ten": 2580,
      "ĠáĬłáīłáī£": 2581,
      "jiĠm": 2582,
      "Af": 2583,
      "woĠ": 2584,
      "ĠáĪĮáĪĭ": 2585,
      "atedĠ": 2586,
      "ationsĠ": 2587,
      "adar": 2588,
      "anj": 2589,
      "11": 2590,
      "Kat": 2591,
      "aikinĠ": 2592,
      "Og": 2593,
      "JohnĠ": 2594,
      "ĠáĭĪáīħ": 2595,
      "ĠáĭĺáĪĺáĬĲ": 2596,
      "e)Ġ": 2597,
      "riĠ": 2598,
      "5)Ġ": 2599,
      "wah": 2600,
      "gbaj": 2601,
      "yĠ(": 2602,
      "³áį": 2603,
      "áīµĠáĬł": 2604,
      "áĪĿáĪŃ": 2605,
      "áĪĺáĪ¨": 2606,
      "áĭ°áĪį": 2607,
      "-ĠM": 2608,
      "9.": 2609,
      "ohunĠ": 2610,
      "áī±áĪĿ": 2611,
      "ĠáĭĵáĪĺáī³áīµ": 2612,
      "ĠáĪĥáĭŃ": 2613,
      "fÃŃ": 2614,
      "ĠáĮ¦áĪŃáĬĲáīµ": 2615,
      "aÉĹ": 2616,
      "langu": 2617,
      "itsĠ": 2618,
      "Intern": 2619,
      "ukanĠ": 2620,
      "áĮįáī£": 2621,
      "ĠáĬ¥áĬĵĠáĭ¨": 2622,
      "Ãłd": 2623,
      "adiĠ": 2624,
      "áĪŃáĪĺáĬķ": 2625,
      "endel": 2626,
      "áĪįáĮį": 2627,
      "ĠáĪµáĪ«": 2628,
      "baĠdaĠ": 2629,
      "áĪªáĬ«áĭĬ": 2630,
      "á»Į": 2631,
      "aĠkas": 2632,
      "ownĠ": 2633,
      "ĠáĪµáĪŃ": 2634,
      "Ġáĭ¨áĪĺáĮĢáĪĺáĪªáĭ«": 2635,
      "9,Ġ": 2636,
      "egbeĠ": 2637,
      "aneĠ": 2638,
      "gwamn": 2639,
      "odunĠ": 2640,
      "ativ": 2641,
      "ĠáĪ²áĭ«": 2642,
      "chiĠ": 2643,
      "prÃ©": 2644,
      "yad": 2645,
      "zil": 2646,
      "bur": 2647,
      "li": 2648,
      "ĠáĬłáĭŃáĬĲáīµ": 2649,
      "ĠáĬłáĪ¨": 2650,
      "áĪĲáĬķáĪµ": 2651,
      "May": 2652,
      "finĠ": 2653,
      "kam": 2654,
      "dÃºnĠ": 2655,
      "aĠK": 2656,
      "Ġá»ĮÌĢ": 2657,
      "bug": 2658,
      "oph": 2659,
      "pol": 2660,
      "Ã¬bÃŃĠ": 2661,
      "rÃ©Ġ": 2662,
      "outĠ": 2663,
      "áĪĭáĪĪ": 2664,
      "áĮłáĪ¨": 2665,
      "wo": 2666,
      "hadiĠ": 2667,
      "âĢĺ": 2668,
      "áĪŃáĭµ": 2669,
      "áĪįáĭµ": 2670,
      "ĠáĬĲáīłáĪ¨áį¢": 2671,
      "áīłáī¥": 2672,
      "ĠáĭŃáī³": 2673,
      "áĭ®áĬķ": 2674,
      "akarĠ": 2675,
      "ĠáĭĽ": 2676,
      "áĭįĠáīł": 2677,
      "eseĠ": 2678,
      "comp": 2679,
      "Mag": 2680,
      "dÃŃ": 2681,
      "Viung": 2682,
      "whichĠ": 2683,
      "elleĠ": 2684,
      "kaw": 2685,
      "bayaĠ": 2686,
      "surĠ": 2687,
      "áĭĵáĪĪáĪĿ": 2688,
      "Pe": 2689,
      "leg": 2690,
      "áĪĿáį¡": 2691,
      "School": 2692,
      "ĠB": 2693,
      "áĬĲáĮĪáĪŃ": 2694,
      "Ġáį²áį±áį»áį": 2695,
      "áįįáĪ«": 2696,
      "áĭįáĪ®áįĵ": 2697,
      "jerum": 2698,
      "Ġá»įdunĠ": 2699,
      "ViungoĠvyaĠ": 2700,
      "ĠáĬ¥áĪŃ": 2701,
      "wur": 2702,
      "wacceĠ": 2703,
      "ĠáĭĪáĪŃ": 2704,
      "lakiniĠ": 2705,
      "ciĠgab": 2706,
      "astĠ": 2707,
      "Ãłká»įÌģ": 2708,
      "shekaruĠ": 2709,
      "ĠáĬĲáĮĪáĪ¥áī³áīµ": 2710,
      "ĠáĪłáĪ": 2711,
      "áĮĢáĪĺáĪŃáĭ«": 2712,
      "ĠáĪĮáĪİáī½": 2713,
      "tsakaninĠ": 2714,
      "ĠáĬ³áĪµ": 2715,
      "ĠáĬ¥áĮħ": 2716,
      "Naijir": 2717,
      "iyoĠ": 2718,
      "lÃ¡Ġ": 2719,
      "rah": 2720,
      "áĪĭáĪĿ": 2721,
      "kil": 2722,
      "weĠ": 2723,
      "utuĠ": 2724,
      "ĠáĪĽáĪµ": 2725,
      "andĠtheĠ": 2726,
      "nÃŃgbÃłĠ": 2727,
      "Gh": 2728,
      "ĠáĬ©": 2729,
      "ashiĠ": 2730,
      "19Ġ": 2731,
      "áĭĮ": 2732,
      "áīµáį£": 2733,
      "ĠáĪĽáĪĪáīµĠáĬĲáĭįáį¢": 2734,
      "uv": 2735,
      "ká»įÌģ": 2736,
      "aĠkar": 2737,
      "ihiĠ": 2738,
      "ingerezaĠ": 2739,
      "NigeriaĠ": 2740,
      "®áī½": 2741,
      "eĠdesĠ": 2742,
      "imuĠ": 2743,
      "báº¹ÌĢráº¹ÌĢĠ": 2744,
      "oĠlaĠ": 2745,
      "Wor": 2746,
      "ĠáĪĿáĭµáĪŃ": 2747,
      "Jap": 2748,
      "Americ": 2749,
      "nchiniĠ": 2750,
      "áĭ°áī¡áī¥": 2751,
      "áīłáĪĭ": 2752,
      "ĠáĪįáĭ©": 2753,
      "Kis": 2754,
      "Des": 2755,
      "amfaninĠ": 2756,
      "alikuwaĠm": 2757,
      "IS": 2758,
      "YorÃ¹": 2759,
      "Ã¬gbÃł": 2760,
      "watuĠ": 2761,
      "Fil": 2762,
      "áĬĵĠáĭ¨": 2763,
      "áĪªáĭİáī½": 2764,
      "áįĪáĪ¨áĬķ": 2765,
      "kuuĠwaĠ": 2766,
      "cinĠ": 2767,
      "http://": 2768,
      "áĪµáĪĪ": 2769,
      "áĮ£áĪĿ": 2770,
      "ItokasiĠÃĢwá»įnĠ": 2771,
      "Ur": 2772,
      "iceĠ": 2773,
      "Qu": 2774,
      "jinaĠ": 2775,
      "(200": 2776,
      "Hu": 2777,
      "Ul": 2778,
      "niĠÃ³Ġ": 2779,
      "uli": 2780,
      "áī¶áĪµ": 2781,
      "Ma": 2782,
      "katikaĠm": 2783,
      "ÃłrÃ¹nĠ": 2784,
      "áĬĵĠáīł": 2785,
      "Pol": 2786,
      "áº¹l": 2787,
      "Ah": 2788,
      "ĠáĪĿáĬķ": 2789,
      "Wá»įÌģnĠ": 2790,
      "4)Ġ": 2791,
      "ĠáĭķáĪĪáīµ": 2792,
      "BayanĠ": 2793,
      "wá»įÌģ": 2794,
      "Itokasi": 2795,
      "áīĢáīµ": 2796,
      "orn": 2797,
      "ubaĠ": 2798,
      "Ġáĭľ": 2799,
      "Ã¨yÃŃĠ": 2800,
      "uch": 2801,
      "ĠáĭĻ": 2802,
      "áĬ¨áĭļáĪħ": 2803,
      "eĠd'": 2804,
      "máº¹Ìģ": 2805,
      "áĭ²áĪµĠáĬłáīłáī£": 2806,
      "tÃ³": 2807,
      "áī²áĬ«": 2808,
      "áĮ¨áĪĽáĪª": 2809,
      "ÆĻas": 2810,
      "odh": 2811,
      "emiĠ": 2812,
      "laf": 2813,
      "áĭ«áĭį": 2814,
      "áĭĪáĭ°": 2815,
      "hanyarĠ": 2816,
      "mus": 2817,
      "ĠáĬłáĭį": 2818,
      "ilayaĠ": 2819,
      "itÃ©Ġ": 2820,
      "ym": 2821,
      "utĠ": 2822,
      "allyĠ": 2823,
      "áĭİáĪµ": 2824,
      "ongĠ": 2825,
      "avec": 2826,
      "daĠtaĠ": 2827,
      "iyyarĠ": 2828,
      "o.Ġ": 2829,
      "Ã©,Ġ": 2830,
      "arenĠ": 2831,
      "sc": 2832,
      "omin": 2833,
      "ogoĠ": 2834,
      "Musul": 2835,
      "áĪĭáīħ": 2836,
      "áĮ¢": 2837,
      "ĠáĪĽáĭķ": 2838,
      "Aug": 2839,
      "Min": 2840,
      "Sc": 2841,
      "áĪ¹": 2842,
      "Will": 2843,
      "6)Ġ": 2844,
      "Us": 2845,
      "haÉĹ": 2846,
      "Ujerum": 2847,
      "ingĠtheĠ": 2848,
      "aliaĠ": 2849,
      "áĬ¨áĪĪ": 2850,
      "Bo": 2851,
      "Was": 2852,
      "fer": 2853,
      ".ĠMan": 2854,
      "BabbanĠ": 2855,
      "ĠáīĥáĪį": 2856,
      "7)Ġ": 2857,
      "ort": 2858,
      "amfaniĠdaĠ": 2859,
      "ograph": 2860,
      "ith": 2861,
      "Ã§": 2862,
      "amil": 2863,
      "áĪĭáĭĬ": 2864,
      "Ġáī¥áĪİ": 2865,
      "Â«Ġ": 2866,
      "ĠáĬ¨áįįáī°áĬĽ": 2867,
      "Ã¡nĠ": 2868,
      "niĠnaĠ": 2869,
      "Leg": 2870,
      "atinĠ": 2871,
      "ĠáĬłáĪµáī°áĭ³": 2872,
      "vit": 2873,
      "okac": 2874,
      "tsoh": 2875,
      "uxĠ": 2876,
      "Ìģ": 2877,
      "aveĠ": 2878,
      "áĪĭáĬŃ": 2879,
      "áīłáĪį": 2880,
      "áĮįáĪŃĠáĬ³áĪµ": 2881,
      "Ã©n": 2882,
      "187": 2883,
      "auxĠ": 2884,
      "áĬ¢áīµáĭ®áĮµáĭ«": 2885,
      "|ĠRD": 2886,
      "lam": 2887,
      "tob": 2888,
      "Sal": 2889,
      "gar": 2890,
      "owĠ": 2891,
      "áī«": 2892,
      "áĭ°áĪĿ": 2893,
      "ashar": 2894,
      "edĠtoĠ": 2895,
      "DagaĠ": 2896,
      "i,Ġm": 2897,
      "Ġ4": 2898,
      "áī¨": 2899,
      "Ġáīłáī¥": 2900,
      "ĠáīµáĪĿáĪħáĪŃáīµ": 2901,
      "ĠáĭĭáĬĵĠáĬ¨áī°áĪĽ": 2902,
      "Farans": 2903,
      "2-": 2904,
      "áīµĠáį": 2905,
      "áĬĵĠáĪĺ": 2906,
      "áīłáĭļáĪħ": 2907,
      "oĠdaĠ": 2908,
      "10Ġ": 2909,
      "ĠáĬłáĪ«": 2910,
      "áīĢáĪĺ": 2911,
      "ĠáĪĪáĪĿ": 2912,
      "NijeriyaĠ": 2913,
      "já»įÌģĠ": 2914,
      "ar.": 2915,
      "itaĠceĠ": 2916,
      "tobaĠ": 2917,
      "ayoĠ": 2918,
      "aÆĻ": 2919,
      "Ã¨reĠ": 2920,
      "Najeriya.": 2921,
      "Ġáī°áĪ«": 2922,
      "Ġáī£áĪħ": 2923,
      "wÃ²Ġ": 2924,
      "ai,Ġ": 2925,
      "iniĠyaĠ": 2926,
      "áīĢáĭį": 2927,
      "áĪĬáĭ«": 2928,
      "Ġá»įjá»įÌģÃ¬bÃŃĠ": 2929,
      "kÃ²": 2930,
      "Ã¨sĠ": 2931,
      "Ġáĭ¨áĮį": 2932,
      "Ġáº¹ÌĢká»įÌģĠ": 2933,
      "usuĠ": 2934,
      "sontĠ": 2935,
      "áįĮ": 2936,
      "áĭ®áī½": 2937,
      "Ãī": 2938,
      "act": 2939,
      "gin": 2940,
      "Ġ(áĬ¨": 2941,
      "alif": 2942,
      "Car": 2943,
      "atarĠdaĠ": 2944,
      "Ùħ": 2945,
      "eĠduĠ": 2946,
      "Ã©esĠ": 2947,
      "okinĠ": 2948,
      "dÃ¡Ġ": 2949,
      "ĠáĪĦ": 2950,
      "Ġáĭ®áĪĲáĬķáĪµ": 2951,
      "kumaĠm": 2952,
      "ulkinĠ": 2953,
      "Ã¬s": 2954,
      "Ã¬wÃ©Ġ": 2955,
      "Ġ-Ġ": 2956,
      "3)Ġ": 2957,
      "bar": 2958,
      "col": 2959,
      "WaliofarikiĠKarneĠyaĠ": 2960,
      "iya.Ġ": 2961,
      "ĠáĬłáįį": 2962,
      "áĭĪáĮ£": 2963,
      "owoĠ": 2964,
      "jag": 2965,
      "eeĠ": 2966,
      "áīłáĪ«": 2967,
      ",ĠmshindiĠwaĠTuzoĠyaĠNobelĠyaĠ": 2968,
      "186": 2969,
      "sĠandĠ": 2970,
      "áī³áĭį": 2971,
      "pad": 2972,
      "Ġ(áĬ¥": 2973,
      "Kas": 2974,
      "ginĠ": 2975,
      "aĠkat": 2976,
      "itionĠ": 2977,
      "Gab": 2978,
      "sabodaĠ": 2979,
      "yp": 2980,
      "Ãģ": 2981,
      "aá¹£": 2982,
      "30": 2983,
      "oup": 2984,
      "áĮĬáĭľ": 2985,
      "OktobaĠ": 2986,
      "Agb": 2987,
      "aĠc": 2988,
      "Ã©g": 2989,
      "ĠáĬłáĪĽ": 2990,
      "Ġáī¥áĪŃ": 2991,
      "samunĠ": 2992,
      "sá»įĠ": 2993,
      "jih": 2994,
      "aitĠ": 2995,
      "idiĠ": 2996,
      "Ġáį¡áį¡": 2997,
      "wasanĠÆĻwallonĠÆĻafaĠtaĠÆĻasarĠIngil": 2998,
      "Abd": 2999,
      "utanenĠ": 3000,
      "Georg": 3001,
      "ĠáĬ¨áĪļ": 3002,
      "is,Ġ": 3003,
      "ikeĠ": 3004,
      "karatunĠ": 3005,
      "áīłáī°": 3006,
      "áĪ³áĭĬ": 3007,
      "ĠáĭŃáī³áĭĪ": 3008,
      "upandeĠ": 3009,
      "jÃ¹": 3010,
      "samiĠ": 3011,
      "Ts": 3012,
      "zaĠm": 3013,
      "Ap": 3014,
      "gbogboĠ": 3015,
      "Ġ(áĭ¨": 3016,
      "áĬĸáĪµ": 3017,
      "Me": 3018,
      "cent": 3019,
      "jáº¹": 3020,
      "enyeĠ": 3021,
      "iveĠ": 3022,
      "kunĠ": 3023,
      "oroĠ": 3024,
      "oĠch": 3025,
      "garinĠ": 3026,
      "njeĠ": 3027,
      "tareheĠ": 3028,
      "ĠáĪ¥áĪ«": 3029,
      "iyaĠtaĠ": 3030,
      "artaĠ": 3031,
      "áĪĿáį£": 3032,
      "ayÃ©Ġ": 3033,
      "áĪ«áĪ±": 3034,
      "tanaĠdaĠ": 3035,
      "ĠáĬ£": 3036,
      "aĠzaĠ": 3037,
      "áĪ³áī¥": 3038,
      ")Ġáĭ¨": 3039,
      "áĮĪáĪ©": 3040,
      "áĬķáī²": 3041,
      "áī£áī¸áĭį": 3042,
      "ĠáĬ¥áĬķáĭ²áĪģáĪĿ": 3043,
      "Mon": 3044,
      "Mas": 3045,
      "Ã¨gb": 3046,
      "iĠkatikaĠ": 3047,
      "ĠáīĭáĬķáīĭáĭİáī½": 3048,
      "lÃ³Ġ": 3049,
      "och": 3050,
      "áĭĪáĪ°": 3051,
      "kim": 3052,
      "iyyaĠ": 3053,
      "Ã©l": 3054,
      "apoĠ": 3055,
      "wajenĠ": 3056,
      ",000Ġ": 3057,
      "láº¹ÌĢĠÃ¨dÃ¨Ġ": 3058,
      "ĠáĪ±": 3059,
      "aĠS": 3060,
      "lÃ³rÃŃĠ": 3061,
      "jÃ¡Ġ": 3062,
      "VĠ": 3063,
      "onaĠ": 3064,
      "pá»įÌĢ": 3065,
      "Ġáĭ¶": 3066,
      "taĠyiĠ": 3067,
      "iakaĠ": 3068,
      "Tanzani": 3069,
      "Ban": 3070,
      "áĪįáĪµ": 3071,
      "aĠÅĦĠ": 3072,
      "áĭĲ": 3073,
      "ĠáĬ¨áĭļáĭ«": 3074,
      "akarantarĠ": 3075,
      "lamb": 3076,
      "1)Ġ": 3077,
      "tim": 3078,
      "ĠáĬłáĪľáĪªáĬ«": 3079,
      "ĠáĭĪáĬķáĭµ": 3080,
      "ĠáĪĪáĬł": 3081,
      "áĬĸáĪ©": 3082,
      "stit": 3083,
      "LesĠ": 3084,
      "edĠtheĠ": 3085,
      "áĭŃáĬķ": 3086,
      "ĠáĪĺáĮł": 3087,
      "kumaĠyaĠ": 3088,
      "Ãºká»įĠ": 3089,
      "ĠáĪª": 3090,
      "Ġáī½": 3091,
      "áįĪáĭį": 3092,
      "Ġáĭ°áĪ¨áĮĥ": 3093,
      "Ã¬dÃ¬": 3094,
      "rin": 3095,
      "kuj": 3096,
      "ijiĠ": 3097,
      "wá»įÌģĠ": 3098,
      "ĠáĬłáĭµáĪŃ": 3099,
      "Ġáĭ¨áĪħ": 3100,
      "ipaĠ": 3101,
      "áĪ¬áīµ": 3102,
      "ayarĠ": 3103,
      "kit": 3104,
      "sheĠ": 3105,
      "istĠ": 3106,
      "ĠáĪĨáĬĲáį¢": 3107,
      "ition": 3108,
      "aoĠ": 3109,
      "sunanĠ": 3110,
      "ound": 3111,
      "ĠáĭĵáĬŃáĪįáīł.ĠáĮį": 3112,
      "km": 3113,
      "Ġá»įjá»įÌģÃ¬bÃŃĠnÃŃĠ": 3114,
      "iyanĠ": 3115,
      "azarta": 3116,
      "Ġá»įdÃºnĠ201": 3117,
      "ĠáĪĺáĪ°": 3118,
      "imm": 3119,
      "Ġáĭ«áĪµ": 3120,
      "'yanĠ": 3121,
      "Amurk": 3122,
      "25": 3123,
      "wakaziĠ": 3124,
      "heĠ": 3125,
      "áįĲ": 3126,
      "isp": 3127,
      "Ġáĭ¨áĬ¤": 3128,
      "áįĭáīµ": 3129,
      "ĠáĪ¥áĬĲ": 3130,
      "nchiĠyaĠ": 3131,
      "Marekani": 3132,
      ",ĠandĠ": 3133,
      "ack": 3134,
      "aduĠ": 3135,
      "anaĠdaĠ": 3136,
      "shiry": 3137,
      "áįįáīµ": 3138,
      "áīĥáĪµ": 3139,
      "áĪĬáĬŃ": 3140,
      "ech": 3141,
      "zaĠk": 3142,
      "Kam": 3143,
      "wadandaĠ": 3144,
      "15Ġ": 3145,
      "áĬķáį£": 3146,
      "áĪĪáĭ°": 3147,
      "ian": 3148,
      "i:Ġ": 3149,
      "UnitedĠ": 3150,
      "uleĠ": 3151,
      "Kad": 3152,
      "áĬĻ": 3153,
      "áĪŃáĪµáī¶áĪµ": 3154,
      "ĠáĭĪáĬķáĭĿ": 3155,
      "wÃ©Ġ": 3156,
      "âĢİ": 3157,
      "12Ġ": 3158,
      "avecĠ": 3159,
      "Kus": 3160,
      "áĪĿáĬĲáīµ": 3161,
      "dÃ©Ġ": 3162,
      "ham": 3163,
      "tal": 3164,
      "yayinĠ": 3165,
      "ilit": 3166,
      "Ġáī°áī¥áĪİ": 3167,
      "Mad": 3168,
      "omiĠ": 3169,
      "Ãłt": 3170,
      "áĭĭáīĤ": 3171,
      "atiĠwaĠ": 3172,
      "oĠtaĠ": 3173,
      "For": 3174,
      "takeĠ": 3175,
      "ric": 3176,
      "rec": 3177,
      "ĠofĠ": 3178,
      "ĠáīłáīĢ": 3179,
      "ĠáĪįáĮĨáī½": 3180,
      "ĠØ": 3181,
      "Ang": 3182,
      "báº¹Ìģ": 3183,
      "áĬĲáĭį": 3184,
      "ĠáĬĲáīłáĪ©áį¢": 3185,
      "azin": 3186,
      "2)Ġ": 3187,
      "]Ġ": 3188,
      "ĠáĮ¥áīħáĪĿ": 3189,
      "ĠáĭĿáĪŃáĭĿ": 3190,
      "áĪįáį£": 3191,
      "asil": 3192,
      "\"Ġ(": 3193,
      "fur": 3194,
      "soci": 3195,
      "Æĺ": 3196,
      "lÃŃ": 3197,
      "Tang": 3198,
      "ainĠ": 3199,
      "rá»įÌĢĠ": 3200,
      "ĠáīłáĮį": 3201,
      "áĪĪáĪĽ": 3202,
      "ĠáĮŃ": 3203,
      "ĠáĬŃáįįáĪĪĠáĭĺáĪĺáĬķ": 3204,
      "kÃ©k": 3205,
      "sit": 3206,
      "uuĠ": 3207,
      "dauk": 3208,
      "lor": 3209,
      ".ĠÃĢwá»įnĠ": 3210,
      "unĠm": 3211,
      "Brit": 3212,
      "nunaĠ": 3213,
      "yawaĠ": 3214,
      "áīŃ": 3215,
      "Ij": 3216,
      "ostĠ": 3217,
      "onn": 3218,
      "2Ġáĭĵ.áĪĿ.": 3219,
      "áĪ¥áĪ«": 3220,
      "publ": 3221,
      "NiĠ": 3222,
      "Ã¬nrinĠ": 3223,
      "Ġáº¹gbáº¹ÌģĠ": 3224,
      "kwall": 3225,
      "lÃ³g": 3226,
      "yÃŃ": 3227,
      "Ġáĭ¨áĭį": 3228,
      "áĮĪáĪ«": 3229,
      "áĭĵáīµ": 3230,
      "8)Ġ": 3231,
      "iop": 3232,
      "ĠáĮįáī¥": 3233,
      "ĠÂ«áĭ¨": 3234,
      "yamm": 3235,
      "áĭŃáīµ": 3236,
      "ĠáĪĺáĬķáĮĪáĭµ": 3237,
      "Kud": 3238,
      "iĠniĠ": 3239,
      "YanĠ": 3240,
      "áĪĪáī²áĬ«": 3241,
      "áĪĺáīµ": 3242,
      "Ġáĭ¨áĬ¢": 3243,
      "Ġáī¥áĪĶ": 3244,
      "áĪ½áĬķ": 3245,
      "áĭŃáĭĪáīµ": 3246,
      "Eb": 3247,
      "balimb": 3248,
      "odhaĠyaĠ": 3249,
      "tonĠ": 3250,
      "áĮłáīħ": 3251,
      "ĠáĮ¥áĬĵáīµ": 3252,
      "ull": 3253,
      "awal": 3254,
      "áĭĪáī½": 3255,
      "ĠáĮ¥áĬķ": 3256,
      "oke": 3257,
      "ogunĠ": 3258,
      "Id": 3259,
      "ĠáĬłáĪģ": 3260,
      "If": 3261,
      "i)Ġ": 3262,
      "áĪµáįĭ": 3263,
      "Worl": 3264,
      "say": 3265,
      "ĠáĪĺáĮ½áĪĲáįį": 3266,
      "emp": 3267,
      "áĪ®áĪµ": 3268,
      "áĬĶáī³": 3269,
      "áĪĺáĬĵáĭĬ": 3270,
      "/Ġ": 3271,
      "bas": 3272,
      "AfricanĠ": 3273,
      "he": 3274,
      "Lond": 3275,
      "hiv": 3276,
      "azamaĠ": 3277,
      "Eur": 3278,
      "samaĠ": 3279,
      "ÙĬ": 3280,
      "ukaĠ": 3281,
      "Ann": 3282,
      "áĪĭáĭį": 3283,
      "Jamhur": 3284,
      "ĠáĪ®": 3285,
      "ĠáĬ¨áĬĲ": 3286,
      "áĭĺáĮĭ": 3287,
      "Od": 3288,
      "ene": 3289,
      "áĪŁ": 3290,
      "áº¹ÌĢká»įÌģĠ": 3291,
      "Ã¨gbÃ¨Ġ": 3292,
      "kafinĠ": 3293,
      "ĠáĪīáīĥáĪµ": 3294,
      "cons": 3295,
      "elop": 3296,
      "ng": 3297,
      "yanzuĠ": 3298,
      "áĪ¾": 3299,
      "Ġáī°áĪ°": 3300,
      "Willi": 3301,
      "ristoĠ": 3302,
      "cut": 3303,
      "Ã¬já»įbaĠ": 3304,
      "anzaĠ": 3305,
      "áĬĲáĪ³": 3306,
      "áĪ¨áĪĿ": 3307,
      "osh": 3308,
      "e,Ġm": 3309,
      "ĠáĬłáįĪ": 3310,
      "Ġáĭ¨áĪķ": 3311,
      "erĠ(": 3312,
      "nÃŃĠÃ¬": 3313,
      "Itali": 3314,
      "wereĠ": 3315,
      "áĪ«áĬķ": 3316,
      "samarĠdaĠ": 3317,
      "ananĠhukum": 3318,
      "áĭķáĪ«áī¥": 3319,
      "30Ġ": 3320,
      "entr": 3321,
      "Ã³nĠ": 3322,
      "ky": 3323,
      "oisĠ": 3324,
      "17Ġ": 3325,
      "trans": 3326,
      "ĠáīłáįĬáīµ": 3327,
      "áįĪáĪį": 3328,
      "Ġáĭ¨áĬłáĪľáĪªáĬ«": 3329,
      "Wan": 3330,
      "ĠáīħáĪŃ": 3331,
      "ĠáĭŃáī£áĪĭáĪįáį¢": 3332,
      "Bab": 3333,
      "n.": 3334,
      "gudan": 3335,
      "eĠdeĠ": 3336,
      "áįİáī½": 3337,
      "inay": 3338,
      "áĪįáĪĿ": 3339,
      "ĠáĬ¥áĬķáĮĤ": 3340,
      "yab": 3341,
      "farans": 3342,
      "Ãłti": 3343,
      "Mis": 3344,
      "14Ġ": 3345,
      "wÃŃ": 3346,
      "ĠáĪģáĪĪ": 3347,
      "ars": 3348,
      "enn": 3349,
      "ani,Ġ": 3350,
      "en,Ġ": 3351,
      "Cr": 3352,
      "Ġáĭ¨áĪļáĪĪáĭį": 3353,
      "edĠinĠ": 3354,
      "Ç¹": 3355,
      "Re": 3356,
      "ĠáĬłáīĢ": 3357,
      "ĠáĭĪáĭŃ": 3358,
      "ingerez": 3359,
      "dh": 3360,
      "LÃ¡": 3361,
      "vol": 3362,
      "alit": 3363,
      "gbá»įÌģnĠ": 3364,
      "bÃŃiĠ": 3365,
      "Franc": 3366,
      "áī³áĪªáĬŃ": 3367,
      "ĠáĮīáĭ³": 3368,
      "San": 3369,
      "YaĠ": 3370,
      "ĠáĬŃáĪį": 3371,
      "aka": 3372,
      "ush": 3373,
      ",000": 3374,
      "ÃłÃ¡": 3375,
      "ĠáīłáĪŃ": 3376,
      "áī¥áĪ¨áīµ": 3377,
      "ĠáĬķáĮį": 3378,
      "Kik": 3379,
      "nom": 3380,
      "tarih": 3381,
      "Ġáį²áį": 3382,
      "ĠáĪĽáĬķ": 3383,
      "embaĠ-Ġ": 3384,
      "Di": 3385,
      "ĠáĮĮ": 3386,
      "ĠáĬ¥áĬķáĭ²áĪħ": 3387,
      "iusĠ": 3388,
      "esĠ(": 3389,
      "Award": 3390,
      "lâĢĻ": 3391,
      "ĠáīµáĬķ": 3392,
      "202": 3393,
      "Ser": 3394,
      "Kim": 3395,
      "zaiĠ": 3396,
      "áĬĲáī±": 3397,
      "áĪĽáīµ": 3398,
      "Najeriya,Ġ": 3399,
      "ĠáįķáĪ¬": 3400,
      "...": 3401,
      "ishwaĠ": 3402,
      "ĠáĪķáĭĿáī¥": 3403,
      "qu'": 3404,
      "ÙĨ": 3405,
      "Paul": 3406,
      "lokac": 3407,
      "áĬŃáĪī": 3408,
      "Ġáī³áĪªáĬ«áĭĬ": 3409,
      "ĠáĭŃáī³áĭĪáīĥ": 3410,
      "kÃ©kerÃ©Ġ": 3411,
      "yÃ©Ġ": 3412,
      "kwaĠm": 3413,
      "Ġáº¹láº¹Ìģ": 3414,
      "oĠh": 3415,
      "ĠáĪĺáĪłáĪ¨": 3416,
      "ĠdinĠ": 3417,
      "Pl": 3418,
      "áĪĪáĬķ": 3419,
      "kuanz": 3420,
      "ĠáĬ¨áĬ¥": 3421,
      "60": 3422,
      "cul": 3423,
      "cour": 3424,
      "áĪĺáĭµ": 3425,
      "bayyanaĠ": 3426,
      "uss": 3427,
      "ett": 3428,
      "Jos": 3429,
      "gameĠdaĠ": 3430,
      "Ãłp": 3431,
      "NÃłÃ¬jÃŃrÃŃÃł.": 3432,
      "áĪ¨áĪ°": 3433,
      "daĠyaĠ": 3434,
      "ener": 3435,
      "Oc": 3436,
      "áĪŃáī²": 3437,
      "já»į": 3438,
      "histor": 3439,
      "serv": 3440,
      "esĠdeĠ": 3441,
      "áĪĺáĪį": 3442,
      "ableĠ": 3443,
      "Engl": 3444,
      "Lib": 3445,
      "taf": 3446,
      "Ġ5": 3447,
      "Yun": 3448,
      "Yar": 3449,
      "ĠáĬ¨áĭļáĪħ": 3450,
      "ĠáĬĲáĭįáį¡áį¡": 3451,
      "ĠáĬĵáī¸áĭį": 3452,
      "sur": 3453,
      "á»įÌģkasÃŃĠ": 3454,
      "Kir": 3455,
      "aĠjiharĠ": 3456,
      "ĠáĭĿáĪŃáĭĿáĪŃ": 3457,
      "iwaĠnaĠ": 3458,
      "áĭļáĪģ": 3459,
      "2020": 3460,
      "us,Ġ": 3461,
      "ys": 3462,
      "mag": 3463,
      "anĠhaifeĠshiĠaĠshekaraĠtaĠ": 3464,
      "oduc": 3465,
      "Fran": 3466,
      "Ipin": 3467,
      "nÃłĠ": 3468,
      "¶áį": 3469,
      "ĠáĬ¥áĬĵĠáīł": 3470,
      "OrodhaĠyaĠ": 3471,
      "áĬ¨áī°áĪĽ": 3472,
      "bin": 3473,
      "out": 3474,
      "ilip": 3475,
      "lÃ¡n": 3476,
      "br": 3477,
      "áĭ«áĭĬ": 3478,
      "9)Ġ": 3479,
      "áº¹Ìģrá»įÌģ": 3480,
      "as,Ġ": 3481,
      "Ã¡st": 3482,
      "áĬĵáī¸áĭį": 3483,
      "ĠáīłáĬ©": 3484,
      "ĠáĪģáĬĶáī³": 3485,
      "lughaĠyaĠ": 3486,
      "gáº¹Ìģgáº¹ÌģĠbÃŃĠ": 3487,
      "Char": 3488,
      "istanĠ": 3489,
      "Dec": 3490,
      "Sou": 3491,
      "baadaĠ": 3492,
      "BKĠ(BaadaĠyaĠKristo).ĠMatukioĠWaliozaliwaĠ": 3493,
      "Ã¡stáº¹Ìģrá»įÌģ": 3494,
      "Eth": 3495,
      ")Ġáīł": 3496,
      "yl": 3497,
      "áĬĵáĪįáį¢": 3498,
      "ĠáĮĬ": 3499,
      "áīłáĬł": 3500,
      "On": 3501,
      "ikaĠk": 3502,
      "omeĠ": 3503,
      "otherĠ": 3504,
      "NewĠYor": 3505,
      "onÃŃ": 3506,
      "anaĠk": 3507,
      "dis": 3508,
      "w.": 3509,
      "16Ġ": 3510,
      "ver": 3511,
      "áī¤áī°": 3512,
      "ojo": 3513,
      "HeĠ": 3514,
      "áĪ«áĪ²": 3515,
      "ĠáĭŃáīĢ": 3516,
      "áĬ¨áīµ": 3517,
      "kunaĠ": 3518,
      "etaĠ": 3519,
      "áĮĦ": 3520,
      "Ġáī»": 3521,
      "sÃŃláº¹ÌĢĠ": 3522,
      "pÃ¨Ġ": 3523,
      "ce,Ġ": 3524,
      "daĠsuk": 3525,
      ",ĠÃ³Ġ": 3526,
      "pat": 3527,
      "áī¥áīµ": 3528,
      "ĠáĬĲáĮ»": 3529,
      "awoĠ": 3530,
      "isiĠ": 3531,
      "Ir": 3532,
      "Ġáī±": 3533,
      "ejiĠ": 3534,
      "waÉĹ": 3535,
      "LaĠ": 3536,
      "aâĢĻ": 3537,
      "Igb": 3538,
      "butĠ": 3539,
      "áĪĪáī½": 3540,
      "Ã´": 3541,
      "AmerikaĠ": 3542,
      "ibiyarĠ": 3543,
      "áĬĲáīłáĪ¨": 3544,
      "ĠáĬ¨áĬłáĪ": 3545,
      "áĪ¶áī½": 3546,
      "ĠáĪļáĬĴ": 3547,
      "adinĠ": 3548,
      "mÃŃ": 3549,
      "Ġ17": 3550,
      "fas": 3551,
      "hadaĠ": 3552,
      "wakil": 3553,
      "Ġáĭ¨áĪµ": 3554,
      "ĠáįĪáĪŃ": 3555,
      "litt": 3556,
      "iyeĠ": 3557,
      "wá»įÌĢ": 3558,
      "ĠáĪĺáĮ¨áĪ¨áĪ»": 3559,
      "áĭļáīĥ": 3560,
      "tat": 3561,
      "&Ġ": 3562,
      "notĠ": 3563,
      "reg": 3564,
      "3-": 3565,
      "mÃ©j": 3566,
      "Amáº¹ÌģrÃŃkÃł": 3567,
      "NationalĠ": 3568,
      "áĭ°áĭį": 3569,
      "ĠáĬŃáĪŃáĪµáī²áĭ«áĬķ": 3570,
      "mas": 3571,
      "40": 3572,
      "Ã²á¹£Ã¨rÃ©Ġ": 3573,
      "kuwaĠm": 3574,
      "oleĠ": 3575,
      "Ã¬k": 3576,
      "13Ġ": 3577,
      "Ky": 3578,
      "mÃ¬n": 3579,
      "Dis": 3580,
      "Ġáįĭ": 3581,
      "Ger": 3582,
      "jirginĠ": 3583,
      "e:Ġ": 3584,
      "Tib": 3585,
      "áĪĿáĬķ": 3586,
      "itiĠ": 3587,
      "nÃŃĠibiĠ": 3588,
      "ĠáĬĲáĮĪáĪ®áī½": 3589,
      "1,": 3590,
      "ewarĠ": 3591,
      "jÃº": 3592,
      "185": 3593,
      "áī´áĭİáĪµ": 3594,
      "ackĠ": 3595,
      "er.": 3596,
      "táº¹Ìģ": 3597,
      "áĬ¸": 3598,
      "Ġáī¢áĪĨáĬķ": 3599,
      "áĮĪáĬĺáĭį": 3600,
      "pop": 3601,
      "ukuĠ": 3602,
      "alsoĠ": 3603,
      "ĠáĭĺáĪŃ": 3604,
      "Aj": 3605,
      "kwaik": 3606,
      "Ã¬má»įÌĢĠ": 3607,
      "áĪĺáĮ£": 3608,
      "áī»áī¸áĭį": 3609,
      "Ġáĭ¨áĪĽáĭŃ": 3610,
      "hakaĠ": 3611,
      "sar": 3612,
      "taĠk": 3613,
      "ungeĠ": 3614,
      "gudaĠ": 3615,
      "saf": 3616,
      "taĠkasanceĠ": 3617,
      "niĠwá»įÌģnĠ": 3618,
      "Ã¡stáº¹Ìģrá»įÌģÃ¬dÃ¬": 3619,
      "18Ġ": 3620,
      "Stat": 3621,
      "áĮĪáĭ°": 3622,
      "ÃłkÃ³": 3623,
      "ĠáĭŃáĮĪáĬĽáĪįáį¢": 3624,
      "siyas": 3625,
      "kwaikway": 3626,
      "11Ġ": 3627,
      "tang": 3628,
      "Ahm": 3629,
      "áĪĤ": 3630,
      "ĠáĬłáīµ": 3631,
      "áĬĽáį¦Ġ": 3632,
      "oá¹£Ã¹Ġkáº¹": 3633,
      "tain": 3634,
      "bÃ¹nĠ": 3635,
      "ibuĠ": 3636,
      "red": 3637,
      "jáº¹ÌģĠp": 3638,
      "ĠáĪ¦": 3639,
      "ĠáīłáĪĻ": 3640,
      "áĪ±áĪµ": 3641,
      "ĠáĭµáĪŃáĮħ": 3642,
      "anyanĠ": 3643,
      "odeĠ": 3644,
      "Ufarans": 3645,
      "Dr": 3646,
      "www.": 3647,
      "áįĶ": 3648,
      "áĪĺáĭį": 3649,
      "áī·áĪįáį¢": 3650,
      "aaĠ": 3651,
      "umaĠ": 3652,
      "Part": 3653,
      "din": 3654,
      "Ã²k": 3655,
      "soj": 3656,
      "ustĠ": 3657,
      "áĭĭáĬĵ": 3658,
      "áĮĢáĪŃáĪĺáĬķ": 3659,
      "ement": 3660,
      "falmeĠ": 3661,
      "ĠáĬ¡": 3662,
      "áĪĺáĪ°": 3663,
      "ĠáĬ¥áĬĲ": 3664,
      "emĠ": 3665,
      "-áĬł": 3666,
      "mb": 3667,
      "áĭ°áĬķ": 3668,
      "ĠáĪĿáĬŃáĬķáĭ«áīµ": 3669,
      "Ã¨tÃ²Ġ": 3670,
      "oĠl": 3671,
      "cont": 3672,
      "ongoz": 3673,
      "ina": 3674,
      "Ġ(áīł": 3675,
      "áįĪáĮ¥": 3676,
      "ÉĹayaĠ": 3677,
      "Colleg": 3678,
      "IpinleĠ": 3679,
      "zaid": 3680,
      "áĬķáĭ±": 3681,
      "firstĠ": 3682,
      "ĠáĪĿáĬķáĮ®áī½": 3683,
      "alib": 3684,
      "yanaĠdaĠ": 3685,
      "Agos": 3686,
      "unc": 3687,
      "Wh": 3688,
      "ĠáīłáĪ½": 3689,
      "ĠáĪĿáĬķáĪĿ": 3690,
      "iĠmaiĠ": 3691,
      "wig": 3692,
      "nÃŃpaĠ": 3693,
      "Her": 3694,
      "inter": 3695,
      "áĪµáĭ«": 3696,
      "wÃłĠnÃŃĠ": 3697,
      "elek": 3698,
      "(201": 3699,
      "Mor": 3700,
      "ĠF": 3701,
      "awa,Ġ": 3702,
      "áĪ·": 3703,
      "Ġáĭĭáī¢": 3704,
      "áĪĭáĪ´": 3705,
      "icsĠ": 3706,
      "alifĠ": 3707,
      "duniyaĠ": 3708,
      "25Ġ": 3709,
      "WorldĠ": 3710,
      "áĮĪáĪį": 3711,
      "ĠáĪĿáĪŃ": 3712,
      "lÃ¡náº¹Ìģ": 3713,
      "ojoibiĠ": 3714,
      "8-": 3715,
      "vil": 3716,
      "akaĠm": 3717,
      "girm": 3718,
      "DuniyaĠ": 3719,
      "dok": 3720,
      "jÃ¡deĠ": 3721,
      "atarĠ": 3722,
      "Ġáĭ¨áĬ«": 3723,
      "Ġáĭ¨áī°áĪ°": 3724,
      "ĠáĪł": 3725,
      "watoĠ": 3726,
      "lá»įĠsÃŃĠ": 3727,
      "koaĠwaĠ": 3728,
      "ight": 3729,
      "karneĠyaĠ": 3730,
      "Gir": 3731,
      "ÃłĠlaĠ": 3732,
      "·áį": 3733,
      "aniĠyaĠ": 3734,
      "ĠáĪĺáĪŃ": 3735,
      "ĠáĪĺáĪįáĬŃ": 3736,
      "áĬŃáĪŃ": 3737,
      "áīłáĪĪ": 3738,
      "ammaĠ": 3739,
      "War": 3740,
      "Ã¬gbÃłĠ": 3741,
      "100": 3742,
      "áĭ²áĭ«": 3743,
      "kÃ¡": 3744,
      "ginaĠ": 3745,
      "uĠzaĠ": 3746,
      "lÃ¡náº¹ÌģtÃ¬Ġ": 3747,
      "áīłáĪĺ": 3748,
      "yawanĠjama'": 3749,
      "uhur": 3750,
      "áīĨáĪµ": 3751,
      "orÃŃláº¹ÌĢĠÃ¨dÃ¨Ġ": 3752,
      "ĠáĮ½áĪĳ": 3753,
      "áĬ¥áĬķáĭ°": 3754,
      "Ã¬gbÃłjÃ¡Ġ": 3755,
      "Ã¬gb": 3756,
      "áĪĭáĪĽ": 3757,
      "IlĠ": 3758,
      "Az": 3759,
      "SĠ": 3760,
      "utum": 3761,
      "wa,Ġ": 3762,
      "unanĠ": 3763,
      "ther": 3764,
      "áĭĪáĪŃ": 3765,
      "katiĠyaĠ": 3766,
      "awarĠ": 3767,
      "masuĠ": 3768,
      "lÃ¡náº¹ÌģtÃ¬ĠkÃ©kerÃ©Ġ": 3769,
      "áĪİáīµ": 3770,
      "old": 3771,
      "ĠáĪµáĪĻ": 3772,
      "80": 3773,
      "dag": 3774,
      "ine": 3775,
      "jagor": 3776,
      "Be": 3777,
      "ĠáĮłáĪ": 3778,
      "Ġáįª": 3779,
      "áĭ³áĪŃ": 3780,
      "tele.Ġ": 3781,
      "ĠáĪłáĪ«": 3782,
      "landĠ": 3783,
      "aĠlokacinĠ": 3784,
      "áĬĵáĭĬ": 3785,
      "Bal": 3786,
      "eurĠ": 3787,
      "ĠáĬħ": 3788,
      "ĠáĪ¥áĪŃáĭĪ": 3789,
      "cesĠ": 3790,
      "takatifuĠ": 3791,
      "nÃŃĠibiĠÃ¬gbÃłjÃ¡Ġ": 3792,
      "jar": 3793,
      "k.": 3794,
      "And": 3795,
      "ayyarĠ": 3796,
      "ĠáĭŃáĪĨ": 3797,
      "Ġáĭ°áĪ´": 3798,
      "Europ": 3799,
      "InternationalĠ": 3800,
      "lÃ¡náº¹ÌģtÃ¬ĠkÃ©kerÃ©ĠnÃŃĠibiĠÃ¬gbÃłjÃ¡Ġ": 3801,
      "23": 3802,
      "ĠáĪĤ": 3803,
      "ĠáĬ¥áĮįáĪŃĠáĬ³áĪµ": 3804,
      "ĠáĬłáĪ³": 3805,
      "aih": 3806,
      "áĮłáĭį": 3807,
      "21Ġ": 3808,
      "Sec": 3809,
      "fÃºn": 3810,
      "Ġáĭ¨áĪ¥": 3811,
      "ĠáĪĿáĪįáĬŃ": 3812,
      "Rob": 3813,
      "al,Ġ": 3814,
      "ĠáĬłáĭ«": 3815,
      "áĭĪáīħ": 3816,
      "áįĪáĪ¨áĬķáĪ³áĭŃ": 3817,
      "dang": 3818,
      "ÙĪ": 3819,
      "Ber": 3820,
      "new": 3821,
      "áĪµáįĵ": 3822,
      "jáº¹ÌģĠplÃ¡náº¹ÌģtÃ¬ĠkÃ©kerÃ©ĠnÃŃĠibiĠÃ¬gbÃłjÃ¡Ġ": 3823,
      "A.": 3824,
      "a-fin": 3825,
      "ShugabanĠ": 3826,
      "tsĠ": 3827,
      "wa.": 3828,
      "fáº¹ÌģĠ": 3829,
      "má»įÌģĠ": 3830,
      "áĪ¡": 3831,
      "ojÃºĠ": 3832,
      "iĠnaĠm": 3833,
      "áĭķáĪį": 3834,
      "nj": 3835,
      "Comm": 3836,
      "áĪ¯": 3837,
      "ĠáĬĴ": 3838,
      "ĠáĬĸ": 3839,
      "ameĠ": 3840,
      "áī¥áĭĻ": 3841,
      "ĠáĭĪáĪ¨áĭ³": 3842,
      "araĠdaĠ": 3843,
      "lÃ¡raĠ": 3844,
      "ĠáĬłáĪĪáīĥ": 3845,
      "Ku": 3846,
      "áĪĽáĬķ": 3847,
      "áĭĭáĬķ": 3848,
      "áĪłáĪ«": 3849,
      "Lugh": 3850,
      "onĠtheĠ": 3851,
      "ai.": 3852,
      "Oá¹£Ã¹Ġ": 3853,
      "Sar": 3854,
      "jáº¹ÌģĠplÃ¡náº¹ÌģtÃ¬ĠkÃ©kerÃ©ĠnÃŃĠibiĠÃ¬gbÃłjÃ¡ĠÃ¡stáº¹Ìģrá»įÌģÃ¬dÃ¬": 3855,
      "Kal": 3856,
      "kasuwan": 3857,
      "taĠnaĠ": 3858,
      "GhanaĠ": 3859,
      "ĠáĮħ": 3860,
      "Mach": 3861,
      "áĭİáī½áĬķ": 3862,
      "184": 3863,
      "aĠgasarĠ": 3864,
      "Ã²á¹£": 3865,
      "aisĠwaĠ": 3866,
      "fromĠtheĠ": 3867,
      "sec": 3868,
      "áī°áĬķ": 3869,
      "áĪĪáī½áį¢": 3870,
      "Ġáį¤": 3871,
      "ĠáĬłáĪ¸": 3872,
      "áĭ¨áĪĿ": 3873,
      "1892Ġáĭĵ.áĪĿ.": 3874,
      "Ex": 3875,
      "MuhammadĠ": 3876,
      "ulik": 3877,
      ")áį£": 3878,
      "27": 3879,
      "ĠáĭŃáĪĺáĪµ": 3880,
      "ĠáĭķáĪĪ": 3881,
      "oir": 3882,
      "un,Ġ": 3883,
      "lÃ¡ti": 3884,
      "Ik": 3885,
      "áĭĳ": 3886,
      "eraĠ": 3887,
      "áĪĺáĪ«": 3888,
      "ĠáĪĺáĮĢáĪĺáĪŃáĭ«": 3889,
      "áĭ¨áĬł": 3890,
      "IIĠ": 3891,
      "orÃŃĠ": 3892,
      "áĬĵĠáĬ¨": 3893,
      "áĮįáī¥áĮ½": 3894,
      "kÃ³paĠ": 3895,
      "hukumarĠ": 3896,
      "aud": 3897,
      "aká»į": 3898,
      "ĠáīłáĮ£áĪĿ": 3899,
      "áĮĪáī¥": 3900,
      "Ġáī³áĭĭáīĤ": 3901,
      "Ġáīłáī°áĪĪáĭŃ": 3902,
      "wasanĠkwaikway": 3903,
      "iĠneĠ": 3904,
      "UniversityĠofĠ": 3905,
      "King": 3906,
      "áº¸": 3907,
      "YorÃ¹bÃ¡Ġ": 3908,
      "ĠáĪº": 3909,
      "ĠáĬ¥áĭį": 3910,
      "áĮĪáīł": 3911,
      "áĭ²áĪħ": 3912,
      "áĭĺáĪŃ": 3913,
      "áĬ®áī½": 3914,
      "filamuĠ": 3915,
      "enti": 3916,
      "CO": 3917,
      "ÃłĠl'": 3918,
      "iaĠnaĠ": 3919,
      "yÃłĠ": 3920,
      "áĮ¦áĪŃ": 3921,
      "áĭ°áĮį": 3922,
      "ĠáīłáĪĮ": 3923,
      "ĠáĬŃáįįáĪĭ": 3924,
      "kwanzaĠ": 3925,
      "shaw": 3926,
      "dayaĠdagaĠcikinĠ": 3927,
      "AgostiĠ": 3928,
      "amin": 3929,
      "tabiĠ": 3930,
      "sakeĠ": 3931,
      "arwaĠ": 3932,
      "Fir": 3933,
      "shekaraĠ": 3934,
      "Op": 3935,
      "AN": 3936,
      "Pop": 3937,
      "áĬ¹": 3938,
      "áĪ³áī¸áĭį": 3939,
      "áĭĬáīµ": 3940,
      "áįĪáĪµ": 3941,
      "áĮ£áīµ": 3942,
      "ĠáĬłáĭŃáĭ°": 3943,
      "kab": 3944,
      "NÃłÃ¬jÃŃrÃŃÃł": 3945,
      "24Ġ": 3946,
      "bec": 3947,
      "anb": 3948,
      "daĠakeĠ": 3949,
      "yaĠkasanceĠ": 3950,
      "áĮ¥áĪ¨": 3951,
      "áĪįáĮ£áĬķ": 3952,
      "He": 3953,
      "NÃŃĠ": 3954,
      "Ġ'": 3955,
      "on.": 3956,
      "attalinĠ": 3957,
      "gw": 3958,
      "cik": 3959,
      "umeĠ": 3960,
      "sĠdeĠ": 3961,
      "Fiz": 3962,
      "sanyaĠ": 3963,
      "Ãłá¹£": 3964,
      "áĪĺáī±": 3965,
      "áĮįáĪį": 3966,
      "ĠáīłáĪģ": 3967,
      "ĠáīĢáĮ¥": 3968,
      "áĪķáĪŃ": 3969,
      "a;Ġ": 3970,
      "ararĠ": 3971,
      "EnĠ": 3972,
      "6-": 3973,
      "overn": 3974,
      "KwaĠ": 3975,
      "áįĳ": 3976,
      "áĪ¨áī¥": 3977,
      "áīłáĪ©áīµ": 3978,
      "NigerianĠ": 3979,
      "hadĠ": 3980,
      "22Ġ": 3981,
      "ywo": 3982,
      "29Ġ": 3983,
      "áĭµáĪ¨áĮį": 3984,
      "wanam": 3985,
      "ult": 3986,
      "Afrik": 3987,
      "ĠáĪ»": 3988,
      "áĭįáĪĿ": 3989,
      "áĪĿáĪħáĪŃ": 3990,
      "ĠáĬ¥áĬķáĮįáĪĬáĭĿ": 3991,
      "sch": 3992,
      "ideĠ": 3993,
      "áĭĪáĪ¨": 3994,
      "áĮłáĪ©": 3995,
      "ĠáĬłáĮĪáĪįáĮį": 3996,
      "jáº¹ÌģĠplÃ¡náº¹ÌģtÃ¬ĠkÃ©kerÃ©ĠnÃŃĠibiĠÃ¬gbÃłjÃ¡ĠÃ¡stáº¹Ìģrá»įÌģÃ¬dÃ¬.ĠItokasiĠ": 3997,
      "car": 3998,
      "Ã©d": 3999,
      "kuh": 4000,
      "aĠdun": 4001,
      "Go": 4002,
      "24": 4003,
      "s'": 4004,
      "aliĠyaĠ": 4005,
      "itwaĠ": 4006,
      ")ĠniĠ": 4007,
      "lĠ": 4008,
      "áĪ¨áĮĭ": 4009,
      "pres": 4010,
      "ĠáĬ¥áĭ¨áī°": 4011,
      "gbajÃº": 4012,
      "iĠkat": 4013,
      "iâĢĻ": 4014,
      "anniĠ": 4015,
      "neĠaĠ": 4016,
      "ubuĠ": 4017,
      "Äģ": 4018,
      "arz": 4019,
      "ĠáĪĺáĪĨáĬĳ": 4020,
      "áĬĵáĬķ": 4021,
      "scor": 4022,
      "anĠhaifeĠtaĠ": 4023,
      "babbanĠbirninĠ": 4024,
      "¹¢": 4025,
      "eniĠ": 4026,
      "áĭ®áĪµ": 4027,
      "taim": 4028,
      "ĠáĬłáĪĺáīµ": 4029,
      "Kats": 4030,
      "Yan": 4031,
      "lo": 4032,
      "áĬĹ": 4033,
      "âĢº": 4034,
      "lik": 4035,
      "mÃºĠ": 4036,
      "ammanĠ": 4037,
      "ĠáĪĥáĭŃáĪĽáĬĸ": 4038,
      "Med": 4039,
      "occ": 4040,
      "ughĠ": 4041,
      "jiĠwaĠ": 4042,
      "esĠetĠ": 4043,
      "walej": 4044,
      "Ã®": 4045,
      "harib": 4046,
      "Iá¹£": 4047,
      "MwakaĠ": 4048,
      "Of": 4049,
      "tab": 4050,
      "wÃ²": 4051,
      "ĠáĭĪáīħáīµ": 4052,
      "lÃº": 4053,
      "Ethiop": 4054,
      "ĠáĬ¥áĬĲáĭļáĪħ": 4055,
      "áī£áĪŃ": 4056,
      "Haif": 4057,
      "mak": 4058,
      "áĬĥ": 4059,
      "áī£áĭĬ": 4060,
      "KatikaĠ": 4061,
      "AwonĠ": 4062,
      "áį²áį": 4063,
      "ĠáĭŃáĭĺ": 4064,
      "ĠáĪĽáī´áĭİáĪµ": 4065,
      "neĠdagaĠ": 4066,
      "ortĠ": 4067,
      ".ĠT": 4068,
      "tsarinĠ": 4069,
      "AmericanĠ": 4070,
      "´áį": 4071,
      "ĠáĬ¬": 4072,
      "orÃºká»įĠ": 4073,
      "aĠmat": 4074,
      "ĠáĪµáīµ": 4075,
      "áĮĭáĪį": 4076,
      "Ġáĭįáĭµ": 4077,
      "áĪģáĬķ": 4078,
      "lab": 4079,
      "Dav": 4080,
      "ItaĠ": 4081,
      "Ã¬nĠ": 4082,
      "ondĠ": 4083,
      "Ø±": 4084,
      "dominĠ": 4085,
      "ÃłgbÃ©": 4086,
      "uĠniĠ": 4087,
      "akaĠk": 4088,
      "Per": 4089,
      "ģáĬĳ": 4090,
      "Ġáĭ´": 4091,
      "eanĠ": 4092,
      "osoĠ": 4093,
      "stitut": 4094,
      "kutokaĠMarekani": 4095,
      "S.": 4096,
      "ier": 4097,
      "pek": 4098,
      "23Ġ": 4099,
      "hasaĠ": 4100,
      "ĠáĭķáĪĪáī³áīµ": 4101,
      "ightĠ": 4102,
      "ne.": 4103,
      "ISB": 4104,
      "asharik": 4105,
      "Ãºgb": 4106,
      "JulaiĠ": 4107,
      "ayyaĠ": 4108,
      "áĪ«áĪīáį¢": 4109,
      "gidanĠ": 4110,
      "Ilim": 4111,
      "Bay": 4112,
      "commeĠ": 4113,
      "aĠÆĻasarĠ": 4114,
      "áĮįáĬķ": 4115,
      "áĭ¨áĪ±áĪµ": 4116,
      "27Ġ": 4117,
      "uataĠ": 4118,
      "unt": 4119,
      "nÃŃbiĠ": 4120,
      "Abub": 4121,
      "serik": 4122,
      "Fiziki": 4123,
      "gid": 4124,
      "0)Ġ": 4125,
      "hasĠ": 4126,
      "ulĠ": 4127,
      "sÃ¬nĠ": 4128,
      "wana": 4129,
      "yayiĠ": 4130,
      "akonĠ": 4131,
      "sel": 4132,
      "iaĠ(": 4133,
      "nem": 4134,
      "imoĠ": 4135,
      ".ĠManazartaĠ": 4136,
      "Ug": 4137,
      "áĮłáĬĵ": 4138,
      "ĠáĮ¥áĬķáī³áĭĬ": 4139,
      "JanuariĠ": 4140,
      "Ø§ÙĦ": 4141,
      "en.": 4142,
      "ime": 4143,
      "ĠáĭŃáĪ°": 4144,
      "kn": 4145,
      "má»įÌģ": 4146,
      "rat": 4147,
      "28Ġ": 4148,
      "AareĠ": 4149,
      "áī³áĭ°": 4150,
      "áĪĽáī½": 4151,
      "áĪħáĬķ": 4152,
      "ĠáīĢáĬĵáīµ": 4153,
      "Haifaf": 4154,
      "sikuĠ": 4155,
      "etteĠ": 4156,
      "áĮĪáĪª": 4157,
      "Ġáĭ¨áĪĻ": 4158,
      "áĭ®áĪŃ": 4159,
      "áĪ»áĭİáī½": 4160,
      "ĠáĭŃáĪħáĬķ": 4161,
      "Alex": 4162,
      "tÃŃĠÃ³ĠsÃ¬Ġ": 4163,
      "MataĠ": 4164,
      "ellĠ": 4165,
      "áĪ«áĪµ": 4166,
      "AllahĠ": 4167,
      "hab": 4168,
      "ĠáĪĿáĪµ": 4169,
      "ĠáĭĵáĪĪáĪĿ": 4170,
      "ĠáīłáĬłáĬķáĭµ": 4171,
      "arch": 4172,
      "inat": 4173,
      "Ġ(200": 4174,
      "anis": 4175,
      "app": 4176,
      "fim": 4177,
      "áī»áĭŃáĬĵ": 4178,
      "ĠáįĵáĪŃáī²": 4179,
      "aĠkasanceĠ": 4180,
      "tsohonĠ": 4181,
      "Awá»įnĠ": 4182,
      "t,Ġ": 4183,
      "áĪłĠáĬĲáĮĪ": 4184,
      "L'": 4185,
      "Ġ7": 4186,
      "ref": 4187,
      "Del": 4188,
      "n,Ġ": 4189,
      "iĠ-Ġ": 4190,
      "eny": 4191,
      "jim": 4192,
      "áĭ¨áī°": 4193,
      "Ġáĭ«áĪħáĪį": 4194,
      "áĪŃáĪµáī²áĭ«": 4195,
      "LagosĠ": 4196,
      "Sain": 4197,
      "Atl": 4198,
      "haveĠ": 4199,
      "yÃ³": 4200,
      "ship": 4201,
      "ĪáĪĿ": 4202,
      "áįĦ": 4203,
      "áĪĽáĪŃ": 4204,
      "ĠáĭĪáĪ¨": 4205,
      "áįĪáĪĪ": 4206,
      "waĠniĠ": 4207,
      "ony": 4208,
      "oseĠ": 4209,
      "Hukum": 4210,
      "prop": 4211,
      "91": 4212,
      "incl": 4213,
      "la": 4214,
      "áĪįáĭ°": 4215,
      "áī³áī¸áĭįáĬķ": 4216,
      "ĠáĬłáĬķáĭ³": 4217,
      "ĠáĪ´áīµ": 4218,
      "io": 4219,
      "iĠyaĠK": 4220,
      "taĠhanyarĠ": 4221,
      "isaĠgaĠ": 4222,
      "digir": 4223,
      "ĠáīĢáĬķĠáīłáĬ¢áīµáĭ®áĮµáĭ«": 4224,
      "ÙĲ": 4225,
      "AĠwatanĠ": 4226,
      "kafaĠ": 4227,
      "gunĠ": 4228,
      "babb": 4229,
      "áĪĵ": 4230,
      "premi": 4231,
      "ĠáĪĺáĬķáĮįáĪµáīµ": 4232,
      "isi": 4233,
      "HaifaffunĠ": 4234,
      "nau": 4235,
      "yo": 4236,
      "'y": 4237,
      "ĠáĪĺáĪª": 4238,
      "karamarĠ": 4239,
      "Sab": 4240,
      "'YanĠ": 4241,
      "Uch": 4242,
      "ananĠhukumominĠ": 4243,
      "káº¹Ìģ": 4244,
      "áĮ¹": 4245,
      "orsĠ": 4246,
      "ĠáĪĺáĭµ": 4247,
      "ĠáĪ¥áĪŃáĭĪĠáĪĺáĬķáĮįáĪ¥áīµ": 4248,
      "Os": 4249,
      ".Ġ-": 4250,
      "usiĠ": 4251,
      "jÃ¹lá»įĠ": 4252,
      "aiĠdaĠ": 4253,
      "dif": 4254,
      "Ġáī¥áĪĪáĭį": 4255,
      "Ġáĭ°áī¡áī¥": 4256,
      "ationĠofĠ": 4257,
      "lambarĠ": 4258,
      "uoĠ": 4259,
      "dukĠ": 4260,
      "iĠwaĠm": 4261,
      "Tarih": 4262,
      "eursĠ": 4263,
      "90": 4264,
      "des": 4265,
      "Hot": 4266,
      "u.Ġ": 4267,
      "rib": 4268,
      "4-": 4269,
      "gĠ": 4270,
      "esĠofĠ": 4271,
      "áĪ°áĬķ": 4272,
      "gÃŃ": 4273,
      "ux": 4274,
      "She": 4275,
      "Ã©.": 4276,
      "Ã¢": 4277,
      "addin": 4278,
      "aĠkasarĠ": 4279,
      "walejinĠ": 4280,
      "Sam": 4281,
      "Ã¡r": 4282,
      "AS": 4283,
      "arkonĠ": 4284,
      "atĠtheĠ": 4285,
      "áīº": 4286,
      "áĪĮáĬŃáīµ": 4287,
      "aish": 4288,
      "ĠáĭµáĪĿ": 4289,
      "ĠáĬķáĮīáĪµ": 4290,
      "ĠáĬłáĬ«áĪį": 4291,
      "ĠáįĪáĪŃáĭĸ": 4292,
      "wandaĠakaĠ": 4293,
      "eweĠ": 4294,
      "kÃłn": 4295,
      "áĪĪáī¥": 4296,
      "áĬĲáīłáĪŃ": 4297,
      "áĬĲáī¶áī½": 4298,
      "agbÃ¨gbÃ¨Ġ": 4299,
      "aĠwatanĠ": 4300,
      "wish": 4301,
      "áī¼": 4302,
      "má»įÌĢ": 4303,
      "nÃŃĠá»įjá»įÌģĠ": 4304,
      "uĠmasoĠ": 4305,
      "score": 4306,
      "ionsĠ": 4307,
      "EĠ": 4308,
      "180": 4309,
      "áĪĭáĪīáį¢": 4310,
      "olikiĠ": 4311,
      "aĠfanninĠ": 4312,
      "ectr": 4313,
      "Ã¬b": 4314,
      "Dem": 4315,
      "u-": 4316,
      "ÃĮj": 4317,
      "báº¹Ìģáº¹ÌĢĠ": 4318,
      "anyaĠ": 4319,
      "AĠranarĠ": 4320,
      "Sark": 4321,
      "aireĠ": 4322,
      "26Ġ": 4323,
      "áĪŃáĭ«áĪĿ": 4324,
      "Ibad": 4325,
      "wigiz": 4326,
      "BCĠ": 4327,
      "ba.": 4328,
      "ráº¹": 4329,
      ".Ġ(": 4330,
      "áįĪáīµ": 4331,
      "Ġáĭ¨áĪļáĪį": 4332,
      "áĮłáīĥáĪĭáĭŃ": 4333,
      "Kh": 4334,
      "Sik": 4335,
      "kashinĠ": 4336,
      "neĠnaĠ": 4337,
      "ViungoĠvyaĠnjeĠ": 4338,
      "De": 4339,
      "áĬ¨áĪ«": 4340,
      "me": 4341,
      "Co": 4342,
      "adem": 4343,
      "Ã¬dÃŃ": 4344,
      "ye": 4345,
      "áĪįáį¡áį¡": 4346,
      "ĠáĪĺáĬĲ": 4347,
      "Ġáĭ¨áĪĿáīµ": 4348,
      "Wal": 4349,
      "nas": 4350,
      "warĠ": 4351,
      "idayarĠ": 4352,
      "ertĠ": 4353,
      "ÃłgbÃłĠ": 4354,
      "Al-": 4355,
      "daiĠ": 4356,
      "ĠáĬ¥áĬķáĪµ": 4357,
      "áĬ©áĪį": 4358,
      "are": 4359,
      "ureĠ": 4360,
      "contr": 4361,
      "fimĠ": 4362,
      "umbaĠ": 4363,
      "UjerumaniĠ": 4364,
      "Nd": 4365,
      "Ġ200": 4366,
      "yaĠM": 4367,
      "áĪįáįį": 4368,
      "áĪĪáĭ±": 4369,
      "ĠáĬłáĮ¥": 4370,
      "áĮĪáĭį": 4371,
      "Ġáī°áĬĲ": 4372,
      "oyÃ¨Ġ": 4373,
      "juuĠyaĠ": 4374,
      "nyingiĠ": 4375,
      "waf": 4376,
      "umiaĠ": 4377,
      "Fin": 4378,
      "forĠtheĠ": 4379,
      "anenĠ": 4380,
      "Ġ10": 4381,
      "áĪĦáĭµ": 4382,
      "ĠáĪ³áĭŃáĪĨáĬķ": 4383,
      "elyĠ": 4384,
      "Rayayy": 4385,
      "Kib": 4386,
      "resĠ": 4387,
      "prÃ©s": 4388,
      "áĭ°áĮĭ": 4389,
      "uzikiĠ": 4390,
      "Ãłráº¹Ġ": 4391,
      "Ġ16": 4392,
      "sim": 4393,
      "Chin": 4394,
      "ĠáĪĺáĭĿ": 4395,
      "ĠáĪĽáĪħ": 4396,
      "ĠáĬŃáĪįáĪį": 4397,
      "has": 4398,
      "28": 4399,
      "MajalisarĠ": 4400,
      "atik": 4401,
      "âĢ¢": 4402,
      "Â°": 4403,
      "oryĠ": 4404,
      "26": 4405,
      "Â»Ġ(": 4406,
      "áī¬": 4407,
      "áĮ³": 4408,
      "ĠáĭĪáĮĪáĬķ": 4409,
      "áĮłáįĭ": 4410,
      "Ġáĭ¨áī°áĪĪáĭ«áĭ©": 4411,
      "Ġáī³áĪĭáīħ": 4412,
      "iweĠ": 4413,
      "Makar": 4414,
      "abl": 4415,
      "naĠku": 4416,
      "nuĠ": 4417,
      "ĠáĬĳ": 4418,
      "Ġáĭ¨áīµ": 4419,
      "ĠáĪĪáĭį": 4420,
      "awaĠdaĠ": 4421,
      "ĠáĪĽáĪµáī³áĭĪ": 4422,
      "Ni": 4423,
      "egeĠ": 4424,
      "97": 4425,
      "OrÃŃ": 4426,
      "áĪµáī±": 4427,
      "canĠ": 4428,
      "ongoĠ": 4429,
      "thisĠ": 4430,
      "ĠáĪ²áĪĨáĬķĠáĭŃáĪħ": 4431,
      "Ġáĭ¨áĬłáĪĽáĪŃáĬĽĠáĪĿáĪ³áĪĮĠáĬĲáĭįáį¢ĠáīµáĪŃáĮīáĪĻĠáĪĺáĭ°áī¥Ġ:Ġáī°áĪ¨áīµáĬĵĠáĪĿáĪ³áĪĮ": 4432,
      "ĠáīłáĬ¥áĬķáĮįáĪĬáĭĿáĬĽ": 4433,
      "so": 4434,
      "Mich": 4435,
      "Pet": 4436,
      "ubwaĠ": 4437,
      "oĠsiĠ": 4438,
      "prot": 4439,
      "Ãłká»įÌģká»įÌģĠ": 4440,
      "5-": 4441,
      "sol": 4442,
      "µáį": 4443,
      "ĠáĭĲ": 4444,
      "ectĠ": 4445,
      "ilis": 4446,
      "ori": 4447,
      ".ĠItokasiĠÃĢwá»įnĠ": 4448,
      "imaĠ": 4449,
      "ciĠgabaĠdaĠ": 4450,
      "chang": 4451,
      "http://www.": 4452,
      "PĠ": 4453,
      "áĭ³áĪĿ": 4454,
      "FAĠ": 4455,
      "ta,Ġ": 4456,
      "alb": 4457,
      "hukumaĠ": 4458,
      "JuniĠ": 4459,
      "juĠ": 4460,
      "|ĠRD1-": 4461,
      "Ùı": 4462,
      "ativeĠ": 4463,
      "Gb": 4464,
      "183": 4465,
      "birniĠ": 4466,
      "duk": 4467,
      "kÃ¹n": 4468,
      "sehemuĠyaĠ": 4469,
      "eder": 4470,
      "Ä«": 4471,
      "Káº¹": 4472,
      "ĠáĪ©": 4473,
      "áĪŃáĮį": 4474,
      "âĢĶ": 4475,
      "ĠáĬĲáĭįáį¢Ġáĭ¨": 4476,
      "The": 4477,
      "áĮłáĪį": 4478,
      "kutokaĠMarekaniĠ": 4479,
      "ĠáĪĢáĮĪáĪŃ": 4480,
      "iliyanĠ": 4481,
      "popul": 4482,
      "bang": 4483,
      "indiĠ": 4484,
      "wamnanĠ": 4485,
      "theirĠ": 4486,
      "rad": 4487,
      "áīłáĪĮ": 4488,
      "áĮ¥áĬķáī³áĭĬ": 4489,
      "stat": 4490,
      "chiniĠyaĠ": 4491,
      "utt": 4492,
      "iliĠyaĠ": 4493,
      "uwaĠdaĠ": 4494,
      "waÉĹandaĠ": 4495,
      "má»į": 4496,
      "áĬķĠ(": 4497,
      "áī½áĭį": 4498,
      "Ġáĭ¨áī°áī£áĪĪáĭį": 4499,
      "bl": 4500,
      "day": 4501,
      "nadaĠ": 4502,
      "Ġ6": 4503,
      "Ã©tÃ©Ġ": 4504,
      "kwenyeĠ": 4505,
      "ÃłwonĠ": 4506,
      "ÃłmÃ¬": 4507,
      "áĬķáĭ°": 4508,
      "áĬķĠáĪĪ": 4509,
      "áĬķĠáĪµáĪĿ": 4510,
      "áį¢Ġáīł": 4511,
      "áī°áĭĭáĪįáį¢": 4512,
      "áĬĲáĮĪ": 4513,
      "áĪĭáĪī": 4514,
      "Ġáĭ¨áĪĮ": 4515,
      "áĬĽáĭįĠáĬŃáįįáĪĪĠáĭĺáĪĺáĬķ": 4516,
      "ĠáĭĻáĪªáĭ«": 4517,
      "Cor": 4518,
      "mall": 4519,
      "alm": 4520,
      "kulaĠ": 4521,
      "autiĠ": 4522,
      "akk": 4523,
      "dev": 4524,
      "áĭ«áĪµ": 4525,
      "iter": 4526,
      "áī¶áī¹": 4527,
      "ĠáĪĨáĬĲáĭį": 4528,
      "kusin": 4529,
      "ApriliĠ": 4530,
      "ĠáĬ¥áĮħáĮį": 4531,
      "lÃ¹": 4532,
      "zar": 4533,
      "quesĠ": 4534,
      "ĠáĮĨ": 4535,
      "áĭŃáĬĲáīµ": 4536,
      "áī½áĪį": 4537,
      "áĬŃáĪĪ": 4538,
      "áī¨áĪŃ": 4539,
      "Bah": 4540,
      "re,Ġ": 4541,
      "wandishiĠ": 4542,
      "wÃŃpÃ©Ġ": 4543,
      "Peop": 4544,
      "amad": 4545,
      "mÃ¬": 4546,
      "sÃ³": 4547,
      "sesĠ": 4548,
      "unciĠ": 4549,
      "áĭĺáī¥": 4550,
      "kÃŃĠÃ³Ġ": 4551,
      "5Ġ-Ġ": 4552,
      "utumĠ": 4553,
      "peluĠ": 4554,
      "tureĠ": 4555,
      "enoĠ": 4556,
      "nÃŃĠÃ¬lÃºĠ": 4557,
      "padÃłĠ": 4558,
      "StateĠ": 4559,
      "áī½áĪģ": 4560,
      "áĮĪáĬĽ": 4561,
      "áĬ¨áĪŃ": 4562,
      "áĬ«áī£áī¢": 4563,
      "kad": 4564,
      "pakaĠ": 4565,
      "aidaĠ": 4566,
      "Dar": 4567,
      "una": 4568,
      "ÃŃrÃłnĠ": 4569,
      "Rep": 4570,
      "binc": 4571,
      "asalinĠ": 4572,
      "rem": 4573,
      "wilayaĠ": 4574,
      "áĮĪáĬĲ": 4575,
      "áĪªáī³": 4576,
      "ĠáĬ«áĪį": 4577,
      "lÃ³rÃŃ": 4578,
      "WannanĠ": 4579,
      "lasheĠ": 4580,
      "ryĠ": 4581,
      "shekararĠ200": 4582,
      "aĠsh": 4583,
      "NaijiriaĠ": 4584,
      "dom": 4585,
      "áį¤Ġáīł": 4586,
      "'yarĠ": 4587,
      "eauĠ": 4588,
      "binĠ": 4589,
      "2,": 4590,
      "áĬŃáĪŃáĪµáī²áĭ«áĬķ": 4591,
      "ĠáĪĽáĮ£": 4592,
      "Bel": 4593,
      "FI": 4594,
      "wanz": 4595,
      "FebruariĠ": 4596,
      "Æ´": 4597,
      "Ġáĭ¨áĭĵ": 4598,
      "áī£áĪįáį¢": 4599,
      "áįįáĪªáĬ«": 4600,
      "áĭ¨áĪĺ": 4601,
      "áī²áĬŃ": 4602,
      "kÃŃ": 4603,
      "sal": 4604,
      "ceĠtaĠ": 4605,
      "ammalaĠ": 4606,
      "Manazarta": 4607,
      "centur": 4608,
      "má»įĠ": 4609,
      "gbá»įÌĢ": 4610,
      "baadaĠyaĠ": 4611,
      "áī¥áĪŃáĪĥ": 4612,
      "ĠáĭŃáī½áĪĭáĪįáį¢": 4613,
      "hiyoĠ": 4614,
      "tas": 4615,
      "Ã²á¹£Ã¨rÃ©": 4616,
      "Wom": 4617,
      "sinim": 4618,
      "muĠ": 4619,
      "Arab": 4620,
      "cap": 4621,
      "Ð°": 4622,
      "Ġáĭ¨áī³": 4623,
      "áĪ³áī°": 4624,
      "Ġáī°áįĪ": 4625,
      "ĠáīłáĪį": 4626,
      "ĠáĭĵáĬŃáĪįáīł.ĠáĮįáĭµáĪĿ": 4627,
      "ĠáĭŃáī³áĭĪáīĥáĪįáį¢": 4628,
      "MĠ": 4629,
      "yaddaĠ": 4630,
      "not": 4631,
      "alip": 4632,
      "ana'": 4633,
      "áĬ½": 4634,
      "áĬĭáĪĭ": 4635,
      "áĪŃ-": 4636,
      "ĠáĬ¥áĭµ": 4637,
      "áĪ«áī¸áĭį": 4638,
      "asharaĠ": 4639,
      "áīĥáĪį": 4640,
      "ĠáĬ¥áĬķáĭ°áĪĨáĬĲ": 4641,
      "sauranĠ": 4642,
      "sub": 4643,
      "okeĠ": 4644,
      "pÃ©": 4645,
      "Ghan": 4646,
      "Yamm": 4647,
      "okuwaĠ": 4648,
      "shiĠneĠdanĠ": 4649,
      "lÃ²Ġ": 4650,
      "áĬ¾": 4651,
      "ĠáĬłáĭ²áĪµ": 4652,
      "Ġáĭ¨áĪĨáĬĳ": 4653,
      "wenyeĠm": 4654,
      "Ġáĭ¨áĬĲáīłáĪ¨áĭį": 4655,
      "áĪĪáī°áĬĽáĭį": 4656,
      "Ġáĭ©áĬĴ": 4657,
      "iziĠ": 4658,
      "ourn": 4659,
      "bor": 4660,
      "aĠniĠ": 4661,
      "WakristoĠ": 4662,
      "UlayaĠ": 4663,
      "áĭ«áĭ«": 4664,
      "áī¥áĪĬáĬŃ": 4665,
      "áī£áĪī": 4666,
      "áĬĳáĪµ": 4667,
      "ci": 4668,
      "unĠniĠ": 4669,
      "entreĠ": 4670,
      "kask": 4671,
      "Octob": 4672,
      "ISBNĠ": 4673,
      "21": 4674,
      ")ĠáĬ¨": 4675,
      "9-": 4676,
      "áĬķáĮ«": 4677,
      ",ĠtheĠ": 4678,
      "áīłáĬĽ": 4679,
      "Ġáī°áīĭ": 4680,
      "ĠáĭŃáī»": 4681,
      "ĠáĭŃáĮłáīĢ": 4682,
      "agesĠ": 4683,
      "DĠ": 4684,
      "tsar": 4685,
      "Mil": 4686,
      "páº¹l": 4687,
      "yenyeĠ": 4688,
      "omitaĠ": 4689,
      "ock": 4690,
      "áĬłáĪĿ": 4691,
      "mÃ¡aĠÅĦĠ": 4692,
      "lÃ³gÃºnĠ": 4693,
      "aiĠnaĠ": 4694,
      "ba,Ġ": 4695,
      "áĬ¡": 4696,
      "áī£áĪħ": 4697,
      "áĬ«áĪį": 4698,
      "Ġáĭ«áĪī": 4699,
      "ĠáĬ«áĪĮ": 4700,
      "adiĠyaĠ": 4701,
      "Lov": 4702,
      "upandeĠwaĠ": 4703,
      "Kit": 4704,
      "abub": 4705,
      "rew": 4706,
      "harĠzuwaĠ": 4707,
      "lakeĠ": 4708,
      "ĠáĪĪáĬ¥": 4709,
      "áĭĽáĪ¬": 4710,
      "áĪ±áĪĿ": 4711,
      "ouldĠ": 4712,
      "ilÃ©-áº¹ÌĢká»įÌģĠ": 4713,
      "erĠofĠ": 4714,
      "haifiĠ": 4715,
      "Kil": 4716,
      "áĮ¼": 4717,
      "Ġáĭ¨áī°áĬŃáĪī": 4718,
      "Ġáº¹niĠ": 4719,
      "áīģáĪŃ": 4720,
      "ĠáĪ«áĪµ": 4721,
      "Ã¬mÃ¹Ġ": 4722,
      "sup": 4723,
      "NchiĠ": 4724,
      "sababuĠ": 4725,
      "ĠáĭįáĪµáĮ¥Ġáĭ¨áĪļáĮĪáĬĿ": 4726,
      "cer": 4727,
      "hann": 4728,
      "prov": 4729,
      "asiasaĠ": 4730,
      "-ĠMtakatifuĠ": 4731,
      "Bi": 4732,
      "Riv": 4733,
      "alementĠ": 4734,
      "ikanĠ": 4735,
      "akosoĠ": 4736,
      "áĮĪáĭĽ": 4737,
      "aff": 4738,
      "ed.": 4739,
      "ĠáĪŀáīµ": 4740,
      "yÃ³Ã²Ġ": 4741,
      "ment": 4742,
      "atanĠ": 4743,
      "ishiĠwaĠ": 4744,
      "kasaĠ": 4745,
      "áī³áī½áĬķ": 4746,
      "áĭ°áĪ¨áĮī": 4747,
      "offic": 4748,
      "itinĠ": 4749,
      "7-": 4750,
      "Uk": 4751,
      "ĠáīłáĪ¨": 4752,
      "okĠ": 4753,
      "áĬłáĪį": 4754,
      "iá¹£áº¹Ġ": 4755,
      "ĠáĭĵáĪĺáī±": 4756,
      "ĠáīłáĬ©áĪį": 4757,
      "adil": 4758,
      "a)": 4759,
      "le-": 4760,
      "UingerezaĠ": 4761,
      "famil": 4762,
      "áĭįáĪµ": 4763,
      "kuz": 4764,
      "áĭµáĪµáīµ": 4765,
      "áĬĿáĬĲáīµ": 4766,
      "ĠáĮĪáī¥": 4767,
      "áĮłáĪĭ": 4768,
      "Ġáī¤áī°ĠáĬŃáĪŃáĪµáī²áĭ«áĬķ": 4769,
      "Aw": 4770,
      "Ġáº¹láº¹ÌģbÃ¹nĠ": 4771,
      "a\"Ġ": 4772,
      "yÃłnĠ": 4773,
      "áĭ£": 4774,
      "Ġáĭ±": 4775,
      "olos": 4776,
      "unguĠ": 4777,
      "Ibrah": 4778,
      "JanuaryĠ": 4779,
      "||": 4780,
      "shirinĠ": 4781,
      "oundĠ": 4782,
      "pÃ¨": 4783,
      "tuĠ": 4784,
      "tall": 4785,
      "opoĠ": 4786,
      "ank": 4787,
      "ĠáĬłáĪ°": 4788,
      "ĠáīµáĪįáīħ": 4789,
      "ĠáĪľáīµáĪŃ": 4790,
      "AugustĠ": 4791,
      "lÃł": 4792,
      "tÃŃĠÃłwá»įnĠ": 4793,
      "70": 4794,
      "pers": 4795,
      "áĬķáĭ²": 4796,
      "áĭįáĪį": 4797,
      "aseĠ": 4798,
      "áĪĪáĪģ": 4799,
      "Ã¹gbá»įÌģnĠ": 4800,
      "áĪ©áīµ": 4801,
      "áĪİáĬķ": 4802,
      "shekaraĠtaĠ201": 4803,
      "ĠáĪķáĭĿ": 4804,
      "Ġáº¸ÌĢ": 4805,
      "ĠáįķáĪ¬áĭļ": 4806,
      "attalinĠarz": 4807,
      "Pat": 4808,
      "vis": 4809,
      "uriĠ": 4810,
      "Adam": 4811,
      "enz": 4812,
      "kwallonĠ": 4813,
      "akoĠ": 4814,
      "agu": 4815,
      "ĠáĭįáĮ¤": 4816,
      "Ġáĭ¨áĪ°áĭį": 4817,
      "ĠáīłáĭĺáĪĺáĬĲĠáĭ®áĪĲáĬķáĪµ": 4818,
      "cel": 4819,
      "ĠáĪ¥áĪĭáĪ´": 4820,
      "Ã©ri": 4821,
      "yÃ¬ÃŃ": 4822,
      "jinaĠlaĠ": 4823,
      "iranĠ": 4824,
      "auy": 4825,
      "Er": 4826,
      "Ġáĭŀ": 4827,
      "áīĢáĪį": 4828,
      "áīĢáĭµáĪŀ": 4829,
      "áīħáĪµ": 4830,
      "Amerik": 4831,
      "ĠáĮ½áĪĳáįį": 4832,
      "ĠáįĢ": 4833,
      "alil": 4834,
      "ikiaĠ": 4835,
      "iti": 4836,
      "dagaĠbayaĠ": 4837,
      "45": 4838,
      "ipoĠ": 4839,
      "Tim": 4840,
      "ĠK": 4841,
      "áĬ¨áįį": 4842,
      "áĬķáĭ³áĪŃ": 4843,
      "ĠáĮįáī¥áĮ½": 4844,
      "mi": 4845,
      "mod": 4846,
      "âĢ¦": 4847,
      "insuĠ": 4848,
      "âĢĿĠ": 4849,
      "rubutaĠ": 4850,
      "shiĠneĠdanĠwasanĠÆĻwallonĠÆĻafaĠtaĠÆĻasarĠIngil": 4851,
      "eziĠ": 4852,
      "áĭķáĭĿ": 4853,
      "ĠáĭŃáĪħáĪĿ": 4854,
      "áĬ¨áī°áĪĪáĭį": 4855,
      "ton": 4856,
      "KenyaĠ": 4857,
      "Coun": 4858,
      "oin": 4859,
      "okeaĠ": 4860,
      "awalaĠ": 4861,
      "aliwa": 4862,
      "tÃŃĠÃ³ĠtiĠ": 4863,
      "pasĠ": 4864,
      "Wah": 4865,
      "áĪµáī°áĬĽ": 4866,
      "Ġáīłáĭ¨": 4867,
      "ĠáĬłáĬĲ": 4868,
      "ĠáĬłáĭµ": 4869,
      "áĭ³áĮħ": 4870,
      "ĠáĭµáĬķ": 4871,
      "ĠáīģáĮ¥": 4872,
      "Bib": 4873,
      "pÃŃ": 4874,
      "udiĠ": 4875,
      "ation,Ġ": 4876,
      "egb": 4877,
      "Gl": 4878,
      "ĠáĬ¥áĬķáĭ°áī°": 4879,
      "ĠáīłáĪĺáĪĨáĬĳ": 4880,
      "ÙĴ": 4881,
      ":ĠTheĠ": 4882,
      "JinaĠ": 4883,
      "gabatarĠdaĠ": 4884,
      "áĬ¨áī¥": 4885,
      "áĪ¥áī±": 4886,
      "áĮİáĪŃáĮİáĪŃ": 4887,
      "Eg": 4888,
      "MwakaĠwaĠ": 4889,
      "kaiĠ": 4890,
      "Ãłj": 4891,
      "ollywo": 4892,
      "iyy": 4893,
      "áĭ³áĬķáīµ": 4894,
      "ĠáĪµáĪĪáĭļáĪħ": 4895,
      "ĠáĪħáĭĿáī¥": 4896,
      "Gwamn": 4897,
      "labar": 4898,
      "ĠH": 4899,
      "aĠr": 4900,
      "fina-fin": 4901,
      "kumaĠk": 4902,
      "dinĠ": 4903,
      "aĠyaĠm": 4904,
      "hum": 4905,
      "áĬķĠáĪĪáĪĺ": 4906,
      "ĠáĪĺáĪ¨áĮĥ": 4907,
      "áį¡áĭ¨": 4908,
      "áĭĭáīµ": 4909,
      "ĠáĪĿáĬķáĮŃ": 4910,
      "ts,Ġ": 4911,
      "ÃĢwá»įnĠÃ¬t": 4912,
      "JamesĠ": 4913,
      "SouthĠ": 4914,
      "áī§": 4915,
      "ĠáīłáĮ¥": 4916,
      "ĠáĬłáī£áĪį": 4917,
      "áī£áī¥": 4918,
      "Ġáĭ¨áĬĸ": 4919,
      "ĠáĬŃáĪŃáĪµáī¶áĪµ": 4920,
      "Marej": 4921,
      "wakatiĠwaĠ": 4922,
      "ĠáįĬáĭ°áĪį": 4923,
      "jerinĠ": 4924,
      "ĠáįķáĪ®": 4925,
      "pá»įÌĢlá»į": 4926,
      "áįĪáĮ¥áĪ®": 4927,
      "Ng": 4928,
      "Mart": 4929,
      "utiĠ": 4930,
      "Láº¹Ìģ": 4931,
      "gasarĠ": 4932,
      "Â»Ġ": 4933,
      "KanananĠhukumominĠ": 4934,
      "áĮ¾": 4935,
      "ĠáīłáĪĨ": 4936,
      "ĠáĬ¥áĬķáĬ³": 4937,
      "áĬªáĭ«": 4938,
      "ĠáĬłáĭŃáĭ°áĪĪáĪĿ": 4939,
      "1Ġ-Ġ": 4940,
      "beenĠ": 4941,
      "hud": 4942,
      "kik": 4943,
      "rá»įĠ": 4944,
      "sos": 4945,
      "ifuat": 4946,
      "lil": 4947,
      "ity,Ġ": 4948,
      "redĠ": 4949,
      "syst": 4950,
      "rashinĠ": 4951,
      "yiĠm": 4952,
      "Æ³": 4953,
      "a'aik": 4954,
      "indaĠtaĠ": 4955,
      "fitoĠ": 4956,
      "reeĠ": 4957,
      "ĠáīłáĪ«": 4958,
      "ansuĠ": 4959,
      "zinaz": 4960,
      "ĠáĬłáĬķáĭ³áĬķáĭµ": 4961,
      "ia.Ġ": 4962,
      "dam": 4963,
      "owaĠ": 4964,
      "Es": 4965,
      "Waz": 4966,
      "al.": 4967,
      "3,": 4968,
      "Mu": 4969,
      "anĠ(": 4970,
      "DecemberĠ": 4971,
      "áĪµáī¶": 4972,
      "ĠáĪĺáĮ»": 4973,
      "áĬłáĭŃ": 4974,
      "aunaĠ": 4975,
      "áĪµáĪ«áīħ": 4976,
      "ĠáĪĽáĪŃáīĨáĪµ": 4977,
      "ĠáīłáĪĻáĪī": 4978,
      "Ro": 4979,
      "yauĠ": 4980,
      "iyaĠdaĠ": 4981,
      "ungan": 4982,
      "ever": 4983,
      "Ayy": 4984,
      "kin": 4985,
      "ariki": 4986,
      "onc": 4987,
      "áīłáĪ¬": 4988,
      "áĭĿáĪĽáī½": 4989,
      "ĠáĬłáĪĿáĪĭáĬŃ": 4990,
      "gbajÃºmá»įÌĢĠ": 4991,
      "ax": 4992,
      "awak": 4993,
      "iyoy": 4994,
      "tionsĠ": 4995,
      "aĠJiharĠ": 4996,
      "áĪ«áĪĿ": 4997,
      "ĠáĪļáĪĬ": 4998,
      "intaĠnaĠ": 4999,
      "iâĢĻarĠ": 5000,
      "Born": 5001,
      "loriĠ": 5002,
      "vo": 5003,
      "ensĠ": 5004,
      "wÃ³nĠ": 5005,
      "ishaĠm": 5006,
      "o:Ġ": 5007,
      "ThisĠ": 5008,
      "35": 5009,
      "wararr": 5010,
      "nÃ¬": 5011,
      "áĪ³áĪį": 5012,
      "áĬ«áī³": 5013,
      "áĭĺáĬķ": 5014,
      "ĠáĬ¥áĬķáĭ°áĮĪáĬĵ": 5015,
      "Comp": 5016,
      "ĠáĮĢáĪĿáĪ®ĠáĬ¥áĪµáĬ¨Ġ": 5017,
      "ĠáīłáĪ½áī³": 5018,
      "atom": 5019,
      "Maj": 5020,
      "Vol": 5021,
      "aĠkwaĠm": 5022,
      "Najeriya": 5023,
      "eneoĠlaĠ": 5024,
      "wajeĠ": 5025,
      "áĭ¨áĭį": 5026,
      "ĠáīłáĬ¢": 5027,
      "áī²áĬķ": 5028,
      "áĪģáĪī": 5029,
      "áĮĬáĪµ": 5030,
      "ĠáĬ«áĪĮáĬķáĭ³áĪŃ": 5031,
      "e)": 5032,
      "Bell": 5033,
      "ternĠ": 5034,
      "ayenĠ": 5035,
      "su.": 5036,
      "Arm": 5037,
      "iakaĠm": 5038,
      "áīłáĭį": 5039,
      "ĠáĪĪáī°": 5040,
      "áīĭáĬķáīĭ": 5041,
      "yaĠKemi": 5042,
      "áĬķáĭ³áĬķáĭµ": 5043,
      "áĮłáīĢáĪĿ": 5044,
      "ÃĢwá»įnĠáº¹láº¹ÌģbÃ¹nĠ": 5045,
      "á»įÌģkasÃŃ": 5046,
      "áĮİáĪŃáĮİáĪŃáĭ«áĬķ": 5047,
      "atsay": 5048,
      "iyoyinĠ": 5049,
      "AnĠhaifeĠ": 5050,
      "Janair": 5051,
      "Nuw": 5052,
      "ÃłrÃŃ": 5053,
      "DolaĠ": 5054,
      "Ã¬f": 5055,
      "ÃĢÃłráº¹Ġ": 5056,
      "produc": 5057,
      "nÃŃnuĠ": 5058,
      "Waliofariki": 5059,
      "shindiĠwaĠTuzoĠyaĠNobelĠyaĠKemi": 5060,
      "Ã²rÃ¹nĠ": 5061,
      "wengiĠ": 5062,
      ".ĠK": 5063,
      "oldĠ": 5064,
      "áĪµáĪĽ": 5065,
      "Ġáį«": 5066,
      "áĪŀáĬŃ": 5067,
      "áĭĽáĭĿ": 5068,
      "áĮ£áĪįáĭ«áĬķ": 5069,
      "ĠáĪĽáĮ£áīĢ": 5070,
      "ÆĻasaĠ": 5071,
      "Se": 5072,
      "yaĠyiĠ": 5073,
      "illĠ": 5074,
      "nÃ¡Ãł.": 5075,
      "orig": 5076,
      "Hisp": 5077,
      "Roma,Ġ": 5078,
      "aĠyankinĠ": 5079,
      "ĠáĬĹ": 5080,
      "áĪįáĮħ": 5081,
      "ilion": 5082,
      "Ġáī°áĬĵ": 5083,
      "Waliozaliwa": 5084,
      "zaÉĵ": 5085,
      "ĠáĬłáĪģáĬķ": 5086,
      ".,Ġ": 5087,
      "0-": 5088,
      "BC": 5089,
      "tÃłĠ": 5090,
      "ed,Ġ": 5091,
      "oyeĠ": 5092,
      "ijobaĠ": 5093,
      "ĠáĪİ": 5094,
      "áīµáĪĿ": 5095,
      "áĭ«áĭĿ": 5096,
      "ĠáĪĺáī¶": 5097,
      "áĪ«áĪ½": 5098,
      "ĠáĭŃáĭĪ": 5099,
      "Sen": 5100,
      "Ãłb": 5101,
      "Abuj": 5102,
      "Cap": 5103,
      "Ãłg": 5104,
      "GeorgeĠ": 5105,
      "ĠáĪĿáĬĵáĪį": 5106,
      "áĭ³áĬķáĭ±": 5107,
      "ĠáĪĿáĬĵáĪįáī£áīµ": 5108,
      "ItĠ": 5109,
      "esab": 5110,
      "bat": 5111,
      "ziliz": 5112,
      "áĪįáīģ": 5113,
      "ĠáĬłáī£áīµ": 5114,
      "áĬ¥áĮįáĭļáĬłáī¥áĪĶáĪŃ": 5115,
      "uisĠ": 5116,
      "anti": 5117,
      "iĠkoĠ": 5118,
      "Academ": 5119,
      "ataif": 5120,
      "ÆĻir": 5121,
      "portĠ": 5122,
      "au,Ġ": 5123,
      "ºáį": 5124,
      "áĬķĠáīłáĪĺ": 5125,
      "ojaĠwaĠ": 5126,
      "risti": 5127,
      "91Ġáĭĵ.áĪĿ.": 5128,
      "DanĠ": 5129,
      "ĠdesĠ": 5130,
      "fus": 5131,
      "ĠR": 5132,
      "commun": 5133,
      "rÃ©g": 5134,
      "uelĠ": 5135,
      "áĮĪáī¡": 5136,
      "kasaĠdaĠ": 5137,
      "tsawonĠ": 5138,
      "KaramarĠ": 5139,
      "zabenĠ": 5140,
      "áĮİáĪŃáĮİáĪŃáĭ«áĬķĠáĬ«áĪĮáĬķáĭ³áĪŃ": 5141,
      "VI": 5142,
      "tiĠwonĠ": 5143,
      "ÃĮb": 5144,
      "yr": 5145,
      "ick": 5146,
      "WilliamĠ": 5147,
      "aĠNajeriyaĠ": 5148,
      "waĠmasoĠ": 5149,
      "Up": 5150,
      "2091Ġáĭĵ.áĪĿ.": 5151,
      "Ġáī°áĭĭ": 5152,
      "aĠkamaĠ": 5153,
      "áīłáĪ°": 5154,
      "Ġáī£áĪį": 5155,
      "ĠáįĪáĪ¨áĬķ": 5156,
      "áĪ¥áĪ«áīħ": 5157,
      "prof": 5158,
      "''": 5159,
      "dur": 5160,
      "sikuĠyaĠ": 5161,
      "dabanĠ": 5162,
      "faf": 5163,
      "34": 5164,
      "year": 5165,
      "¹áį": 5166,
      "ĠáĪ¹": 5167,
      "áĬķĠáĪĽ": 5168,
      "Ã©c": 5169,
      "áĪªáīµ": 5170,
      "ĠáīłáĪķ": 5171,
      "awanĠ": 5172,
      "áįįáĬĵ": 5173,
      "áĬłáĬķ": 5174,
      "áīłáĪī": 5175,
      "áĭ®áĪŃáĮĬáĪµ": 5176,
      "usi": 5177,
      "aminĠ": 5178,
      "alÃ¡Ã¬": 5179,
      "Soci": 5180,
      "nor": 5181,
      "udeĠ": 5182,
      "anaĠnaĠm": 5183,
      "ĠáĭµáĬķáĮĭ": 5184,
      "ĠáĬłáĮĪáĪ«áīµ": 5185,
      "Ãłwá»įnĠá»įjá»įÌģÃ¬bÃŃĠnÃŃĠ": 5186,
      "ajiĠwaĠfilamuĠ": 5187,
      "áĪıáĪįáį¢": 5188,
      "nasar": 5189,
      "baĠtaĠ": 5190,
      "aĠgarinĠ": 5191,
      "ful": 5192,
      "Ø¨": 5193,
      "Ã³mÃ¬n": 5194,
      "Ġá»įdÃºnĠ200": 5195,
      "Sat": 5196,
      "fan": 5197,
      "iĠkamaĠ": 5198,
      "polit": 5199,
      "ĠáĪįáī¥": 5200,
      "9Ġ-Ġ": 5201,
      "tech": 5202,
      "ĠáĪĽáĪµáī³áĭĪáĪ»áĭİáī½": 5203,
      "yawanĠjama'aĠ": 5204,
      "alim": 5205,
      "shar": 5206,
      "nÃŃnÃºĠerÃ©Ġ": 5207,
      "ÃĴg": 5208,
      "Cong": 5209,
      "ce": 5210,
      "á»įÌģá»įÌĢ": 5211,
      "Ġáĭ¨áĪŀ": 5212,
      "nÃŃĠÃĮpÃŃnláº¹ÌĢĠ": 5213,
      "ÅĦĠá¹£": 5214,
      "nÃŃnÃº": 5215,
      "asĠtheĠ": 5216,
      "Alexand": 5217,
      "kÃº": 5218,
      "laĠk": 5219,
      "nolog": 5220,
      "aguz": 5221,
      "sÃŃĠnÃŃĠ": 5222,
      "azamaĠpiaĠ": 5223,
      "Mah": 5224,
      "Kiswah": 5225,
      "sign": 5226,
      "áĪµáĪį": 5227,
      "áĬĲáī±áĬķ": 5228,
      "ĠáĪĺáĮ¥": 5229,
      "Ġáĭ¨áĬ®": 5230,
      "áĭ«áĬķáĭ³áĬķáĭ±": 5231,
      "ĠáĬŃáįįáĪİáī½": 5232,
      "Ġáĭ¨áĪļáĭ«áĪµ": 5233,
      "Ġáĭ³áĪŃ": 5234,
      "EbunĠ": 5235,
      "iĠmwaĠ": 5236,
      "epend": 5237,
      "Hen": 5238,
      "Mut": 5239,
      "ini": 5240,
      "inn": 5241,
      "un.": 5242,
      "iĠtaĠ": 5243,
      "Ġáī¶": 5244,
      "kuuĠ": 5245,
      "ĠáĮ«": 5246,
      "omonĠ": 5247,
      "Fasih": 5248,
      "Josep": 5249,
      "WestĠ": 5250,
      "eĠtaĠ": 5251,
      "olon": 5252,
      "Uingerez": 5253,
      "erg": 5254,
      "áĬķáĪ³áĭĬ": 5255,
      "ĠáĮ³": 5256,
      "ĠáĪĺáĪ³": 5257,
      "akatifuĠ": 5258,
      "Ġ15": 5259,
      "withĠtheĠ": 5260,
      "anarĠ": 5261,
      "alik": 5262,
      "Lak": 5263,
      "fÃ©r": 5264,
      "sáº¹ÌĢĠ": 5265,
      "¸áį": 5266,
      "áī¾": 5267,
      "arciĠ": 5268,
      "áĬķáĭ¶": 5269,
      "áī³áī½": 5270,
      "Ġáī¥áĭĽáīµ": 5271,
      "ĠáīĢáĬķĠáį²áį±áį»áį": 5272,
      "Amáº¹ÌģrÃŃkÃłĠ": 5273,
      "áĮĪáĪªáī±": 5274,
      "ÆĻungiyarĠ": 5275,
      "fran": 5276,
      "jam'": 5277,
      "Nijeriya.": 5278,
      "takaĠ": 5279,
      "29": 5280,
      "36": 5281,
      "BĠ": 5282,
      "RaisĠwaĠ": 5283,
      "mÃŃĠ": 5284,
      "ikip": 5285,
      "wanaf": 5286,
      "endeleaĠ": 5287,
      "Pas": 5288,
      "faĠ": 5289,
      "jiniĠ": 5290,
      "abr": 5291,
      "áĪ³áĪ³áĭŃ": 5292,
      "áīĢáĪ¨": 5293,
      "áį¤Ġáĭ¨": 5294,
      "ĠáĪ²áĪĨáĬķáį£": 5295,
      "harshenĠ": 5296,
      "ĠáĭĿáĪŃáĭ«": 5297,
      "Nijeriya.Ġ": 5298,
      "al'umm": 5299,
      "ĠáĪĪáĪĿáĪ³áĪĮ": 5300,
      "HukumarĠ": 5301,
      "Air": 5302,
      "elsĠ": 5303,
      "ost": 5304,
      "Mb": 5305,
      "ansaĠ": 5306,
      "UN": 5307,
      "7Ġ-Ġ": 5308,
      "pÃ¡": 5309,
      "iwonĠ": 5310,
      "yaĠmutuĠ": 5311,
      "FebruaryĠ": 5312,
      "-áº¹ÌĢ": 5313,
      "lamuĠ": 5314,
      "ven": 5315,
      "áĬķáĭ°áĪŃ": 5316,
      "ĠáĭĪáĪįáĭ°": 5317,
      "lughaĠ": 5318,
      "yank": 5319,
      "Port": 5320,
      "oloj": 5321,
      "uguĠ": 5322,
      "31Ġ": 5323,
      "Te": 5324,
      "Ã¼": 5325,
      "Ã¬bÃŃ": 5326,
      "sehemuĠ": 5327,
      "AnnabiĠ": 5328,
      "páº¹luĠ": 5329,
      "ĠáīłáĮİáĪŃáĮİáĪŃáĭ«áĬķĠáĬ«áĪĮáĬķáĭ³áĪŃ": 5330,
      "ĠáĬĲáĮĪáĪŃĠáĮįáĬķ": 5331,
      "Ð¸": 5332,
      "onsĠ": 5333,
      "whoĠ": 5334,
      "SeptemberĠ": 5335,
      "amiĠ": 5336,
      "pÃ¨ĠnÃŃĠ": 5337,
      "MutaneĠ": 5338,
      "arkokinĠ": 5339,
      "shiryaĠ": 5340,
      "a,": 5341,
      "udaĠ": 5342,
      "abij": 5343,
      "Ġ(201": 5344,
      "Tun": 5345,
      "partic": 5346,
      "áī°áį¢": 5347,
      "Ġáĭ¨áĬ¦": 5348,
      "áĪ©áĪĿ": 5349,
      "áĪ²áĬķ": 5350,
      "ĠáīĢáĬķĠáĪĽáĪĪáīµĠáĬĲáĭįáį¢": 5351,
      "arÃ¡ĠAmáº¹ÌģrÃŃkÃł": 5352,
      "ĠáĬłáīĨáĮ£áĮłáĪŃĠ(áĬ¨": 5353,
      "Ġ(áĬ¥áĬķáĮįáĪĬáĭĿáĬĽ": 5354,
      "1892Ġáĭĵ.áĪĿ.ĠáĮĢáĪĿáĪ®ĠáĬ¥áĪµáĬ¨Ġ": 5355,
      "ĠáīĢáĬķĠáīłáĬ¢áīµáĭ®áĮµáĭ«ĠáĬłáīĨáĮ£áĮłáĪŃĠ(áĬ¨": 5356,
      "1892Ġáĭĵ.áĪĿ.ĠáĮĢáĪĿáĪ®ĠáĬ¥áĪµáĬ¨Ġ2091Ġáĭĵ.áĪĿ.": 5357,
      "ĠáīĢáĬķĠáīłáĬ¢áīµáĭ®áĮµáĭ«ĠáĬłáīĨáĮ£áĮłáĪŃĠ(áĬ¨1892Ġáĭĵ.áĪĿ.ĠáĮĢáĪĿáĪ®ĠáĬ¥áĪµáĬ¨Ġ2091Ġáĭĵ.áĪĿ.": 5358,
      "cin": 5359,
      "AnaĠ": 5360,
      "tattalinĠarz": 5361,
      "ing,Ġ": 5362,
      "ahiĠ": 5363,
      "anyĠ": 5364,
      "á»įnĠ": 5365,
      "Ã¬pÃŃnláº¹ÌĢĠ": 5366,
      "ojÃº": 5367,
      "kuanziaĠ": 5368,
      "OnĠ": 5369,
      "orunĠ": 5370,
      "áīħáĭ±áĪµ": 5371,
      "Ġáĭĺáĭ´": 5372,
      "áĭ©áĪµ": 5373,
      "Ġáĭ¨áīĢáĬķĠáĪµáĪĿ": 5374,
      "ĠáĪ²áĪĨáĬķĠáĭŃáĪħĠáīĢáĬķĠáīłáĬ¢áīµáĭ®áĮµáĭ«ĠáĬłáīĨáĮ£áĮłáĪŃĠ(áĬ¨1892Ġáĭĵ.áĪĿ.ĠáĮĢáĪĿáĪ®ĠáĬ¥áĪµáĬ¨Ġ2091Ġáĭĵ.áĪĿ.": 5375,
      "ĠáīłáĬ¥áĬķáĮįáĪĬáĭĿáĬĽĠáĪ²áĪĨáĬķĠáĭŃáĪħĠáīĢáĬķĠáīłáĬ¢áīµáĭ®áĮµáĭ«ĠáĬłáīĨáĮ£áĮłáĪŃĠ(áĬ¨1892Ġáĭĵ.áĪĿ.ĠáĮĢáĪĿáĪ®ĠáĬ¥áĪµáĬ¨Ġ2091Ġáĭĵ.áĪĿ.": 5376,
      "ĠáīłáĮİáĪŃáĮİáĪŃáĭ«áĬķĠáĬ«áĪĮáĬķáĭ³áĪŃĠáĭ¨áīĢáĬķĠáĪµáĪĿ": 5377,
      "ĠáīłáĮİáĪŃáĮİáĪŃáĭ«áĬķĠáĬ«áĪĮáĬķáĭ³áĪŃĠáĭ¨áīĢáĬķĠáĪµáĪĿĠáīłáĬ¥áĬķáĮįáĪĬáĭĿáĬĽĠáĪ²áĪĨáĬķĠáĭŃáĪħĠáīĢáĬķĠáīłáĬ¢áīµáĭ®áĮµáĭ«ĠáĬłáīĨáĮ£áĮłáĪŃĠ(áĬ¨1892Ġáĭĵ.áĪĿ.ĠáĮĢáĪĿáĪ®ĠáĬ¥áĪµáĬ¨Ġ2091Ġáĭĵ.áĪĿ.": 5378,
      "OlÃ³": 5379,
      "yam": 5380,
      "enez": 5381,
      "Atlant": 5382,
      "visiwaĠ": 5383,
      "Ã²unĠ": 5384,
      "Ã¬tÃłnĠ": 5385,
      "aĠkoĠ": 5386,
      "CityĠ": 5387,
      "pap": 5388,
      "arew": 5389,
      "RĠ": 5390,
      "kÃ¬": 5391,
      "áīłáīĥ": 5392,
      "Ġáī°áīĥ": 5393,
      "ĠáĮłáīħ": 5394,
      "áī¥áĪ«áĭŃ": 5395,
      "ĠáĬĥáĭŃáĪį": 5396,
      "fÃŃÃ¬mÃ¹Ġ": 5397,
      "áĪĮáĬŃáīµáĪªáĬŃ": 5398,
      "over": 5399,
      "oot": 5400,
      "---": 5401,
      "ráº¹ÌĢ.": 5402,
      "CibiyarĠ": 5403,
      "lokacinĠdaĠ": 5404,
      "áĪŃáī±": 5405,
      "esiĠ": 5406,
      "ĠáĮĪáĭ°": 5407,
      "Ġáīłáī°áĮ¨áĪĽáĪª": 5408,
      "áĪĲáįĬ": 5409,
      "incip": 5410,
      "ifÃ¡": 5411,
      "WilayaĠ": 5412,
      "vir": 5413,
      "ary": 5414,
      "endĠ": 5415,
      "Ã²g": 5416,
      "Ã²yÃ¬nĠ": 5417,
      "torÃŃĠ": 5418,
      "arm": 5419,
      "Braz": 5420,
      "ali,Ġ": 5421,
      "ariĠt": 5422,
      "áĬķĠáĪĪáĪĽ": 5423,
      "áī°áĬĽáĭį": 5424,
      "áĪĪáĪĺ": 5425,
      "Ġáĭ¨áĪĢ": 5426,
      "áīĢáĮ¥": 5427,
      "Ġáĭ¨áĪĺáĮĢáĪĺáĪªáĭ«áĭį": 5428,
      "umiĠ": 5429,
      "ifeĠ": 5430,
      "wanzaĠ": 5431,
      "Æ³anĠ": 5432,
      "MkoaĠwaĠ": 5433,
      "otaĠ": 5434,
      "uliwaĠ": 5435,
      "ojaĠ": 5436,
      "ĠáĬĥáĭŃáĪĪ": 5437,
      "Hak": 5438,
      "Wam": 5439,
      "nit": 5440,
      "hat": 5441,
      "áĭŃáĪŃ": 5442,
      "Ġáĭ¨áĪļáī³áĭĪ": 5443,
      "ĠáĮįáĭĽ": 5444,
      "ĠáĮĪáĬķ": 5445,
      "áĬłáĪĪ": 5446,
      "ĠáĬłáĪĪáĪĿ": 5447,
      "coun": 5448,
      "angaz": 5449,
      "ÃłÃły": 5450,
      "onĠ(": 5451,
      "sakand": 5452,
      "kejÃ¬Ġ": 5453,
      "etĠdeĠ": 5454,
      "ali.": 5455,
      "onom": 5456,
      "ĠáĬ¥áĬĶ": 5457,
      "ĠáĬłáĭ¨áĪŃ": 5458,
      "áĮįáĪªáĬŃ": 5459,
      "áº¹ÌĢáº¹Ìģ": 5460,
      "áĬ¨áĭļáĭ«": 5461,
      "áĪ°áĪŃ": 5462,
      "AlÃ¡": 5463,
      "áīłáīµĠáĮĬáĭľ": 5464,
      "ÃĢwá»įnĠáº¹láº¹ÌģbÃ¹nĠNobelĠ": 5465,
      "dat": 5466,
      "ĠáĬłáĭ²áĪµĠáĬłáīłáī£": 5467,
      "age": 5468,
      "aniĠnaĠ": 5469,
      "rĠ": 5470,
      "Ġ*": 5471,
      "eliĠ": 5472,
      "á¹£uĠ": 5473,
      "láº¹ÌģyÃ¬nĠ": 5474,
      "sinimÃ¡Ġ": 5475,
      "lav": 5476,
      "Yul": 5477,
      "áĪµáīµáĬĵ": 5478,
      "argaj": 5479,
      "ext": 5480,
      "arabuĠ": 5481,
      "wá»įĠ": 5482,
      "ká»įÌĢá»įÌģĠ": 5483,
      "Lagos": 5484,
      "ÃłgbÃ©lÃ©": 5485,
      "co": 5486,
      "dir": 5487,
      "her": 5488,
      "alum": 5489,
      "Ãłf": 5490,
      "isionĠ": 5491,
      "Thom": 5492,
      "cinĠk": 5493,
      "akam": 5494,
      "áĭĽáĬĽáĭį": 5495,
      "BaadaĠyaĠ": 5496,
      "Ġáīłáī¥áĭĽáīµ": 5497,
      "TibaĠmwakaĠwaĠ": 5498,
      "Sud": 5499,
      "Ã©m": 5500,
      "hi": 5501,
      "tĠofĠ": 5502,
      "AfirkaĠtaĠ": 5503,
      "gwamnatinĠ": 5504,
      "US": 5505,
      "iliminĠ": 5506,
      "ÙİÙ": 5507,
      "Ba": 5508,
      "ĠáĭŃáĪĦ": 5509,
      "áĭ³áĪį": 5510,
      "áĭĺáĭį": 5511,
      "áĪ©áį¢": 5512,
      "ĠáĪµáĪĪáĪļ": 5513,
      "ĠáĪĻáĪī": 5514,
      "ĠáĪĺáĪįáĬŃáĭĵ": 5515,
      "ĠáĬłáĪħ": 5516,
      "ĠáīĢáĭ³": 5517,
      "ambayoĠ": 5518,
      "kutokaĠnchiĠyaĠ": 5519,
      "Ġáº¹ÌĢyÃłĠ": 5520,
      "aĠwas": 5521,
      "TarayyarĠ": 5522,
      "ne,ĠdaĠkeĠ": 5523,
      "d,Ġ": 5524,
      "ox": 5525,
      "rÃ¨Ġ": 5526,
      "Ãºs": 5527,
      "áĭµáĪ¨áĪµ": 5528,
      "Ġáį³áį": 5529,
      "áįįáĮ¥": 5530,
      "Ġáī£áĭŃ": 5531,
      "ĠáīĢáĬķĠ-": 5532,
      "hor": 5533,
      "aidiĠ": 5534,
      "AbubakarĠ": 5535,
      "ubuc": 5536,
      "jami'": 5537,
      "aikiĠaĠmatsayinĠ": 5538,
      "MakarantarĠ": 5539,
      "Akw": 5540,
      "sark": 5541,
      "ĠáĪĺáĪĪ": 5542,
      "Ã³mÃ¬nÃłĠ": 5543,
      "fac": 5544,
      "iedĠ": 5545,
      "oloseluĠ": 5546,
      "uceĠ": 5547,
      "usul": 5548,
      "ymp": 5549,
      "áīłáīħ": 5550,
      "áĪ°áĪĽ": 5551,
      "áīłáĪ³": 5552,
      "áĪŀáīµ": 5553,
      "ĠáĬłáĮĪáĪ®áī½": 5554,
      "áĬ¥áĬķáĭ²": 5555,
      "Ġáī¥áĪĶáĪ«áĭĬ": 5556,
      "Moh": 5557,
      "pre": 5558,
      "gidaĠ": 5559,
      "oloniĠ": 5560,
      "autaĠ": 5561,
      "Ãłwá»įnĠÃ¨nÃ¬yÃłnĠ": 5562,
      "yanay": 5563,
      "kutokanaĠnaĠ": 5564,
      "parti": 5565,
      ")ĠáĬ¥áĬĵ": 5566,
      "aar": 5567,
      "áĪŃáī£": 5568,
      "áĬĵáĭŃáīµ": 5569,
      "ĠáĬ¥áĮįáĭļáĬłáī¥áĪĶáĪŃ": 5570,
      "karniĠnaĠ": 5571,
      "áĭ´áīµ": 5572,
      "gudanarĠdaĠ": 5573,
      "ĠáĭĪáĭŃáĬķáĪĿ": 5574,
      "ĠáīĢáĮ¥áĪİ": 5575,
      "geĠ": 5576,
      "ipin": 5577,
      "antsĠ": 5578,
      "Lou": 5579,
      "lÃ¨": 5580,
      "rang": 5581,
      "endaĠ": 5582,
      "á¹£Ã¨lÃºĠ": 5583,
      "awá»įn": 5584,
      "enĠm": 5585,
      "kuduĠmasoĠ": 5586,
      "LegasĠ": 5587,
      "Ġ~": 5588,
      "áĬķáĬŃ": 5589,
      "Ġáī°áĮįáī£": 5590,
      "áĭ³áĭµ": 5591,
      "áīłáĪµ": 5592,
      "Ġáĭ¨áī°áĪĺ": 5593,
      "Vic": 5594,
      "TareheĠ": 5595,
      "Kor": 5596,
      "kumb": 5597,
      "NovemberĠ": 5598,
      "ãĥ": 5599,
      "áĮĪáĪ«áīµ": 5600,
      "adayeĠ": 5601,
      "áĪĪáĪĿáĪ³áĪĮ": 5602,
      "áĪ¸áĬĲ": 5603,
      "tele.ĠItokasiĠÃĢwá»įnĠ": 5604,
      "pá»įÌĢlá»įpá»įÌĢĠ": 5605,
      "ĠáĪĽáĮ£áīĢáĪ»": 5606,
      "KanoĠ": 5607,
      "Ful": 5608,
      "n'": 5609,
      "tabb": 5610,
      "itaceĠ": 5611,
      "Had": 5612,
      "kwambaĠ": 5613,
      "Arg": 5614,
      "ilÃ©": 5615,
      "áį¡áīł": 5616,
      "com/": 5617,
      "aliz": 5618,
      "eĠdansĠ": 5619,
      "BritishĠ": 5620,
      "Jum": 5621,
      "uĠaĠ": 5622,
      "abinĠ": 5623,
      "asharikiĠ": 5624,
      "ocinĠ": 5625,
      "asarautarĠ": 5626,
      "nemanĠ": 5627,
      "sing": 5628,
      "yn": 5629,
      "Ø¯": 5630,
      "ons": 5631,
      "ĠnaĠ": 5632,
      "áĪªáĪµ": 5633,
      "yaaniĠ": 5634,
      "ĠáĬłáĪīáį¢": 5635,
      "Ġáī£áĪħáĪŃ": 5636,
      "includ": 5637,
      "OctoberĠ": 5638,
      "ie": 5639,
      "nÃŃp": 5640,
      "Ġá»įÌĢkanĠ": 5641,
      "du": 5642,
      "sanĠ": 5643,
      "Mt": 5644,
      "ĠáĪĺáĮ£": 5645,
      "a,ĠdaĠ": 5646,
      "ĠáĮ¥áĪ©": 5647,
      "shigaĠ": 5648,
      "CharlesĠ": 5649,
      ".ĠÃĢ": 5650,
      "hukoĠ": 5651,
      "Î±": 5652,
      "á»įÌģn": 5653,
      "Can": 5654,
      "Pal": 5655,
      "Map": 5656,
      "iĠaĠ": 5657,
      "fasah": 5658,
      "IbrahimĠ": 5659,
      "biyarĠ": 5660,
      "jum": 5661,
      "emen": 5662,
      "afterĠ": 5663,
      "ĠáīłáĪħ": 5664,
      "o,Ġm": 5665,
      "sukeĠ": 5666,
      "DolaĠlaĠ": 5667,
      "ity": 5668,
      "yaraĠ": 5669,
      "nip": 5670,
      "Ð¾": 5671,
      "ÆĻidayarĠ": 5672,
      "awalaĠwaĠ": 5673,
      "zur": 5674,
      "TVĠ": 5675,
      "áĭµáĪĺ": 5676,
      "aĠmap": 5677,
      "áį¡áĬ¥": 5678,
      "ĠáīłáĪĽáĪĪáīµ": 5679,
      "ĠáĬ¥áĬķáĮįáĪĬáĭĿáĬĽ": 5680,
      "ĠáĪĽáĪŃáĭ«áĪĿ": 5681,
      "wigizajiĠwaĠfilamuĠ": 5682,
      "aya,Ġ": 5683,
      "ulkiĠ": 5684,
      "haih": 5685,
      "t-": 5686,
      "Oy": 5687,
      "áĪŃáĮİ": 5688,
      "áīħáĭ«": 5689,
      "Ġáīµáĭį": 5690,
      "áĮ«áĭĪ": 5691,
      "ĠáĪ³áĭŃáĬķáĪ³áĭĬ": 5692,
      "ĠáįĸáĪĪáī²áĬ«": 5693,
      "áī¥áĪ«áĭŃáĪµáĮ¥": 5694,
      "iev": 5695,
      "mill": 5696,
      "Ġ8": 5697,
      "aniĠ(": 5698,
      "bÃł": 5699,
      "ahariĠyaĠ": 5700,
      "BKĠ(BaadaĠyaĠKristo).ĠMatukioĠWaliozaliwaĠWaliofarikiĠKarneĠyaĠ": 5701,
      "75": 5702,
      "bet": 5703,
      "ta.": 5704,
      "waz": 5705,
      "áĬķáī³": 5706,
      "ayans": 5707,
      "áĬłáĪµ": 5708,
      "ĠáĮīáĭ³áĭŃ": 5709,
      "hiiĠ": 5710,
      "ingineĠ": 5711,
      "ÃĢwá»įnĠá»įjá»įÌģÃ¬bÃŃĠnÃŃĠ": 5712,
      "eo": 5713,
      "Kab": 5714,
      "Mac": 5715,
      "2Ġ-Ġ": 5716,
      "Ter": 5717,
      "ĠáĪ¬": 5718,
      "áĬķĠáĭ¨áĪļ": 5719,
      ".ĠÃĮ": 5720,
      "áĬłáĬķáĭµ": 5721,
      "ayyukanĠ": 5722,
      "ĠáĬ¥áĬķáĭ³áĭŃ": 5723,
      "ĠáĭĽáĪ¬": 5724,
      "Ġáī³áĪªáĬ«áĭĬĠáĪĽáĪµáī³áĭĪáĪ»áĭİáī½": 5725,
      "ĠáĪĺáĪįáĬŃáĭĵĠáĪĿáĭµáĪŃ": 5726,
      "8Ġ-Ġ": 5727,
      "Waf": 5728,
      "pay": 5729,
      "vari": 5730,
      "anĠdaĠ": 5731,
      "Ġá»įmá»įĠorÃŃláº¹ÌĢ-Ã¨dÃ¨Ġ": 5732,
      "ruwaĠ": 5733,
      "aularĠ": 5734,
      "shirye-": 5735,
      "KadunaĠ": 5736,
      "ĠáĬłáī¶": 5737,
      "ĠáīłáĭĺáĪĺáĬĲĠáĪīáīĥáĪµ": 5738,
      "ĠáĬłáįĪĠáī³áĪªáĬŃ": 5739,
      "ĠáĪļáĬĴáĪµáīµ": 5740,
      "ĠáĭµáĪŃáĮħáīµ": 5741,
      "Sah": 5742,
      "aĠB": 5743,
      "Je": 5744,
      "kif": 5745,
      "inÃºĠ": 5746,
      "hut": 5747,
      "suchĠ": 5748,
      "MaiĠ": 5749,
      "TĠ": 5750,
      "fÃłĠ": 5751,
      "Ġáīłáīµ": 5752,
      "áĭ«áĪį": 5753,
      "áĬ®áĬĸ": 5754,
      "ĠáīłáĪµáī°": 5755,
      "Ġáĭĭáī¢ĠáĪĿáĬķáĮ®áī½": 5756,
      "bad": 5757,
      "engineĠ": 5758,
      "SchoolĠ": 5759,
      "Kin": 5760,
      "oĠmak": 5761,
      "Lat": 5762,
      "zaidiĠ": 5763,
      "ÃĢwá»įnĠÃ¨nÃ¬yÃłnĠ": 5764,
      "tanguĠ": 5765,
      "OpenĠ": 5766,
      "áĪŃáī¶": 5767,
      "Ġáįİ": 5768,
      "áĮ¥áĪĿ": 5769,
      "áįĪáĪĭ": 5770,
      "ĠáīłáĬ®": 5771,
      "ungu": 5772,
      "ĠáĬĵáīµáį¢": 5773,
      "ĠáīłáĬĭáĪĭĠáĬ¥áĪµáĬ¨": 5774,
      "áįĸáĪĪáī²áĬ«": 5775,
      "JulyĠ": 5776,
      "ĠáĮ¸áī£áĭŃ": 5777,
      "Ġ~Ġ": 5778,
      "Hany": 5779,
      "mark": 5780,
      "struc": 5781,
      "ndÃŃn": 5782,
      "digiriĠnaĠ": 5783,
      "uiĠ": 5784,
      "bel": 5785,
      "°áį»áį": 5786,
      "áĪµáī´": 5787,
      "Ġáį»áį": 5788,
      "áĬ«áĪŃ": 5789,
      "ĠáĪµáī¥áĪµ": 5790,
      "Ġáĭ¨áī°áī£áĪĪ": 5791,
      "Ġáĭ°áĪ«áĪ²": 5792,
      "rig": 5793,
      "anon": 5794,
      "yoteĠ": 5795,
      "toĠgbaĠ": 5796,
      "pÃłt": 5797,
      "Ãģfr": 5798,
      "olu": 5799,
      "|-Ġ": 5800,
      "aĠwasanĠ": 5801,
      "áĬķĠáĬ¥áĬĵ": 5802,
      "áĬķáĮİ": 5803,
      "áĪĭáīģ": 5804,
      "áĬ¨áĪĭ": 5805,
      "áĪİáĮĤ": 5806,
      "ĠáīħáĪŃáĪµ": 5807,
      "áĮŃáĪŃ": 5808,
      "ĠáĮĬáĭ®áĪŃáĮĬáĪµ": 5809,
      "KanananĠhukumominĠjiharĠ": 5810,
      "áĬĵáĭŃáīµáĭµ": 5811,
      "ific": 5812,
      "á¹£eĠ": 5813,
      "ipÃ²Ġ": 5814,
      "nÃŃnÃºĠÃłwá»įnĠ": 5815,
      "lá»įÌģdÃºnĠ": 5816,
      "gur": 5817,
      "gaĠm": 5818,
      "Ut": 5819,
      "nomb": 5820,
      "vers": 5821,
      "cikiĠ": 5822,
      "akaĠdaĠ": 5823,
      "indaĠyaĠ": 5824,
      "cutarĠ": 5825,
      "áĭµáĪ®": 5826,
      "áĬ¨áī³": 5827,
      "áĮĭáī¢": 5828,
      "AlakosoĠ": 5829,
      "Ã¹n-": 5830,
      "AfrikaĠKus": 5831,
      "jiĠmkuuĠwaĠ": 5832,
      "eyiĠ": 5833,
      "franÃ§": 5834,
      "astr": 5835,
      ")ĠnaĠ": 5836,
      "theyĠ": 5837,
      "6Ġ-Ġ": 5838,
      "ingu": 5839,
      "TaĠyiĠ": 5840,
      "AD": 5841,
      "Litt": 5842,
      "ĠáĬ¥áĪĿáĬĲáīµ": 5843,
      "áĮĪáĪ¨": 5844,
      "áĪ«áĪįáį¢": 5845,
      "áĪĮáĪİáī½": 5846,
      "Ġáĭ¨áĪļáĮĪáĬĻ": 5847,
      "áĮłáī¥": 5848,
      "ĠáĭįáĮŃ": 5849,
      "endele": 5850,
      "Kwam": 5851,
      "ember": 5852,
      "cc": 5853,
      "sá»į": 5854,
      "eĠnaĠ": 5855,
      "nÃŃĠorÃŃláº¹ÌĢ-Ã¨dÃ¨Ġ": 5856,
      "FizikiaĠmwakaĠwaĠ": 5857,
      "lÃłĠ": 5858,
      "John": 5859,
      "Democ": 5860,
      "kulaĠdaĠ": 5861,
      "áĪĪáĭµ": 5862,
      "ĠáĭŃáĪĭáĪįáį¢": 5863,
      "ĠáĪ²áĪĨáĬĳ": 5864,
      "áĬŀáī¹": 5865,
      "Ġáī°áĪ«áĪ«": 5866,
      "Cal": 5867,
      "imp": 5868,
      "taĠfaraĠ": 5869,
      "ism": 5870,
      "ÉĹauk": 5871,
      "NewĠYorkĠ": 5872,
      "lambarĠyab": 5873,
      "Ã¤": 5874,
      "Ã¶": 5875,
      "Pak": 5876,
      "fuataĠ": 5877,
      "Ã³Ġá¹£eĠ": 5878,
      "takrib": 5879,
      "ÃģfrÃŃ": 5880,
      "etoĠ": 5881,
      "ĠáĬ¥áĪŃáĪ±": 5882,
      "áĮįáĬĺ": 5883,
      "ĠáīłáĬ¦": 5884,
      "Ġáī°áĬ¨áī³": 5885,
      "ariĠtaraĠdaĠ": 5886,
      "ectionĠ": 5887,
      "resp": 5888,
      "hivyoĠ": 5889,
      "Rich": 5890,
      "erc": 5891,
      "Jer": 5892,
      "Â²": 5893,
      "Ġá¹¢": 5894,
      "aĠtiĠ": 5895,
      "ĠáĬłáīħ": 5896,
      "áĭ°áĪµ": 5897,
      "ĠáĭĪáī³áĭ°": 5898,
      "ĠáĪ¥áįįáĪ«": 5899,
      "ĠáĬ¥áĬķáĭ²áĭ«": 5900,
      "ĠáĪµáĪĪáĪĨáĬĲ": 5901,
      "ĠáĬ¨áī°áĪĽĠáĬĲáĭįáį¢": 5902,
      "amfaniĠ": 5903,
      "ĠáĪ¦áĪµáīµ": 5904,
      "100Ġ": 5905,
      "web": 5906,
      "tu": 5907,
      "waĠkwaĠ": 5908,
      "Ã²finĠ": 5909,
      "darÃŃĠ": 5910,
      "âĢ¹": 5911,
      "áĪĿĠáĪĪ": 5912,
      "áĬ«áĪĿ": 5913,
      "áĬłáīµ": 5914,
      "ĠáĭµáĪį": 5915,
      "áĪ²áī²": 5916,
      "áĬ®áīµ": 5917,
      "Arew": 5918,
      "lÃ¹Ġ": 5919,
      "maj": 5920,
      "afaĠ": 5921,
      "awa.": 5922,
      "sĠinĠ": 5923,
      "Ġ14": 5924,
      "score0": 5925,
      "ĠÐ": 5926,
      "gargaj": 5927,
      "anzib": 5928,
      "RayuwarĠ": 5929,
      "BestĠ": 5930,
      "akeĠkir": 5931,
      "Yoh": 5932,
      "itz": 5933,
      "áĭĺáĪĺ": 5934,
      "ĠáĮįáĬķáĬĻ": 5935,
      "áĮ¡áīµ": 5936,
      "ĠáĬłáįįáĪªáĬ«": 5937,
      "taĠm": 5938,
      "IIIĠ": 5939,
      "eff": 5940,
      "on-": 5941,
      "al'ad": 5942,
      "jul": 5943,
      "wang": 5944,
      "almeĠ": 5945,
      "ItaliaĠ": 5946,
      "Dam": 5947,
      "loc": 5948,
      "áĬ«áĬ¨áĪĪ": 5949,
      "ĠáĪµáĪĭ": 5950,
      "áĪĨáĬĸ": 5951,
      "áĭ²áĭ®": 5952,
      "azarinĠ": 5953,
      "aĠkatikaĠm": 5954,
      "1)": 5955,
      "agenĠ": 5956,
      "Indi": 5957,
      "=\"": 5958,
      "Roy": 5959,
      "conc": 5960,
      "ban": 5961,
      "doĠ": 5962,
      "overĠ": 5963,
      "Wash": 5964,
      "jÃ¬Ġ": 5965,
      "áĮª": 5966,
      "áĪĿĠáĪĨáĬĲ": 5967,
      "áº¹áº¹": 5968,
      "áĬŃáĪ²": 5969,
      "áī£áī³": 5970,
      "áĬ¨áĪ¨áĪĿ": 5971,
      "iaĠyaĠK": 5972,
      "áĭĪáĭŃáĪĿ": 5973,
      "ĠáĪ²áīĢ": 5974,
      "ĠáīµáĪŃ": 5975,
      "Ġáĭĺáįĭ": 5976,
      "ĠáĭĺáĪĺáĬĵáĭĬ": 5977,
      "áīĥáĪ´": 5978,
      "ĠáĭįáĪĥ": 5979,
      "ifoĠch": 5980,
      "Shir": 5981,
      "tÃŃĠÃ³Ġjáº¹ÌģĠ": 5982,
      "ĠáĪĺáĮ¨áĪ¨áĪ»ĠáĭµáĪ¨áĪµ": 5983,
      "tof": 5984,
      "herĠ": 5985,
      "Republ": 5986,
      "ientĠ": 5987,
      "mÃ¹Ġ": 5988,
      "AfricaĠ": 5989,
      "KwalejinĠ": 5990,
      "Zanzib": 5991,
      "áĬķĠáī°": 5992,
      "inĠjirginĠ": 5993,
      "áĮĪáīµ": 5994,
      "áĪ°áĪį": 5995,
      "tarihinĠ": 5996,
      "áĪµáįĵáĬķáĭ«": 5997,
      "áīħáĪµáīĥáĪ´": 5998,
      "ĠáīłáĬĭáĪĭĠáĬ¥áĪµáĬ¨ĠáĭĵáĪĺáī±": 5999,
      "el,Ġ": 6000,
      "Uh": 6001,
      "bÃ¬nrinĠ": 6002,
      "IlÃ©-": 6003,
      "pÃłtÃłk": 6004,
      "Î¿": 6005,
      "amaĠm": 6006,
      "aĠG": 6007,
      "ceĠdakeĠ": 6008,
      "insaĠ": 6009,
      "áĪįáīµ": 6010,
      "iki.": 6011,
      "ilos": 6012,
      "ĠáĪµáĪŀáī½": 6013,
      "entomonĠ": 6014,
      "ÃłtiĠÃłwá»įnĠ": 6015,
      "Ġáīłáī°áĪĪ": 6016,
      "ĠáĪĺáĪłáĪ¨áīµ": 6017,
      "Sikuku": 6018,
      "trav": 6019,
      "ijiĠyaĠ": 6020,
      "mafiĠ": 6021,
      "woteĠ": 6022,
      "therĠ": 6023,
      "kumaĠmaiĠ": 6024,
      ".ĠS": 6025,
      "wataĠ": 6026,
      "Ġáĭ¨áĭĵáĪĪáĪĿ": 6027,
      "ĠáĬ¥áĪĿ": 6028,
      "áĪĽáĪ½": 6029,
      "ole": 6030,
      "ĠáīµáĪĿáĪħáĪŃ": 6031,
      "ĠáĬ¥áĬķáĭ°Ġáī°": 6032,
      "áĮħáĪĿ": 6033,
      "áĪµáĪĪáĭļáĪħ": 6034,
      "kuk": 6035,
      "wanasiasaĠ": 6036,
      "NÃŃĠá»įdÃºnĠ201": 6037,
      "UmojaĠwaĠ": 6038,
      "zan": 6039,
      "olĠ": 6040,
      "kumaĠanĠ": 6041,
      "3Ġ-Ġ": 6042,
      "à¤ķ": 6043,
      "als": 6044,
      "KÃ¡": 6045,
      "áĪĿáįĴ": 6046,
      "Ġáīłáĭį": 6047,
      "áĪĽáĪį": 6048,
      "Ġáĭ¨áĪ®": 6049,
      "ĠáĪĿáĭķáĪ«áī¥": 6050,
      "áĪģáĪĪáīµ": 6051,
      "Christi": 6052,
      "áĪľáīµ": 6053,
      "ĠáĬĲáĮĪáĪł": 6054,
      "Ġáī¡áĭµáĬķ": 6055,
      "ĠáĭŃáīĢáĪ«áĪīáį¢": 6056,
      "moĠ": 6057,
      "atuĠ": 6058,
      "bak": 6059,
      "fad": 6060,
      "identĠ": 6061,
      "Stud": 6062,
      "ivyoĠ": 6063,
      "AgbegbeĠ": 6064,
      "da": 6065,
      "thr": 6066,
      "dog": 6067,
      "áĭµáĬĵ": 6068,
      "ĠáĭŃáĭ©": 6069,
      "Ġáĭ¨áĪ´": 6070,
      "áįĪáĬķ": 6071,
      "Ġáĭ¨áī°áĭĪ": 6072,
      "áĪİáĪµ": 6073,
      "Wad": 6074,
      "hel": 6075,
      "rap": 6076,
      "aĠshekararĠ201": 6077,
      "ts.": 6078,
      "rayuwaĠ": 6079,
      "sil": 6080,
      "karib": 6081,
      "AwardĠ": 6082,
      "let": 6083,
      "aĠbir": 6084,
      "alÃłÃły": 6085,
      "á»įÌĢn": 6086,
      "áĬķáĮįáĪį": 6087,
      "ĠáĮĭáĪ«": 6088,
      "AnĠginaĠ": 6089,
      "Ġáī¥áĪŃáĪĥ": 6090,
      "kuhusuĠ": 6091,
      "der": 6092,
      "ott": 6093,
      "ovutiĠ": 6094,
      "olÃ³rinĠ": 6095,
      "balimbaliĠ": 6096,
      "gÃŃgaĠ": 6097,
      "larg": 6098,
      "pir": 6099,
      "siyasaĠ": 6100,
      "Den": 6101,
      "ĠáĬłáĮĭ": 6102,
      "áĬ¥áĬĲáĭļáĪħ": 6103,
      "ĠáĬŃáĪŃáĪµáī²áĭ«": 6104,
      "ĠáĮĪáĮ½": 6105,
      "ĠáĮ½áĪķ": 6106,
      "ĠáĭŃáĪĨáĬĵáĪįáį¢": 6107,
      "ĠáīłáĬĭáĪĭĠáĬ¥áĪµáĬ¨ĠáĭĵáĪĺáī±ĠáĪĺáĮ¨áĪ¨áĪ»ĠáĭµáĪ¨áĪµ": 6108,
      "ation.": 6109,
      "bertĠ": 6110,
      "Kur": 6111,
      "Lab": 6112,
      "org/": 6113,
      "peop": 6114,
      "ÃĪkÃ³Ġ": 6115,
      "2007Ġ": 6116,
      "Ash": 6117,
      "JuneĠ": 6118,
      "rom": 6119,
      "saniĠdaĠ": 6120,
      "utilis": 6121,
      "ojuĠ": 6122,
      "press": 6123,
      "Ðµ": 6124,
      "ĠáĬĽ": 6125,
      ",ĠM": 6126,
      "ikish": 6127,
      "istaĠ": 6128,
      "ĠáĭĪáĮĪ": 6129,
      "obÃ¬nrinĠ": 6130,
      "ĠáĭįáĪĢ": 6131,
      "Ġá¹£Ã¹gbá»įÌģnĠ": 6132,
      "áĪ²áĭ«": 6133,
      "ĠáĭķáĪĪáī°": 6134,
      "ĠáįįáĪ¬": 6135,
      "á»ĮÌĢ": 6136,
      "Ġ20": 6137,
      ",ĠS": 6138,
      "div": 6139,
      "awaĠnaĠ": 6140,
      "yá»į": 6141,
      "wandaĠkeĠ": 6142,
      "hadaĠdaĠ": 6143,
      "shiĠneĠdanĠwasanĠÆĻwallonĠÆĻafaĠtaĠÆĻasarĠIngila.": 6144,
      "cinĠkofinĠ": 6145,
      "iref": 6146,
      "wakatiĠ": 6147,
      "Hous": 6148,
      "Kum": 6149,
      "kwar": 6150,
      "Press": 6151,
      "Tanzania": 6152,
      "ief": 6153,
      "Ġáĭ¨áĪ±": 6154,
      "áĮłáĪĪ": 6155,
      "Ġáĭ¨áĬĲáīłáĪ©": 6156,
      "áĬķáĮĮ": 6157,
      "ĠáĪĿáĬķáĮĬáĭľ": 6158,
      "Ġáĭ¨áĭįáĮŃ": 6159,
      "ĠáĪļáĪĬáĭ®áĬķ": 6160,
      "Gar": 6161,
      "baiĠ": 6162,
      "Ġ9": 6163,
      "zamaniĠ": 6164,
      "kirkir": 6165,
      "akarant": 6166,
      "ÃĪkÃ³": 6167,
      "kÃ¹nrinĠ": 6168,
      "Dok": 6169,
      "ert": 6170,
      "6.Ġ": 6171,
      "work": 6172,
      "Rh": 6173,
      "áĬ£": 6174,
      "áĬķáīĢ": 6175,
      "oĠchaĠ": 6176,
      "Ġáīłáīħ": 6177,
      "áĬ«áĬ¤áĪį": 6178,
      "áĪİáī¹": 6179,
      "ĠáĪįáĮģ": 6180,
      "ers,Ġ": 6181,
      "yÃ¬n": 6182,
      "Ġáī¢áĭ«": 6183,
      "ĠáĭĺáĪĺáĬķĠáĬłáīĨáĮ£áĮłáĪŃ": 6184,
      "okeoĠyaĠ": 6185,
      "áī¨áĪŃáĪ²áī²": 6186,
      "ĠáĪĺáĮ»áĪķ": 6187,
      "Rad": 6188,
      "giz": 6189,
      "oodĠ": 6190,
      "nuf": 6191,
      "Ãĵ": 6192,
      "eniyanĠ": 6193,
      "idadiĠyaĠ": 6194,
      "ĠduĠ": 6195,
      "wÃ¡jÃºĠ": 6196,
      "pekeeĠ": 6197,
      "áĪĪáį¢": 6198,
      "ĠáĪĺáīħ": 6199,
      "áīĥáĭįáĬķ": 6200,
      "áīĤáīµ": 6201,
      "babbarĠ": 6202,
      "ikiped": 6203,
      "a),Ġ": 6204,
      "ile": 6205,
      "33": 6206,
      "jÃ¹Ġ": 6207,
      "ÃłgbÃł": 6208,
      "sÃ¬kÃ²Ġ": 6209,
      "intoĠ": 6210,
      "akat": 6211,
      "Bak": 6212,
      "mÃº": 6213,
      "gbÃ³": 6214,
      "áĬŃáĪŃáĪµáī¶áĪµ": 6215,
      "ĠáĭŃáĬĲ": 6216,
      "kumbu": 6217,
      "ĠáīłáĬ¤": 6218,
      "Ġáī£áĪķáĪŃ": 6219,
      "iwaĠkuwaĠ": 6220,
      "Ġáĭ¨áĬłáĭ¨áĪŃ": 6221,
      "áīĤáĭ«": 6222,
      "Sun": 6223,
      "onlyĠ": 6224,
      "vitaĠ": 6225,
      "ograf": 6226,
      "jÃłĠ": 6227,
      "class": 6228,
      "overnmentĠ": 6229,
      "FarkonĠ": 6230,
      "Ġd'": 6231,
      "AnĠhaifiĠ": 6232,
      "rubut": 6233,
      "BiranenĠ": 6234,
      "nyingineĠ": 6235,
      "wanamuzikiĠ": 6236,
      "ierĠ": 6237,
      "AP": 6238,
      "ini.": 6239,
      "Ġ(áĬł": 6240,
      "áĬ¨áĪ°": 6241,
      "ĠáīłáĪĺáĪĨáĬķ": 6242,
      "aussiĠ": 6243,
      "ĠáĭŃáĪĺáĪµáĪĭáĪįáį¢": 6244,
      "Jon": 6245,
      "Tanb": 6246,
      "bilaĠ": 6247,
      "abab": 6248,
      "undĠ": 6249,
      "ret": 6250,
      "IjobaĠ": 6251,
      "Ã²á¹£erÃ©Ġ": 6252,
      "AĠshekararĠ": 6253,
      "Feder": 6254,
      "ualĠ": 6255,
      "ĠØ§ÙĦ": 6256,
      "Ġáīª": 6257,
      "aux": 6258,
      "in-": 6259,
      "ÃłgbÃ¡": 6260,
      "Ġáīłáĭĵ": 6261,
      "áĭ«áĪľ": 6262,
      "áĪĭáĪµ": 6263,
      "awezaĠ": 6264,
      "áįĪáĪ«": 6265,
      "áĮ»áįĪ": 6266,
      "shindiĠwaĠTuzoĠyaĠNobelĠyaĠKemiaĠmwakaĠwaĠ": 6267,
      "Larab": 6268,
      "aĠgab": 6269,
      "weenĠ": 6270,
      "ementsĠ": 6271,
      "askazin": 6272,
      "Reg": 6273,
      "RomaĠ": 6274,
      "urr": 6275,
      "idiĠyaĠ": 6276,
      "angĠ": 6277,
      "Alh": 6278,
      "ĠáĮĥ": 6279,
      "áĭŃáĪģ": 6280,
      "ĠáīłáĪĭ": 6281,
      "ulk": 6282,
      "ĠáĬĲáĭįáį¢ĠáĬ¨": 6283,
      "ĠáĬłáĪĪáĭįáį¢": 6284,
      "Pap": 6285,
      "gwamnanĠ": 6286,
      "idarĠ": 6287,
      "olÃº": 6288,
      "inĠ(": 6289,
      "thernĠ": 6290,
      "Law": 6291,
      "yst": 6292,
      "kÃºr": 6293,
      "twoĠ": 6294,
      "vileĠ": 6295,
      "Olymp": 6296,
      "dâĢĻ": 6297,
      "Ġ201": 6298,
      "ĠáīĦ": 6299,
      "ina,Ġ": 6300,
      "áĪ¨áĪŃ": 6301,
      "Ġáī°áĮ½": 6302,
      "Ġáĭ¨áĪļáĪ°": 6303,
      "ĠáĮįáĭµ": 6304,
      "ĠáĬłáĪĪáĭį": 6305,
      "agbegbeĠ": 6306,
      "ĠáĭķáĪĪáīµĠáīłáĬĭáĪĭĠáĬ¥áĪµáĬ¨ĠáĭĵáĪĺáī±ĠáĪĺáĮ¨áĪ¨áĪ»ĠáĭµáĪ¨áĪµ": 6307,
      "haÉĹinĠ": 6308,
      "yayinĠdaĠ": 6309,
      "DavidĠ": 6310,
      "AgbaĠ": 6311,
      "yas": 6312,
      "kuw": 6313,
      "ossĠ": 6314,
      "agbÃ¡": 6315,
      ";Ġ(": 6316,
      "Fabr": 6317,
      "apr": 6318,
      "aimakinĠ": 6319,
      "yammacinĠ": 6320,
      "ArewacinĠ": 6321,
      "Ġáĭ¨áī£": 6322,
      "áĭ«áĭĺ": 6323,
      "ĠáĬĲáĮ¥": 6324,
      "áĬŃáĬķ": 6325,
      "ĠáĪįáĭ°áīµ": 6326,
      "ĠáĬłáĪįáī°": 6327,
      "ĠáĭŃáī»áĪĭáĪįáį¢": 6328,
      "opĠ": 6329,
      "Institut": 6330,
      "BirninĠ": 6331,
      "láº¹": 6332,
      "á»įÌģr": 6333,
      "Pres": 6334,
      "ĠMtoĠ": 6335,
      "gÃ©n": 6336,
      "vid": 6337,
      "inst": 6338,
      "usĠ(": 6339,
      "Jar": 6340,
      "okanĠ": 6341,
      "4Ġ-Ġ": 6342,
      "AkwaiĠ": 6343,
      "37": 6344,
      "Lim": 6345,
      "aĠmas": 6346,
      "AliĠ": 6347,
      "ifĠ": 6348,
      "0Ġ-Ġ": 6349,
      "wá»įÌĢĠ": 6350,
      "Ġáĭ¨áīĨ": 6351,
      "áĪĿĠáĪĺ": 6352,
      "áĪĺáĮ¥": 6353,
      "ĠáĬłáĭ³": 6354,
      "áĭµáĪ¨": 6355,
      "ĠáĬ¨áĪĽ": 6356,
      "áĪªáīĥ": 6357,
      "ĠáĭĪáĮ¥": 6358,
      "áī¸áĭĭáĪįáį¢": 6359,
      "ĠáĪ°áĬĲ": 6360,
      "áĭĵáĬķ": 6361,
      "ĠáīĨáĭŃ": 6362,
      "Ġáĭ¨áĪļáĮĪáĬĿáīłáīµ": 6363,
      "áĬķáĮīáĪ¥": 6364,
      "adhim": 6365,
      "ĠáĮĮáī³": 6366,
      "FIFAĠ": 6367,
      "Oh": 6368,
      "Wil": 6369,
      "....": 6370,
      "tarĠ": 6371,
      ".ĠB": 6372,
      "ĠáĬķáĮīáĪłĠáĬĲáĮĪ": 6373,
      "bisaĠgaĠ": 6374,
      "aĠmakarantarĠ": 6375,
      "ajuĠ": 6376,
      "osereĠ": 6377,
      "Ãłn.": 6378,
      "Kul": 6379,
      "áĪĪáīĢ": 6380,
      "Ġáį©": 6381,
      "Ġáī°áĬŃáĪį": 6382,
      "áĪªáĬ®áī½": 6383,
      "Ġáĭ«áĪ³": 6384,
      "ighĠ": 6385,
      "trad": 6386,
      "áī³áĭĪáīĢ": 6387,
      "áĬ¨áĭļáĪħĠáĭķáĪĪáīµĠáīłáĬĭáĪĭĠáĬ¥áĪµáĬ¨ĠáĭĵáĪĺáī±ĠáĪĺáĮ¨áĪ¨áĪ»ĠáĭµáĪ¨áĪµ": 6388,
      "áĬĵĠáĪĺáĭĭ": 6389,
      "Ne": 6390,
      "dak": 6391,
      "Ùĩ": 6392,
      "Ele": 6393,
      "progr": 6394,
      "tÃŃĠÃ³ĠÅĦĠ": 6395,
      "JamiâĢĻarĠ": 6396,
      "LondonĠ": 6397,
      "AbuĠ": 6398,
      "jimb": 6399,
      "ĠáīłáĬĲ": 6400,
      "ĠáĬ¥áĪ±": 6401,
      "áĪĽáĭįáĭ«áĬķ": 6402,
      "ĠáįĮ": 6403,
      "áīħáĬĵ": 6404,
      "áī¸áĭī": 6405,
      "ĠáĪ²áĪį": 6406,
      "áįĬáĭ«": 6407,
      "ĠáĪĬáīĢ": 6408,
      "assanĠ": 6409,
      "Ġá»įÌĢd": 6410,
      "ĠáĬłáĪĺáī³áīµ": 6411,
      "RobertĠ": 6412,
      "taĠfarkoĠ": 6413,
      "afuĠ": 6414,
      "et,Ġ": 6415,
      "Associ": 6416,
      "Fabrair": 6417,
      "igab": 6418,
      "oĠtiĠ": 6419,
      "áº¹ÌĢláº¹ÌĢĠ": 6420,
      "ambay": 6421,
      "n.k.": 6422,
      "kaskazin": 6423,
      "Tal": 6424,
      "ĠáīłáĪĢ": 6425,
      "áĬ¨áĬĲ": 6426,
      "áĬ«áĪĦ": 6427,
      "ĠáĮĪáĭ¥": 6428,
      "ĠáĪĺáĬķáĮįáĪ¥áī³áīµ": 6429,
      "áĭŀáī½": 6430,
      "(199": 6431,
      "AF": 6432,
      "kij": 6433,
      "IbnĠ": 6434,
      "ká»įÌĢĠ": 6435,
      "aziniĠ": 6436,
      "KanisaĠ": 6437,
      "gbá»įÌĢnĠ": 6438,
      "kumbukumb": 6439,
      "aelĠ": 6440,
      "damaĠ": 6441,
      "film": 6442,
      "4,": 6443,
      "kasashenĠ": 6444,
      "bayarĠdaĠ": 6445,
      "AnĠginaĠbirninĠ": 6446,
      "áĭµáĪį": 6447,
      "áĪ³áĪįáį¢": 6448,
      "isteĠ": 6449,
      "áĬĴáĪįáĬŃ": 6450,
      "fordĠ": 6451,
      "Ġáįªáį»áį": 6452,
      "fun": 6453,
      "undum": 6454,
      "Ver": 6455,
      "oaĠ": 6456,
      "annaĠ": 6457,
      "hank": 6458,
      "Dur": 6459,
      "kÃºĠ": 6460,
      "shekaraĠtaĠ200": 6461,
      "HotunaĠ": 6462,
      "Bau": 6463,
      "babaĠ": 6464,
      "edĠasĠ": 6465,
      "ollywoodĠ": 6466,
      "ix": 6467,
      "ji": 6468,
      "mostĠ": 6469,
      "pass": 6470,
      "ĠáĬĥ": 6471,
      "áĪµáĪĿ": 6472,
      "ĠáĬ¥áĬ©áĪį": 6473,
      "Ġáĭ¨áĪģ": 6474,
      "ĠáĪĨáĬĳ": 6475,
      "auriĠ": 6476,
      "áĭ°áĪŃáĮį": 6477,
      "ĠáīłáĬłáĪģáĬĳ": 6478,
      "áįĸáĪĬ": 6479,
      "38": 6480,
      "alsĠ": 6481,
      "Alb": 6482,
      "William": 6483,
      "Fl": 6484,
      "KingĠ": 6485,
      "aboutĠ": 6486,
      "ambaoĠ": 6487,
      "auĠm": 6488,
      "lá»įÌģwá»įÌģĠ": 6489,
      "ÃĮbÃłd": 6490,
      "MusulunciĠ": 6491,
      "JosephĠ": 6492,
      "antar": 6493,
      "AwardsĠ": 6494,
      "dÃ¬": 6495,
      "fáº¹Ìģ": 6496,
      "áįı": 6497,
      "ĠáīĤ": 6498,
      "áĪĪáĭĭáĪįáį¢": 6499,
      "áĭ°áĮĪ": 6500,
      "áįĪáĪ¨": 6501,
      "ĠáĮĪáī¥áĪ¨": 6502,
      "nÃŃĠá»įdÃºnĠ201": 6503,
      ",ĠmshindiĠwaĠTuzoĠyaĠNobelĠyaĠTibaĠmwakaĠwaĠ": 6504,
      "mÃ©jÃ¬Ġ": 6505,
      "yĠandĠ": 6506,
      "ara": 6507,
      "italĠ": 6508,
      "AfirkaĠ": 6509,
      "rayuw": 6510,
      "scien": 6511,
      "22": 6512,
      "engaĠ": 6513,
      "onek": 6514,
      "ÃĢwá»įnĠÃĮt": 6515,
      "ÃĢwá»įnĠÃ¨nÃ¬yÃłnĠalÃłÃły": 6516,
      "Iv": 6517,
      "ĠáīłáĪŀ": 6518,
      "ĠáĬ¥áĬķáīħáĪµáīĥáĪ´": 6519,
      "Ġáī¥áĪĶáĪŃ": 6520,
      "ĠáĬŃáĪĪáī¥": 6521,
      "ĠáĪĬáĭ«": 6522,
      "isĠtheĠ": 6523,
      "Offic": 6524,
      "BBCĠ": 6525,
      "mataĠ": 6526,
      "nÃŃtorÃŃĠ": 6527,
      "maĠÅĦĠ": 6528,
      "wá»įÌģn": 6529,
      "III": 6530,
      "view": 6531,
      "koy": 6532,
      "abin": 6533,
      "obiĠ": 6534,
      "GÃ³mÃ¬nÃłĠ": 6535,
      "tayiĠ": 6536,
      "mulkinĠ": 6537,
      "oireĠ": 6538,
      "táº¹ÌĢ": 6539,
      "áĭ·": 6540,
      "itoĠ": 6541,
      "taĠzamaĠ": 6542,
      "áĬ¨áĬĵ": 6543,
      "áĮĭáīµ": 6544,
      "opol": 6545,
      "áĭ²áĪ±": 6546,
      "áĪ©áĬķ": 6547,
      "Ġá¹£iá¹£áº¹ÌģĠ": 6548,
      "Ġáī¤áī¶áī½": 6549,
      "Ġáī°áĬ¨áī³áĭŃ": 6550,
      "áĬ¨áī°áĪĽáĭį": 6551,
      "ĠáĪĿáĪįáĬŃáīµ": 6552,
      "knownĠ": 6553,
      "99": 6554,
      "contin": 6555,
      "Ath": 6556,
      "47": 6557,
      "48": 6558,
      "CC": 6559,
      "ufuĠ": 6560,
      "Fren": 6561,
      "KunaĠ": 6562,
      "rá»įÌĢ": 6563,
      "yaliy": 6564,
      "ithĠ": 6565,
      ".ĠItokasi": 6566,
      "laĠyaĠ": 6567,
      "proc": 6568,
      "walikuwaĠ": 6569,
      "Iá¹£áº¹ÌģĠ": 6570,
      "ahiyarĠ": 6571,
      "azz": 6572,
      "Alim": 6573,
      "yanayinĠ": 6574,
      "deuxĠ": 6575,
      "wurinĠ": 6576,
      "HanyoyinĠ": 6577,
      "barĠ": 6578,
      "Ġáĭ¨áĪĪáĭį": 6579,
      "áĪĿáī¥": 6580,
      "áĪµáĬķ": 6581,
      "ĠáĬ¨áĪĨáĬĲ": 6582,
      "áĪ³áĪ°": 6583,
      "áĮĬáĭ«": 6584,
      "ĠáīµáĬķáĪ½": 6585,
      "ĠáĪºáĪħ": 6586,
      "etiĠ": 6587,
      "taw": 6588,
      "ĠâĢĺ": 6589,
      "Abdull": 6590,
      "ilosoph": 6591,
      "aan": 6592,
      "ekĠ": 6593,
      "Ã¬sÃłnĠ": 6594,
      "Sil": 6595,
      "gan": 6596,
      "plac": 6597,
      "achĠ": 6598,
      "flu": 6599,
      "-d": 6600,
      "Alg": 6601,
      "stud": 6602,
      "aĠdaĠkumaĠ": 6603,
      "conn": 6604,
      "burg": 6605,
      "áĬķáĮĢ": 6606,
      "ĠáĭŃáīĨ": 6607,
      "áĭ¨áĪļ": 6608,
      "ĠáĪĪáĪļ": 6609,
      "ĠáīĥáĪĭáīµ": 6610,
      "ĠáĭĺáĪĺáĬĲĠáĪĽáī´áĭİáĪµ": 6611,
      "consid": 6612,
      "Ã¬bÃŃláº¹ÌĢĠ": 6613,
      "toĠgbaĠEbunĠ": 6614,
      "naf": 6615,
      "group": 6616,
      "utionĠ": 6617,
      "acikinĠ": 6618,
      "ahaifiy": 6619,
      "YorÃ¹bÃ¡": 6620,
      "ron": 6621,
      "Ġá»ĮdÃºnĠ": 6622,
      "B.": 6623,
      "Mov": 6624,
      "eneĠ": 6625,
      "::": 6626,
      "ĠáīłáĭĪ": 6627,
      "áī°áīµ": 6628,
      "áĭŃáĪį": 6629,
      "usin": 6630,
      "enĠ(": 6631,
      "ĠáĪµáĬķ": 6632,
      "ĠáīłáĪĺáī£áĪį": 6633,
      "áįĵáĬķ": 6634,
      "ĠáĮĢáĪŃáĪĺáĬķ": 6635,
      "Ġáī°áĪĺáĪ³áĪ³áĭŃ": 6636,
      "ĠáĪĺáĪ°áĪ¨áīµ": 6637,
      "áĮ¥áĪ¨ĠáĬĲáĮĪáĪ®áī½": 6638,
      "áĬ®áĬĸáĪļ": 6639,
      "aene": 6640,
      "okanaĠnaĠ": 6641,
      "nÃ¡Ãł,Ġ": 6642,
      "ndaniĠyaĠ": 6643,
      "fÃºnĠÃłwá»įnĠ": 6644,
      "attaf": 6645,
      "kejÃ¬": 6646,
      "pÃłtÃłkÃ¬Ġ": 6647,
      "Sok": 6648,
      "princip": 6649,
      "ectiv": 6650,
      "Su": 6651,
      "igbaĠ": 6652,
      "Ãį": 6653,
      "aniĠm": 6654,
      "with": 6655,
      "Sol": 6656,
      "Ã¯": 6657,
      "Ġáĭ¨áĮ¥": 6658,
      "áĪįáĮĭ": 6659,
      "Ġáī°áĮ«": 6660,
      "Ġáĭ¨áĪļáĪ°áĪ«": 6661,
      "áįĸáĪŃáīµ": 6662,
      "pÃłÃ¡Ġ": 6663,
      "ĠáĬłáīĢáįį": 6664,
      "ilioniĠ": 6665,
      "ĠáĮįáĬķáĬĻáĬĲáīµ": 6666,
      "wid": 6667,
      "ida": 6668,
      "C.": 6669,
      "bai": 6670,
      "iĠzaĠ": 6671,
      "AdÃ©": 6672,
      "e\"Ġ": 6673,
      "ES": 6674,
      "isc": 6675,
      "ajaĠ": 6676,
      "Alf": 6677,
      "Ġá¹£ÃŃá¹£": 6678,
      "ÅĦĠá¹£eĠ": 6679,
      "hadiĠk": 6680,
      "mÃ¡aĠ": 6681,
      "Ã¬rÃ²yÃ¬nĠ": 6682,
      "Som": 6683,
      "vy": 6684,
      "zoĠ": 6685,
      ".ĠH": 6686,
      "MarisĠ": 6687,
      ")áį¢": 6688,
      "Oj": 6689,
      "bab": 6690,
      "áĮİáī½": 6691,
      "áĪŃáį£": 6692,
      "ĠáĬ¥áĪ«áĪ±": 6693,
      "ĠáĬ¨áĪ°": 6694,
      "es)Ġ": 6695,
      "Ġáĭ¨áĬ¡": 6696,
      "ĠáĭĵáĭŃáĬĲáīµ": 6697,
      "ĠáĪĽáĬħ": 6698,
      "ĠáĪįáĪĽ": 6699,
      "Ġáĭ¨áĬłáĭįáĪ®áįĵ": 6700,
      "ĠáĮĢáĪĺáĪ¨": 6701,
      "ayyuk": 6702,
      "ĠáĬłáĪĿáī£": 6703,
      "2019,Ġ": 6704,
      "ĠáĬŃáįįáĪĭáĮĪáĪŃ": 6705,
      "Dev": 6706,
      "oirĠ": 6707,
      "aĠfaraĠ": 6708,
      "báº¹ÌģĠ": 6709,
      "onÃŃá¹£": 6710,
      "kwam": 6711,
      "lÃ©Ġráº¹ÌĢĠ": 6712,
      "OgunĠ": 6713,
      "akaf": 6714,
      "aya.": 6715,
      "ingiaĠ": 6716,
      "000": 6717,
      "rikic": 6718,
      "ĠáįĴ": 6719,
      "aientĠ": 6720,
      "ĠáĪµáĭ«áĪľ": 6721,
      "toĠjeĠ": 6722,
      "¢áīµáĭ®áĮµáĭ«áĬķ": 6723,
      "Ġá»įÌĢrá»įÌĢĠ": 6724,
      "Ã¬dÃŃĠ": 6725,
      "ĠáĪĺáĪįáĬ©": 6726,
      "ĠáĪĽáĪŃáīĨáĪµĠáĭ°áĮįáĪŀ": 6727,
      "ranĠ": 6728,
      "tash": 6729,
      "o)Ġ": 6730,
      "iyaĠnaĠ": 6731,
      "AM": 6732,
      "eshiĠ": 6733,
      "jÃ©Ġ": 6734,
      "Ãłwá»įnĠá»įmá»įĠ": 6735,
      "c.": 6736,
      "leĠm": 6737,
      "exp": 6738,
      "whenĠ": 6739,
      "ĠáĮĦ": 6740,
      "áī½áĪī": 6741,
      "áĪĭáĪĭ": 6742,
      "ĠáĪĿáĪħ": 6743,
      "áĭ³áĪª": 6744,
      "áĭ¨áĪ©": 6745,
      "umoĠ": 6746,
      "Ġáĭ«áĪĭáī¸áĭį": 6747,
      "Ġáĭ¨áī°áī£": 6748,
      "áī¦áīµ": 6749,
      "áĪįáĪµáįįáĬĵ": 6750,
      "Ġáĭ¨áĭĵáĪĺáī±": 6751,
      "Kej": 6752,
      "fÃł": 6753,
      "poss": 6754,
      "betweenĠ": 6755,
      "Wais": 6756,
      "ojinĠ": 6757,
      "Turk": 6758,
      "dubuĠ": 6759,
      "ajeĠ": 6760,
      "Rash": 6761,
      "leyĠ": 6762,
      "kÃ¬Ġ": 6763,
      "pyaĠ": 6764,
      "zir": 6765,
      "áĪŃáī³": 6766,
      "áĬĲáĬĽ": 6767,
      "tÃŃĠaĠ": 6768,
      "wakaz": 6769,
      "ÃŃnÃºĠ": 6770,
      "tÃŃĠwá»įÌģnĠbÃŃĠ": 6771,
      "ĠáĮ£áĪį": 6772,
      "wenyeweĠ": 6773,
      "ĠáĪĥáĭŃáĪĽáĬĸáīµ": 6774,
      "AL": 6775,
      "cas": 6776,
      "UnitedĠStat": 6777,
      "FM": 6778,
      "nje": 6779,
      "thanĠ": 6780,
      "amba": 6781,
      "ra'": 6782,
      "arc": 6783,
      "Ã³ĠsÃ¬Ġ": 6784,
      "pÃŃnláº¹ÌĢ": 6785,
      "iquesĠ": 6786,
      "Laf": 6787,
      "estiv": 6788,
      "ici": 6789,
      "prim": 6790,
      "ambaz": 6791,
      "Art": 6792,
      "áĬķáĮ»": 6793,
      "Ġáīłáĭļáĭ«": 6794,
      "áĪĪáī±": 6795,
      "áīłáī³áĪįáį¢": 6796,
      "Ġáī°áĮĪ": 6797,
      "Ġáī°áĭ°áĪŃ": 6798,
      "áĬłáĪģ": 6799,
      "áī¦áĪŃ": 6800,
      "ĠáĬłáĪĪáį¢": 6801,
      "ĠáĬłáĪ«áīµ": 6802,
      "áĪªáī³áĬķáĭ«": 6803,
      "Kog": 6804,
      "ood": 6805,
      "shiĠdaĠ": 6806,
      "IbileĠ": 6807,
      "EnglishĠ": 6808,
      "ÃºÃºs": 6809,
      "ileĠniĠ": 6810,
      "yaoĠ": 6811,
      "TanbihiĠ": 6812,
      "----": 6813,
      "edĠbyĠtheĠ": 6814,
      "Ek": 6815,
      "MayĠ": 6816,
      "rab": 6817,
      "2019Ġ": 6818,
      "ezĠ": 6819,
      "encesĠ": 6820,
      "pÃ²Ġ": 6821,
      "tÃ²": 6822,
      "ĠáĮ¤": 6823,
      "ĠáĬłáĭĭ": 6824,
      "áĭµáīħ": 6825,
      "ayarĠdaĠ": 6826,
      "aĠmwakaĠ": 6827,
      "apÃ¡Ġ": 6828,
      "ector": 6829,
      "Ġáĭ°áī¥": 6830,
      "áĮĢáīµ": 6831,
      "áīĭáīĭ": 6832,
      "áĪµáī°áĪŃ": 6833,
      "ĠáĬłáī£áĪĭáīµ": 6834,
      "ĠáĭľáĬĵĠáĪĺáĭĭ": 6835,
      "Ġáĭ¨áĪħáĭĿáī¥": 6836,
      "áįĲáī¥áĪĬáĬŃ": 6837,
      ".ĠÃĢwá»įnĠÃ¬t": 6838,
      "Ġáĭ©áĬĴáī¨áĪŃáĪ²áī²": 6839,
      "ĠáĪ³áĭŃáĬķáĪ³áĭĬĠáĮ¸áī£áĭŃ": 6840,
      "star": 6841,
      "yth": 6842,
      "esp": 6843,
      "Dut": 6844,
      "ĠáīĢáĭŃ": 6845,
      "</": 6846,
      "akawaĠ": 6847,
      "Ã¬gbÃ©": 6848,
      "ekoĠ": 6849,
      ",ĠmwandishiĠ": 6850,
      "Láº¹ÌģyÃ¬nĠ": 6851,
      "kayanĠ": 6852,
      "sakam": 6853,
      ".ĠManazarta": 6854,
      "tsohuwarĠ": 6855,
      "áĬĵáĮĪáĪŃ": 6856,
      "ĠáĪĿáĭķáĪ«": 6857,
      "áĭĿáĪĿ": 6858,
      "Ġáĭ¨áĬĲáĮĪ": 6859,
      "áĬĲáĮĪáĪŃĠáĮįáĬķ": 6860,
      "Ġáĭ¨áĪĻáĭļáīĥ": 6861,
      "kok": 6862,
      "ivy": 6863,
      "39": 6864,
      "KĠ": 6865,
      "ne.Ġ": 6866,
      "qĠ": 6867,
      "Ã©rÃ©Ġ": 6868,
      "Ros": 6869,
      "ram": 6870,
      "taĠsamuĠ": 6871,
      "awarĠdaĠ": 6872,
      "kilomitaĠ": 6873,
      "bincik": 6874,
      "shirye-shiry": 6875,
      "wasaĠ": 6876,
      "Fasah": 6877,
      "VisiwaĠ": 6878,
      "áĪĪáīłáīµ": 6879,
      "ayáº¹": 6880,
      "áĮįáĪĽáĭĬ": 6881,
      "áĮĭáĪ«": 6882,
      "áĮĭáĮĪáĪŃ": 6883,
      "ĠáĪ°áĪŃ": 6884,
      "áĬķáĮįáĪ¥áīµ": 6885,
      "ĠáĬ¥áĬķáĭ°ĠáĬĲáīłáĪŃ": 6886,
      "ĠáĬ¥áĪµáĬ«": 6887,
      "Ġá»įÌĢpá»įÌĢlá»įpá»įÌĢĠ": 6888,
      "áįĪáĪĭáĮĬ": 6889,
      "uĠM": 6890,
      "play": 6891,
      "ion,Ġ": 6892,
      "2)": 6893,
      "Nair": 6894,
      "PD": 6895,
      "Zar": 6896,
      "obinĠ": 6897,
      "Scien": 6898,
      "sosaiĠ": 6899,
      "68": 6900,
      "DarĠ": 6901,
      "wayĠ": 6902,
      "sinimÃ¡ĠÃłgbÃ©lÃ©": 6903,
      "tag": 6904,
      "tĠ(": 6905,
      "Portug": 6906,
      "Kais": 6907,
      "pia": 6908,
      "ĠáĪĺáĬ®": 6909,
      "áĬŃáĪĿáĬĵ": 6910,
      "áĭĿáī¡": 6911,
      "osiĠ": 6912,
      "ĠáĭĭáĮĭ": 6913,
      "ĠáĪĬáīĥáĭįáĬķ": 6914,
      "Ġáī°áĪĺáĪį": 6915,
      "ĠáĪģáĪĪáī°áĬĽ": 6916,
      "Cent": 6917,
      "ObaĠ": 6918,
      "We": 6919,
      "Ãłgb": 6920,
      "elez": 6921,
      "esĠandĠ": 6922,
      "huadhim": 6923,
      "ÃªmeĠ": 6924,
      "AmurkaĠ": 6925,
      "talabij": 6926,
      "Que": 6927,
      "origin": 6928,
      "Luc": 6929,
      "Ġ12": 6930,
      "AT": 6931,
      "shaĠ": 6932,
      "1.Ġ": 6933,
      "áĮįáĪĪ": 6934,
      "ellesĠ": 6935,
      "ĠáīłáĪ¥": 6936,
      "owÃ³Ġ": 6937,
      "áĪµáīµáĪª": 6938,
      "áĮ»áįį": 6939,
      "áĭ°áī¥áĪ¨": 6940,
      "uhuruĠ": 6941,
      "alÃ¡Ã¬sÃŃĠnÃŃĠ": 6942,
      "reat": 6943,
      "áī¢áĭŃ": 6944,
      "sukaĠh": 6945,
      "AprilĠ": 6946,
      "fimĠdinĠ": 6947,
      "jej": 6948,
      "ursĠ": 6949,
      "us.": 6950,
      "ajir": 6951,
      "egem": 6952,
      "prÃ©sent": 6953,
      "zakeĠ": 6954,
      "ChinaĠ": 6955,
      "ÃªtreĠ": 6956,
      "SarkinĠ": 6957,
      "MarejeoĠ": 6958,
      "ThomasĠ": 6959,
      "IjobaĠIbileĠ": 6960,
      "AR": 6961,
      "sk": 6962,
      "crip": 6963,
      "Ot": 6964,
      "Ġáĭ¨áĪĭ": 6965,
      "áĭ«áīĦ": 6966,
      "áĬĲáĪ£": 6967,
      "áĭµáĪľ": 6968,
      "import": 6969,
      "áį£Ġ": 6970,
      "ĠáĭĪáĮ£": 6971,
      "ĠáĬŃáĪŃ": 6972,
      "Sheh": 6973,
      "ĠáĮ¥áīłáī¥": 6974,
      "áĪĲáĪ´": 6975,
      "ĠáĮ¨áĪĿáĪ®": 6976,
      "áĭ°áĪ¨áĮĪáĭį": 6977,
      "Burtan": 6978,
      "ĠáĬłáĪµáī°áĭ³áĭ°áĮį": 6979,
      "RayayyunĠ": 6980,
      "haka,Ġ": 6981,
      "TarihinĠ": 6982,
      "Ã¬p": 6983,
      "abakiĠ": 6984,
      "afiĠk": 6985,
      "cord": 6986,
      "ÃĢwá»įnĠá»įjá»įÌģ": 6987,
      "aliye": 6988,
      "banĠ": 6989,
      "dÃ³": 6990,
      "sir": 6991,
      "inz": 6992,
      "eroĠ": 6993,
      "takenĠ": 6994,
      "def": 6995,
      "Ø©": 6996,
      "Arch": 6997,
      "Iy": 6998,
      "Nam": 6999,
      "arsaĠ": 7000,
      "daban-": 7001,
      "BabbanĠbirninĠ": 7002,
      "A)Ġ": 7003,
      "pá»įĠ": 7004,
      "som": 7005,
      "vic": 7006,
      "áĪĽáī¸áĭį": 7007,
      "ibleĠ": 7008,
      "áįĬáĭİáī½": 7009,
      "ĠáĪ¥áĮĭ": 7010,
      "ĠáīµáĪŃáĮīáĪĿ": 7011,
      "upĠ": 7012,
      "ĠâĢ¹": 7013,
      "dÃ¡raĠ": 7014,
      "ĠáįĪáĪ¨áĬķáĪ³áĭŃ": 7015,
      "áīħáĭ«áĬĸáĪµ": 7016,
      "Ġáĭ¨áĪļáĮĪáĬĿáīłáīµĠáĪĺáĪįáĬŃáĭĵĠáĪĿáĭµáĪŃ": 7017,
      "le,Ġ": 7018,
      "osp": 7019,
      "Kig": 7020,
      "a).": 7021,
      "ami": 7022,
      "ijer": 7023,
      "and,Ġ": 7024,
      "Mand": 7025,
      "undiĠ": 7026,
      "sabab": 7027,
      "wengi,Ġ": 7028,
      "Ã¬lÃº": 7029,
      "YunifÃ¡": 7030,
      "-áº¹ÌĢyáº¹Ġ": 7031,
      "ÃĢwá»įnĠá»įjá»įÌģalÃ¡Ã¬sÃŃĠnÃŃĠ": 7032,
      "Wab": 7033,
      "eyeĠ": 7034,
      "ifar": 7035,
      "ªáĭ«": 7036,
      "Ġáī²": 7037,
      "Ġáīłáĭ°áī¡áī¥": 7038,
      "áī°áĬĵ": 7039,
      "ĠáĬłáĭĺ": 7040,
      "áī¥áĬĽ": 7041,
      "ĠáĬĲáįĥ": 7042,
      "kareĠ": 7043,
      "ĠáĪĪáĭĪ": 7044,
      "Ġáĭ¨áĪĺáĮ£": 7045,
      "ĠáĪļáĬ«áĬ¤áĪį": 7046,
      "áīĢáĪĺáĮ«": 7047,
      "ĠáĮłáīħáĪĭáĭŃ": 7048,
      "ĠáĪļáĬĴáĪµáīµáĪŃ": 7049,
      "ĠáĬĽáĭį": 7050,
      "ge": 7051,
      "Shar": 7052,
      "raticĠ": 7053,
      "pá»į": 7054,
      "asaliĠ": 7055,
      "dec": 7056,
      "kudancinĠ": 7057,
      "MuhammaduĠ": 7058,
      "abubuwanĠ": 7059,
      "3)": 7060,
      "maz": 7061,
      "lÃ²": 7062,
      "ah,Ġ": 7063,
      "SaintĠ": 7064,
      "RoyalĠ": 7065,
      "-áĬ¢": 7066,
      "temp": 7067,
      "áĪ¦": 7068,
      "ĠáĪĺáĪ¬áīµ": 7069,
      "áĪ«áĭįáĭ«áĬķ": 7070,
      "ĠáĪĿáĬĴáĪįáĬŃ": 7071,
      "ĠáĭĵáĪĭáĪĽ": 7072,
      "áĮĭáĪª": 7073,
      "Ġáĭĺáĭį": 7074,
      "áī¤áī±": 7075,
      "niĠá»įdunĠ": 7076,
      "Ã¬dÃ¡": 7077,
      "áĪ£áĪªáĭ«": 7078,
      "Ã²rÃ²Ġ": 7079,
      "ĠáĭķáĪĪáī°ĠáĪŀáīµ": 7080,
      "uwa,Ġ": 7081,
      "aĠshekar": 7082,
      "aĠmasuĠ": 7083,
      "hakanĠ": 7084,
      "kamaĠm": 7085,
      "kwallonĠkaf": 7086,
      "moj": 7087,
      "Ã©cr": 7088,
      "inrinĠ": 7089,
      "onyĠ": 7090,
      "tainĠ": 7091,
      "150": 7092,
      "AgbegbeĠIjobaĠIbileĠ": 7093,
      "ker": 7094,
      "kuch": 7095,
      "areĠnaĠ": 7096,
      "ollow": 7097,
      "Shekar": 7098,
      "P.": 7099,
      "gomaĠ": 7100,
      "áĭ«áĪįáį¢": 7101,
      "áĭ«áĭįáĭ«áĬķ": 7102,
      "ĠáĬłáĬĵ": 7103,
      "áĭ°áĪŃáĪµ": 7104,
      "áĪ«áĪª": 7105,
      "áĬķáĮįáĪµáīµ": 7106,
      "own": 7107,
      "áĬĽáĭįáĪĿ": 7108,
      "ĠáĪĬáĪĨáĬķ": 7109,
      "Ġáĭķáĭį": 7110,
      "ĠáĪľáĭ³": 7111,
      "ĠáĭĺáĪĺáĬķĠáĬłáīĨáĮ£áĮłáĪŃĠáĭ¨áĭĵáĪĺáī±": 7112,
      "5)": 7113,
      "shidaĠ": 7114,
      "2012Ġ": 7115,
      "jejen": 7116,
      "aneĠdaĠ": 7117,
      "ilÃ©-iá¹£áº¹ÌģĠ": 7118,
      "natur": 7119,
      "Ã©lÃ©": 7120,
      "Ny": 7121,
      "Sul": 7122,
      "t.": 7123,
      "Ã©ĠparĠ": 7124,
      "ipeĠ": 7125,
      "rÃ¨": 7126,
      "áĪĲáĭŃ": 7127,
      "Mur": 7128,
      "áĪĿáīłáĪŃ": 7129,
      "anĠNajeriyaĠ": 7130,
      "ikuuĠ": 7131,
      "áĮįáĬĵ": 7132,
      "ĠáĬ¨áĭĪ": 7133,
      "ĠáĭŃáĪĺ": 7134,
      "ĠáĭĪáĭĺ": 7135,
      "áīłáĪ®": 7136,
      "áįĪáĮłáĪ¨": 7137,
      "áĬķáĭµáĪµáĬĵ": 7138,
      "ambr": 7139,
      "taronĠ": 7140,
      "samoĠ": 7141,
      "áĮĥáĭĿáĪĽáī½": 7142,
      "ĠáĬ¢áĭ¨áĪ±áĪµ": 7143,
      "farkonĠ": 7144,
      "ĠáĬªáĭ³áĬķ": 7145,
      "ĠáĮ¸áĪĲáįĬ": 7146,
      "ĠáĬłáĪµáī°áĭ³áĭ°áĪŃ": 7147,
      "YohaneĠ": 7148,
      "met": 7149,
      "wez": 7150,
      "son": 7151,
      "táº¹l": 7152,
      "lá»į.": 7153,
      "EastĠ": 7154,
      "aĠL": 7155,
      "Kasuwan": 7156,
      "samaĠdaĠ": 7157,
      "nasaraĠ": 7158,
      "birniĠne,ĠdaĠkeĠ": 7159,
      "áĬ»": 7160,
      "áīłáĬłáĪ": 7161,
      "2015Ġ": 7162,
      "Ġáī¥áĭĻĠáĮĬáĭľ": 7163,
      "August": 7164,
      "kÃ¨Ġ": 7165,
      "intern": 7166,
      "6)": 7167,
      "gbÃ¡Ġ": 7168,
      "ijerum": 7169,
      "beg": 7170,
      "owerĠ": 7171,
      "Rev": 7172,
      "Ø³": 7173,
      "abinc": 7174,
      "activ": 7175,
      "anciĠdaĠ": 7176,
      "ÉĹayaĠdagaĠcikinĠ": 7177,
      "is.": 7178,
      "daid": 7179,
      "áĮ©": 7180,
      "áī£áī±": 7181,
      "áĭ¨áĬłáĪ": 7182,
      "ĠáĬ¢áĬķ": 7183,
      "ĠáĬªáĪİ": 7184,
      "áĮĬáĭľáĭį": 7185,
      "ine,Ġ": 7186,
      "Ev": 7187,
      "e),Ġ": 7188,
      "oughĠ": 7189,
      "ickĠ": 7190,
      "uish": 7191,
      "aĠdukĠ": 7192,
      "waÆĻ": 7193,
      "mataĠtaĠ": 7194,
      "zamanĠk": 7195,
      "NewĠYork": 7196,
      "Tech": 7197,
      "oá¹£": 7198,
      "BKĠ(BaadaĠyaĠKristo).ĠMatukioĠ": 7199,
      "ĠáĬ¦áĪŃ": 7200,
      "ĠáĬ¥áĮ½": 7201,
      "áĪ³áĭį": 7202,
      "áĪĬáĭ«áĬķ": 7203,
      "áĭįáĬķĠáĭ¨": 7204,
      "ĠáĪ²áĪĨáĬķĠáīł": 7205,
      "ĠáĪŃáĭķ": 7206,
      "ĠáĬłáĪĽáĬ«": 7207,
      "ĠáĬĹáĪª": 7208,
      "Ġáīłáī°áĪĪáĭŃáĪĿ": 7209,
      "iĠkanĠ": 7210,
      "succ": 7211,
      "Islam": 7212,
      "Gud": 7213,
      "Kih": 7214,
      "kÃ¡Ġ": 7215,
      "atolikiĠ": 7216,
      "awa": 7217,
      "2014Ġ": 7218,
      "wendaĠ": 7219,
      "sukaĠk": 7220,
      "Ġáº¹ÌĢyáº¹Ġ": 7221,
      "girmaĠ": 7222,
      "saurans": 7223,
      "Ġ(BaadaĠyaĠKristo).ĠMatukioĠWaliozaliwaĠWaliofarikiĠKarneĠyaĠ": 7224,
      "FilmĠ": 7225,
      "do": 7226,
      "fe": 7227,
      "leurĠ": 7228,
      "meĠm": 7229,
      "ic,Ġ": 7230,
      "Angel": 7231,
      "cy": 7232,
      "sau": 7233,
      "1999Ġ": 7234,
      "kmÂ²": 7235,
      "Fat": 7236,
      "yÃ¨Ġ": 7237,
      "ikiĠwaĠ": 7238,
      "ĠáĬłáī¡": 7239,
      ".ĠÃĵĠ": 7240,
      "Ã¨meĠ": 7241,
      "áį£ĠáĪĪ": 7242,
      "áįįáĪ¬": 7243,
      "áĮ£áĪª": 7244,
      "áĬ¥áĪµ": 7245,
      "ĠáĪĻáĭļáīĥ": 7246,
      "ĠáĭĺáĪĺáĬĲĠáĪĽáĪŃáīĨáĪµĠáĭ°áĮįáĪŀ": 7247,
      "ĠáĬłáĮĪáĪįáĮįáĪİáīµ": 7248,
      "ĠáįĪáĪŃáĭĸáĬķ": 7249,
      "azamaĠpiaĠOrodhaĠyaĠ": 7250,
      "ĠáĮĪáĬķáĭĺáī¥": 7251,
      "AlakosoĠAgbaĠ": 7252,
      "bikinĠ": 7253,
      "hiz": 7254,
      "long": 7255,
      "Ã©s": 7256,
      "nau'": 7257,
      "Way": 7258,
      "as.": 7259,
      "2010": 7260,
      "iumĠ": 7261,
      "rikaĠ": 7262,
      "itanĠ": 7263,
      "entralĠ": 7264,
      "cheĠ": 7265,
      "ahaliĠ": 7266,
      "kanĠtÃŃĠ": 7267,
      "kundiĠ": 7268,
      "uatanaĠnaĠ": 7269,
      "ÃłwÃ³Ġ": 7270,
      "ViungoĠvyaĠnje": 7271,
      "DesembaĠ": 7272,
      "lang": 7273,
      "Maz": 7274,
      "Mos": 7275,
      "ixĠ": 7276,
      "kamfaninĠ": 7277,
      "sauĠ": 7278,
      "ĠáĭŃáĮł": 7279,
      "áĪĮáĪĭ": 7280,
      "aĠkwall": 7281,
      "Ġáĭ°áĮĭ": 7282,
      "ShiĠneĠ": 7283,
      "ĠáįĬáĪį": 7284,
      "Ġáĭ«áĪĪáĭįáĬķ": 7285,
      "áį²áį±áį»áį¶áį": 7286,
      "áĪĽáĭŃáĪµáĮ¥": 7287,
      "auniyarĠ": 7288,
      "Sala": 7289,
      "ĠáĪļáĬĴáĪµáī´": 7290,
      "ĠáĭµáĬķáĮĭáĭŃ": 7291,
      "bil": 7292,
      "tanĠ": 7293,
      "Åį": 7294,
      "ibnĠ": 7295,
      "Res": 7296,
      "Sup": 7297,
      "yáº¹": 7298,
      "Ã³p": 7299,
      "karibuĠ": 7300,
      "1999": 7301,
      "uhimuĠ": 7302,
      "jáº¹ÌģĠá»įmá»įĠ": 7303,
      "50Ġ": 7304,
      "gener": 7305,
      "torĠ": 7306,
      "Sw": 7307,
      "kÃ¹": 7308,
      "arĠtaĠ": 7309,
      "imaninĠ": 7310,
      "bÃłĠ": 7311,
      "hul": 7312,
      "áĪĿáĪĮ": 7313,
      "amar": 7314,
      "iláº¹ÌĢ": 7315,
      "itaĠm": 7316,
      "ĠáĬłáĮł": 7317,
      "áį¡áĬł": 7318,
      "ĠáĬ¥áĬķáĭµ": 7319,
      "apá»įÌĢĠ": 7320,
      "Ġáĭ¨áĪļáī£áĪį": 7321,
      "OlÃº": 7322,
      "zamaĠm": 7323,
      "áī£áī¢áĪİáĬķ": 7324,
      "Ġáī¡áĭµ": 7325,
      "áĪĺáĪĪáĪµ": 7326,
      "AgostiĠ-Ġ": 7327,
      "ÃĢwá»įnĠÃ¬tá»įÌģkasÃŃĠ": 7328,
      "hadiĠkifoĠch": 7329,
      "49": 7330,
      "ĠD": 7331,
      "Publ": 7332,
      "call": 7333,
      "kom": 7334,
      "noĠ": 7335,
      "sáº¹ÌĢ": 7336,
      "Ã¨yÃŃ": 7337,
      "a,ĠkumaĠ": 7338,
      "AĠshekararĠ201": 7339,
      "jihoh": 7340,
      "NuwambaĠ": 7341,
      "áĪĪáĪ°": 7342,
      "uns": 7343,
      "áĭĭáĪŃáĭ«": 7344,
      "hom": 7345,
      "MariaĠ": 7346,
      "Â»)": 7347,
      "Sing": 7348,
      "les": 7349,
      "gboyÃ¨Ġ": 7350,
      "etĠleĠ": 7351,
      "wakifuat": 7352,
      ",ĠmwigizajiĠwaĠfilamuĠ": 7353,
      "thĠcentur": 7354,
      "upandeĠwaĠm": 7355,
      "ÃºgbÃ²Ġ": 7356,
      "JulaiĠ-Ġ": 7357,
      "OrÃŃláº¹ÌĢ-Ã¨dÃ¨Ġ": 7358,
      "57": 7359,
      "aĠdagaĠ": 7360,
      "samanĠ": 7361,
      "gn": 7362,
      "him": 7363,
      "ombeĠ": 7364,
      "FirstĠ": 7365,
      "manyanĠ": 7366,
      "Ã²:Ġ": 7367,
      "Tel": 7368,
      "coll": 7369,
      "kisiwaĠ": 7370,
      "áĮĲ": 7371,
      "áĬķáī°": 7372,
      "ikuĠ": 7373,
      "ĠáĬłáĭ°": 7374,
      "áĬĲáĪµ": 7375,
      "áĪ«áĭį": 7376,
      "áĭ³áĭĬ": 7377,
      "áĬ«áĭµ": 7378,
      "ĠáĪµáī´": 7379,
      "idd": 7380,
      "áĭļáĭ«áĬķ": 7381,
      "áĪĻáīµ": 7382,
      "ĠáĬ¥áĬķáĭ°ĠáĪĨáĬĲ": 7383,
      "ĠáĬĲáīłáĪŃáį¡áį¡": 7384,
      "ĠáĪķáĮį": 7385,
      "Ã¬tÃłg": 7386,
      "ĠáīµáĪĿáĪħáĪŃáīµĠáī¤áīµ": 7387,
      "lÃ¡raĠÃłwá»įnĠ": 7388,
      "Hel": 7389,
      "Zam": 7390,
      "ikĠ": 7391,
      "isĠ(": 7392,
      "Ġ1.": 7393,
      "dontĠ": 7394,
      "shahar": 7395,
      "karkashinĠ": 7396,
      "sabonĠ": 7397,
      "MayuĠ": 7398,
      "Sel": 7399,
      "toĠbeĠ": 7400,
      "UgandaĠ": 7401,
      "4.Ġ": 7402,
      "ones": 7403,
      "sÃŃtÃ¬Ġ": 7404,
      "yaĠmwakaĠ": 7405,
      "Mohamm": 7406,
      "aĠhu": 7407,
      "gÃ©nÃ©r": 7408,
      "Ġáĭ¨áĪĪáĪĿ": 7409,
      "Ã©p": 7410,
      "áĪĪáĪį": 7411,
      "ĠáĮĵ": 7412,
      "áĪ«áĬĴ": 7413,
      "emaĠ": 7414,
      "Ġáīłáī°áĪĪáĭ«áĭ©": 7415,
      "ĠáįįáīħáĪŃ": 7416,
      "ĠáĬłáĪįáįĭ": 7417,
      "ĠáĪħáĮį": 7418,
      "Ġáī¤áī°áĬŃáĪŃáĪµáī²áĭ«áĬķ": 7419,
      "áĪµáĪ«áĬ¤áĪį": 7420,
      "Sim": 7421,
      "TaĠkasanceĠ": 7422,
      "oĠM": 7423,
      "ÉĹinĠ": 7424,
      "TaĠkumaĠ": 7425,
      "lambarĠyaboĠtaĠ": 7426,
      "faitĠ": 7427,
      "rÃº": 7428,
      "cheoĠ": 7429,
      "ukw": 7430,
      "áĮłáīµ": 7431,
      "ĠáĬĥáĭŃáĪĪĠáĪ¥áĪĭáĪ´": 7432,
      "\"M": 7433,
      "band": 7434,
      "ium": 7435,
      "NorthĠ": 7436,
      "1980": 7437,
      "Kol": 7438,
      "Oá¹£uĠ": 7439,
      "TanaĠdaĠ": 7440,
      "lilikuwaĠ": 7441,
      "mwakaĠ": 7442,
      "ĠáĬĶ": 7443,
      "áĬķĠáĭĪáĭ°": 7444,
      "Ġáĭ¨áī¥": 7445,
      "ĠáīłáĪ®": 7446,
      "watakatifuĠ": 7447,
      "Ġáĭ°áĪŃ": 7448,
      ".ĠMatuk": 7449,
      "orÃŃá¹£": 7450,
      "NÃŃgbÃłĠ": 7451,
      "áį²áį±áį»áį·áį": 7452,
      "Abdul": 7453,
      "jáº¹sÃ¡": 7454,
      "kasuwanciĠ": 7455,
      "ItaĠceĠ": 7456,
      "ĠáīĢáĬĵáīµĠáĭŃáīĢáĪ«áĪīáį¢": 7457,
      "Str": 7458,
      "hiĠ": 7459,
      "âĢĵĠ1": 7460,
      "anim": 7461,
      "46": 7462,
      "maw": 7463,
      "rin,Ġ": 7464,
      "inceĠ": 7465,
      "MarchĠ": 7466,
      "Prim": 7467,
      "Dan": 7468,
      "agharib": 7469,
      "useĠ": 7470,
      "askof": 7471,
      "Yes": 7472,
      "ing.": 7473,
      "uhimm": 7474,
      "zauneĠ": 7475,
      "DukĠ": 7476,
      "áĪµĠ(": 7477,
      "áĬĵĠáĪĪ": 7478,
      "áī¥áĪĭ": 7479,
      "áī¡áĪŃ": 7480,
      "ĠáīĢáĬķĠáĬĲáĭįáį¢": 7481,
      "ĠáĬķáĮīáĪ¥ĠáĬĲáīłáĪŃáį¢": 7482,
      "ĠáįĬáĭ°": 7483,
      "áĮĪáĪĪáĮį": 7484,
      "ĠáĪªáįĲáī¥áĪĬáĬŃ": 7485,
      "ĠáĮłáĪĭ": 7486,
      "Ġáĭ°áĪ´áīµ": 7487,
      "áĬ¥áĬķáĭ²áĪģ": 7488,
      "ĠáĪĿáĬķáĮĬáĭľáĪĿ": 7489,
      "cetteĠ": 7490,
      "inap": 7491,
      "178": 7492,
      "byĠtheĠ": 7493,
      "iláº¹": 7494,
      "ondeĠ": 7495,
      "isti": 7496,
      "Ã³n": 7497,
      "Ã³Ġá¹£": 7498,
      "ishinĠ": 7499,
      "iĠmwakaĠ": 7500,
      "duni": 7501,
      "team": 7502,
      "ke": 7503,
      "ty": 7504,
      "2011Ġ": 7505,
      "ere": 7506,
      "haifarĠdaĠ": 7507,
      "BankĠ": 7508,
      "aĠbirninĠ": 7509,
      "re.": 7510,
      "2018": 7511,
      "liv": 7512,
      "tam": 7513,
      "Î¹": 7514,
      "áī°áĬŀáī½": 7515,
      "ĠáĭĪáĪ°": 7516,
      "áĭĿáĬĵ": 7517,
      "ĠáĮįáĪ«": 7518,
      "2009": 7519,
      "Ġáĭ¨áī°áīĢ": 7520,
      "ekaĠ": 7521,
      "ĠáīłáĪĺáĮ¨áĪ¨áĪ»": 7522,
      "ĠáĬłáĬķáĭ°": 7523,
      "ninuĠawonĠ": 7524,
      "jáº¹ÌģĠá»įÌĢkanĠ": 7525,
      "ĠáĬłáĭįáĪ«": 7526,
      "Italia": 7527,
      "CN": 7528,
      "althĠ": 7529,
      "territ": 7530,
      "hy": 7531,
      "conom": 7532,
      "Trans": 7533,
      "airiĠ": 7534,
      "gwamnatiĠ": 7535,
      "UsmanĠ": 7536,
      "yaĠmutuĠaĠshekaraĠtaĠ": 7537,
      "pÃº": 7538,
      "aĠkwenyeĠ": 7539,
      "expl": 7540,
      "OktobaĠ-Ġ": 7541,
      "tofautiĠ": 7542,
      "3.Ġ": 7543,
      "bro": 7544,
      "Ru": 7545,
      "kid": 7546,
      "áĬķáĬ«": 7547,
      "áĪĿĠáĭŃ": 7548,
      "shaf": 7549,
      "ĠáĮįáĪį": 7550,
      "Ġáĭ°áī¥áĪ¨": 7551,
      "ĠáīłáĬĭáĪĭĠáīł": 7552,
      "ĠáīłáĬłáĪľáĪªáĬ«": 7553,
      "Ġáĭ¨áīĢáĭµáĪŀ": 7554,
      "Ġáīłáī¥áĭĽáīµĠáĭ¨áĪļáĮĪáĬĿáīłáīµĠáĪĺáĪįáĬŃáĭĵĠáĪĿáĭµáĪŃ": 7555,
      "ĠáĪµáī¥áĪµáī¥": 7556,
      "siteĠ": 7557,
      "hiy": 7558,
      "zoteĠ": 7559,
      "ensiĠ": 7560,
      "1960": 7561,
      "biyuĠdaĠ": 7562,
      "shigaĠcikinĠ": 7563,
      "áº¸ÌĢ": 7564,
      "âĢ¢ĠMtoĠ": 7565,
      "aĠmapokeoĠyaĠ": 7566,
      "writ": 7567,
      "yaĠzamaĠ": 7568,
      "htm": 7569,
      "Mex": 7570,
      "roĠ": 7571,
      "Ã©ta": 7572,
      "buk": 7573,
      "NovembaĠ": 7574,
      "bÃº": 7575,
      "ĠáĮ»": 7576,
      "áĪ¨áįĪ": 7577,
      "áĮįáĬĿ": 7578,
      "áĪ³áī¸áĭįáĬķ": 7579,
      "ĠáīłáĪ±": 7580,
      "Ġáĭ¨áĪ¶": 7581,
      "ĠáĬĲáĭįĠáį¢": 7582,
      "áīħáĪį": 7583,
      "igu": 7584,
      "áĪ®áĪŀ": 7585,
      "áĪ©áĬŃ": 7586,
      "ĠáĬ¥áĬķáĭ°áĬĲáīłáĪŃ": 7587,
      "ĠáĭµáĬķáĮįáĪį": 7588,
      "EneoĠ": 7589,
      "ĠáĬłáĪµáī°áĭĭ": 7590,
      ",ĠmshindiĠwaĠTuzoĠyaĠNobelĠyaĠFizikiaĠmwakaĠwaĠ": 7591,
      "ĠáĬ¥áĬķáĪµáĪ³": 7592,
      "kÃŃĠÃ³ĠtÃ³Ġ": 7593,
      "iakaĠmiref": 7594,
      "aguziĠwaĠ": 7595,
      "ĠáĭĪáĭĺáī°": 7596,
      "Do": 7597,
      "cibiyarĠ": 7598,
      "kush": 7599,
      "abi": 7600,
      "alich": 7601,
      "languageĠ": 7602,
      "DarĠesĠ": 7603,
      "TanaĠ": 7604,
      "ĠC": 7605,
      "ariĠyaĠ": 7606,
      "oÃ²rÃ¹nĠ": 7607,
      "1998": 7608,
      ",ĠmshindiĠwaĠTuzoĠyaĠNobelĠyaĠKemiaĠmwakaĠwaĠ": 7609,
      "nÃ¡Ãł": 7610,
      "Ġá»Įjá»įÌģĠ": 7611,
      "u:Ġ": 7612,
      "aureĠ": 7613,
      "4)": 7614,
      "Ġ18": 7615,
      "áīµáĪµ": 7616,
      "áĪµáī²": 7617,
      "abinĠdaĠ": 7618,
      "ĠáĪĺáĮĢáĪĺáĪªáĭ«": 7619,
      "ĠáīłáĪ³": 7620,
      "ĠáĬ¥áĬķáĭ´áīµ": 7621,
      "Ġáĭ«áĭĺ": 7622,
      "ÆĻinĠ": 7623,
      "Ġáĭ¨áī°áĬĲáĪ³": 7624,
      "áīĨáī¥": 7625,
      "adaĠdaĠ": 7626,
      "ĠáĮīáĪį": 7627,
      "áĪłáī¥": 7628,
      "ĠáĭŃáĮĪáĪĺ": 7629,
      "áī£áĪħáĪŃ": 7630,
      "5,": 7631,
      "BahariĠyaĠ": 7632,
      "Cali": 7633,
      "crÃ©": 7634,
      "wÃ³Ġ": 7635,
      "thro": 7636,
      "ráº¹ÌĢ,Ġ": 7637,
      "worl": 7638,
      "Ãłká»įÌģlÃ©Ġráº¹ÌĢĠ": 7639,
      "TanguĠ": 7640,
      "KatsinaĠ": 7641,
      "abakiĠsikuĠ": 7642,
      "iakaĠmirefu": 7643,
      "Mo": 7644,
      "intĠ": 7645,
      "DemocraticĠ": 7646,
      "Kut": 7647,
      "gen": 7648,
      "pÃ¡Ġ": 7649,
      "dansĠleĠ": 7650,
      "Vir": 7651,
      "a,ĠnaĠ": 7652,
      "anci,Ġ": 7653,
      "2.Ġ": 7654,
      "Bas": 7655,
      "Tsak": 7656,
      "Ġ[": 7657,
      "áĮ®": 7658,
      "eĠzin": 7659,
      "Ġáĭ¨áĬŃ": 7660,
      "ĠáĬłáĬŃ": 7661,
      "gba": 7662,
      "Ġá»įbaĠ": 7663,
      "2008": 7664,
      "katikaĠmiakaĠmirefu": 7665,
      "Roma,Ġhuadhim": 7666,
      "ĠáĮ½áĪķáįĪáīµ": 7667,
      "wakifuataĠmapokeoĠyaĠ": 7668,
      "wakifuataĠmapokeoĠyaĠRoma,Ġhuadhim": 7669,
      "500": 7670,
      "sousĠ": 7671,
      "Å«": 7672,
      "etĠlaĠ": 7673,
      "56": 7674,
      "Lamb": 7675,
      "wap": 7676,
      "zoĠyaĠ": 7677,
      "nameĠ": 7678,
      "lov": 7679,
      "unic": 7680,
      "spec": 7681,
      "PopeĠ": 7682,
      "d.Ġ": 7683,
      "derĠ": 7684,
      "piaĠm": 7685,
      "iyeĠdaĠ": 7686,
      "ÃĮlÃºĠ": 7687,
      "yawanĠm": 7688,
      "kusanĠ": 7689,
      "kusaĠdaĠ": 7690,
      "YankinĠ": 7691,
      "WakristoĠwengi,Ġ": 7692,
      "uisheĠzin": 7693,
      "WakristoĠwengi,ĠwakifuataĠmapokeoĠyaĠRoma,Ġhuadhim": 7694,
      "uisheĠzinabakiĠsikuĠ": 7695,
      "marĠ": 7696,
      "someĠ": 7697,
      "esaĠ": 7698,
      "Ach": 7699,
      "ĠáĪĺáĬĸ": 7700,
      "áĪ«áĪŃ": 7701,
      "áĪĽáĪ¨": 7702,
      "áĮ£áĬķ": 7703,
      "ĠáĭĺáĪĺáī»": 7704,
      "Ġáī¢áĪĨáĬķáĪĿ": 7705,
      "kis": 7706,
      "val": 7707,
      "osuĠ": 7708,
      "aĠsunĠ": 7709,
      "elopmentĠ": 7710,
      "2000Ġ": 7711,
      "FranceĠ": 7712,
      "ink": 7713,
      "2020Ġ": 7714,
      "DubaĠ": 7715,
      "peutĠ": 7716,
      "Bad": 7717,
      "Sur": 7718,
      "angl": 7719,
      "anyik": 7720,
      "áĭ¢": 7721,
      "áĭ°áĪŃáĮī": 7722,
      "áĬĲáĮį": 7723,
      "áĪĽáĪįáį¢": 7724,
      "ĠáĬłáĪ¥": 7725,
      "áĭĪáĮ¡": 7726,
      "watum": 7727,
      "ÃĮá¹£": 7728,
      "áĭķáī¥áĪ«áĭŃáĪµáĮ¥": 7729,
      "ĠáĮ¥áĭ«áīĦ": 7730,
      "Ġáĭ¨áĪĨáĬĲáĭį": 7731,
      "jeshiĠ": 7732,
      "ĠáĬłáĭµáĪŃáĮİ": 7733,
      "dhidiĠyaĠ": 7734,
      "ĠáĪłáĪ«áĭĬáīµ": 7735,
      "pakaĠuisheĠzinabakiĠsikuĠ": 7736,
      "áĬ¨áįįáī°áĬĽ": 7737,
      "Bibl": 7738,
      "toĠgbaĠEbunĠNobelĠ": 7739,
      "Bon": 7740,
      "iny": 7741,
      "taĠdaĠ": 7742,
      "Progr": 7743,
      "HarĠ": 7744,
      "inform": 7745,
      "aĠdonĠ": 7746,
      "IleĠ": 7747,
      "Ãłn,Ġ": 7748,
      "ministr": 7749,
      "BÃŃĠ": 7750,
      "Rec": 7751,
      "gbá»įÌģĠ": 7752,
      "2006Ġ": 7753,
      "edik": 7754,
      "AlexanderĠ": 7755,
      "numb": 7756,
      "Ġ19": 7757,
      "ingtonĠ": 7758,
      "autresĠ": 7759,
      "ie,Ġ": 7760,
      "áĬķáĪ°": 7761,
      "áĪµáĪĬ": 7762,
      "Ġáīłáį": 7763,
      "áĭŃáīħ": 7764,
      "áį¡áī°": 7765,
      "ĠáĮįáĪªáĬŃ": 7766,
      "Ġáĭ¨áī°áĭĪáĪ°": 7767,
      "áīłáīµáį¢": 7768,
      "áī³áĭĪáīħ": 7769,
      "ĠáĪĺáĮłáĬķ": 7770,
      "daĠsukaĠ": 7771,
      "2007": 7772,
      "huÉĹ": 7773,
      "aiss": 7774,
      "titiĠ": 7775,
      "Egyp": 7776,
      "bá»įÌģá»įÌĢ": 7777,
      "iloĠ": 7778,
      "emat": 7779,
      "177": 7780,
      "LughaĠzaĠ": 7781,
      "onyesh": 7782,
      "FebruariĠ-Ġ": 7783,
      "AlhajiĠ": 7784,
      "AlimfuataĠ": 7785,
      "Ile-": 7786,
      "bis": 7787,
      "bid": 7788,
      "kip": 7789,
      "log": 7790,
      "2013Ġ": 7791,
      "Argent": 7792,
      "iki,Ġ": 7793,
      "Philip": 7794,
      "Ã¬,Ġ": 7795,
      "emistr": 7796,
      "Kong": 7797,
      "dÃ¨Ġ": 7798,
      "à¥": 7799,
      "Ġáĭĳ": 7800,
      "áĪµáī³áīµ": 7801,
      "agn": 7802,
      "ĠáĪµáī¥": 7803,
      "leĠofĠ": 7804,
      "áĪķáĪį": 7805,
      "áĪ£áĭŃ": 7806,
      "ĠáĪĿáĬŃáĪŃ": 7807,
      "tsakiyarĠ": 7808,
      "Ġáī°áĭĪáĪĪáĭ°": 7809,
      "ArewaĠ": 7810,
      "ĠáĭľáĬĵĠáĪĺáĭĭáĭķáĪį": 7811,
      "D-": 7812,
      "wikiped": 7813,
      "FrenchĠ": 7814,
      "BeninĠ": 7815,
      "Ã¬.": 7816,
      "taur": 7817,
      "Ju": 7818,
      "s)Ġ": 7819,
      "wiki": 7820,
      "ÑĢ": 7821,
      "aliwaĠnaĠ": 7822,
      "KamfaninĠ": 7823,
      "aĠÆĻar": 7824,
      "antuĠ": 7825,
      "namoĠ": 7826,
      "nouv": 7827,
      "amer": 7828,
      "ont": 7829,
      "áīłáĭ«": 7830,
      "a,ĠM": 7831,
      "Ġáĭ«áĭį": 7832,
      "áįĪáĮ¸": 7833,
      "ĠáīħáĬĿ": 7834,
      "áīģáīµ": 7835,
      "áĮ½áĪĲáįįĠáīħáĭ±áĪµ": 7836,
      "Ġáĭ¶áĪ®": 7837,
      "ĠáīłáĪĮáĪĭ": 7838,
      "áĭŃáĪŃáĪĭáĬķáĭµ": 7839,
      "DarĠesĠSala": 7840,
      "How": 7841,
      "rÃŃnĠ": 7842,
      "epoĠ": 7843,
      "Dir": 7844,
      "Hat": 7845,
      "fat": 7846,
      "adha": 7847,
      "ÃłkÃ¡": 7848,
      "tÃŃtÃŃĠ": 7849,
      "SeptembaĠ": 7850,
      "ká»įÌģká»įÌģĠ": 7851,
      "nÃŃĠÃ¬pÃŃnláº¹ÌĢĠ": 7852,
      "JuniĠ-Ġ": 7853,
      "etr": 7854,
      "compl": 7855,
      "Ly": 7856,
      "ÆĻwararr": 7857,
      "azam": 7858,
      "DisambaĠ": 7859,
      "ly": 7860,
      "ren": 7861,
      "inv": 7862,
      "shah": 7863,
      "AcademyĠ": 7864,
      "Mit": 7865,
      "e;Ġ": 7866,
      "iograf": 7867,
      "sáº¹Ìģ": 7868,
      "áī°áĭ³": 7869,
      "áĪĪáĪµ": 7870,
      "áĭ°áĬķáīµ": 7871,
      "áĪĭáĮħ": 7872,
      "áĮįáĪª": 7873,
      "áīłáĪ»": 7874,
      "ĠáĬłáĪįáįİ": 7875,
      "ĠáĪĪáĪĽáĪµ": 7876,
      "Ġáĭ¨áĬ¥áĬķáĮįáĪĬáĭĿ": 7877,
      "Ġáī°áīĢáĪĿ": 7878,
      "ĠáĮ¨áĭĭ": 7879,
      "wengineĠ": 7880,
      "biasharaĠ": 7881,
      "WandaĠ": 7882,
      "gom": 7883,
      "ienĠ": 7884,
      "lev": 7885,
      "Champ": 7886,
      "uteĠ": 7887,
      "ignĠ": 7888,
      "suneĠ": 7889,
      "aĠhar": 7890,
      "OL": 7891,
      "akokoĠ": 7892,
      "compos": 7893,
      "ÃĵĠjáº¹ÌģĠ": 7894,
      "NÃŃĠá»įdÃºnĠ": 7895,
      "(N": 7896,
      "LeoĠ": 7897,
      "wouldĠ": 7898,
      "áīµĠáī°": 7899,
      "áī£áī£": 7900,
      "icaĠ": 7901,
      "áīĢáĪµ": 7902,
      "2005Ġ": 7903,
      "ĠáĬ¥áĬĵĠáĬ¨": 7904,
      "ĠáĬ¨áĬłáĬķáĭµ": 7905,
      "fiel": 7906,
      "ĠáĪ½áĪį": 7907,
      "oft": 7908,
      "áĪŃáīµáĪ«": 7909,
      "Din": 7910,
      "TV": 7911,
      "sá»įÌĢ": 7912,
      "kunanĠ": 7913,
      "DagaĠbayaĠ": 7914,
      "falmeĠwaĠ": 7915,
      "jimill": 7916,
      "YammacinĠ": 7917,
      "kumbukumbuĠzaĠ": 7918,
      "ShehuĠ": 7919,
      "una,Ġ": 7920,
      "ellaĠ": 7921,
      "rasm": 7922,
      "pwan": 7923,
      "áī¿": 7924,
      "ĠáĭĬ": 7925,
      "áīµáĪį": 7926,
      "áĭįĠáĬ¨": 7927,
      "ĠáīłáĪ¶": 7928,
      "ĠáĬĲáĭįáį¤": 7929,
      "áĪīáĪĿ": 7930,
      "áī¶áĭ¶": 7931,
      "áĬ¥áĬķáĮįáĪĬáĭĿáĬĽ": 7932,
      "áĭķáīĨáī¥": 7933,
      "ĠáīłáĪĺáĪµ": 7934,
      "ĠáįĪáĪĭ": 7935,
      "áĪ£áĪ¥": 7936,
      "ĠáĪĢáī¥": 7937,
      "à¤ĺ": 7938,
      "áįİáĪŃ": 7939,
      "áī¥áĪ¨áī°": 7940,
      "ĠáĭŃáī³áĪĺáĬĵ": 7941,
      "DesembaĠ-Ġ": 7942,
      "JamhuriĠyaĠ": 7943,
      "kumbukumbuĠzaĠwatakatifuĠ": 7944,
      "err": 7945,
      "ainsiĠ": 7946,
      "karamarĠhukumarĠ": 7947,
      "WarĠ": 7948,
      "anoĠyaĠ": 7949,
      "Bro": 7950,
      "ia.org/": 7951,
      "88": 7952,
      "gÃ¡": 7953,
      "asayans": 7954,
      "chaĠm": 7955,
      "odiĠ": 7956,
      "wá»įn.": 7957,
      "walip": 7958,
      "istoriaĠ": 7959,
      "nchiĠzaĠ": 7960,
      "wÃ¡yÃ©Ġ": 7961,
      "Keny": 7962,
      "Ear": 7963,
      "mesĠ": 7964,
      "Ġáī°áĪĽáĪª": 7965,
      "usammanĠ": 7966,
      "Ġáī£áĪħáĪį": 7967,
      "aĠnaĠm": 7968,
      "179": 7969,
      "sunaĠdaĠ": 7970,
      "wadannanĠ": 7971,
      "karatuĠ": 7972,
      "Australi": 7973,
      "áĪ¨áĮĭáĮĪ": 7974,
      "moreĠ": 7975,
      "wÃł": 7976,
      "ÏĤ": 7977,
      "ini,Ġ": 7978,
      "zak": 7979,
      "irÃŃá¹£": 7980,
      "Isra": 7981,
      "Hind": 7982,
      "wanaĠ": 7983,
      "aĠten": 7984,
      "Edwar": 7985,
      "Fal": 7986,
      "ident": 7987,
      "Tai": 7988,
      "cigab": 7989,
      "illaĠ": 7990,
      "1960Ġ": 7991,
      "suĠdaĠ": 7992,
      "zamanĠ": 7993,
      "Flor": 7994,
      "Pers": 7995,
      "áī®": 7996,
      "artĠ": 7997,
      "áī¥áī»": 7998,
      "ĠáĪĺáī¥": 7999,
      "áī³áĪŃ": 8000,
      "áĬŃáĬĸ": 8001,
      "áįįáī°": 8002,
      "áĭ¨áĬ¢áīµáĭ®áĮµáĭ«": 8003,
      "aciĠ": 8004,
      "ĠáĪ°áĪĽ": 8005,
      "áĪģáįį": 8006,
      "tÃŃĠÃ³ĠwÃłĠnÃŃĠ": 8007,
      "ĠáĬłáĪµáįĪáĪĭáĮĬ": 8008,
      "»áįī": 8009,
      "haribiĠ": 8010,
      "IlÃ©Ġ": 8011,
      "áĪµáī°áĬĽáĭį": 8012,
      "ĠáĪĺáĬķáĮĪ": 8013,
      "Ġáī°áĪ«áĪ®áī½": 8014,
      "Ã¬kÃ¬Ġ": 8015,
      "iĠkatikaĠm": 8016,
      "Ġáī°áĮ«áĭĭ": 8017,
      "ĠáĭŃáĮĪáĪĺáī³áĪįáį¢": 8018,
      "antak": 8019,
      "kuwaĠnaĠ": 8020,
      "ilimiĠ": 8021,
      "ique,Ġ": 8022,
      "su,Ġ": 8023,
      "ational": 8024,
      "tÃº": 8025,
      "tif": 8026,
      "2010Ġ": 8027,
      "otunĠ": 8028,
      "Plat": 8029,
      "cit": 8030,
      "dÃºr": 8031,
      "kÃł.": 8032,
      "s.Ġ": 8033,
      "am,Ġ": 8034,
      "naĠfarkoĠ": 8035,
      "Ã²s": 8036,
      "kanĠnÃ¡ÃłĠ": 8037,
      "ItokasiĠÃłwá»įnĠá»įjá»įÌģÃ¬bÃŃĠnÃŃĠ": 8038,
      "koĠkumaĠ": 8039,
      "utane": 8040,
      "Ã¨rÃ¨Ġ": 8041,
      ".ĠÃĢwá»įnĠÃĮt": 8042,
      "ijobaĠib": 8043,
      "nufinĠ": 8044,
      "Ø¹": 8045,
      "uĠyaĠm": 8046,
      "Fre": 8047,
      "Lu": 8048,
      "cal": 8049,
      "jaĠ": 8050,
      "áī°áį¡": 8051,
      "ĠáĪĺáĪĭ": 8052,
      "áĪ³áĬķ": 8053,
      "áīĢáĮ½": 8054,
      "2015": 8055,
      "Ġáĭ¨áĬłáĪĪáĪĿ": 8056,
      "Ġáĭ¨áĬĲáīłáĪ©áīµ": 8057,
      "ĠáĪµáĪĿáĪĿáĬĲáīµ": 8058,
      "earlyĠ": 8059,
      "ĠáĭŃáĮĪáĬĽáĪīáį¢": 8060,
      "áĪĺáĪ°áĪ¨": 8061,
      "Ġáĭ¨áī°áĬŃáĪīĠáĪ³áĭŃáĬķáĪ³áĭĬĠáĮ¸áī£áĭŃ": 8062,
      "áĬķáĮĮáĪį": 8063,
      "lead": 8064,
      "Island": 8065,
      "(Ġ": 8066,
      ");Ġ": 8067,
      "Bos": 8068,
      "Ïģ": 8069,
      "ÃłÃ¬sÃłnĠ": 8070,
      "Alit": 8071,
      "NÃŃĠá»įjá»įÌģĠ": 8072,
      "alikuwaĠmshindiĠwaĠTuzoĠyaĠNobelĠyaĠ": 8073,
      "táº¹Ìģláº¹ÌĢ": 8074,
      "PeterĠ": 8075,
      "LakiniĠ": 8076,
      "BÃ¡": 8077,
      "ana,Ġ": 8078,
      "ictĠ": 8079,
      "raj": 8080,
      "yay": 8081,
      "ingĠtoĠ": 8082,
      "perm": 8083,
      "wiki/": 8084,
      "a'sĠ": 8085,
      "FĠ": 8086,
      "u)Ġ": 8087,
      "yun": 8088,
      "áĬķĠáīłáĪĽ": 8089,
      "sĠofĠtheĠ": 8090,
      "áĬĵáį¢": 8091,
      "ĠáĬłáĭ°áĪ¨áĮĪ": 8092,
      "ĠáĬ¨áĮ¥": 8093,
      "ajiliĠyaĠ": 8094,
      "áī±áĪŃáĬŃ": 8095,
      "Ġáĭ¨áĪļáĬĸáĪŃ": 8096,
      "Ġáĭįáīħáĭ«áĬĸáĪµ": 8097,
      "ĠáīĢáĬķĠ": 8098,
      "ĠáĪļáĪµáīµ": 8099,
      "áĪłáĪ©": 8100,
      "ilimaĠyaĠ": 8101,
      "kubwaĠyaĠ": 8102,
      "falmeĠm": 8103,
      "Ã¨tÃ²": 8104,
      "áĪŀáĬŃáĪ«áĪ²": 8105,
      "ayáº¹yáº¹Ġ": 8106,
      "WakristoĠwengi,ĠwakifuataĠmapokeoĠyaĠRoma,ĠhuadhimishaĠ": 8107,
      "Dang": 8108,
      "lib": 8109,
      "imbab": 8110,
      "elaĠ": 8111,
      "aiĠtaĠ": 8112,
      "ÆĻan": 8113,
      "ion.": 8114,
      "farkoĠnaĠ": 8115,
      "ĠâĢİ": 8116,
      "wasanĠkwaikwayoĠ": 8117,
      "AnĠhaifeĠshiĠ": 8118,
      "Hab": 8119,
      "Gáº¹ÌĢáº¹Ìģ": 8120,
      "ild": 8121,
      "Ã©qu": 8122,
      "manyĠ": 8123,
      "JanuariĠ-Ġ": 8124,
      "eteĠ": 8125,
      "AdamĠ": 8126,
      "ootb": 8127,
      "Ġáī«": 8128,
      "alamaĠ": 8129,
      "kutaĠ": 8130,
      "ĠáīłáĪĪ": 8131,
      "Ġáĭ¨áĪ©": 8132,
      "áį£ĠáĬ¥áĬĵ": 8133,
      "áīĢáĪĿ": 8134,
      "áĭ¨áĪµ": 8135,
      "ĠáĬĲáĭįáį¢Ġáīł": 8136,
      "áĭĺáĪĺáĬĲ": 8137,
      "ĠáĪ°áįĬ": 8138,
      "áĬķáĮįáĭµ": 8139,
      "ĠáĭĭáĬķáĮ«": 8140,
      "áįķáĪĭ": 8141,
      "filmĠ": 8142,
      "áĬħáĪ£áĪ¥": 8143,
      "1),Ġ": 8144,
      "oÃ¹Ġ": 8145,
      "yaĠfaraĠ": 8146,
      "HispaniaĠ": 8147,
      "Duk": 8148,
      "ajiĠm": 8149,
      "iĠkwaĠm": 8150,
      "nÃŃgbÃłĠtÃŃĠ": 8151,
      "ÉĻ": 8152,
      "DonĠ": 8153,
      "Ram": 8154,
      "Wag": 8155,
      "follow": 8156,
      "sanaĠ": 8157,
      "yaĠs": 8158,
      "Po": 8159,
      "Val": 8160,
      "Greg": 8161,
      "bakwaiĠ": 8162,
      "ÆĬ": 8163,
      "ãĤ": 8164,
      "Ġáĭī": 8165,
      "áįģ": 8166,
      "ine.": 8167,
      "áĪµáī¶áī½": 8168,
      "áĭŃáįĭ": 8169,
      "ĠáĬłáĭįáĪ®áįĵ": 8170,
      "Ġáī°áĮĪáĬĿ": 8171,
      "ĠáĭŃáĭŀ": 8172,
      "áĬ¨áĪ¨": 8173,
      "áĭĪáĪµ": 8174,
      "neĠdaĠ": 8175,
      "Ġáĭ¨áī°áĮĪáĬĺ": 8176,
      "ĠáĬ¥áĪµáĭ«": 8177,
      "áĮ¨áīµ": 8178,
      "NÃłÃ¬jÃŃrÃŃÃł,Ġ": 8179,
      "ĠáĪĺáĬĲáĪ»": 8180,
      "arewacinĠ": 8181,
      "ilÃ©Ġáº¹ÌĢká»įÌģĠ": 8182,
      "RichardĠ": 8183,
      "Hung": 8184,
      "tir": 8185,
      "ismĠ": 8186,
      "áīłáĭ°": 8187,
      "Jama'": 8188,
      "lineĠ": 8189,
      "waneĠ": 8190,
      "partĠ": 8191,
      "Guine": 8192,
      "diniĠ": 8193,
      "agoĠ": 8194,
      "duniaĠ": 8195,
      "Ã©galementĠ": 8196,
      "wÃŃĠ": 8197,
      "Ã¡Ã¡": 8198,
      "andik": 8199,
      "|ĠRD2-": 8200,
      "NchiĠzaĠ": 8201,
      "Av": 8202,
      "KungiyarĠ": 8203,
      "LokacinĠ": 8204,
      "es/": 8205,
      "utarĠ": 8206,
      "que,Ġ": 8207,
      "2006": 8208,
      "Chur": 8209,
      "shiĠneĠÉĹanĠ": 8210,
      "Jo": 8211,
      "anal": 8212,
      "áĭįáĬĵ": 8213,
      "áīłáīł": 8214,
      "Ġ(áĭĪáĭŃáĪĿ": 8215,
      "ĠáĪĿáĮįáī¥": 8216,
      "ahud": 8217,
      "2016Ġ": 8218,
      "ĠáĪįáĬŃ": 8219,
      "áĪ»áĪ»": 8220,
      "ĠáĪĨáĭŃ": 8221,
      "Angl": 8222,
      "áĬĽáĭįĠáĪ¥áĪŃáĭĪĠáĪĺáĬķáĮįáĪ¥áīµ": 8223,
      "áī¤áĪį": 8224,
      "Ġáĭ¨áĬłáĬķáĭµ": 8225,
      "áīłáī°áĮ¨áĪĽáĪª": 8226,
      "Ã²n": 8227,
      "Christ": 8228,
      "Ġá»įÌģ": 8229,
      "ÅĦĠd": 8230,
      "tÃŃĠÃ³ĠwÃłĠ": 8231,
      "Nic": 8232,
      "Zimbab": 8233,
      "antiĠ": 8234,
      "esternĠ": 8235,
      "amfanon": 8236,
      "sakamakonĠ": 8237,
      "Ox": 8238,
      "1997": 8239,
      "runĠ": 8240,
      "ĠÙ": 8241,
      "áĬķáī¶": 8242,
      "Ġáī¬": 8243,
      "áĭįĠáĪĭáĭŃ": 8244,
      "uni": 8245,
      "áįįáĬķ": 8246,
      "áīĢáĪĭ": 8247,
      "2000": 8248,
      "Ġáī¥áĪĭ": 8249,
      "áĭ©áĬĵáĭŃáīµáĭµ": 8250,
      "iá¹£áº¹Ìģ": 8251,
      "AllĠ": 8252,
      "ĠáĭįáĭµáĭµáĪŃ": 8253,
      "AikinĠ": 8254,
      "haliĠ": 8255,
      "Gid": 8256,
      "R.": 8257,
      "ÃĢĠ": 8258,
      "uck": 8259,
      "Prof": 8260,
      "Bag": 8261,
      "jami'arĠ": 8262,
      "wasanĠÆĻwallonĠÆĻafaĠtaĠÆĻasarĠIngila": 8263,
      "shipĠ": 8264,
      "jam'iyyarĠ": 8265,
      "ma'": 8266,
      "rÃłnĠ": 8267,
      "adu": 8268,
      "utawalaĠwaĠ": 8269,
      "erĠandĠ": 8270,
      "ÃĢwá»įnĠarÃ¡Ġ": 8271,
      "anzish": 8272,
      "eforeĠ": 8273,
      "ÅĦĠjáº¹ÌģĠ": 8274,
      "KiingerezaĠ": 8275,
      "ÃĪyÃŃĠ": 8276,
      "becameĠ": 8277,
      "AC": 8278,
      "oper": 8279,
      "a.ĠM": 8280,
      "1970": 8281,
      "velop": 8282,
      "áĮ§": 8283,
      "áĮįáĭµáĪĿ": 8284,
      "áī³áĬķ": 8285,
      "áī³áĪĿ": 8286,
      "Ġáĭ¨áĪļáī£áĪĪáĭį": 8287,
      "ĠáĪ°áī¥": 8288,
      "ĠáīĢáĪ¨": 8289,
      "áĬĴáīµ": 8290,
      "áīłáīµáĬķ": 8291,
      "áĭ°áĪ¨áĮį": 8292,
      "ĠáĬªáĬķáĮį": 8293,
      "ĠáĬ¢áīµáĭ®áĮµáĭ«áĭĬ": 8294,
      "ĠáĬ¢áīµáĭ®áĮµáĭ«ĠáĭįáĪµáĮ¥Ġáĭ¨áĪļáĮĪáĬĿ": 8295,
      "áĪłáĪ¨áī°": 8296,
      "Ã´t": 8297,
      "ĠáįĵáĪŃáī²áĭİáī½": 8298,
      "bah": 8299,
      "TovutiĠ": 8300,
      "faÉĹ": 8301,
      "Ð½": 8302,
      "iaĠniĠ": 8303,
      "utamad": 8304,
      "aĠkarkashinĠ": 8305,
      "MeiĠ": 8306,
      "JamhuriyarĠ": 8307,
      "'YanĠwasanĠÆĻwallonĠÆĻafaĠtaĠÆĻasarĠIngila": 8308,
      "hukumaĠceĠdakeĠ": 8309,
      "empl": 8310,
      "uff": 8311,
      "2005": 8312,
      "Ġ13": 8313,
      "ers.": 8314,
      "ton,Ġ": 8315,
      "whereĠ": 8316,
      "-áĪĿ": 8317,
      "áĬķáī¥": 8318,
      "Ãłjáº¹sÃ¡": 8319,
      "áĪ«áĭŃ": 8320,
      "áĪ³áĪ°áī¥": 8321,
      "áįįáĪŃ": 8322,
      "nÃŃĠÃłwá»įnĠ": 8323,
      "uduĠ": 8324,
      "áįĭáĪŃáĪµ": 8325,
      "áĪ±áĬķ": 8326,
      "Ġáī£áĪĪáĭį": 8327,
      "áĮłáĪī": 8328,
      "sÃŃwÃ¡jÃºĠ": 8329,
      "áįīáį¢": 8330,
      "ĠáīłáĪļáĪį": 8331,
      "áĭŃáĪħáĪĿ": 8332,
      "ĠáīłáĪŃáĬ«áī³": 8333,
      "ongoziĠwaĠ": 8334,
      "ĠáĬŃáįįáĪĭáĮĪáĪ«áīµ": 8335,
      "mÃ¬ÃŃrÃłnĠ": 8336,
      "áĭ«áĭ«áĭ£": 8337,
      "ĠáĬłáĪįáįĭáī¤áīµ": 8338,
      "40Ġ": 8339,
      "aĠbug": 8340,
      "tunĠdagaĠ": 8341,
      "BlackĠ": 8342,
      "ganinĠ": 8343,
      "peri": 8344,
      "inaĠm": 8345,
      "naĠM": 8346,
      "iyuĠ": 8347,
      "trouv": 8348,
      "estĠunĠ": 8349,
      "villeĠ": 8350,
      "euĠ": 8351,
      "RomanĠ": 8352,
      "iel": 8353,
      "o'": 8354,
      "tÃºn": 8355,
      "ator": 8356,
      "amoĠ": 8357,
      "amba,Ġ": 8358,
      "IbadanĠ": 8359,
      "fre": 8360,
      "d'unĠ": 8361,
      "med": 8362,
      "aĠJami'arĠ": 8363,
      "áĪĿĠáī°": 8364,
      "áĪĭáĪĽáĭĬ": 8365,
      "áīħáĪ¨áī¥": 8366,
      "áīłáīµĠáĭĵáĪĺáīµ": 8367,
      "ĠáĮĪáĬĵ": 8368,
      "áĭ°áĪ¨áĪ°": 8369,
      "JanarĠ": 8370,
      "áĮĢáĪĺáĪªáĭ«ĠáĮĬáĭľ": 8371,
      "ĠáīłáĭĺáĪĺáĬĲĠáĪĽáī´áĭİáĪµ": 8372,
      "ĠáĬĲáĮ»áĬĲáīµ": 8373,
      "áįĪáĪµĠáīħáĭ±áĪµ": 8374,
      "ĠáĪĪáĭįáĮ¥": 8375,
      "ĠáĪ²áīĢáĪ©": 8376,
      "ĠáĪĺáĮ»áĪķáįįáīµ": 8377,
      "many": 8378,
      "sasaĠ": 8379,
      "ionalĠ": 8380,
      "PartyĠ(": 8381,
      "present": 8382,
      "NollywoodĠ": 8383,
      "vik": 8384,
      "ĠÎ": 8385,
      "olanz": 8386,
      "ashir": 8387,
      "waoĠ": 8388,
      "lughaĠzaĠ": 8389,
      "aĠkatiĠyaĠ": 8390,
      "MachiĠ-Ġ": 8391,
      "serikaliĠyaĠ": 8392,
      "ApriliĠ-Ġ": 8393,
      "ET": 8394,
      "Zamb": 8395,
      "DeltaĠ": 8396,
      "tay": 8397,
      "áĬĢ": 8398,
      "ojoĠ": 8399,
      "rest": 8400,
      "sadar": 8401,
      "takwasĠ": 8402,
      "biyu,Ġ": 8403,
      "YorubaĠ": 8404,
      "GwamnatinĠ": 8405,
      "ZanzibarĠ": 8406,
      "mÃ¡Ġ": 8407,
      "uth": 8408,
      "áĪįáī¥": 8409,
      "áĬĵáī±": 8410,
      "áī°áĪĺ": 8411,
      "ĠáĪĺáīĢáĪĺáĮ«": 8412,
      "áĮĭáĭŃ": 8413,
      "ĠáĬŃáī¥": 8414,
      "ĠáĮĭáĭľ": 8415,
      "ĠáīłáĬłáĪĽáĪŃáĬĽ": 8416,
      "ĠáĭĵáĪĿĠáĭµáĪ¨áĪµ": 8417,
      "Ã¨resĠ": 8418,
      "baadayeĠ": 8419,
      "áĪĽáĬĸáīµ": 8420,
      "Ġáī»áĭŃáĬĵ": 8421,
      "âĢºâĢº": 8422,
      "ĠáĭĪáĪ¨áĪ«": 8423,
      "ĠáĪļáĬĴáĪµáī´áĪŃ": 8424,
      "Gener": 8425,
      "Russ": 8426,
      "ËĪ": 8427,
      "abarĠ": 8428,
      "ia.org/wiki/": 8429,
      "67": 8430,
      "Bill": 8431,
      "DaĠ": 8432,
      "iyas": 8433,
      "uhim": 8434,
      "nigb": 8435,
      "PortĠ": 8436,
      "ilsĠ": 8437,
      "Seneg": 8438,
      "59": 8439,
      "gáº¹": 8440,
      "idg": 8441,
      "iĠkwenyeĠ": 8442,
      "WakatiĠwaĠ": 8443,
      "yarjejen": 8444,
      "Ã©eĠparĠ": 8445,
      "addininĠ": 8446,
      "Æ´arĠ": 8447,
      "ipinleĠ": 8448,
      "Cath": 8449,
      "Hon": 8450,
      "KumaĠ": 8451,
      "ress": 8452,
      "ĠL": 8453,
      "oĠyaĠm": 8454,
      "round": 8455,
      "jinsiĠ": 8456,
      "gariĠ": 8457,
      "áĪįáį¤": 8458,
      "áĪµáĪŃ": 8459,
      "ĠáĭŃáĬĸ": 8460,
      "Ġáīµáĭķ": 8461,
      "áĪĬáĬķ": 8462,
      "ĠáĬ¥áĬķáĭ°áĪļáĭ«": 8463,
      "eĠdÃ©": 8464,
      "áĮ½áĪĲáįĪ": 8465,
      "áĪµáī³áĬķ": 8466,
      "DeĠ": 8467,
      "hij": 8468,
      "Festiv": 8469,
      "adir": 8470,
      "gbáº¹Ìģ": 8471,
      "niĠsikuĠyaĠ": 8472,
      "Ġá»įÌĢnÃłĠ": 8473,
      "má»įÌĢĠsÃŃĠ": 8474,
      "musul": 8475,
      "Sikukuu": 8476,
      "ijobaĠibileĠniĠ": 8477,
      "orm": 8478,
      "iyakaĠdaĠ": 8479,
      "shekaraĠtaĠalifĠ": 8480,
      "underĠ": 8481,
      "maiĠsunaĠ": 8482,
      "fiĠsaniĠdaĠ": 8483,
      "yakinĠ": 8484,
      "ArewaĠmasoĠ": 8485,
      "RayayyunĠm": 8486,
      "tabbatarĠdaĠ": 8487,
      "HanyoyinĠhaÉĹinĠ": 8488,
      "shirye-shiryenĠ": 8489,
      "ote.": 8490,
      "adhiĠyaĠ": 8491,
      "ZiwaĠ": 8492,
      "áĭ«áī°": 8493,
      "orukoĠ": 8494,
      "áī½áĬ¹": 8495,
      "ĠáĪĺáĪ£áĪªáĭ«": 8496,
      "áĬĽáĭįáĬķ": 8497,
      "ĠáĭŃáĪĪ": 8498,
      "áį£ĠÂ«": 8499,
      "ultur": 8500,
      "áį¡áĭŃ": 8501,
      "Ġáĭ«áĭ°áĪŃ": 8502,
      "tÃŃĠwá»įnĠ": 8503,
      "áĮ£áĪįáį¢": 8504,
      "áĮłáį¢": 8505,
      "2004Ġ": 8506,
      "prob": 8507,
      "ĠáīĢáĪŃ": 8508,
      "áĭ©áīµ": 8509,
      "juuĠ": 8510,
      "áĬķáĮīáĪłĠáĬĲáĮĪ": 8511,
      "ĠáĬłáĪīáīµáį¢": 8512,
      "rasmiĠ": 8513,
      "Ġá»ĮÌĢy": 8514,
      "ĠáĭŃáĪĨáĬĵáĪį": 8515,
      "LouisĠ": 8516,
      "ijobaĠibileĠniĠIpinleĠ": 8517,
      "aĠj": 8518,
      "daĠnaĠ": 8519,
      "illeĠ": 8520,
      "ustaĠ": 8521,
      "Group": 8522,
      "wikipedia.org/wiki/": 8523,
      "boĠ": 8524,
      "dep": 8525,
      "TarihiĠ": 8526,
      "KamusiĠ": 8527,
      "suchĠasĠ": 8528,
      "(yaĠ": 8529,
      "adin": 8530,
      "airesĠ": 8531,
      "aĠfiĠ": 8532,
      "KiswahiliĠ": 8533,
      "Buh": 8534,
      "kÃ¹Ġ": 8535,
      "ØŃ": 8536,
      "á¹¢": 8537,
      "ernĠ": 8538,
      "tiĠá¹£eĠ": 8539,
      "tser": 8540,
      "kwaĠsababuĠ": 8541,
      "lá»įÌģwá»įÌģ": 8542,
      "SeptembaĠ-Ġ": 8543,
      "UfaransaĠ": 8544,
      "uka": 8545,
      "UmarĠ": 8546,
      "1=": 8547,
      "U.": 8548,
      "ĠáĪ£": 8549,
      "áĪŃáĪĽ": 8550,
      "Ġáĭ¨áįĬ": 8551,
      "erv": 8552,
      "áĪĿáīµ": 8553,
      "áĬĲáĪ±": 8554,
      "áĪĽáĪµ": 8555,
      "oliĠ": 8556,
      "áĭ¨áĪģ": 8557,
      "ingsĠ": 8558,
      "igaĠ": 8559,
      "ĠáīĢáĭ°áĪĿ": 8560,
      "ovi": 8561,
      "ĠáĮ¥áĪŃ": 8562,
      "ĠáĮĪáĭĽ": 8563,
      "ĠáĬłáĪĿáĪµáīµ": 8564,
      "áį²áį°áį»áį": 8565,
      "Ġáī°áĬŃáĪįĠáĬĲáĭįáį¢": 8566,
      "áī¶áĭ¶áĬŃáĪµ": 8567,
      "áĬŃáĬĸáĪİáĮĤ": 8568,
      "Ham": 8569,
      "damarĠ": 8570,
      "sens": 8571,
      "electr": 8572,
      "wann": 8573,
      "shekarunĠ": 8574,
      "ipp": 8575,
      "1990": 8576,
      "Nijeriya.ĠKanananĠhukumominĠjiharĠ": 8577,
      "ĠT": 8578,
      "alorsĠ": 8579,
      "unz": 8580,
      "Ġá»įg": 8581,
      "ihÃłnĠ": 8582,
      "ChuoĠ": 8583,
      "walit": 8584,
      "âĢİâĢİ": 8585,
      "WakristoĠwengi,ĠwakifuataĠmapokeoĠyaĠRoma,ĠhuadhimishaĠkumbukumbuĠzaĠwatakatifuĠ": 8586,
      "law": 8587,
      "COVI": 8588,
      "MichaelĠ": 8589,
      "Bol": 8590,
      "cell": 8591,
      "Ã¡lÃŃ": 8592,
      "icr": 8593,
      ",000.": 8594,
      "\")Ġ": 8595,
      "aÉĵ": 8596,
      "lati": 8597,
      "nÃ¬Ġ": 8598,
      ",ĠÃłtiĠ": 8599,
      "ĠáīłáįĬ": 8600,
      "Ã©ĠdeĠ": 8601,
      "áĪ°áīµ": 8602,
      "aizar": 8603,
      "a.ĠManazartaĠ": 8604,
      "ĠáĬ¥áĪµáĪ«": 8605,
      "ĠáĪķáĭŃáĭĪáīµ": 8606,
      "Ġáĭ¨áĬ¢áīµáĭ®áĮµáĭ«ĠáĬ¥áĮ½": 8607,
      "Ġáī´áĪĮ": 8608,
      "MachiĠ": 8609,
      "fusk": 8610,
      "ementiĠ": 8611,
      "bÃłbÃ¡Ġ": 8612,
      "áĮįáĬĺáīµ": 8613,
      "ĠáĪĬáīĥáĭįáĬķáīµ": 8614,
      "low": 8615,
      "Al'": 8616,
      "hukun": 8617,
      "COVID-": 8618,
      "Dani": 8619,
      "a/": 8620,
      "amiaĠ": 8621,
      "age,Ġ": 8622,
      "2018Ġ": 8623,
      "Califor": 8624,
      "1/": 8625,
      "300": 8626,
      "pil": 8627,
      "onimoĠ": 8628,
      "Girl": 8629,
      "LoveĠ": 8630,
      "Jac": 8631,
      "já»įÌĢ": 8632,
      "aroĠ": 8633,
      "shairiĠ": 8634,
      "chin": 8635,
      "166": 8636,
      "ilimiaĠ": 8637,
      "Oktob": 8638,
      "olÃ³á¹£Ã¨lÃºĠ": 8639,
      "jour": 8640,
      "mutaneĠ": 8641,
      "sou": 8642,
      "taĠsamiĠ": 8643,
      "ayayy": 8644,
      "GidanĠ": 8645,
      "Liv": 8646,
      "Pul": 8647,
      "áĭ«áīµ": 8648,
      "áĭµáī¥": 8649,
      "áĭµáĪ®áĪµ": 8650,
      "áĮįáĭ³": 8651,
      "áĭ¨áĬ¥": 8652,
      "áĬ«áīµ": 8653,
      "ĠáĪµáĪį": 8654,
      "Ġáĭ«áĪĭ": 8655,
      "ĠáĭĺáĭŃ": 8656,
      "ĠáĪĭáĭŃĠáĭ¨": 8657,
      "ĠáĭĿáĬĵ": 8658,
      "áįīáīµ": 8659,
      "Ġáĭ¨áĬ¥áĪµáįĵáĬķáĭ«": 8660,
      "ĠáĪ¥áĪŃáĭĵáīµ": 8661,
      "ĠáĬłáĪ¸áĬĲ": 8662,
      "Ġáĭ¨áī°áĬŃáĪīĠáĮ¥áīħáĪĿ": 8663,
      "FederalĠ": 8664,
      "IN": 8665,
      "Mw": 8666,
      "Ant": 8667,
      "baraĠ": 8668,
      "vip": 8669,
      "uraĠ": 8670,
      "uruĠ": 8671,
      "chaĠk": 8672,
      "lÃ¡báº¹ÌģĠ": 8673,
      "à¤ļ": 8674,
      "NovembaĠ-Ġ": 8675,
      "olÃ¹darÃŃĠ": 8676,
      "uchum": 8677,
      "njiaĠ": 8678,
      "mu": 8679,
      "Nk": 8680,
      "ibit": 8681,
      "kasanc": 8682,
      "halarciĠ": 8683,
      "Columb": 8684,
      "ammalaĠkaratunĠ": 8685,
      "Yak": 8686,
      "dem": 8687,
      "pal": 8688,
      "zĠ": 8689,
      "akh": 8690,
      "2008Ġ": 8691,
      "wasĠtheĠ": 8692,
      "BAĠ": 8693,
      "Hol": 8694,
      "tÃ¡": 8695,
      "ĠáĪ¾": 8696,
      "áĪĿáĬķáīµ": 8697,
      "Ġáī°áĪ¸": 8698,
      "Ġáĭ¨áĪĲ": 8699,
      "áĪ®áī¹": 8700,
      "ĠáīµáĬŃ": 8701,
      "Ġáĭ¨áī°áĪĪ": 8702,
      "ambapoĠ": 8703,
      "ĠáĮĪáī£": 8704,
      "áįķáĪ¬": 8705,
      "KiarabuĠ": 8706,
      "áĮĮáī³": 8707,
      "ĠáĭĽáįį": 8708,
      "Wá»įÌģnĠbÃŃĠ": 8709,
      "ungeĠlaĠ": 8710,
      "CollegeĠ": 8711,
      "egeĠbiĠ": 8712,
      "ĠáįķáĪ¬áĭļáĭ³áĬķáīµ": 8713,
      "áĪĨáĬĸáĪĿ": 8714,
      "anĠmat": 8715,
      "km2Ġ": 8716,
      "liss": 8717,
      "mor": 8718,
      "yake.": 8719,
      "thatĠtheĠ": 8720,
      "workĠ": 8721,
      "cultur": 8722,
      "ĠáĬķáĮīáĪłĠáĬĲáĮĪáĪ¥áīµ": 8723,
      "Ig": 8724,
      "eas": 8725,
      "wats": 8726,
      "Ġ11": 8727,
      "yankeĠ": 8728,
      "Najeriya.Ġ": 8729,
      "58": 8730,
      "lit": 8731,
      "Ã¹d": 8732,
      "2017": 8733,
      "ijeĠ": 8734,
      "kan.": 8735,
      "bornĠ": 8736,
      "franÃ§ais": 8737,
      "haz": 8738,
      "perĠ": 8739,
      "icanĠ": 8740,
      "UnionĠ": 8741,
      "PP": 8742,
      "tum": 8743,
      "áĪŃáĮħ": 8744,
      "inĠK": 8745,
      "áĪĿáį¤": 8746,
      "áĪĺáĮ¡": 8747,
      "ĠáĪĺáĪĥ": 8748,
      "ĠáĪµáī³": 8749,
      "áĭĽáĪĿ": 8750,
      "áįķáĪ®": 8751,
      "Ġáī¤áī°áĪ°áī¥": 8752,
      "áĪĪáĭ«áĭ¨": 8753,
      "ĠáĭµáĪŃáĮĬ": 8754,
      "áīłáĪ«áĭĬ": 8755,
      "Ġáĭ¨áĬ¤áĪĮáĬŃáīµáĪªáĬŃ": 8756,
      "ĠáĬ¥áĭįáĬĲáīµ": 8757,
      "ĠáĪµáīµáĪĨáĬķ": 8758,
      "ĠáĭŃáī³áĪĺáĬĵáĪįáį¢": 8759,
      "MunguĠ": 8760,
      "áº¹n": 8761,
      "gbÃ²": 8762,
      "identi": 8763,
      "stand": 8764,
      "yanarĠ": 8765,
      "Birtan": 8766,
      "Naijiria.Ġ": 8767,
      "olojiaĠ": 8768,
      "ÃºÃºsÃ¹Ġ": 8769,
      "táº¹lif": 8770,
      "shahararr": 8771,
      "yaĠmwakaĠ(yaĠ": 8772,
      "Ã³r": 8773,
      "Ġ(m": 8774,
      "stateĠ": 8775,
      "\"TheĠ": 8776,
      "vij": 8777,
      "anaĠm": 8778,
      "appl": 8779,
      "ologyĠ": 8780,
      "en.wikipedia.org/wiki/": 8781,
      "alesĠ": 8782,
      "Amerika.Ġ": 8783,
      "taif": 8784,
      "yá»įĠ": 8785,
      "áĮ»áįī": 8786,
      "áĪĿáĪ©": 8787,
      "áĭ«áī¸áĭį": 8788,
      "áĬ«áĭĬ": 8789,
      "Ġá»įlá»įÌģ": 8790,
      "áĮ£áĮ«": 8791,
      "áĮłáĬķ": 8792,
      "ĠáĪ²áĪī": 8793,
      "áĬ¥áĬĶ": 8794,
      "ĠáĪįáĭĳ": 8795,
      "ĠáĮ¥áīģáĪŃ": 8796,
      "ĠáĪģáĪĪáī°áĬĽáĭį": 8797,
      "imboĠ": 8798,
      "lá»įÌģgbá»įÌĢnĠ": 8799,
      "áīªáĭ¥": 8800,
      "ĠáĬłáī¥áĭĽ": 8801,
      "Ã¬á¹£áº¹ÌĢláº¹ÌĢĠ": 8802,
      "Ġáī¥áĪĶáĪ®áī½": 8803,
      "ĠâĢ¹âĢ¹": 8804,
      "katikaĠmiakaĠmirefu).ĠM": 8805,
      "Gi": 8806,
      "keĠdaĠ": 8807,
      "ruwanĠ": 8808,
      "zarg": 8809,
      ",ĠleĠ": 8810,
      "inĠnaĠ": 8811,
      "ammal": 8812,
      "lokaciĠ": 8813,
      "6,": 8814,
      "oss": 8815,
      "angaĠ": 8816,
      "AsiaĠ": 8817,
      "himĠ": 8818,
      "pour": 8819,
      "philosoph": 8820,
      "Obas": 8821,
      "Petr": 8822,
      "daraĠ": 8823,
      "toĠwaĠ": 8824,
      "jáº¹ÌģĠÃ²á¹£Ã¨rÃ©Ġ": 8825,
      "tÃŃĠwá»įÌģnĠÅĦĠ": 8826,
      "AfrikaĠyaĠM": 8827,
      "Ã²á¹£Ã¨lÃºĠ": 8828,
      "pÃŃnĠ": 8829,
      "Gold": 8830,
      "Maur": 8831,
      "harĠdaĠ": 8832,
      "uy": 8833,
      "áĬķáĮłáĪ¨": 8834,
      "akĠ": 8835,
      "áĬĵáį¡": 8836,
      "Ġáīłáĭ°": 8837,
      "ĠáĮĤ": 8838,
      "ĠáĪĺáĪĨáĬķ": 8839,
      "áĬ¨áįĭ": 8840,
      "Ġáĭ¨áĪļáĮł": 8841,
      "2017Ġ": 8842,
      "áĪŀáĪµ": 8843,
      "Ġáī¥áĪĦ": 8844,
      "wasuĠm": 8845,
      "áĪ¬áĬķ": 8846,
      "ĠáĬĲáīłáĪŃáį¤": 8847,
      "aĠhann": 8848,
      "ĠáĬłáĪµáīĢáĭµáĪŀ": 8849,
      "Ġáĭ¨áĪĺáĪµ": 8850,
      "ĠáįįáĪĭ": 8851,
      "Ġáĭ¨áĬ¢áīµáĭ®áĮµáĭ«ĠáįĸáĪĪáī²áĬ«": 8852,
      "ĠáĪĢáĭŃ": 8853,
      "aikiĠaĠ": 8854,
      "áĭĭáĪįáį¡áį¡": 8855,
      "ĠáĪ¶áĪµáīµ": 8856,
      "ĠáĪĽáĭķáĬ¨áĪį": 8857,
      "TsarinĠ": 8858,
      "áĭĺáĮĭáĮĢ": 8859,
      "ĠáĪģáĪĪáī±": 8860,
      "áĬ«áĬ¨áĪĪáĬĽáĭį": 8861,
      "ĠáĪĿáĪħáĬķáĭµáĪµáĬĵ": 8862,
      "jimillarĠ": 8863,
      "Langu": 8864,
      "aldĠ": 8865,
      "asiĠyaĠ": 8866,
      "ewa,Ġ": 8867,
      "dÃŃn": 8868,
      "en'sĠ": 8869,
      "islamuĠ": 8870,
      "ambakoĠ": 8871,
      "egunĠ": 8872,
      "ezek": 8873,
      "issionĠ": 8874,
      "berg": 8875,
      "takribanĠ": 8876,
      "karibuĠnaĠ": 8877,
      "katikaĠmiakaĠmirefu).ĠMpakaĠuisheĠzinabakiĠsikuĠ": 8878,
      "School,Ġ": 8879,
      "Mod": 8880,
      "bit": 8881,
      "harkokinĠ": 8882,
      "ikonĠ": 8883,
      "ÆĻung": 8884,
      "gabashinĠ": 8885,
      "Vit": 8886,
      "aineĠ": 8887,
      "mÃŃrÃłnĠ": 8888,
      "wing": 8889,
      "anaĠkwaĠ": 8890,
      "áĪŃáĪ³": 8891,
      "Ġáĭ¨áĮİ": 8892,
      "enaĠ": 8893,
      "ĠáĬ¥áĪŃáĪµ": 8894,
      "áĭ°áĮįáĪŀ": 8895,
      "áī³áĪĽ": 8896,
      "gbáº¹ÌģĠ": 8897,
      "áĬŃáī¶": 8898,
      "ĠáĬłáĪĽáĪŃáĬĽ": 8899,
      "Ġáĭ«áĪīáīµ": 8900,
      "apt": 8901,
      "áĮłáĬĿ": 8902,
      "ĠáīµáĬ©": 8903,
      "áĭĺáĪĺáĬķ": 8904,
      "ĠáīĢáīłáĪĮ": 8905,
      "Ġáĭ¨áĬłáĪ¦áĪŃ": 8906,
      "ambal": 8907,
      "induz": 8908,
      "áĬĶáīµ": 8909,
      "ĠáĬłáĪµáī°áĪ³áĪ°áī¥": 8910,
      "ĠáĪģáĪīáĪĿ": 8911,
      "Ġáī°áĪĺáĪ«": 8912,
      "ĠáĪĽáĭķáĪ¨áĮį": 8913,
      "ĠáĬķáĮįáĪ¥áīµ": 8914,
      "Ġáĭ°áĪ´áī¶áī½": 8915,
      "ĠáīłáĪĨáĬĲ": 8916,
      "ĠáĮįáĭĽáī¶áī½": 8917,
      "(m": 8918,
      "Jih": 8919,
      "lom": 8920,
      "mayĠ": 8921,
      "seed": 8922,
      "Ow": 8923,
      "rag": 8924,
      "abis": 8925,
      "ojiĠ": 8926,
      "âĢĻĠ": 8927,
      "IV": 8928,
      "yÃ¡": 8929,
      "azim": 8930,
      "2003": 8931,
      "andanĠ": 8932,
      "atureĠ": 8933,
      "fiyeĠdaĠ": 8934,
      "amatsayinĠ": 8935,
      "tÃŃĠkÃ²Ġ": 8936,
      "á»įÌĢĠsÃŃĠ": 8937,
      "yawancinĠ": 8938,
      "aĠlabar": 8939,
      "bÃŃbÃŃĠ": 8940,
      "askaziniĠ": 8941,
      "HarsunanĠ": 8942,
      "ÃĢwá»įnĠáº¹láº¹ÌģbÃ¹nĠNobelĠnÃŃnÃºĠ": 8943,
      "asayansiĠwaĠ": 8944,
      "áĪĺáĪ©": 8945,
      "abĠ": 8946,
      "auc": 8947,
      "Jig": 8948,
      "Keb": 8949,
      "áĬķ-": 8950,
      "ĠáĬ¥áĭ«áĬķáĭ³áĬķáĭ±": 8951,
      "ĠáĬĲáĮŃ": 8952,
      "ĠáĬĲáĭī": 8953,
      "ĠáĪµáĬĲ": 8954,
      "Ġáĭ¨áĪļáī³": 8955,
      "áįĭáĪį": 8956,
      "ĠáīĨáĭ¨": 8957,
      "Ġáīłáī¥áĭĻ": 8958,
      "Societ": 8959,
      "ĠáĪĺáĪ³áĪªáĭ«": 8960,
      "atunĠ": 8961,
      "2003Ġ": 8962,
      "dÃ©part": 8963,
      "countr": 8964,
      "63": 8965,
      "olud": 8966,
      "áº¹Ìģm": 8967,
      "Ã²p": 8968,
      "katikaĠk": 8969,
      "ráº¹ÌĢĠnÃŃĠ": 8970,
      "Kiingerez": 8971,
      "Nik": 8972,
      "d.": 8973,
      "daw": 8974,
      ",ĠdaĠ": 8975,
      "baĠtareĠdaĠ": 8976,
      "oweĠ": 8977,
      "iĠmasuĠ": 8978,
      "1990Ġ": 8979,
      "Afril": 8980,
      "zamantak": 8981,
      "jama'aĠaĠ": 8982,
      "baĠdaĠshaw": 8983,
      "cikakk": 8984,
      "kÃ¨": 8985,
      "ammentĠ": 8986,
      "\".Ġ": 8987,
      ".áĪľ": 8988,
      "HasaĠ": 8989,
      "Ye": 8990,
      "nes": 8991,
      "³áį»áį": 8992,
      "ĠáĬĲáĮĭ": 8993,
      "Ġáĭ¨áĪ²": 8994,
      "aidĠ": 8995,
      "ĠáĪµáĮĭ": 8996,
      "ĠáĭĵáįĦ": 8997,
      "March": 8998,
      "áĪ´áīµ": 8999,
      "ĠáĭµáĪ¨áĪµ)": 9000,
      "ĠáĭĺáĬķáĭµáį£": 9001,
      "áĪŃáĪ±áĪĿ": 9002,
      "iakaĠyaĠ": 9003,
      "patakiĠ": 9004,
      "áĭĪáĪŃáīħ": 9005,
      "Ġáī°áĮįáī£áĪŃ": 9006,
      "ĠáĬłáĪµáī°áĭ³áĭ°áĮįĠáīłáī¥áĭĽáīµĠáĭ¨áĪļáĮĪáĬĿáīłáīµĠáĪĺáĪįáĬŃáĭĵĠáĪĿáĭµáĪŃ": 9007,
      "Saur": 9008,
      "Yus": 9009,
      "trÃ¨sĠ": 9010,
      "MohammedĠ": 9011,
      "Mc": 9012,
      "SannanĠ": 9013,
      "aanaĠ": 9014,
      "biliĠ": 9015,
      "dabb": 9016,
      "nomĠ": 9017,
      "influ": 9018,
      "ele": 9019,
      "a,ĠwandaĠ": 9020,
      "tsib": 9021,
      "a'inĠdaĠ": 9022,
      "wallaf": 9023,
      "áĪĽáĭĬĠáĬĥáĭŃáĪĪĠáĪ¥áĪĭáĪ´": 9024,
      "musammanĠ": 9025,
      "Ref": 9026,
      "usedĠ": 9027,
      "ots": 9028,
      "hÃłnĠ": 9029,
      "máº¹Ìģr": 9030,
      "ulaĠ": 9031,
      "ubĠ": 9032,
      "Ġá»ĮbaĠ": 9033,
      "waĠnaĠPapaĠ": 9034,
      "HistoriaĠyaĠ": 9035,
      "WanasayansiĠwaĠ": 9036,
      "HenryĠ": 9037,
[...]
