{
  "version": "1.0",
  "truncation": null,
  "padding": null,
  "added_tokens": [
    {
      "id": 0,
      "content": "<PAD>",
      "single_word": false,
      "lstrip": false,
      "rstrip": false,
      "normalized": false,
      "special": true
    },
    {
      "id": 1,
      "content": "<BOS>",
      "single_word": false,
      "lstrip": false,
      "rstrip": false,
      "normalized": false,
      "special": true
    },
    {
      "id": 2,
      "content": "<EOS>",
      "single_word": false,
      "lstrip": false,
      "rstrip": false,
      "normalized": false,
      "special": true
    }
  ],
  "normalizer": {
    "type": "Sequence",
    "normalizers": [
      {
        "type": "NFC"
      }
    ]
  },
  "pre_tokenizer": {
    "type": "ByteLevel",
    "add_prefix_space": false,
    "trim_offsets": true,
    "use_regex": true
  },
  "post_processor": null,
  "decoder": {
    "type": "ByteLevel",
    "add_prefix_space": true,
    "trim_offsets": true,
    "use_regex": true
  },
  "model": {
    "type": "BPE",
    "dropout": null,
    "unk_token": null,
    "continuing_subword_prefix": null,
    "end_of_word_suffix": null,
    "fuse_unk": false,
    "byte_fallback": false,
    "ignore_merges": false,
    "vocab": {
      "<PAD>": 0,
      "<BOS>": 1,
      "<EOS>": 2,
      "!": 3,
      "\"": 4,
      "#": 5,
      "$": 6,
      "%": 7,
      "&": 8,
      "'": 9,
      "(": 10,
      ")": 11,
      "*": 12,
      "+": 13,
      ",": 14,
      "-": 15,
      ".": 16,
      "/": 17,
      "0": 18,
      "1": 19,
      "2": 20,
      "3": 21,
      "4": 22,
      "5": 23,
      "6": 24,
      "7": 25,
      "8": 26,
      "9": 27,
      ":": 28,
      ";": 29,
      "<": 30,
      "=": 31,
      ">": 32,
      "?": 33,
      "@": 34,
      "A": 35,
      "B": 36,
      "C": 37,
      "D": 38,
      "E": 39,
      "F": 40,
      "G": 41,
      "H": 42,
      "I": 43,
      "J": 44,
      "K": 45,
      "L": 46,
      "M": 47,
      "N": 48,
      "O": 49,
      "P": 50,
      "Q": 51,
      "R": 52,
      "S": 53,
      "T": 54,
      "U": 55,
      "V": 56,
      "W": 57,
      "X": 58,
      "Y": 59,
      "Z": 60,
      "[": 61,
      "\\": 62,
      "]": 63,
      "^": 64,
      "_": 65,
      "`": 66,
      "a": 67,
      "b": 68,
      "c": 69,
      "d": 70,
      "e": 71,
      "f": 72,
      "g": 73,
      "h": 74,
      "i": 75,
      "j": 76,
      "k": 77,
      "l": 78,
      "m": 79,
      "n": 80,
      "o": 81,
      "p": 82,
      "q": 83,
      "r": 84,
      "s": 85,
      "t": 86,
      "u": 87,
      "v": 88,
      "w": 89,
      "x": 90,
      "y": 91,
      "z": 92,
      "{": 93,
      "|": 94,
      "}": 95,
      "~": 96,
      "¡": 97,
      "¢": 98,
      "£": 99,
      "¤": 100,
      "¥": 101,
      "¦": 102,
      "§": 103,
      "¨": 104,
      "©": 105,
      "ª": 106,
      "«": 107,
      "¬": 108,
      "®": 109,
      "¯": 110,
      "°": 111,
      "±": 112,
      "²": 113,
      "³": 114,
      "´": 115,
      "µ": 116,
      "¶": 117,
      "·": 118,
      "¸": 119,
      "¹": 120,
      "º": 121,
      "»": 122,
      "¼": 123,
      "½": 124,
      "¾": 125,
      "¿": 126,
      "À": 127,
      "Á": 128,
      "Â": 129,
      "Ã": 130,
      "Ä": 131,
      "Å": 132,
      "Æ": 133,
      "Ç": 134,
      "È": 135,
      "É": 136,
      "Ê": 137,
      "Ë": 138,
      "Ì": 139,
      "Í": 140,
      "Î": 141,
      "Ï": 142,
      "Ð": 143,
      "Ñ": 144,
      "Ò": 145,
      "Ó": 146,
      "Ô": 147,
      "Õ": 148,
      "Ö": 149,
      "×": 150,
      "Ø": 151,
      "Ù": 152,
      "Ú": 153,
      "Û": 154,
      "Ü": 155,
      "Ý": 156,
      "Þ": 157,
      "ß": 158,
      "à": 159,
      "á": 160,
      "â": 161,
      "ã": 162,
      "ä": 163,
      "å": 164,
      "æ": 165,
      "ç": 166,
      "è": 167,
      "é": 168,
      "ê": 169,
      "ë": 170,
      "ì": 171,
      "í": 172,
      "î": 173,
      "ï": 174,
      "ð": 175,
      "ñ": 176,
      "ò": 177,
      "ó": 178,
      "ô": 179,
      "õ": 180,
      "ö": 181,
      "÷": 182,
      "ø": 183,
      "ù": 184,
      "ú": 185,
      "û": 186,
      "ü": 187,
      "ý": 188,
      "þ": 189,
      "ÿ": 190,
      "Ā": 191,
      "ā": 192,
      "Ă": 193,
      "ă": 194,
      "Ą": 195,
      "ą": 196,
      "Ć": 197,
      "ć": 198,
      "Ĉ": 199,
      "ĉ": 200,
      "Ċ": 201,
      "ċ": 202,
      "Č": 203,
      "č": 204,
      "Ď": 205,
      "ď": 206,
      "Đ": 207,
      "đ": 208,
      "Ē": 209,
      "ē": 210,
      "Ĕ": 211,
      "ĕ": 212,
      "Ė": 213,
      "ė": 214,
      "Ę": 215,
      "ę": 216,
      "Ě": 217,
      "ě": 218,
      "Ĝ": 219,
      "ĝ": 220,
      "Ğ": 221,
      "ğ": 222,
      "Ġ": 223,
      "ġ": 224,
      "Ģ": 225,
      "ģ": 226,
      "Ĥ": 227,
      "ĥ": 228,
      "Ħ": 229,
      "ħ": 230,
      "Ĩ": 231,
      "ĩ": 232,
      "Ī": 233,
      "ī": 234,
      "Ĭ": 235,
      "ĭ": 236,
      "Į": 237,
      "į": 238,
      "İ": 239,
      "ı": 240,
      "Ĳ": 241,
      "ĳ": 242,
      "Ĵ": 243,
      "ĵ": 244,
      "Ķ": 245,
      "ķ": 246,
      "ĸ": 247,
      "Ĺ": 248,
      "ĺ": 249,
      "Ļ": 250,
      "ļ": 251,
      "Ľ": 252,
      "ľ": 253,
      "Ŀ": 254,
      "ŀ": 255,
      "Ł": 256,
      "ł": 257,
      "Ń": 258,
      "áĪ": 259,
      "Ġá": 260,
      "áī": 261,
      "áĬ": 262,
      "áĭ": 263,
      "an": 264,
      "in": 265,
      "ar": 266,
      "Ġd": 267,
      "Ġt": 268,
      "Ġa": 269,
      "on": 270,
      "es": 271,
      "Ġs": 272,
      "en": 273,
      "áĮ": 274,
      "Ġáĭ": 275,
      "er": 276,
      "ĠáĬ": 277,
      "Ġn": 278,
      "wa": 279,
      "Ġl": 280,
      "Ġk": 281,
      "ĠáĪ": 282,
      "Ġm": 283,
      "áį": 284,
      "Ã©": 285,
      "áĬķ": 286,
      "ti": 287,
      "Ġáī": 288,
      "is": 289,
      "he": 290,
      "al": 291,
      "ĠÃ": 292,
      "Ġp": 293,
      "Ġc": 294,
      "ya": 295,
      "»į": 296,
      "or": 297,
      "ÃŃ": 298,
      "un": 299,
      "áīµ": 300,
      "á»į": 301,
      "áĪŃ": 302,
      "as": 303,
      "Ġo": 304,
      "it": 305,
      "re": 306,
      "Ġb": 307,
      "º¹": 308,
      "il": 309,
      "ĠA": 310,
      "at": 311,
      "am": 312,
      "Ġf": 313,
      "áº¹": 314,
      "Ġáĭ¨": 315,
      "áĭį": 316,
      "ur": 317,
      "Ġ(": 318,
      "Ġwa": 319,
      "Ġya": 320,
      "Ġda": 321,
      "Ġ1": 322,
      "Ġthe": 323,
      "łáĪ": 324,
      "ka": 325,
      "ĠM": 326,
      "Ġde": 327,
      "Ġh": 328,
      "áĪĿ": 329,
      "áĪį": 330,
      "le": 331,
      "us": 332,
      "áĪµ": 333,
      "om": 334,
      "and": 335,
      "Ġw": 336,
      "Ìģ": 337,
      "ent": 338,
      "Ãł": 339,
      "ÌĢ": 340,
      "Ġg": 341,
      "ed": 342,
      "Ã¡": 343,
      "ir": 344,
      "ic": 345,
      "ĠS": 346,
      "et": 347,
      "ati": 348,
      "Ġin": 349,
      "Ġof": 350,
      "Ġna": 351,
      "ut": 352,
      "el": 353,
      "ik": 354,
      "Ġr": 355,
      "ab": 356,
      "áį¢": 357,
      "qu": 358,
      "ĠÃł": 359,
      "ad": 360,
      "um": 361,
      "ĠK": 362,
      "áĬĵ": 363,
      "Ġáīł": 364,
      "áī°": 365,
      "im": 366,
      "áĭ«": 367,
      "áĪĪ": 368,
      "ol": 369,
      "Ġla": 370,
      "Ãº": 371,
      "ĠB": 372,
      "ia": 373,
      "ĠáĮ": 374,
      "Ã¨": 375,
      "Ġj": 376,
      "ĠC": 377,
      "áĭŃ": 378,
      "áĪĺ": 379,
      "ĠN": 380,
      "Ã¬": 381,
      "ĠáĬ¥": 382,
      "ing": 383,
      "áī½": 384,
      "ĠI": 385,
      "ul": 386,
      "em": 387,
      "ro": 388,
      "ĠT": 389,
      "Ġta": 390,
      "Ġ19": 391,
      "ch": 392,
      "Ġ2": 393,
      "id": 394,
      "ĠáĬł": 395,
      "áĭ°": 396,
      "ĠP": 397,
      "áĬĲ": 398,
      "ay": 399,
      "áī¥": 400,
      "áĪ¨": 401,
      "áĮĪ": 402,
      "ai": 403,
      "áĭµ": 404,
      "Ġand": 405,
      "ak": 406,
      "Ġto": 407,
      "ce": 408,
      "ig": 409,
      "áĪĭ": 410,
      "ĠáĬĲ": 411,
      "áĮį": 412,
      "Ġni": 413,
      "ĠL": 414,
      "ta": 415,
      "âĢ": 416,
      "os": 417,
      "ĠáĪĺ": 418,
      "ag": 419,
      "ĠG": 420,
      "áīł": 421,
      "ĠW": 422,
      "Ġy": 423,
      "¹£": 424,
      "Ã³": 425,
      "áĪ«": 426,
      "Ġle": 427,
      "Ġz": 428,
      "ation": 429,
      "áī³": 430,
      "ĠD": 431,
      "ĠáĬ¨": 432,
      "Ġv": 433,
      "gb": 434,
      "ĠF": 435,
      "est": 436,
      "ana": 437,
      "ĠJ": 438,
      "Ġal": 439,
      "Ġet": 440,
      "ĠR": 441,
      "ara": 442,
      "áĬŃ": 443,
      "ha": 444,
      "ri": 445,
      "ĠnÃŃ": 446,
      "á»įn": 447,
      "Ġ20": 448,
      "ant": 449,
      "hi": 450,
      "ĠH": 451,
      "ĠO": 452,
      "ot": 453,
      "áĪĽ": 454,
      "ba": 455,
      "áĪ³": 456,
      "Ġen": 457,
      "ani": 458,
      "áī£": 459,
      "ci": 460,
      "Ġun": 461,
      "Ġáį": 462,
      "ĠÃ¬": 463,
      "ĠE": 464,
      "Ã¹": 465,
      "ist": 466,
      "ans": 467,
      "Ġe": 468,
      "wá»įn": 469,
      "Ġre": 470,
      "ra": 471,
      "ali": 472,
      "áĬĽ": 473,
      "Ġáī°": 474,
      "uk": 475,
      "Ġá»į": 476,
      "áĪª": 477,
      "Ġma": 478,
      "ĠáĭŃ": 479,
      "tion": 480,
      "Ã²": 481,
      "ĠáīłáĪ": 482,
      "Ġáĭ¨áĪ": 483,
      "que": 484,
      "op": 485,
      "ers": 486,
      "ec": 487,
      "á¹£": 488,
      "ok": 489,
      "ĠáĬłáĪ": 490,
      "Ġdes": 491,
      "ud": 492,
      "Ġil": 493,
      "áĪħ": 494,
      "are": 495,
      "iy": 496,
      "áĮ¥": 497,
      "áĬ¨": 498,
      "ari": 499,
      "áį£": 500,
      "ĠU": 501,
      "ĠáĪĿ": 502,
      "Ġ-": 503,
      "ang": 504,
      "Ġáĭ¨áĬ": 505,
      "iya": 506,
      "iv": 507,
      "uwa": 508,
      "Ġcon": 509,
      "Ġor": 510,
      "our": 511,
      "ĠáĭĪ": 512,
      "áį¡": 513,
      "ug": 514,
      "Ãºn": 515,
      "Ġpar": 516,
      "st": 517,
      "la": 518,
      "ĠtÃŃ": 519,
      "áįį": 520,
      "od": 521,
      "Ġth": 522,
      "áĭ³": 523,
      "ĠáĬĲáĭį": 524,
      "ap": 525,
      "áīĢ": 526,
      "og": 527,
      "ub": 528,
      "áĭ¨": 529,
      "ĠáĬ¥áĬķ": 530,
      "uma": 531,
      "Ġles": 532,
      "Ġan": 533,
      "ion": 534,
      "áĭĪ": 535,
      "ie": 536,
      "00": 537,
      "Ġwas": 538,
      "if": 539,
      "Ġdu": 540,
      "te": 541,
      "Ġas": 542,
      "th": 543,
      "ib": 544,
      "áĪ°": 545,
      "áīħ": 546,
      "me": 547,
      "ter": 548,
      "Ġcom": 549,
      "áĪĮ": 550,
      "ama": 551,
      "áĬ«": 552,
      "up": 553,
      "Ġti": 554,
      "Ġne": 555,
      "ÆĻ": 556,
      "ĠáĪĪ": 557,
      "ne": 558,
      "19": 559,
      "ine": 560,
      "Ġfor": 561,
      "ke": 562,
      "Ġon": 563,
      "Ġis": 564,
      "áĬł": 565,
      "ly": 566,
      "ow": 567,
      "ji": 568,
      "ini": 569,
      "ga": 570,
      "Ġ\"": 571,
      "ĠáĪµ": 572,
      "áī¸": 573,
      "ĠÃ©": 574,
      "Ġáĭ«": 575,
      "res": 576,
      "ĠÂ": 577,
      "Ġqu": 578,
      "rÃ©": 579,
      "ĠÃ³": 580,
      "áĪī": 581,
      "),": 582,
      "af": 583,
      "Ġpro": 584,
      "Ġáĭĵ": 585,
      "Ġkuma": 586,
      "Ġkwa": 587,
      "Ġshe": 588,
      ").": 589,
      "iki": 590,
      "ac": 591,
      "ve": 592,
      "áīłáĪ": 593,
      "li": 594,
      "Ġest": 595,
      "áĭĬ": 596,
      "áĭĭ": 597,
      "ere": 598,
      "láº¹": 599,
      "ou": 600,
      "áĪ®": 601,
      "áī±": 602,
      "İáī½": 603,
      "end": 604,
      "Ġau": 605,
      "Ġshek": 606,
      "áī¸áĭį": 607,
      "áįĪ": 608,
      "ob": 609,
      "Ġáĭ¨áĪļ": 610,
      "ement": 611,
      "Ġsu": 612,
      "áĭĿ": 613,
      "ĠâĢ": 614,
      "ĠÆĻ": 615,
      "áĮ£": 616,
      "ĠY": 617,
      "za": 618,
      "áĪĨ": 619,
      "ĠáĪĽ": 620,
      "ikin": 621,
      "Ġse": 622,
      "har": 623,
      "rÃŃ": 624,
      "ĠdÃ©": 625,
      "Ġ201": 626,
      "ata": 627,
      "áĭļ": 628,
      "áī¶": 629,
      "di": 630,
      "ina": 631,
      "au": 632,
      "áĪ³áĪĮ": 633,
      "ct": 634,
      "áĮł": 635,
      "ann": 636,
      "Ġar": 637,
      "áĮī": 638,
      "ĠÃĢ": 639,
      "âĢĻ": 640,
      "ĠV": 641,
      "Ġza": 642,
      "ment": 643,
      "áĮĭ": 644,
      "ip": 645,
      "Ġsh": 646,
      "ĠáīłáĬ": 647,
      "áĭ®": 648,
      "ye": 649,
      "aj": 650,
      "ith": 651,
      "Ãłn": 652,
      "Ġpl": 653,
      "ge": 654,
      "Ġam": 655,
      "ĠáĪĿáĪ³áĪĮ": 656,
      "ĠÃłwá»įn": 657,
      "se": 658,
      "ká»į": 659,
      "ate": 660,
      "les": 661,
      "Ġ:": 662,
      "zi": 663,
      "wan": 664,
      "ure": 665,
      "ĠAl": 666,
      "Ġkas": 667,
      "ov": 668,
      "ont": 669,
      "Ġkati": 670,
      "ĠáĪ²": 671,
      "de": 672,
      "war": 673,
      "Ġba": 674,
      "áĭ²": 675,
      "asi": 676,
      "ance": 677,
      "Ġwh": 678,
      "Ġce": 679,
      "áĬķáĭµ": 680,
      "Ġfr": 681,
      "Ġáº¹": 682,
      "ĠáĮį": 683,
      "ĠAm": 684,
      "ins": 685,
      "Ġáīµ": 686,
      "Ġku": 687,
      "Ġbe": 688,
      "The": 689,
      "ung": 690,
      "áĭİáī½": 691,
      "oka": 692,
      "Ġch": 693,
      "Ġáĭĺ": 694,
      "Ġ18": 695,
      "oc": 696,
      "ort": 697,
      "Ã©e": 698,
      "anda": 699,
      "Ġit": 700,
      "ĠAn": 701,
      "áĪ¥": 702,
      "áīĥ": 703,
      "Ġ200": 704,
      "Ġst": 705,
      "Ġjáº¹": 706,
      "já»į": 707,
      "ili": 708,
      "áĬĸ": 709,
      "áĪŀ": 710,
      "Ġcikin": 711,
      "áĭĺ": 712,
      "Ġby": 713,
      "Ġex": 714,
      "ĠIn": 715,
      "hin": 716,
      "Ġá¹£": 717,
      "waka": 718,
      "Ġáĭ¨áī°": 719,
      "Ã©r": 720,
      "ĠAf": 721,
      "ĠáĬ¥áĬĵ": 722,
      "Ġat": 723,
      "of": 724,
      "áĬĲáīµ": 725,
      "ĠáĪ°": 726,
      "Ġáī¥": 727,
      "áĬ¥": 728,
      "rin": 729,
      "we": 730,
      "Ġdans": 731,
      "áĪĬ": 732,
      "ĠÂ«": 733,
      "ire": 734,
      "una": 735,
      "áĪ©": 736,
      "ark": 737,
      "oj": 738,
      "ens": 739,
      "und": 740,
      "Ġ.": 741,
      "bo": 742,
      "Ġdaga": 743,
      "Ġáĭį": 744,
      "ah": 745,
      "áĪĻ": 746,
      "Ġwith": 747,
      "ile": 748,
      "Ġmat": 749,
      "má»į": 750,
      "ity": 751,
      "to": 752,
      "Ã©s": 753,
      "ĠÃ¨": 754,
      "ong": 755,
      "tic": 756,
      "ale": 757,
      "áĬķáĮį": 758,
      "Ġune": 759,
      "Ġkatika": 760,
      "ĠÃłti": 761,
      "ada": 762,
      "ish": 763,
      "ĠáīĢ": 764,
      "ue": 765,
      "ass": 766,
      "Ġ3": 767,
      "asa": 768,
      "'s": 769,
      "ces": 770,
      "ais": 771,
      "áīłáĪŃ": 772,
      "Ġkut": 773,
      "ĭáĭŃ": 774,
      "Ġáĭ°": 775,
      "ver": 776,
      "ous": 777,
      "ĠÃĮ": 778,
      "ĠáĬ¥áĬķáĭ°": 779,
      "Ġha": 780,
      "Ġráº¹": 781,
      "dÃºn": 782,
      "áĭĽ": 783,
      "eriya": 784,
      "Ġáĭ¨áĬłáĪ": 785,
      "da": 786,
      "bi": 787,
      "ts": 788,
      "ĠCh": 789,
      "áĪļ": 790,
      "ord": 791,
      "Ġap": 792,
      "Ã¬n": 793,
      "lÃ©": 794,
      "lÃº": 795,
      "ĠÃĢwá»įn": 796,
      "Ġmwaka": 797,
      "ÉĹ": 798,
      "ber": 799,
      "ĠIt": 800,
      "Ġga": 801,
      "ich": 802,
      "ĠáĬŃ": 803,
      "ÅĦ": 804,
      "ĠsÃŃ": 805,
      "20": 806,
      "Ġkan": 807,
      "Ġje": 808,
      "so": 809,
      "áĪİ": 810,
      "ni": 811,
      "Ġsa": 812,
      "oy": 813,
      "ij": 814,
      "ma": 815,
      "ĠlÃ¡": 816,
      "ond": 817,
      "zo": 818,
      "Ġqui": 819,
      "Ġkar": 820,
      "áĮħ": 821,
      "áī²": 822,
      "Ġshekar": 823,
      "áī¢": 824,
      "fi": 825,
      "Ġpe": 826,
      "Ġ199": 827,
      "ĠÃ²": 828,
      "Ġthat": 829,
      "art": 830,
      "uc": 831,
      "áĬĳ": 832,
      "Ã¹n": 833,
      "ĠrÃ©": 834,
      "ĠâĢĵ": 835,
      "ux": 836,
      "iyar": 837,
      "pe": 838,
      "áįĭ": 839,
      "ĠáĪį": 840,
      "Ġpour": 841,
      "Ġav": 842,
      "mi": 843,
      "age": 844,
      "ric": 845,
      "Ġhe": 846,
      "Ġsur": 847,
      "ĠAr": 848,
      "iwa": 849,
      "Ġol": 850,
      "adi": 851,
      "áĬĿ": 852,
      "Ġfrom": 853,
      "tr": 854,
      "áĪ±": 855,
      "Ġshi": 856,
      "ph": 857,
      "Ġcomp": 858,
      "áį¤": 859,
      "ard": 860,
      "je": 861,
      "áĪĨáĬķ": 862,
      "Ġmas": 863,
      "áĪ½": 864,
      "ence": 865,
      "Ġwá»į": 866,
      "chi": 867,
      "ÃŃn": 868,
      "sa": 869,
      "Ġu": 870,
      "ita": 871,
      "áĮİ": 872,
      "any": 873,
      "cin": 874,
      "ĠáĪĭáĭŃ": 875,
      "ĠThe": 876,
      "ank": 877,
      "áĭ«áĬķ": 878,
      "anz": 879,
      "ĠÅĦ": 880,
      "ore": 881,
      "ary": 882,
      "áĪĪáĭį": 883,
      "ika": 884,
      "Ġáī³": 885,
      "Ġáĭµ": 886,
      "ala": 887,
      "elle": 888,
      "Ġke": 889,
      "18": 890,
      "aba": 891,
      "ila": 892,
      "áĪŃáĬĽ": 893,
      "ite": 894,
      "Ġá»įdÃºn": 895,
      "á¹£áº¹": 896,
      "áĭ±": 897,
      "áĪģ": 898,
      "Ġáī£": 899,
      "Ġare": 900,
      "amu": 901,
      "all": 902,
      "fu": 903,
      "Ġad": 904,
      "Ġsi": 905,
      "ques": 906,
      "Ġim": 907,
      "Ġwat": 908,
      "Ġplus": 909,
      "Ġhis": 910,
      "áĭļáĪħ": 911,
      "¢áīµ": 912,
      "dÃ¨": 913,
      "won": 914,
      "iti": 915,
      "ell": 916,
      "Ġati": 917,
      "wo": 918,
      "ĽáĪŃáĬĽ": 919,
      "¢áīµáĭ®": 920,
      "Ġso": 921,
      "Ġ198": 922,
      "áĮµ": 923,
      "ame": 924,
      "urs": 925,
      "Ġque": 926,
      "áĬĴ": 927,
      "áĭķ": 928,
      "ill": 929,
      "ane": 930,
      "áīĨ": 931,
      "Ġyi": 932,
      "áĮĢ": 933,
      "Ġac": 934,
      "olog": 935,
      "ĠáīłáĪĺ": 936,
      "oma": 937,
      "gbÃł": 938,
      "¢áīµáĭ®áĮµ": 939,
      "Ã¨re": 940,
      "pa": 941,
      "Ġcha": 942,
      "Ġshekara": 943,
      "aif": 944,
      "Ġab": 945,
      "In": 946,
      "Ġtr": 947,
      "áĪĪáīµ": 948,
      "uu": 949,
      "Ġshekarar": 950,
      "ami": 951,
      "áĮ½": 952,
      "Ġmai": 953,
      "áĮĪáĪŃ": 954,
      "áĪ¬": 955,
      "okasi": 956,
      "ern": 957,
      "ĠNaj": 958,
      "Ġ197": 959,
      "ori": 960,
      "ĠSt": 961,
      "asar": 962,
      "ĠbÃŃ": 963,
      "áī¡": 964,
      "An": 965,
      "ele": 966,
      "áĪµáĮ¥": 967,
      "ĠWali": 968,
      "ep": 969,
      "Ġ4": 970,
      "erm": 971,
      "¢áīµáĭ®áĮµáĭ«": 972,
      "bÃŃ": 973,
      "Ġáĭ¨áĬłáĪĽáĪŃáĬĽ": 974,
      "ĠZ": 975,
      "emp": 976,
      "ban": 977,
      "ĠNajeriya": 978,
      "áĪ¨áīµ": 979,
      "ign": 980,
      "Ġou": 981,
      "Ġ,": 982,
      "ations": 983,
      "ll": 984,
      "Ġ196": 985,
      "igh": 986,
      "áīłáīµ": 987,
      "une": 988,
      "ĠáĬĲáīłáĪŃ": 989,
      "áĭľ": 990,
      "ĠáĮ¥": 991,
      "Ġus": 992,
      "enye": 993,
      "Ã¡Ãł": 994,
      "rit": 995,
      "ff": 996,
      "int": 997,
      "oni": 998,
      "kan": 999,
      "áĪĺáĬķ": 1000,
      "iss": 1001,
      "ars": 1002,
      "Ġaka": 1003,
      "av": 1004,
      "itÃ©": 1005,
      "Ġ|": 1006,
      "Ġkutoka": 1007,
      "eng": 1008,
      "áĪ»": 1009,
      "oh": 1010,
      "ĠFr": 1011,
      "awa": 1012,
      "ĠáĭĪáĭ°": 1013,
      "ano": 1014,
      "ĠLe": 1015,
      "ĠáĪĨ": 1016,
      "ĠItokasi": 1017,
      "ors": 1018,
      "ĠáĮĪ": 1019,
      "áĪµáīµ": 1020,
      "ĠáĬ¨áī°": 1021,
      "ess": 1022,
      "Ã¨s": 1023,
      "ikuwa": 1024,
      "ĠUn": 1025,
      "»Į": 1026,
      "áī»": 1027,
      "arin": 1028,
      "ĠÂ»": 1029,
      "Ġbi": 1030,
      "Ġ5": 1031,
      "Ġi": 1032,
      "Ġcomm": 1033,
      "ĠáĬķ": 1034,
      "Ġson": 1035,
      "Ġdon": 1036,
      "bu": 1037,
      "Ġ'": 1038,
      "áĭ©": 1039,
      "Ġts": 1040,
      "Ġfi": 1041,
      "anar": 1042,
      "amm": 1043,
      "amar": 1044,
      "ihar": 1045,
      "ĠfÃºn": 1046,
      "tÃ©": 1047,
      "Ġá¹£e": 1048,
      "Ãª": 1049,
      "áĭĵ": 1050,
      "áįĬ": 1051,
      "Ã¡n": 1052,
      "ated": 1053,
      "aire": 1054,
      "Â»": 1055,
      "áĭįáĬķ": 1056,
      "iri": 1057,
      "áī¶áī½": 1058,
      "Ġwanda": 1059,
      "ĠtÃ³": 1060,
      "ise": 1061,
      "si": 1062,
      "ĠnÃŃn": 1063,
      "ÃĢ": 1064,
      "Ã©es": 1065,
      "ast": 1066,
      "ĠáĬ¥áĪµ": 1067,
      "Le": 1068,
      "be": 1069,
      "cl": 1070,
      "ĠorÃŃ": 1071,
      "eri": 1072,
      "ath": 1073,
      "Ġcons": 1074,
      "ĠáĭįáĪµáĮ¥": 1075,
      "fin": 1076,
      "ĠáĬłáĭŃ": 1077,
      "ayin": 1078,
      "áĪŃáĮī": 1079,
      "ult": 1080,
      "Ġnot": 1081,
      "ille": 1082,
      "ayan": 1083,
      "Ĭáĭľ": 1084,
      "port": 1085,
      "che": 1086,
      "áĮłáĪ": 1087,
      "ek": 1088,
      "áĪªáĭ«": 1089,
      "áĬĶ": 1090,
      "ome": 1091,
      "áīĭ": 1092,
      "Ġko": 1093,
      "ĠáĪģ": 1094,
      "áĭ¶": 1095,
      "io": 1096,
      "ons": 1097,
      "amb": 1098,
      "az": 1099,
      "Ġpre": 1100,
      "áĪ²": 1101,
      "ait": 1102,
      "angu": 1103,
      "áĬĽáĭį": 1104,
      "200": 1105,
      "áĬłáĪ": 1106,
      "ugh": 1107,
      "ĠnÃ¡Ãł": 1108,
      "ical": 1109,
      "tions": 1110,
      "áī¦": 1111,
      "Ġ;": 1112,
      "Ġavec": 1113,
      "Ġ6": 1114,
      "áĭŃáĪĿ": 1115,
      "ko": 1116,
      "Ġsont": 1117,
      "ivers": 1118,
      "Ġmw": 1119,
      "isha": 1120,
      "Ġlá»į": 1121,
      "ide": 1122,
      "ois": 1123,
      "ect": 1124,
      "áĪŃáĪµ": 1125,
      "Ġdi": 1126,
      "aliwa": 1127,
      "annan": 1128,
      "vel": 1129,
      "áĬ¤": 1130,
      "out": 1131,
      "Ġgb": 1132,
      "áĪľ": 1133,
      "ania": 1134,
      "orm": 1135,
      "oz": 1136,
      "Ġáīłáī°": 1137,
      "isto": 1138,
      "tern": 1139,
      "Ġsun": 1140,
      "áĪĲ": 1141,
      "áĭĻ": 1142,
      "áĬ®": 1143,
      "Ġnom": 1144,
      "land": 1145,
      "ĠAs": 1146,
      "Ġmats": 1147,
      "tre": 1148,
      "oja": 1149,
      "pr": 1150,
      "ex": 1151,
      "Ġwhich": 1152,
      "áī¤": 1153,
      "yo": 1154,
      "obel": 1155,
      "Ġáīħ": 1156,
      "idi": 1157,
      "ida": 1158,
      "ĠnÃŃnÃº": 1159,
      "yar": 1160,
      "erÃ©": 1161,
      "áĪĭáĪį": 1162,
      "ash": 1163,
      "ĠáĬłáĪµ": 1164,
      "Ġzuwa": 1165,
      "ĠáĪ¥": 1166,
      "ry": 1167,
      "jÃŃ": 1168,
      "ress": 1169,
      "afa": 1170,
      "Ġpr": 1171,
      "ust": 1172,
      "Ġáī¤": 1173,
      "anin": 1174,
      "ĠáĬ«": 1175,
      "Ġ195": 1176,
      "ĠAd": 1177,
      "Ã©n": 1178,
      "ĠNobel": 1179,
      "Ġ17": 1180,
      "ĠáīµáĪŃáĮī": 1181,
      "ew": 1182,
      "Ġáĭ¨áĪĺ": 1183,
      "oun": 1184,
      "áĬ©": 1185,
      "tit": 1186,
      "Ġtare": 1187,
      "ene": 1188,
      "fic": 1189,
      "ost": 1190,
      "wá»į": 1191,
      "uh": 1192,
      "ĠáĮįáĬķ": 1193,
      "áĪªáĬŃ": 1194,
      "Ġkama": 1195,
      "usu": 1196,
      "ational": 1197,
      "Ġmak": 1198,
      "Ġá»įmá»į": 1199,
      "ĠáĬ¥áĬķáĭ²": 1200,
      "Ġmut": 1201,
      "Al": 1202,
      "fa": 1203,
      "ĠSh": 1204,
      "ru": 1205,
      "ĠáĮĭ": 1206,
      "ĠMa": 1207,
      "Ġapp": 1208,
      "du": 1209,
      "Ġáĭ¨áĬł": 1210,
      "ira": 1211,
      "ĠEn": 1212,
      "Ġá»Į": 1213,
      "áīģ": 1214,
      "enti": 1215,
      "áĮ¨": 1216,
      "ĠlÃ¡ti": 1217,
      "emb": 1218,
      "ĠAb": 1219,
      "uri": 1220,
      "abu": 1221,
      "Ġib": 1222,
      "áī¹": 1223,
      "ráº¹": 1224,
      "rÃŃÃł": 1225,
      "lá»į": 1226,
      "áīłáĪ¨": 1227,
      "ki": 1228,
      "ĠáĪ²áĪĨáĬķ": 1229,
      "lic": 1230,
      "Ġhi": 1231,
      "áį¡áį¡": 1232,
      "ĭáĪĭ": 1233,
      "ÃłÃ¬": 1234,
      "alis": 1235,
      "jÃº": 1236,
      "ĠprÃ©": 1237,
      "uni": 1238,
      "áĮĥ": 1239,
      "ose": 1240,
      "ĠlÃ³": 1241,
      "ĠMar": 1242,
      "áĬŃáĪį": 1243,
      "Ġ9": 1244,
      "ory": 1245,
      "áĪĥ": 1246,
      "»áį": 1247,
      "âĢĵ": 1248,
      "Ġsy": 1249,
      "ĠÉĹ": 1250,
      "Ã§": 1251,
      "able": 1252,
      "ound": 1253,
      "ĠáīµáĪŃáĮīáĪĻ": 1254,
      "ua": 1255,
      "Ġform": 1256,
      "Ġgba": 1257,
      "ĠáīłáĬł": 1258,
      "Ġ7": 1259,
      "ĠáĬłáĬķ": 1260,
      "Ã¬ÃŃ": 1261,
      "áĪ´": 1262,
      "ĠMat": 1263,
      "ade": 1264,
      "amp": 1265,
      "ĠAmer": 1266,
      "hem": 1267,
      "Ġnchi": 1268,
      "der": 1269,
      "Ġkuwa": 1270,
      "Ġbir": 1271,
      "ĠsÃ¬": 1272,
      "Ġmatsayin": 1273,
      "jÃŃrÃŃÃł": 1274,
      "ĠNÃłÃ¬": 1275,
      "ĠáĪ³": 1276,
      "²áį": 1277,
      "kati": 1278,
      "áī´": 1279,
      "Il": 1280,
      "ese": 1281,
      "eb": 1282,
      "ork": 1283,
      "Ġph": 1284,
      "áĮŃ": 1285,
      "ĠáĪĺáĬķáĮį": 1286,
      "ole": 1287,
      "arta": 1288,
      "Ġdis": 1289,
      "Ġwatan": 1290,
      "ĠNÃłÃ¬jÃŃrÃŃÃł": 1291,
      "ima": 1292,
      "ĠáĮĬáĭľ": 1293,
      "Ġgr": 1294,
      "Ġms": 1295,
      "inu": 1296,
      "Ġak": 1297,
      "ĠáīĢáĬķ": 1298,
      "ally": 1299,
      "pá»į": 1300,
      "ĠáĭĪáĭŃáĪĿ": 1301,
      "Ġáĭĭ": 1302,
      "Ġ8": 1303,
      "lu": 1304,
      "ÌĢ-": 1305,
      "Ġyake": 1306,
      "Ġsuka": 1307,
      "Ġá»įjá»į": 1308,
      "áī³áīµ": 1309,
      "Ġwere": 1310,
      "ote": 1311,
      "Ġagb": 1312,
      "Ġ194": 1313,
      "ther": 1314,
      "Ġcl": 1315,
      "En": 1316,
      "rika": 1317,
      "ĠmÃ©": 1318,
      "ola": 1319,
      "uis": 1320,
      "apa": 1321,
      "Ã©ri": 1322,
      "ake": 1323,
      "áĪªáĬ«": 1324,
      "oll": 1325,
      "Ġaut": 1326,
      "16": 1327,
      "ĠMare": 1328,
      "uli": 1329,
      "Ġmil": 1330,
      "Ġ15": 1331,
      "La": 1332,
      "per": 1333,
      "000": 1334,
      "Ġ16": 1335,
      "erv": 1336,
      "Ġfil": 1337,
      "ĠáĪµáĪĪ": 1338,
      "anc": 1339,
      "15": 1340,
      "sh": 1341,
      "ĠáĬĵ": 1342,
      "ĠáĬłáĪĪ": 1343,
      "aye": 1344,
      "Ġfir": 1345,
      "anu": 1346,
      "one": 1347,
      "áĪ¨áīµáĬĵ": 1348,
      "ĠáĪĬ": 1349,
      "ede": 1350,
      "ofar": 1351,
      "áĮ»": 1352,
      "oul": 1353,
      "kÃł": 1354,
      "Ġáī¢": 1355,
      "Ġhad": 1356,
      "ĠáįĪ": 1357,
      "ats": 1358,
      "aban": 1359,
      "Ġhuk": 1360,
      "ĠáĬ¥áĪµáĬ¨": 1361,
      "á¹£Ã¹": 1362,
      "Ã¨dÃ¨": 1363,
      "17": 1364,
      "áĪĪáĪĿ": 1365,
      "ozaliwa": 1366,
      "ĠáĬķáĮī": 1367,
      "kani": 1368,
      "ĠáīłáĬĭáĪĭ": 1369,
      "Ġmar": 1370,
      "ĠorÃŃláº¹": 1371,
      "ique": 1372,
      "ĠÆĻasar": 1373,
      "Ġvya": 1374,
      "po": 1375,
      "Ġawon": 1376,
      "ja": 1377,
      "til": 1378,
      "Ġent": 1379,
      "áĪ¥áīµ": 1380,
      "yi": 1381,
      "ĠTu": 1382,
      "onn": 1383,
      "áį»áį": 1384,
      "cc": 1385,
      "Ġfun": 1386,
      "ĠáĭŃáĪħ": 1387,
      "..": 1388,
      "ime": 1389,
      "hindi": 1390,
      "Ġwasan": 1391,
      "rá»į": 1392,
      "Ġparti": 1393,
      "ĠáĭĺáĪĺáĬķ": 1394,
      "ice": 1395,
      "áĪ¨áĪµ": 1396,
      "omin": 1397,
      "ind": 1398,
      "áĬķáĪĿ": 1399,
      "Ġfark": 1400,
      "Ġay": 1401,
      "á¹£Ã¨": 1402,
      "Ãĵ": 1403,
      "eria": 1404,
      "oth": 1405,
      "ande": 1406,
      "ĠIs": 1407,
      "Ba": 1408,
      "ĠKar": 1409,
      "ĠilÃ©": 1410,
      "yÃłn": 1411,
      "lÃ¡": 1412,
      "Ġkw": 1413,
      "ouv": 1414,
      "risto": 1415,
      "ĠáĬŃáįį": 1416,
      "mo": 1417,
      "pÃŃn": 1418,
      "áĪ®áī½": 1419,
      "áĭĭáĪį": 1420,
      "Ġáī°áĪ¨áīµáĬĵ": 1421,
      "tá»į": 1422,
      "áĪķ": 1423,
      "ofariki": 1424,
      "ĠNig": 1425,
      "áĮ«": 1426,
      "Ġwá»įn": 1427,
      "ld": 1428,
      "ĠáĬ¨áī°áĪĽ": 1429,
      "ogra": 1430,
      "ette": 1431,
      "Ġid": 1432,
      "ight": 1433,
      "iz": 1434,
      "anaz": 1435,
      "bÃ¡": 1436,
      "Ġsha": 1437,
      "wam": 1438,
      "Ġcomme": 1439,
      "ansa": 1440,
      "Th": 1441,
      "enn": 1442,
      "ĠTuzo": 1443,
      "Ġ10": 1444,
      "ents": 1445,
      "jÃ¬": 1446,
      "jo": 1447,
      "fer": 1448,
      "Ġup": 1449,
      "Ġhaif": 1450,
      "áĮĪáĬ": 1451,
      "ates": 1452,
      "áĭİ": 1453,
      "omm": 1454,
      "Ġme": 1455,
      "anci": 1456,
      "pos": 1457,
      "Ġalso": 1458,
      "Ġjihar": 1459,
      "ishi": 1460,
      "ĠáĭĵáĪĺ": 1461,
      "Ġres": 1462,
      "aus": 1463,
      "anazarta": 1464,
      "ĠÃ¬lÃº": 1465,
      "ants": 1466,
      "ea": 1467,
      "ugha": 1468,
      "ember": 1469,
      "orn": 1470,
      "aki": 1471,
      "duc": 1472,
      "ĠMarekani": 1473,
      "Ġloka": 1474,
      "Ġmon": 1475,
      "Ġcont": 1476,
      "ines": 1477,
      "áĪŃáĭ«": 1478,
      "10": 1479,
      "ĠAfrika": 1480,
      "ĠáĪĪáĪĺ": 1481,
      "uniya": 1482,
      "Ġtra": 1483,
      "áįĵ": 1484,
      "Ġáĭķ": 1485,
      "áĮĢáĪĺ": 1486,
      "Ġmus": 1487,
      "pt": 1488,
      "14": 1489,
      "ven": 1490,
      "Ġcent": 1491,
      "Ġhii": 1492,
      "ĠII": 1493,
      "Ġob": 1494,
      "ui": 1495,
      "jáº¹": 1496,
      "áī°áĬĽ": 1497,
      "ĠWaliozaliwa": 1498,
      "Ġkasance": 1499,
      "kin": 1500,
      "ubwa": 1501,
      "Ġkus": 1502,
      "kÃ³": 1503,
      "áĭ´": 1504,
      "ction": 1505,
      "Les": 1506,
      "ions": 1507,
      "own": 1508,
      "Ġmod": 1509,
      "ope": 1510,
      "Ġ193": 1511,
      "ron": 1512,
      "Ġsp": 1513,
      "ĠWaliofariki": 1514,
      "Ġawá»įn": 1515,
      "áĮįáĪŀ": 1516,
      "isa": 1517,
      "gun": 1518,
      "Ġpia": 1519,
      "pÃŃnláº¹": 1520,
      "dun": 1521,
      "aya": 1522,
      "nÃ¬": 1523,
      "yan": 1524,
      "sÃŃ": 1525,
      "aut": 1526,
      "ĠAg": 1527,
      "abi": 1528,
      "\".": 1529,
      "áį¦": 1530,
      "Ġip": 1531,
      "Ġfirst": 1532,
      "Ġhu": 1533,
      "Ġáĭ«áĪį": 1534,
      "Ġmk": 1535,
      "ĠMus": 1536,
      "Ġki": 1537,
      "Ġpol": 1538,
      "iko": 1539,
      "ys": 1540,
      "Ġkáº¹": 1541,
      "att": 1542,
      "Ta": 1543,
      "wÃ©": 1544,
      "Ġits": 1545,
      "anya": 1546,
      "ward": 1547,
      "áĭµáĪŃ": 1548,
      "Ã´": 1549,
      "ited": 1550,
      "ĠarÃ¡": 1551,
      "Ġlati": 1552,
      "nin": 1553,
      "ires": 1554,
      "isi": 1555,
      "uta": 1556,
      "ĠáĮĢ": 1557,
      "Ġpremi": 1558,
      "áĪ¶": 1559,
      "Ġmag": 1560,
      "man": 1561,
      "ĠáĬĲáĮĪ": 1562,
      "Ġáįį": 1563,
      "abban": 1564,
      "ule": 1565,
      "ĠáĬ¢": 1566,
      "anan": 1567,
      "áī³áĭĪ": 1568,
      "Ġdif": 1569,
      "12": 1570,
      "yÃŃ": 1571,
      "áī£áĪį": 1572,
      "Ġáīģ": 1573,
      "ase": 1574,
      "Ġfarko": 1575,
      "Ġpáº¹": 1576,
      "ĠSa": 1577,
      "áīµáĬķ": 1578,
      "ĠáĪķ": 1579,
      "Ġbut": 1580,
      "anta": 1581,
      "ĠáĮĭáĪŃ": 1582,
      "ĠáīłáĪĽ": 1583,
      "mp": 1584,
      "emba": 1585,
      "na": 1586,
      "Ġwani": 1587,
      "uv": 1588,
      "Ġ14": 1589,
      "Ġara": 1590,
      "Ġáį¡": 1591,
      "ĠNew": 1592,
      "Ġtro": 1593,
      "Ġrel": 1594,
      "áĬŃáĪįáīł": 1595,
      "Ġbiy": 1596,
      "lex": 1597,
      "Ġrec": 1598,
      "Ġaux": 1599,
      "Ġiláº¹": 1600,
      "áīĤ": 1601,
      "Ġmata": 1602,
      "form": 1603,
      "uka": 1604,
      "Ġyana": 1605,
      "ĠáĭĵáĬŃáĪįáīł": 1606,
      "ĠLa": 1607,
      "áĪİáī½": 1608,
      "Ġter": 1609,
      "áĮ¡": 1610,
      "iste": 1611,
      "áĭ°áĪ¨": 1612,
      "lo": 1613,
      "Ġ/": 1614,
      "Ġwali": 1615,
      "velop": 1616,
      "rÃ¹n": 1617,
      "ures": 1618,
      "Ġpas": 1619,
      "Ġhave": 1620,
      "Ġaf": 1621,
      "Ġsab": 1622,
      "ĠNij": 1623,
      "alement": 1624,
      "udi": 1625,
      "Ġmaj": 1626,
      "ĠáĪļ": 1627,
      "ton": 1628,
      "¦áĪŃ": 1629,
      "Ġhas": 1630,
      "els": 1631,
      "Ġáĭ°áĮįáĪŀ": 1632,
      "13": 1633,
      "ĠerÃ©": 1634,
      "Ġbayan": 1635,
      "Ġranar": 1636,
      "atu": 1637,
      "Ġká»į": 1638,
      "ĠáĬłáĬķáĭµ": 1639,
      "ĠwÃł": 1640,
      "ÃĮ": 1641,
      "Ġile": 1642,
      "cess": 1643,
      "ays": 1644,
      "Ġny": 1645,
      "áĭ°áĪŃ": 1646,
      "Ġ=": 1647,
      "Ġpos": 1648,
      "ĠManazarta": 1649,
      "Baada": 1650,
      "era": 1651,
      "Ġall": 1652,
      "ĠáĬłáĪį": 1653,
      "áī°áĪ¨": 1654,
      "gbo": 1655,
      "Ġ12": 1656,
      "Ġdan": 1657,
      "lect": 1658,
      "llon": 1659,
      "als": 1660,
      "áĪĺáĬĲ": 1661,
      "Ġexp": 1662,
      "aux": 1663,
      "anzania": 1664,
      "ĠRe": 1665,
      "yin": 1666,
      "alia": 1667,
      "gbáº¹": 1668,
      "áĮĪáĬĿ": 1669,
      "ĠGu": 1670,
      "ive": 1671,
      "bre": 1672,
      "iga": 1673,
      "Ġka": 1674,
      "áĪŃáīµ": 1675,
      "ĠOl": 1676,
      "uwar": 1677,
      "yÃ¬n": 1678,
      "ĠTh": 1679,
      "vi": 1680,
      "gbe": 1681,
      "Ġmo": 1682,
      "irin": 1683,
      "ike": 1684,
      "cho": 1685,
      "Ġmshindi": 1686,
      "cip": 1687,
      "Ġtana": 1688,
      "ĠPar": 1689,
      "áĬķáīµ": 1690,
      "uwan": 1691,
      "Ġgro": 1692,
      "ungiyar": 1693,
      "Ã©t": 1694,
      "ukio": 1695,
      "Ġáĭ¨áĬ¢áīµáĭ®áĮµáĭ«": 1696,
      "Ġann": 1697,
      "ĠáĪĺáĬķáĮįáĪ¥áīµ": 1698,
      "Ġsec": 1699,
      "Ġpo": 1700,
      "áĬķáĪµ": 1701,
      "áĪĶ": 1702,
      "Ġtun": 1703,
      "tique": 1704,
      "Ġyan": 1705,
      "ĠAfric": 1706,
      "Ġhaife": 1707,
      "oir": 1708,
      "ĠáĪĪáĪĽ": 1709,
      "Ġmb": 1710,
      "anÃ§": 1711,
      "tÃł": 1712,
      "its": 1713,
      "Ġlokacin": 1714,
      "Ġhar": 1715,
      "ature": 1716,
      "áīłáĪ©": 1717,
      "ohn": 1718,
      "wÃ²": 1719,
      "Ġmasu": 1720,
      "cri": 1721,
      "áĬķáīĭ": 1722,
      "ach": 1723,
      "Ġsup": 1724,
      "ris": 1725,
      "Ġfin": 1726,
      "ura": 1727,
      "ck": 1728,
      "áī½áĬķ": 1729,
      "ĠÃ¨dÃ¨": 1730,
      "ode": 1731,
      "áĬª": 1732,
      "Ġuk": 1733,
      "ĠIb": 1734,
      "199": 1735,
      "ative": 1736,
      "Ġbiyu": 1737,
      "yáº¹": 1738,
      "ĠáĪĨáĬĲ": 1739,
      "Ġáĭ¨áĬĲ": 1740,
      "rÃŃkÃł": 1741,
      "iversity": 1742,
      "Ġcan": 1743,
      "Ġyank": 1744,
      "áĬĵáīµ": 1745,
      "ĠpÃ©": 1746,
      "Ġbec": 1747,
      "Ġtak": 1748,
      "Ġlo": 1749,
      "ĠkÃŃ": 1750,
      "ert": 1751,
      "enne": 1752,
      "ĠáĪįáĮħ": 1753,
      "Ġkasar": 1754,
      "ĠKi": 1755,
      "inist": 1756,
      "Ġtrans": 1757,
      "rÃ²": 1758,
      "Ġsuna": 1759,
      "iyo": 1760,
      "ages": 1761,
      "ude": 1762,
      "oto": 1763,
      "ĠbÃ¡": 1764,
      "gáº¹": 1765,
      "âĢĿ": 1766,
      "ales": 1767,
      "Ġpub": 1768,
      "ute": 1769,
      "gr": 1770,
      "Ġind": 1771,
      "ĠGre": 1772,
      "Ġita": 1773,
      "Ã®": 1774,
      "tiv": 1775,
      "oko": 1776,
      "ĠáĭµáĪ¨áĪµ": 1777,
      "ĠolÃ³": 1778,
      "ĠáĭĿ": 1779,
      "Ġmá»į": 1780,
      "Ġdeux": 1781,
      "ĠTanzania": 1782,
      "ury": 1783,
      "par": 1784,
      "ĠMatukio": 1785,
      "Ġlangu": 1786,
      "Ġcour": 1787,
      "Ġzama": 1788,
      "áĭļáĭ«": 1789,
      "umb": 1790,
      "áįī": 1791,
      "ze": 1792,
      "led": 1793,
      "Ġtheir": 1794,
      "ĠÃ©t": 1795,
      "ĠPapa": 1796,
      "NÃŃ": 1797,
      "itt": 1798,
      "Ġrep": 1799,
      "It": 1800,
      "uru": 1801,
      "mes": 1802,
      "Ġ192": 1803,
      "Ġes": 1804,
      "orld": 1805,
      "ustr": 1806,
      "Ġgud": 1807,
      "ĠdÃ©p": 1808,
      "Ġáĭ«áĪįáī°": 1809,
      "Ġmais": 1810,
      "ashin": 1811,
      "ĠmÃ¡": 1812,
      "Ġwak": 1813,
      "Ġwon": 1814,
      "ĠPro": 1815,
      "ula": 1816,
      "Ġ13": 1817,
      "He": 1818,
      "Ġwal": 1819,
      "Ġalikuwa": 1820,
      "Ġbirnin": 1821,
      "su": 1822,
      "alin": 1823,
      "yp": 1824,
      "iku": 1825,
      "Ġthis": 1826,
      "áĭ°áī¥": 1827,
      "ĠAmeric": 1828,
      "áī°áĪ¨áĮİ": 1829,
      "Mak": 1830,
      "imb": 1831,
      "Ġfara": 1832,
      "ÃĢwá»įn": 1833,
      "Ġfa": 1834,
      "Ġoá¹£Ã¹": 1835,
      "Ġye": 1836,
      "ĠyÃ¬ÃŃ": 1837,
      "ĠáĪħ": 1838,
      "ĠÃĴ": 1839,
      "ett": 1840,
      "áĮĬ": 1841,
      "ĠkÃ³": 1842,
      "ĠáĬ¤": 1843,
      "Ã¢": 1844,
      "ito": 1845,
      "tÃ¬": 1846,
      "Ġáĭ¨áĬ¥": 1847,
      "Ġáīĭ": 1848,
      "ĠáĪµáĪĿ": 1849,
      "eth": 1850,
      "ĠáĪĮ": 1851,
      "ingi": 1852,
      "ran": 1853,
      "áĪ£": 1854,
      "Ġmul": 1855,
      "old": 1856,
      "ĠJam": 1857,
      "áĪĨáĬĳ": 1858,
      "utar": 1859,
      "ussi": 1860,
      "áĪ¸": 1861,
      "oria": 1862,
      "ĠáĪĢ": 1863,
      "ĠáĬłáĮĪ": 1864,
      "áī³áĪį": 1865,
      "ĠáīłáĬ¥": 1866,
      "Ġses": 1867,
      "ĠâĢľ": 1868,
      "itu": 1869,
      "gan": 1870,
      "nÃ¬yÃłn": 1871,
      "tt": 1872,
      "²áį±": 1873,
      "ereza": 1874,
      "ugaban": 1875,
      "áĬķáĭ«": 1876,
      "irka": 1877,
      "Ġhadi": 1878,
      "ĠáĪĽáĪĪáīµ": 1879,
      "ular": 1880,
      "ould": 1881,
      "Ġentre": 1882,
      "ingereza": 1883,
      "Ġinter": 1884,
      "Ġyawan": 1885,
      "áĬĵáĪį": 1886,
      "imu": 1887,
      "ten": 1888,
      "Ġmji": 1889,
      "ogo": 1890,
      "áĪĬáĭĿ": 1891,
      "eo": 1892,
      "com": 1893,
      "Ġbáº¹": 1894,
      "ĠWa": 1895,
      "º¸": 1896,
      "ĠBr": 1897,
      "ĠUniversity": 1898,
      "áĪłáĪ": 1899,
      "ĠáĪĥ": 1900,
      "udu": 1901,
      "gl": 1902,
      "áī¸áĭįáĬķ": 1903,
      "ĠOk": 1904,
      "Ġincl": 1905,
      "ĠQ": 1906,
      "ian": 1907,
      "Ġkwenye": 1908,
      "ĠÆĻwa": 1909,
      "ĠáĬķáĮīáĪ¥": 1910,
      "ĠtÃºn": 1911,
      "oph": 1912,
      "Ġother": 1913,
      "áĬ¨áī°": 1914,
      "Ġone": 1915,
      "áī±áĬķ": 1916,
      "Ġmu": 1917,
      "ech": 1918,
      "áĪµáī°": 1919,
      "Ġcar": 1920,
      "áĭįáĭ«áĬķ": 1921,
      "ĠÃ¨nÃ¬yÃłn": 1922,
      "Ġninu": 1923,
      "áįķ": 1924,
      "Ġorile": 1925,
      "ĠCol": 1926,
      "Ġiá¹£áº¹": 1927,
      "ution": 1928,
      "áī°áĪ¨áĮİáĪĺ": 1929,
      "atar": 1930,
      "Ġáĭ¨áĪļáĭ«": 1931,
      "ĠNijeriya": 1932,
      "Ġfam": 1933,
      "áĪĢ": 1934,
      "Ġbas": 1935,
      "tain": 1936,
      "orth": 1937,
      "\",": 1938,
      "áī£áī¢": 1939,
      "hun": 1940,
      "ĠáĬłáĪĺ": 1941,
      "emi": 1942,
      "iji": 1943,
      "Ġáī³áĪªáĬŃ": 1944,
      "Ġlugha": 1945,
      "lem": 1946,
      "Ã©g": 1947,
      "Ġinah": 1948,
      "insi": 1949,
      "áĬķáĮ": 1950,
      "Ġdo": 1951,
      "ĠáīłáĬłáĪ": 1952,
      "Ġáĭ«áĪįáī°áī°áĪ¨áĮİáĪĺ": 1953,
      "ĠAp": 1954,
      "²áį±áį»áį": 1955,
      "ain": 1956,
      "ĠKristo": 1957,
      "ences": 1958,
      "Ġop": 1959,
      "Ġamb": 1960,
      "áĪĦ": 1961,
      "gbá»į": 1962,
      "ater": 1963,
      "antar": 1964,
      "ume": 1965,
      "gin": 1966,
      "ĠáĮī": 1967,
      "ĠáĪ°áĭį": 1968,
      "mar": 1969,
      "Ġsub": 1970,
      "sÃ¬": 1971,
      "Ġci": 1972,
      "ayo": 1973,
      "dÃŃ": 1974,
      "Ġco": 1975,
      "ĠWar": 1976,
      "áĭĽáīµ": 1977,
      "ĠáīĭáĬķáīĭ": 1978,
      "yn": 1979,
      "ĠkÃ²": 1980,
      "hari": 1981,
      "Makala": 1982,
      "Ġaiki": 1983,
      "ree": 1984,
      "wamn": 1985,
      "Ġinahusu": 1986,
      "amba": 1987,
      "áĪŀáī½": 1988,
      "gbÃ©": 1989,
      "Ġgáº¹": 1990,
      "cent": 1991,
      "áĮ¥áĪŃ": 1992,
      "ĠrÃ©g": 1993,
      "akar": 1994,
      "Ġbeen": 1995,
      "Ġcol": 1996,
      "fÃ©r": 1997,
      "áĪ«áīµ": 1998,
      "Ġwho": 1999,
      "Ãªme": 2000,
      "ĠDe": 2001,
      "Ġiya": 2002,
      "fe": 2003,
      "Ġáĭ³": 2004,
      "kÃ²": 2005,
      "str": 2006,
      "red": 2007,
      "Ġáį£": 2008,
      "áī£áīµ": 2009,
      "aransa": 2010,
      "kazi": 2011,
      "áī¥áĪŃ": 2012,
      "áĪł": 2013,
      "ĠáĬłáĬ«": 2014,
      "ĠJohn": 2015,
      "ĠNigeria": 2016,
      "Ġpop": 2017,
      "Ġsyst": 2018,
      "áĪįáĬŃ": 2019,
      "ĠOr": 2020,
      "anÃ§ais": 2021,
      "uring": 2022,
      "ĠMas": 2023,
      "Un": 2024,
      "ves": 2025,
      "Ġáĭ¨áĪĽ": 2026,
      "yÃ¨": 2027,
      "Ġáī¥áĭĻ": 2028,
      "ĠáĬĵáī¸áĭį": 2029,
      "báº¹": 2030,
      "Ã¨me": 2031,
      "erre": 2032,
      "wÃ¡": 2033,
      "hemu": 2034,
      "ely": 2035,
      "atin": 2036,
      "ople": 2037,
      "Ġprin": 2038,
      "ĠÃ¬gbÃł": 2039,
      "oro": 2040,
      "hed": 2041,
      "áĪĭáīµ": 2042,
      "áĬ¨áĪį": 2043,
      "jÃ¡": 2044,
      "Ġinda": 2045,
      "ĠáĭŃáĮĪ": 2046,
      "ife": 2047,
      "Ġkasa": 2048,
      "ĠAfirka": 2049,
      "Ġpers": 2050,
      "áĪĿáĪ®": 2051,
      "Ġreg": 2052,
      "Ġhist": 2053,
      "ĠÃ¡": 2054,
      "usi": 2055,
      "Ġhal": 2056,
      "ident": 2057,
      "vol": 2058,
      "Ġused": 2059,
      "Ġmany": 2060,
      "ĠáĪŀ": 2061,
      "11": 2062,
      "Ã©d": 2063,
      "Ġtáº¹": 2064,
      "ĠáĮł": 2065,
      "áĪ³áĭŃ": 2066,
      "tÃ²": 2067,
      "oman": 2068,
      "ÌĢ.": 2069,
      "ante": 2070,
      "ongo": 2071,
      "Ġsam": 2072,
      "phi": 2073,
      "dÃ¡": 2074,
      "tis": 2075,
      "ĠáĪĻ": 2076,
      "Ġmáº¹": 2077,
      "198": 2078,
      "ĠÃ²á¹£Ã¨": 2079,
      "Ġ190": 2080,
      "Ġper": 2081,
      "ĠdÃ¡": 2082,
      "kas": 2083,
      "ĠJap": 2084,
      "Ġag": 2085,
      "atic": 2086,
      "áī³áĭĬ": 2087,
      "hen": 2088,
      "áĪĿáĪħ": 2089,
      "Ã³n": 2090,
      "Ġcewa": 2091,
      "Ã©c": 2092,
      "Ġgbo": 2093,
      "Ġkam": 2094,
      "ĠáĬłáĪµáī°": 2095,
      "Ġzam": 2096,
      "Ġwata": 2097,
      "Ar": 2098,
      "pend": 2099,
      "áĮĤ": 2100,
      "ĠáĮ½": 2101,
      "ept": 2102,
      "ĠprÃ©s": 2103,
      "tÃŃ": 2104,
      "umani": 2105,
      "son": 2106,
      "Ġlar": 2107,
      "ici": 2108,
      "ĠÆĻwallon": 2109,
      "ĠáĮİ": 2110,
      "ony": 2111,
      "elles": 2112,
      "dÃ¬": 2113,
      "Ġkwan": 2114,
      "ĠÃī": 2115,
      "tilis": 2116,
      "ener": 2117,
      "Am": 2118,
      "ough": 2119,
      "ľáĪªáĬ«": 2120,
      "Ġkafa": 2121,
      "áĪĺáĪŃ": 2122,
      "ĠfranÃ§ais": 2123,
      "Ġsome": 2124,
      "Ġwana": 2125,
      "ĠPh": 2126,
      "ĠáĪ³áĭŃ": 2127,
      "alme": 2128,
      "chool": 2129,
      "abar": 2130,
      "ĠVi": 2131,
      "enc": 2132,
      "Ġjama": 2133,
      "ĠáĬ¥áĬķáĭ³": 2134,
      "iye": 2135,
      "Ġaussi": 2136,
      "áĬķáĭ³": 2137,
      "aga": 2138,
      "ĠáĭĭáĬĵ": 2139,
      "ition": 2140,
      "pin": 2141,
      "ĠáĬ®": 2142,
      "uke": 2143,
      "alla": 2144,
      "áĮĨ": 2145,
      "ĠáīłáĪļ": 2146,
      "áĭ²áĪµ": 2147,
      "Ġpla": 2148,
      "anga": 2149,
      "ĠInd": 2150,
      "ĠGe": 2151,
      "à¤": 2152,
      "Ġmwan": 2153,
      "lement": 2154,
      "Ġkim": 2155,
      "ĠAk": 2156,
      "erumani": 2157,
      "amoja": 2158,
      "wai": 2159,
      "Ġcap": 2160,
      "ĠáĪĺáĬķ": 2161,
      "ĠÃ©c": 2162,
      "outh": 2163,
      "áĮįáĪŃ": 2164,
      "Ġduniya": 2165,
      "ĠáĪĺáĪµ": 2166,
      "co": 2167,
      "wn": 2168,
      "Ġcal": 2169,
      "Ġfait": 2170,
      "isiwa": 2171,
      "urn": 2172,
      "Ġdist": 2173,
      "Ġwad": 2174,
      "áī·": 2175,
      "ayar": 2176,
      "Ġdake": 2177,
      "rop": 2178,
      "Ġsign": 2179,
      "katifu": 2180,
      "ĠÃĮpÃŃnláº¹": 2181,
      "áĮłáĪŃ": 2182,
      "Ãī": 2183,
      "lÃ¨": 2184,
      "Ġkn": 2185,
      "Ġweng": 2186,
      "Ġáī¤áī°": 2187,
      "Ġmah": 2188,
      "Ġáį¢": 2189,
      "Ġsoci": 2190,
      "tive": 2191,
      "áĭĿáī¥": 2192,
      "Ġsous": 2193,
      "ĠAt": 2194,
      "Ġkil": 2195,
      "ena": 2196,
      "jÃł": 2197,
      "Éĵ": 2198,
      "áĪĭáĭŃ": 2199,
      "áĮĪáĬĺ": 2200,
      "ĠÆ": 2201,
      "ism": 2202,
      "Ġpart": 2203,
      "arch": 2204,
      "As": 2205,
      "Ġdaya": 2206,
      "ered": 2207,
      "umi": 2208,
      "Ġgroup": 2209,
      "ĠJihar": 2210,
      "ĠKing": 2211,
      "ision": 2212,
      "ĠFrance": 2213,
      "Ġana": 2214,
      "anen": 2215,
      "áįĸ": 2216,
      "rÃ©s": 2217,
      "Ġig": 2218,
      "ros": 2219,
      "ĠGr": 2220,
      "já»įba": 2221,
      "á¹£e": 2222,
      "ĠÃ©tÃ©": 2223,
      "org": 2224,
      "ily": 2225,
      "Ġacc": 2226,
      "Ã¨res": 2227,
      "Ġyar": 2228,
      "aij": 2229,
      "ĠáĪģáĪī": 2230,
      "ild": 2231,
      "ĠIng": 2232,
      "--": 2233,
      "Ġtele": 2234,
      "Ġbabban": 2235,
      "ĠBK": 2236,
      "Ġnombre": 2237,
      "Ġwake": 2238,
      "Ġwannan": 2239,
      "owe": 2240,
      "Ġake": 2241,
      "Ġáĭ¨áĪĨ": 2242,
      "Ġnd": 2243,
      "ĠÃ©g": 2244,
      "áĭī": 2245,
      "ĠdÃ©c": 2246,
      "iaka": 2247,
      "Ġinto": 2248,
      "Ġsin": 2249,
      "Ġvers": 2250,
      "Ġwatu": 2251,
      "yÃ©": 2252,
      "atun": 2253,
      "ayi": 2254,
      "ternational": 2255,
      "50": 2256,
      "Ġlak": 2257,
      "ĠáįĬ": 2258,
      "ology": 2259,
      "ack": 2260,
      "ĠAng": 2261,
      "áĬŀ": 2262,
      "Ġcin": 2263,
      "Ġtwo": 2264,
      "Ġvari": 2265,
      "Ġmf": 2266,
      "jen": 2267,
      "ood": 2268,
      "iyan": 2269,
      "Ġcer": 2270,
      "aul": 2271,
      "Ġwork": 2272,
      "21": 2273,
      "Ġut": 2274,
      "ĠÃĪ": 2275,
      "imi": 2276,
      "Â«": 2277,
      "ĠtÃł": 2278,
      "adu": 2279,
      "ĠKarne": 2280,
      "onom": 2281,
      "ĠáĬłáĪĿ": 2282,
      "arr": 2283,
      "áĮĢáĪĺáĪªáĭ«": 2284,
      "Ġcor": 2285,
      "Ġáĭ¨áĪĿ": 2286,
      "Ġhukum": 2287,
      "ĠJul": 2288,
      "Ġser": 2289,
      "áĪŃáĪµáī²": 2290,
      "ĠMe": 2291,
      "uba": 2292,
      "ĠgÃ©n": 2293,
      "Ġtemp": 2294,
      "Ġact": 2295,
      "áĪĨáĬĲ": 2296,
      "ĠAmáº¹": 2297,
      "ps": 2298,
      "Ġcette": 2299,
      "urope": 2300,
      "yÃł": 2301,
      "ĠJanu": 2302,
      "ziki": 2303,
      "Ġyankin": 2304,
      "Ġsehemu": 2305,
      "ĠáĪĺáĭ°áī¥": 2306,
      "Ġafter": 2307,
      "ings": 2308,
      "ĠAustr": 2309,
      "Ġkab": 2310,
      "Ġik": 2311,
      "ĠBen": 2312,
      "ĠCon": 2313,
      "áĪ«áĭĬ": 2314,
      "rÃłn": 2315,
      "afin": 2316,
      "ĠáĪ°áĭİáī½": 2317,
      "Ġmost": 2318,
      "ĠwÃ¡": 2319,
      "kasÃŃ": 2320,
      "lÃ³": 2321,
      "Ġra": 2322,
      "Ġkul": 2323,
      "ĠlÃ³rÃŃ": 2324,
      "ĠMay": 2325,
      "Ġsuch": 2326,
      "ungu": 2327,
      "Ġhim": 2328,
      "Ġno": 2329,
      "ĠØ": 2330,
      "Ġmkuu": 2331,
      "Ġsc": 2332,
      "ount": 2333,
      "Ġpays": 2334,
      "ĠX": 2335,
      "oyin": 2336,
      "lan": 2337,
      "ora": 2338,
      "Ġibi": 2339,
      "Ġ2015": 2340,
      "ĠCom": 2341,
      "ĠAmerican": 2342,
      "Ġlong": 2343,
      "Ġáīłáĭĺ": 2344,
      "Ġgu": 2345,
      "ĠGh": 2346,
      "ĠNov": 2347,
      "Ġlakini": 2348,
      "ock": 2349,
      "erg": 2350,
      "Ġáī¦": 2351,
      "Ġpamoja": 2352,
      "ĠSept": 2353,
      "elu": 2354,
      "ĠáĬĲáĮĪáĪŃ": 2355,
      "áįİ": 2356,
      "ĠÆĻafa": 2357,
      "ĠUnited": 2358,
      "Ġro": 2359,
      "gbÃ¨": 2360,
      "áĪ«áĪį": 2361,
      "Ġher": 2362,
      "aient": 2363,
      "arly": 2364,
      "Ġsá»į": 2365,
      "annin": 2366,
      "ĠSe": 2367,
      "Ġkamar": 2368,
      "Ġbet": 2369,
      "uga": 2370,
      "Ġont": 2371,
      "ĠYor": 2372,
      "Ġmiaka": 2373,
      "ologie": 2374,
      "act": 2375,
      "ery": 2376,
      "Ġgab": 2377,
      "áĬķáĮįáĪĬáĭĿ": 2378,
      "ulture": 2379,
      "áĪĪáī½": 2380,
      "Ġsamu": 2381,
      "ĠáĭĵáĪĿ": 2382,
      "áī°áĭį": 2383,
      "Ġáī°áĪĺ": 2384,
      "áī¦áī½": 2385,
      "aka": 2386,
      "din": 2387,
      "Ġ2011": 2388,
      "dÃ©": 2389,
      "Ġlang": 2390,
      "Ġthey": 2391,
      "áĮ¸": 2392,
      "Ġdont": 2393,
      "Ġnje": 2394,
      "iter": 2395,
      "vers": 2396,
      "Ġmutane": 2397,
      "fun": 2398,
      "oire": 2399,
      "ikia": 2400,
      "ulation": 2401,
      "196": 2402,
      "peci": 2403,
      "ĠTur": 2404,
      "Ġfilm": 2405,
      "Ġpres": 2406,
      "197": 2407,
      "Ġ11": 2408,
      "ĠáĭĵáĪĺáīµ": 2409,
      "Ġtsak": 2410,
      "wÃ³": 2411,
      "áį¥": 2412,
      "Ġ2014": 2413,
      "fáº¹": 2414,
      "Ya": 2415,
      "Ġmore": 2416,
      "áĮłáīĢ": 2417,
      "Ġcommun": 2418,
      "do": 2419,
      "Ġul": 2420,
      "vent": 2421,
      "Ġkup": 2422,
      "áĪĽáĪª": 2423,
      "Ġwasu": 2424,
      "ĠáīĨ": 2425,
      "ĠAnd": 2426,
      "iá¹£áº¹": 2427,
      "Ġduk": 2428,
      "ĠÃ²á¹£Ã¨rÃ©": 2429,
      "Ġáĭ¨áĪļáĮĪáĬĿ": 2430,
      "ley": 2431,
      "ĠJami": 2432,
      "Ġ)": 2433,
      "Ġins": 2434,
      "Ġamba": 2435,
      "ĠmÃ¡a": 2436,
      "gÃºn": 2437,
      "Ġir": 2438,
      "ĠOn": 2439,
      "ĠIngila": 2440,
      "Ġbo": 2441,
      "go": 2442,
      "Ġperm": 2443,
      "kÃ¬": 2444,
      "ÌĢ,": 2445,
      "Ġgir": 2446,
      "áīħáĪĿ": 2447,
      "ĠWil": 2448,
      "ham": 2449,
      "Ġinf": 2450,
      "Ġsai": 2451,
      "áĪ¨áĭį": 2452,
      "ĠJe": 2453,
      "ju": 2454,
      "Ġina": 2455,
      "va": 2456,
      "ĠdÃ©part": 2457,
      "Ġsim": 2458,
      "Ġeff": 2459,
      "Ġconsid": 2460,
      "bÃł": 2461,
      "Ġabo": 2462,
      "ĠyÃŃ": 2463,
      "ĠtÃłbÃŃ": 2464,
      "fani": 2465,
      "ĠkÃ©": 2466,
      "Ġpa": 2467,
      "áĮĵ": 2468,
      "Ġbin": 2469,
      "uth": 2470,
      "ĠalÃ¡": 2471,
      "ĠRoma": 2472,
      "30": 2473,
      "Ġocc": 2474,
      "áĭŀ": 2475,
      "Ġder": 2476,
      "ĠáĬª": 2477,
      "ible": 2478,
      "Ġ2016": 2479,
      "ela": 2480,
      "jin": 2481,
      "áįĬáīµ": 2482,
      "fici": 2483,
      "áĮįáī¥": 2484,
      "liam": 2485,
      "ĠÃ¨yÃŃ": 2486,
      "Ġyin": 2487,
      "Ġkwanza": 2488,
      "abb": 2489,
      "ĠáĪĿáĬŃ": 2490,
      "áĬ¢": 2491,
      "Ġover": 2492,
      "Ġint": 2493,
      "áĭ±áĪµ": 2494,
      "áĪģáĪĿ": 2495,
      "ĠáĬ¥áĭ¨": 2496,
      "ements": 2497,
      "ies": 2498,
      "ebru": 2499,
      "pÃ©": 2500,
      "Ġnum": 2501,
      "áĬĸáī½": 2502,
      "the": 2503,
      "Ġdire": 2504,
      "áĪĭáĬķáĭµ": 2505,
      "áĭ³áĬķ": 2506,
      "ĠAmerika": 2507,
      "yl": 2508,
      "unan": 2509,
      "ishwa": 2510,
      "urg": 2511,
      "Ġ189": 2512,
      "Ġláº¹": 2513,
      "ĠBar": 2514,
      "áįĴ": 2515,
      "ĠÃłká»į": 2516,
      "Ġáº¹gbáº¹": 2517,
      "uss": 2518,
      "ander": 2519,
      "ween": 2520,
      "ĠComm": 2521,
      "gbÃ¡": 2522,
      "zini": 2523,
      "eni": 2524,
      "ĠáĪĭ": 2525,
      "lÃł": 2526,
      "ÙĦ": 2527,
      "Ġsiku": 2528,
      "andishi": 2529,
      "Ġáī¤áīµ": 2530,
      "áĮĮ": 2531,
      "ĠonÃŃ": 2532,
      "ĠHe": 2533,
      "ivyo": 2534,
      "áĬ¥áĬķ": 2535,
      "II": 2536,
      "Ġtime": 2537,
      "Ġ2019": 2538,
      "áĮ¨áĪ¨": 2539,
      "ĠHar": 2540,
      "Ġáīĥ": 2541,
      "Ġ[": 2542,
      "Ġdin": 2543,
      "Ġterm": 2544,
      "Ġohun": 2545,
      "áī³áī¸áĭį": 2546,
      "Ġass": 2547,
      "Ġel": 2548,
      "Ġpeut": 2549,
      "ww": 2550,
      "Ġnon": 2551,
      "core": 2552,
      "Ġmet": 2553,
      "áĬłáī¥": 2554,
      "22": 2555,
      "Af": 2556,
      "mba": 2557,
      "Ġ2012": 2558,
      "ple": 2559,
      "eli": 2560,
      "ĠAward": 2561,
      "áĭŃáĪħ": 2562,
      "Ġgrand": 2563,
      "ft": 2564,
      "rough": 2565,
      "áĪ¨áĬķ": 2566,
      "Ġshir": 2567,
      "Ġknown": 2568,
      "ema": 2569,
      "ĠáĪĺáĬ«": 2570,
      "ubu": 2571,
      "ĠáĪĲ": 2572,
      "Ġgarin": 2573,
      "Ġeneo": 2574,
      "ange": 2575,
      "Ġaikin": 2576,
      "ĠmÃªme": 2577,
      "Ġbar": 2578,
      "Ġshugaban": 2579,
      "áĮ¦": 2580,
      "ĠApr": 2581,
      "iria": 2582,
      "áĪ¨áĮĥ": 2583,
      "imo": 2584,
      "eno": 2585,
      "chini": 2586,
      "Ġkai": 2587,
      "Ġloc": 2588,
      "ente": 2589,
      "Ġleur": 2590,
      "ĠAfrica": 2591,
      "ĠáĬłáī¥": 2592,
      "soci": 2593,
      "Ġmakar": 2594,
      "ĠolÃ¹": 2595,
      "ĠBe": 2596,
      "ungo": 2597,
      "Ġinclud": 2598,
      "Ġhasa": 2599,
      "Ġhany": 2600,
      "Ġmi": 2601,
      "ĠáĬ¨áĬł": 2602,
      "áĪĪáĭ«": 2603,
      "inst": 2604,
      "áī°áĪŃ": 2605,
      "Ġáī°áīĢ": 2606,
      "ĠÉĹan": 2607,
      "On": 2608,
      "ets": 2609,
      "ographi": 2610,
      "ĠáĬĲáīłáĪ¨": 2611,
      "uhamm": 2612,
      "Ġprov": 2613,
      "Ġserv": 2614,
      "kazini": 2615,
      "gba": 2616,
      "Ġutilis": 2617,
      "áĮĪáĭµ": 2618,
      "áīĨáĮ£": 2619,
      "Ġwakazi": 2620,
      "Ġpartic": 2621,
      "ict": 2622,
      "Ġgwamn": 2623,
      "ĠáĪĨáĬĸ": 2624,
      "ĠChar": 2625,
      "ĠCar": 2626,
      "ours": 2627,
      "ibi": 2628,
      "áĪ°áĭį": 2629,
      "Ġ2010": 2630,
      "overn": 2631,
      "ĠlÃ¨": 2632,
      "ĠjÃ¹": 2633,
      "ĠáĬłáĮĪáĪŃ": 2634,
      "ĠáīłáĪµ": 2635,
      "Ġ2018": 2636,
      "ugu": 2637,
      "Ġgbogbo": 2638,
      "Ġorig": 2639,
      "Ġposs": 2640,
      "Ġwengi": 2641,
      "Ġáº¸": 2642,
      "Ġfl": 2643,
      "áĪ¨áĭ³": 2644,
      "áĪīáīµ": 2645,
      "hariki": 2646,
      "ĠáĬłáī£": 2647,
      "ĠáīłáĬ¢áīµáĭ®áĮµáĭ«": 2648,
      "han": 2649,
      "mÃ¹": 2650,
      "yá»į": 2651,
      "ĠIl": 2652,
      "Ġray": 2653,
      "app": 2654,
      "áĬĲáĭļáĪħ": 2655,
      "áĭµáĬķ": 2656,
      "Ġ2006": 2657,
      "ĠAlex": 2658,
      "ĠFebru": 2659,
      "Ġproduc": 2660,
      "ĠAug": 2661,
      "áĪĶáĪŃ": 2662,
      "Ġbetween": 2663,
      "Ġ2017": 2664,
      "áĪĺáĪµ": 2665,
      "áĪĽáĭĬ": 2666,
      "Ġ2007": 2667,
      "Ġkya": 2668,
      "áĪ°áī¥": 2669,
      "ho": 2670,
      "mÃŃ": 2671,
      "ĠáĪ´": 2672,
      "Ġimp": 2673,
      "ĠÃª": 2674,
      "ÃłÃ¡": 2675,
      "ĠCl": 2676,
      "Ġáįķ": 2677,
      "Ġatt": 2678,
      "rÃ¨s": 2679,
      "áīª": 2680,
      "Ġainsi": 2681,
      "Ġche": 2682,
      "ashe": 2683,
      "ĠMal": 2684,
      "ĠáĭĺáĬķáĭµ": 2685,
      "ouver": 2686,
      "Ġsana": 2687,
      "Ġsci": 2688,
      "ĠcrÃ©": 2689,
      "áīµáĬĵ": 2690,
      "ĠMata": 2691,
      "Ġmay": 2692,
      "áįħ": 2693,
      "ĠáĮ¨": 2694,
      "Ġáĭ¨áĪ°": 2695,
      "áĮĪáĬĻ": 2696,
      "Ġemp": 2697,
      "ĠKan": 2698,
      "Ġgaba": 2699,
      "ics": 2700,
      "oda": 2701,
      "ashi": 2702,
      "Ġhak": 2703,
      "Ġprincip": 2704,
      "Ġman": 2705,
      "Ġgre": 2706,
      "ĠnÃŃgbÃł": 2707,
      "Ġcontr": 2708,
      "ĠáĮĢáĪĿáĪ®": 2709,
      "Ġjina": 2710,
      "áĪĭáī¸áĭį": 2711,
      "Ġzaidi": 2712,
      "ĠSchool": 2713,
      "yd": 2714,
      "akin": 2715,
      "ateur": 2716,
      "Ġfound": 2717,
      "áĭ¥": 2718,
      "eshi": 2719,
      "Ġkubwa": 2720,
      "ĠáĪ«": 2721,
      "Ġclass": 2722,
      "glish": 2723,
      "Ùİ": 2724,
      "Ġtar": 2725,
      "ica": 2726,
      "Ġinc": 2727,
      "tait": 2728,
      "Ġnew": 2729,
      "Ġ30": 2730,
      "Ġáī£áĪĪ": 2731,
      "áĮ½áĪĲ": 2732,
      "rie": 2733,
      "Ġnchini": 2734,
      "ĠAc": 2735,
      "zaji": 2736,
      "ĠgbÃ©": 2737,
      "áĪŃáĪ±": 2738,
      "This": 2739,
      "tar": 2740,
      "Ġáįĵ": 2741,
      "Ġshine": 2742,
      "Ġmal": 2743,
      "ĠPol": 2744,
      "ower": 2745,
      "lle": 2746,
      "rent": 2747,
      "Ġdiv": 2748,
      "ĠáĬ¢áīµáĭ®áĮµáĭ«": 2749,
      "Ġlui": 2750,
      "ona": 2751,
      "itÃ©s": 2752,
      "Ġomo": 2753,
      "ĠGhana": 2754,
      "Ġdep": 2755,
      "ather": 2756,
      "inal": 2757,
      "Ġret": 2758,
      "ĠgÃ©nÃ©r": 2759,
      "ick": 2760,
      "ĠáĮ¦áĪŃ": 2761,
      "23": 2762,
      "Ġsol": 2763,
      "ĠMag": 2764,
      "Ġhai": 2765,
      "but": 2766,
      "Ġimport": 2767,
      "ym": 2768,
      "á»Į": 2769,
      "enya": 2770,
      "ero": 2771,
      "ĠáĮ¸": 2772,
      "ieu": 2773,
      "Ġ2013": 2774,
      "Ġkm": 2775,
      "Ġthan": 2776,
      "áĭ¨áĪŃ": 2777,
      "Ġáĭ«áĪĪáĭį": 2778,
      "áī¡áī¥": 2779,
      "ĠÃªtre": 2780,
      "Ġout": 2781,
      "áĬ¤áĪį": 2782,
      "á¹£Ãł": 2783,
      "Ġwhen": 2784,
      "Ġáī¥áī»": 2785,
      "anzu": 2786,
      "Ã¯": 2787,
      "bin": 2788,
      "áĬķáĬķ": 2789,
      "tish": 2790,
      "Ġvi": 2791,
      "Ġprop": 2792,
      "Ġlil": 2793,
      "Ġkungiyar": 2794,
      "uran": 2795,
      "rod": 2796,
      "Ġbaya": 2797,
      "ashen": 2798,
      "Ġáī°áĭĪ": 2799,
      "áĮ£áĪį": 2800,
      "Ġname": 2801,
      "idan": 2802,
      "ĠWorld": 2803,
      "erb": 2804,
      "áĭµáĪĿ": 2805,
      "Ġpartie": 2806,
      "kÃłn": 2807,
      "pl": 2808,
      "Ġjir": 2809,
      "Ġá»įdun": 2810,
      "ĠTr": 2811,
      "owo": 2812,
      "Ġ188": 2813,
      "áĪłáĪ¨": 2814,
      "iyya": 2815,
      "Ġconn": 2816,
      "ukan": 2817,
      "lah": 2818,
      "Ġorin": 2819,
      "ĥáĭŃ": 2820,
      "ĠáĬ¨áįį": 2821,
      "tes": 2822,
      "ĠáĪĺáĪį": 2823,
      "Ġáĭ«áĪĪ": 2824,
      "ĠáĭĺáĪĺ": 2825,
      "cce": 2826,
      "Ġáĭ¨áĭĪ": 2827,
      "Ã¬bÃŃ": 2828,
      "Ġamfani": 2829,
      "ĠÃ©galement": 2830,
      "jerumani": 2831,
      "áĪĿáĬĵ": 2832,
      "tif": 2833,
      "ĠBo": 2834,
      "ĠáĬłáĭį": 2835,
      "lÃ¹": 2836,
      "áĪįáĮ£": 2837,
      "ouse": 2838,
      "ĠdÃ©partement": 2839,
      "him": 2840,
      "min": 2841,
      "Ġ&": 2842,
      "use": 2843,
      "Ġ25": 2844,
      "Ġhaka": 2845,
      "Ġju": 2846,
      "ĠDes": 2847,
      "Ã¹bÃ¡": 2848,
      "ĠParis": 2849,
      "Ġgasar": 2850,
      "ĠBir": 2851,
      "yana": 2852,
      "ĠNaij": 2853,
      "ĠáĬ¦": 2854,
      "ĠfÃŃ": 2855,
      "áĬĵáĭĬ": 2856,
      "ific": 2857,
      "Ġshiga": 2858,
      "ches": 2859,
      "Ġmafi": 2860,
      "Ġdig": 2861,
      "way": 2862,
      "Ġonly": 2863,
      "Ġprof": 2864,
      "Ġcentury": 2865,
      "ĠAre": 2866,
      "Ġfar": 2867,
      "Ġfim": 2868,
      "Ġkir": 2869,
      "Ġáī°áĬ¨": 2870,
      "ĠMuhamm": 2871,
      "Ġjus": 2872,
      "enda": 2873,
      "amo": 2874,
      "Ġpri": 2875,
      "ĠSouth": 2876,
      "ĠUr": 2877,
      "ĠAmur": 2878,
      "Ġalors": 2879,
      "agos": 2880,
      "ĠHist": 2881,
      "toba": 2882,
      "ĠYork": 2883,
      "Ã¬nrin": 2884,
      "aifa": 2885,
      "áį²áį±áį»áį": 2886,
      "ission": 2887,
      "ĠNaijiria": 2888,
      "Ġcre": 2889,
      "194": 2890,
      "ilaya": 2891,
      "alisar": 2892,
      "Mwaka": 2893,
      "dá»į": 2894,
      "Ġfe": 2895,
      "vir": 2896,
      "áĬħ": 2897,
      "hm": 2898,
      "lis": 2899,
      "Ġsiya": 2900,
      "ĠEurope": 2901,
      "Ġtu": 2902,
      "endele": 2903,
      "okana": 2904,
      "ograph": 2905,
      "Ġtit": 2906,
      "áĪļáĭ«": 2907,
      "ourn": 2908,
      "ofin": 2909,
      "Ch": 2910,
      "tÃłn": 2911,
      "ĠâĢĺ": 2912,
      "25": 2913,
      "omb": 2914,
      "Ġconf": 2915,
      "ĠáīģáĮ¥áĪŃ": 2916,
      "Ġtout": 2917,
      "ues": 2918,
      "Ġanci": 2919,
      "Ni": 2920,
      "Ãºká»į": 2921,
      "igi": 2922,
      "Ġtarehe": 2923,
      "Kati": 2924,
      "ollow": 2925,
      "//": 2926,
      "ural": 2927,
      "Ġjami": 2928,
      "Ġunder": 2929,
      "ĠáĪ¥áĪŃ": 2930,
      "Ġum": 2931,
      "ĠáĪī": 2932,
      "ĠShe": 2933,
      "ĠDa": 2934,
      "mÃ¬": 2935,
      "Ġ%": 2936,
      "ĠWest": 2937,
      "Ġanti": 2938,
      "Ġ24": 2939,
      "Ġdomin": 2940,
      "ties": 2941,
      "Ġalif": 2942,
      "kun": 2943,
      "ĠPe": 2944,
      "ĠPl": 2945,
      "Ġsannan": 2946,
      "ĠSp": 2947,
      "ĠTar": 2948,
      "Ġmot": 2949,
      "Ġáĭ¨áīĢ": 2950,
      "://": 2951,
      "ĠOktoba": 2952,
      "Ġáĭ¨áĪĨáĬĲ": 2953,
      "atol": 2954,
      "eld": 2955,
      "ĠNe": 2956,
      "ingine": 2957,
      "Ġáĭ®": 2958,
      "Ġmara": 2959,
      "ating": 2960,
      "ĠáĬłáīł": 2961,
      "Ġpoliti": 2962,
      "ones": 2963,
      "Ġwakati": 2964,
      "áĪ¥áī³áīµ": 2965,
      "tical": 2966,
      "Ġjuu": 2967,
      "Ġduring": 2968,
      "Ġtech": 2969,
      "áĪŃáĬŃ": 2970,
      "irc": 2971,
      "ĠáĭĪáĬķ": 2972,
      "kwa": 2973,
      "Ġaj": 2974,
      "ĠáĮ£": 2975,
      "ption": 2976,
      "Ġpass": 2977,
      "ĠoÃ¹": 2978,
      "ĠáīłáĪĿ": 2979,
      "áī¢áĭ«": 2980,
      "Ġbu": 2981,
      "amment": 2982,
      "Ġthere": 2983,
      "insa": 2984,
      "ĠrÃ©gion": 2985,
      "Ġwe": 2986,
      "ĠGerm": 2987,
      "oci": 2988,
      "rÃ¨": 2989,
      "amin": 2990,
      "áĬ¦": 2991,
      "ĠWak": 2992,
      "ĠRD": 2993,
      "isho": 2994,
      "ĠwÃŃ": 2995,
      "cher": 2996,
      "Ġ21": 2997,
      "onde": 2998,
      "Ġwould": 2999,
      "áĮ¨áĪ¨áĪ»": 3000,
      "ieurs": 3001,
      "Ġwhere": 3002,
      "áĮłáĪ«": 3003,
      "wani": 3004,
      "áĮ¤": 3005,
      "áīĥáĪį": 3006,
      "kÃ¹n": 3007,
      "ĠáĪľ": 3008,
      "ikali": 3009,
      "ĠáīłáĭļáĪħ": 3010,
      "ĠáĭµáĪŃ": 3011,
      "ĠnÃŃpa": 3012,
      "Ġyears": 3013,
      "áĪ³áīµ": 3014,
      "Ġamma": 3015,
      "kÃ¨": 3016,
      "itwa": 3017,
      "ilos": 3018,
      "ifi": 3019,
      "áĪľáĬķ": 3020,
      "dom": 3021,
      "ites": 3022,
      "189": 3023,
      "Ġ0": 3024,
      "Ġnan": 3025,
      "Ġmin": 3026,
      "ĠOs": 3027,
      "ĠYorÃ¹bÃ¡": 3028,
      "ĠÃłrÃ¹n": 3029,
      "Ġáĭ¨áī°áī£": 3030,
      "indi": 3031,
      "Ã©rÃ©": 3032,
      "okea": 3033,
      "Ġshekaru": 3034,
      "ĠEnglish": 3035,
      "ĠáĪĺáĬ«áĬ¨áĪį": 3036,
      "Ġed": 3037,
      "Ġáī¡": 3038,
      "Ġhiyo": 3039,
      "ukum": 3040,
      "ĠItalia": 3041,
      "ĠMut": 3042,
      "ides": 3043,
      "ĠáĬ¨áĪĺ": 3044,
      "ense": 3045,
      "ĠrÃŃ": 3046,
      "Ġ2020": 3047,
      "ĠáīłáĪĭáĭŃ": 3048,
      "Ġabin": 3049,
      "áĭİáī¹": 3050,
      "Ġsystem": 3051,
      "ĠáīłáĭĺáĪĺáĬĲ": 3052,
      "Ġmt": 3053,
      "undi": 3054,
      "oli": 3055,
      "ĠBri": 3056,
      "áĮįáĭļ": 3057,
      "ĠdÃ©velop": 3058,
      "Ġterrit": 3059,
      "Ġsecond": 3060,
      "Ġnam": 3061,
      "áĬķáĮī": 3062,
      "omi": 3063,
      "Ġ2009": 3064,
      "Ġabout": 3065,
      "Ġces": 3066,
      "ital": 3067,
      "ral": 3068,
      "áĬ³": 3069,
      "ause": 3070,
      "ĠKus": 3071,
      "haribi": 3072,
      "Ġras": 3073,
      "ĠáīłáĪ°": 3074,
      "ĠAugust": 3075,
      "ikwa": 3076,
      "Ġang": 3077,
      "hip": 3078,
      "ĠEm": 3079,
      "Ġbay": 3080,
      "ĠKenya": 3081,
      "imbo": 3082,
      "ĠjÃ¡": 3083,
      "ĠLes": 3084,
      "ĠUf": 3085,
      "áīħáĪŃ": 3086,
      "Ġkaratun": 3087,
      "ĠAmurka": 3088,
      "gi": 3089,
      "ĠUjerumani": 3090,
      "ĠArm": 3091,
      "ĠáĬŃáįįáĪĪ": 3092,
      "ĠKas": 3093,
      "áī¥áĪ¨": 3094,
      "áĪĽáĭŃ": 3095,
      "áĪħáĪį": 3096,
      "Ġcompos": 3097,
      "lin": 3098,
      "ĠCo": 3099,
      "ĠdÃ©s": 3100,
      "Ġlim": 3101,
      "Ġrest": 3102,
      "Ġmap": 3103,
      "ual": 3104,
      "ansu": 3105,
      "ments": 3106,
      "Ġodun": 3107,
      "Ġpremier": 3108,
      "ĠannÃ©es": 3109,
      "gar": 3110,
      "ĠáĬłáĪŃ": 3111,
      "Ġstr": 3112,
      "wi": 3113,
      "Ġyawa": 3114,
      "áĪĺáĪĪ": 3115,
      "Ġtake": 3116,
      "Ġ23": 3117,
      "ĠUingereza": 3118,
      "Ġ2008": 3119,
      "fore": 3120,
      "ĠBur": 3121,
      "Ġprodu": 3122,
      "áĪĿáĪħáĪŃáīµ": 3123,
      "Ġsau": 3124,
      "Ġprot": 3125,
      "Ġlater": 3126,
      "abe": 3127,
      "ĠEd": 3128,
      "ĠtrÃ¨s": 3129,
      "Ġsak": 3130,
      "cha": 3131,
      "áĭŃáĭĪ": 3132,
      "áįĥ": 3133,
      "ĠPr": 3134,
      "ĠPort": 3135,
      "Ġpeople": 3136,
      "Ġhanyar": 3137,
      "áīĦ": 3138,
      "Ġkal": 3139,
      "urin": 3140,
      "yy": 3141,
      "Ġfut": 3142,
      "ĠMaj": 3143,
      "ĠbÃŃi": 3144,
      "Ġconstit": 3145,
      "Ġpublic": 3146,
      "áĬķáĮįáĪĬáĭĿáĬĽ": 3147,
      "wu": 3148,
      "ret": 3149,
      "ĠMic": 3150,
      "Ġdevelop": 3151,
      "ĠCent": 3152,
      "Ġelect": 3153,
      "á¹£á»į": 3154,
      "Ġ2005": 3155,
      "Ġilikuwa": 3156,
      "Ã©m": 3157,
      "ved": 3158,
      "Ġelle": 3159,
      "áĬķáĬĵ": 3160,
      "iláº¹": 3161,
      "tim": 3162,
      "edia": 3163,
      "ĠáĬ¥áĬķáĭ²áĪģáĪĿ": 3164,
      "Ã©rie": 3165,
      "eta": 3166,
      "Ġupande": 3167,
      "Ġuku": 3168,
      "ĠáĪ½": 3169,
      "imin": 3170,
      "ĠBC": 3171,
      "anni": 3172,
      "ondon": 3173,
      "áīĨáĮ£áĮłáĪŃ": 3174,
      "Ġgame": 3175,
      "ĠÃ¬tá»į": 3176,
      "Ġwenye": 3177,
      "Ġáĭ¨áĮį": 3178,
      "Ġili": 3179,
      "ĠÂ»,": 3180,
      "erin": 3181,
      "ĠmÃº": 3182,
      "atique": 3183,
      "oloni": 3184,
      "nÃł": 3185,
      "ĠkÃº": 3186,
      "ĠpÃ¨": 3187,
      "ĠÃ¬já»įba": 3188,
      "ĠÃĵ": 3189,
      "ĠNational": 3190,
      "Ġáī¦áī³": 3191,
      "dÃŃn": 3192,
      "gbÃ²": 3193,
      "Ġilu": 3194,
      "Ġnyingi": 3195,
      "áĮįáĭļáĬłáī¥": 3196,
      "ĠLib": 3197,
      "ĠÃ¨tÃ²": 3198,
      "yr": 3199,
      "ĠHaus": 3200,
      "eries": 3201,
      "Ġbecame": 3202,
      "Kwa": 3203,
      "áĮģ": 3204,
      "ĠKis": 3205,
      "unci": 3206,
      "áĭ°áīµ": 3207,
      "endant": 3208,
      "gu": 3209,
      "Ġvol": 3210,
      "other": 3211,
      "risti": 3212,
      "lor": 3213,
      "Ġhada": 3214,
      "adan": 3215,
      "Ġif": 3216,
      "isme": 3217,
      "ĠEl": 3218,
      "sáº¹": 3219,
      "ench": 3220,
      "Ġbaada": 3221,
      "tics": 3222,
      "Åĵ": 3223,
      "Ġaga": 3224,
      "elf": 3225,
      "ĠKusini": 3226,
      "áĭįáĪĿ": 3227,
      "áĪµáī³": 3228,
      "ĠStates": 3229,
      "Ġpat": 3230,
      "Ġrub": 3231,
      "Ġ2000": 3232,
      "atta": 3233,
      "áĮĪáĬķ": 3234,
      "Ġend": 3235,
      "oke": 3236,
      "anti": 3237,
      "ĠáīłáīĢ": 3238,
      "Ġuse": 3239,
      "áĬŀáī½": 3240,
      "60": 3241,
      "Ġtri": 3242,
      "Ġakan": 3243,
      "ilia": 3244,
      "lege": 3245,
      "Ġkarne": 3246,
      "Ġoffici": 3247,
      "ĠáĬĲáīłáĪ©": 3248,
      "okin": 3249,
      "ced": 3250,
      "Ġarm": 3251,
      "áĭ¬": 3252,
      "unia": 3253,
      "uda": 3254,
      "ĠayÃ©": 3255,
      "áĮĨáī½": 3256,
      "24": 3257,
      "tains": 3258,
      "istoire": 3259,
      "áī¤áīµ": 3260,
      "onne": 3261,
      "wÃł": 3262,
      "ince": 3263,
      "Ġáī°áī¥": 3264,
      "bert": 3265,
      "Ġmaso": 3266,
      "Ġspeci": 3267,
      "ĠMor": 3268,
      "áĪŃáĪµáī²áĭ«áĬķ": 3269,
      "áĮ¥áĬķ": 3270,
      "Ġ1960": 3271,
      "ĠWilliam": 3272,
      "Ġwrit": 3273,
      "emia": 3274,
      "Ġsan": 3275,
      "Ġáīħáĭ±áĪµ": 3276,
      "ges": 3277,
      "Ġfollow": 3278,
      "iver": 3279,
      "Ġconc": 3280,
      "áĭķáĪ«": 3281,
      "195": 3282,
      "ĠhaÉĹ": 3283,
      "Ġ100": 3284,
      "koa": 3285,
      "Ġij": 3286,
      "omo": 3287,
      "Ġchini": 3288,
      "27": 3289,
      "ks": 3290,
      "ako": 3291,
      "fanin": 3292,
      "³áĪµ": 3293,
      "afi": 3294,
      "áĮįáĭļáĬłáī¥áĪĶáĪŃ": 3295,
      "Ġpuis": 3296,
      "ĠUs": 3297,
      "ĠáĭŃáĮĪáĬĽ": 3298,
      "uko": 3299,
      "rÃ¬": 3300,
      "Ø§": 3301,
      "Ġaká»į": 3302,
      "Ġáĭ¨áĪµ": 3303,
      "Ġáº¹láº¹": 3304,
      "Ġ1990": 3305,
      "28": 3306,
      "hu": 3307,
      "Ġ28": 3308,
      "ublic": 3309,
      "ĠMil": 3310,
      "áĪµáĬĵ": 3311,
      "ĠNa": 3312,
      "Ġ27": 3313,
      "áĬŃáīµ": 3314,
      "Ġdisc": 3315,
      "mÃ¬n": 3316,
      "Ġbuga": 3317,
      "ĠTa": 3318,
      "ĠáĪ¨": 3319,
      "ĠáĪĿáĬŃáĬķáĭ«": 3320,
      "obi": 3321,
      "áĭ¶áī½": 3322,
      "ĠTs": 3323,
      "Ġtari": 3324,
      "ĠKwa": 3325,
      "ĠLagos": 3326,
      "Ġyanzu": 3327,
      "Ġiliy": 3328,
      "Ġmad": 3329,
      "ĠAfrican": 3330,
      "Ġtsakanin": 3331,
      "áĪº": 3332,
      "Ġlors": 3333,
      "áī¥áĪ«": 3334,
      "istan": 3335,
      "ĠMan": 3336,
      "Ã³Ã²": 3337,
      "ĠÆĻar": 3338,
      "ĠArewa": 3339,
      "ĠPaul": 3340,
      "Ġprogr": 3341,
      "Ġlanguage": 3342,
      "ĠáĬłáĪī": 3343,
      "Ġchar": 3344,
      "aribu": 3345,
      "ĠáĪĿáĬķ": 3346,
      "ĠdiffÃ©r": 3347,
      "ĠkÃ©k": 3348,
      "agu": 3349,
      "soh": 3350,
      "ilip": 3351,
      "Ġthrough": 3352,
      "Ġ2003": 3353,
      "ject": 3354,
      "Ġsama": 3355,
      "let": 3356,
      "Ġvo": 3357,
      "Ġext": 3358,
      "ĠViungo": 3359,
      "cy": 3360,
      "alimb": 3361,
      "Ġ187": 3362,
      "igne": 3363,
      "ĠÃ¬pÃŃnláº¹": 3364,
      "ĠSaint": 3365,
      "ner": 3366,
      "sp": 3367,
      "ĠMad": 3368,
      "ĠSec": 3369,
      "alimbali": 3370,
      "Ġkuna": 3371,
      "Ġgar": 3372,
      "Ġuh": 3373,
      "29": 3374,
      "sÃłn": 3375,
      "ancin": 3376,
      "urch": 3377,
      "ojo": 3378,
      "Ġmbalimbali": 3379,
      "aract": 3380,
      "ĠáĭŃáī£": 3381,
      "eneo": 3382,
      "Ġcalled": 3383,
      "isp": 3384,
      "owever": 3385,
      "Ġhigh": 3386,
      "ĠKáº¹": 3387,
      "áĮĪáĬĵ": 3388,
      "ruct": 3389,
      "ĠÃ©tait": 3390,
      "lique": 3391,
      "ĠkÃ©kerÃ©": 3392,
      "aren": 3393,
      "unge": 3394,
      "uki": 3395,
      "Ġprob": 3396,
      "Ġmwandishi": 3397,
      "áĭŃáĬķ": 3398,
      "ĠInternational": 3399,
      ".,": 3400,
      "ĠNorth": 3401,
      "ocr": 3402,
      "Wa": 3403,
      "Ġmp": 3404,
      "ĠÃ¬wÃ©": 3405,
      "ifu": 3406,
      "Ġ2002": 3407,
      "Ġaff": 3408,
      "elon": 3409,
      "ĠKe": 3410,
      "ĠDuniya": 3411,
      "ĠÂ».": 3412,
      "ambar": 3413,
      "mon": 3414,
      "Ġcity": 3415,
      "ĠLondon": 3416,
      "ĠáĬŃáįįáĪį": 3417,
      "Ġáĭ¨áĬĲáīłáĪ¨": 3418,
      "áīĢáīµ": 3419,
      "Ġgener": 3420,
      "áĬĴáĭ«": 3421,
      "dÃº": 3422,
      "Ġcas": 3423,
      "áī±áĪĿ": 3424,
      "áĬĸáĪŃ": 3425,
      "orÃŃ": 3426,
      "Ġfond": 3427,
      "Ġpopulation": 3428,
      "De": 3429,
      "dition": 3430,
      "páº¹": 3431,
      "Ġmuh": 3432,
      "ambo": 3433,
      "Ġrais": 3434,
      "Ġplusieurs": 3435,
      "takatifu": 3436,
      "Ġzina": 3437,
      "Ġresp": 3438,
      "ttp": 3439,
      "Ġáĭ²": 3440,
      "Ġkif": 3441,
      "adin": 3442,
      "ĠCor": 3443,
      "ĠBritish": 3444,
      "Ġsami": 3445,
      "ĠáĪŃ": 3446,
      "ĠUm": 3447,
      "áĭ°áĪ¨áĮĪ": 3448,
      "Ġmemb": 3449,
      "ĠEx": 3450,
      "ived": 3451,
      "ĠpremiÃ¨re": 3452,
      "Ġwacce": 3453,
      "wood": 3454,
      "Ġsaboda": 3455,
      "ku": 3456,
      "umia": 3457,
      "veau": 3458,
      "At": 3459,
      "isation": 3460,
      "erian": 3461,
      "BC": 3462,
      "Ç¹": 3463,
      "Ġsud": 3464,
      "áĪĪáī°": 3465,
      "ĠPart": 3466,
      "ĠáĬłáĬ«áī£áī¢": 3467,
      "ĠKam": 3468,
      "ĠKano": 3469,
      "ĠáĬ¥áĬķáĮį": 3470,
      "áĮ½áĪĲáįį": 3471,
      "Ġali": 3472,
      "áĭ¨áīµ": 3473,
      "ety": 3474,
      "Ġvie": 3475,
      "rodha": 3476,
      "bá»į": 3477,
      "arÃŃ": 3478,
      "umu": 3479,
      "uve": 3480,
      "ĠDec": 3481,
      "Ġáįĸ": 3482,
      "Ġguda": 3483,
      "Ġmoja": 3484,
      "Ġrap": 3485,
      "Ġji": 3486,
      "Ġkwamba": 3487,
      "Sa": 3488,
      "adition": 3489,
      "ĠState": 3490,
      "Ã©tÃ©": 3491,
      "ĠáĬłáīĨáĮ£áĮłáĪŃ": 3492,
      "Ġlangue": 3493,
      "Katika": 3494,
      "Dans": 3495,
      "Or": 3496,
      "Ġnord": 3497,
      "laya": 3498,
      "ger": 3499,
      "oba": 3500,
      "ĠsÃ©": 3501,
      "Ġsamar": 3502,
      "ĠÃģ": 3503,
      "Ġfáº¹": 3504,
      "Ġge": 3505,
      "ĠOb": 3506,
      "Ġnuna": 3507,
      "osti": 3508,
      "26": 3509,
      "ix": 3510,
      "áĭ®áĬķ": 3511,
      "ĠIII": 3512,
      "uf": 3513,
      "stáº¹": 3514,
      "193": 3515,
      "ald": 3516,
      "Ġnotamment": 3517,
      "ils": 3518,
      "Ã¬dÃ¬": 3519,
      "Ġ1999": 3520,
      "nes": 3521,
      "ĠáīłáĮį": 3522,
      "áĪ¨áĮį": 3523,
      "ĠáĬłáĬķáĭ±": 3524,
      "Ġzin": 3525,
      "ĠkÃ³pa": 3526,
      "Ab": 3527,
      "Ġfon": 3528,
      "áĪįáīħ": 3529,
      "ĠTi": 3530,
      "Ġ26": 3531,
      "ennes": 3532,
      "Ġmwa": 3533,
      "áĬķáĮĭ": 3534,
      "áĪŃáĭĿ": 3535,
      "ĠáĮįáĭĽáīµ": 3536,
      "orge": 3537,
      "Ġos": 3538,
      "ĠáĬ¥áĭ«": 3539,
      "volution": 3540,
      "uo": 3541,
      "Ġsitu": 3542,
      "Ġkafin": 3543,
      "áįĪáĪŃ": 3544,
      "Ġ1980": 3545,
      "ined": 3546,
      "ison": 3547,
      "áĪĿáĬķ": 3548,
      "teur": 3549,
      "Ġkad": 3550,
      "Ġkawa": 3551,
      "Ġsababu": 3552,
      "illes": 3553,
      "áĭµáĪŀ": 3554,
      "ĠRob": 3555,
      "tÃ³": 3556,
      "ilu": 3557,
      "Ġáīłáī¥": 3558,
      "Ad": 3559,
      "Ġbro": 3560,
      "Ġáīłáĭ°": 3561,
      "áĮİáĪŃ": 3562,
      "emple": 3563,
      "ĠáĬ¨áī°áĪŀáī½": 3564,
      "40": 3565,
      "áįĢ": 3566,
      "ĠPet": 3567,
      "áĮĪáī£": 3568,
      "ĠáĬłáĪĭ": 3569,
      "ĠAnn": 3570,
      "jec": 3571,
      "Ġpad": 3572,
      "áĭŃáĬĵ": 3573,
      "áīĢáĭį": 3574,
      "ĠáĬ¥áĬķáĭ°áĪļ": 3575,
      "ographie": 3576,
      "gas": 3577,
      "Ġthree": 3578,
      "Ġ2004": 3579,
      "ctions": 3580,
      "Ġkik": 3581,
      "orin": 3582,
      "Ġhab": 3583,
      "áĮĪáĪĪ": 3584,
      "Ġatom": 3585,
      "80": 3586,
      "rÃ³": 3587,
      "ĠáĬĥáĭŃ": 3588,
      "Ġlib": 3589,
      "ĠáĪ¶": 3590,
      "ĠBah": 3591,
      "ĠÃīt": 3592,
      "kÃº": 3593,
      "ler": 3594,
      "adar": 3595,
      "ĠEb": 3596,
      "Ġsans": 3597,
      "Ġ29": 3598,
      "ĠlÃ¡ra": 3599,
      "ĠÃ¡stáº¹": 3600,
      "Ġtsa": 3601,
      "Ġmen": 3602,
      "tiques": 3603,
      "ato": 3604,
      "ĠáīłáįĬáīµ": 3605,
      "áĬĺ": 3606,
      "Ġport": 3607,
      "ĠDan": 3608,
      "antes": 3609,
      "ĠáĭŃáī½": 3610,
      "iyyar": 3611,
      "Ġsuc": 3612,
      "Ġkusini": 3613,
      "yth": 3614,
      "uliwa": 3615,
      "Ġmain": 3616,
      "ĠUlaya": 3617,
      "bÃ¹n": 3618,
      "Ġnature": 3619,
      "ĠpÃł": 3620,
      "umba": 3621,
      "agne": 3622,
      "ĠGreek": 3623,
      "ĠnÃ©": 3624,
      "áĪĽáĬĸ": 3625,
      "mpire": 3626,
      "aro": 3627,
      "áīµáĪŃ": 3628,
      "áĪĭáĪī": 3629,
      "oso": 3630,
      "Ġearly": 3631,
      "ype": 3632,
      "Ġnou": 3633,
      "Ġmade": 3634,
      "Ġbel": 3635,
      "ctob": 3636,
      "Ġmakarantar": 3637,
      "Ġcr": 3638,
      "ĠCity": 3639,
      "áīħáīµ": 3640,
      "ĠÆĻasa": 3641,
      "áĮ£áĪĿ": 3642,
      "kÃ¡": 3643,
      "Ã¡ra": 3644,
      "Ġforme": 3645,
      "ĠáĪĽáĪŃ": 3646,
      "anzia": 3647,
      "ĠáĪģáĪĪáīµ": 3648,
      "áĪĪáĭ«áĭ©": 3649,
      "overnment": 3650,
      "Ġmill": 3651,
      "Ġphilos": 3652,
      "wah": 3653,
      "Ġ22": 3654,
      "ĠáĭŃáī³": 3655,
      "ĠCollege": 3656,
      "Ġplace": 3657,
      "áĪı": 3658,
      "áĪĳ": 3659,
      "ĠRep": 3660,
      "Ġthese": 3661,
      "Ġbeing": 3662,
      "ĠaprÃ¨s": 3663,
      "Wá»į": 3664,
      "Ġtas": 3665,
      "ĠKik": 3666,
      "áī¥áĪµ": 3667,
      "ĠMusul": 3668,
      "nÃŃ": 3669,
      "ĠáĪ¸": 3670,
      "umo": 3671,
      "Ġdepuis": 3672,
      "Ùħ": 3673,
      "áĬ¬": 3674,
      "áĬŃáĪµ": 3675,
      "aniya": 3676,
      "lam": 3677,
      "Ġtsoh": 3678,
      "ier": 3679,
      "wala": 3680,
      "hel": 3681,
      "Ġ()": 3682,
      "Ġhivyo": 3683,
      "aly": 3684,
      "Ġthem": 3685,
      "ĠIpin": 3686,
      "ĠáĪĿáĬķáĮ": 3687,
      "Ġsamun": 3688,
      "lished": 3689,
      "atoliki": 3690,
      "ful": 3691,
      "áĭĸ": 3692,
      "Ġáī´": 3693,
      "áĪĪáĬķ": 3694,
      "ellement": 3695,
      "Ġfilamu": 3696,
      "Bayan": 3697,
      "anza": 3698,
      "Ġáĭ©": 3699,
      "ams": 3700,
      "Ġlead": 3701,
      "apo": 3702,
      "Ġwar": 3703,
      "ĠSal": 3704,
      "ayya": 3705,
      "ĠÃĪkÃ³": 3706,
      "ĠáĬłáīłáī£": 3707,
      "Ġdro": 3708,
      "oss": 3709,
      "AS": 3710,
      "ĠBa": 3711,
      "ĠWas": 3712,
      "ste": 3713,
      "rom": 3714,
      "ribu": 3715,
      "Ġnumber": 3716,
      "áĪĪáĭŃ": 3717,
      "ĠCan": 3718,
      "áĪ«áīħ": 3719,
      "ilo": 3720,
      "pace": 3721,
      "ĠáĪĮáĪĭ": 3722,
      "minist": 3723,
      "áī£áĭŃ": 3724,
      "ango": 3725,
      "ĠSc": 3726,
      "áĪ°áĪ«": 3727,
      "ĠChina": 3728,
      "emble": 3729,
      "zed": 3730,
      "Ġyayin": 3731,
      "ĠMk": 3732,
      "Ġwell": 3733,
      "ĠáĭĺáĪĺáĬĲ": 3734,
      "Ġ1970": 3735,
      "Ġyad": 3736,
      "hiop": 3737,
      "okuwa": 3738,
      "Ġthen": 3739,
      "Ġdang": 3740,
      "Ġlab": 3741,
      "ists": 3742,
      "ĠAbd": 3743,
      "Ġdiffer": 3744,
      "Ġmajor": 3745,
      "³áį": 3746,
      "áĪįáĮį": 3747,
      "ĠMon": 3748,
      "Ġmaka": 3749,
      "áĪ®áįĵ": 3750,
      "Ã¡náº¹": 3751,
      "ĠáĭĵáĪĺáī³áīµ": 3752,
      "Ġtabi": 3753,
      "Ġlit": 3754,
      "Ġculture": 3755,
      "ĠAbu": 3756,
      "áĪĿáĪŃ": 3757,
      "áĪĺáīµ": 3758,
      "Ġvis": 3759,
      "Ġwasa": 3760,
      "Ġdirect": 3761,
      "ĠáĮ¦áĪŃáĬĲáīµ": 3762,
      "jet": 3763,
      "val": 3764,
      "Ġlitt": 3765,
      "ĠSan": 3766,
      "Ġjam": 3767,
      "áĪĺáĪ¨": 3768,
      "ĠáĪĥáĭŃ": 3769,
      "Åį": 3770,
      "áĪŃáĪĺáĬķ": 3771,
      "uti": 3772,
      "ances": 3773,
      "ĠMac": 3774,
      "adem": 3775,
      "ĠDar": 3776,
      "ĠRo": 3777,
      "ogun": 3778,
      "ĠáĪµáĪ«": 3779,
      "oyal": 3780,
      "áĪªáĬ«áĭĬ": 3781,
      "Ġincluding": 3782,
      "Ma": 3783,
      "esi": 3784,
      "Par": 3785,
      "Äģ": 3786,
      "Ġáĭ¨áĭį": 3787,
      "Ġáĭ¨áĭĵ": 3788,
      "ĠáĬ¨áĪļ": 3789,
      "ĠáĪµáĪŃ": 3790,
      "Ġ186": 3791,
      "Ġáĭ¨áĪĺáĮĢáĪĺáĪªáĭ«": 3792,
      "Ġjusqu": 3793,
      "Ġyao": 3794,
      "ulo": 3795,
      "Ġipa": 3796,
      "ĠáĪ²áĭ«": 3797,
      "Ã©lÃ©": 3798,
      "Ġwajen": 3799,
      "ĠAsia": 3800,
      "Ġpoint": 3801,
      "ĠjÃ¹lá»į": 3802,
      "arabu": 3803,
      "ĠÃ¬dÃŃ": 3804,
      "ĠáĬłáĭŃáĬĲáīµ": 3805,
      "endelea": 3806,
      "Ġkoma": 3807,
      "ĠáĬłáĪ¨": 3808,
      "ĠgbÃł": 3809,
      "áĪĲáĬķáĪµ": 3810,
      "áī·áĪį": 3811,
      "Ġkud": 3812,
      "ĠSud": 3813,
      "ĠrÃ¨": 3814,
      "cept": 3815,
      "Ġconst": 3816,
      "ateurs": 3817,
      "ĠFrench": 3818,
      "ĠQu": 3819,
      "Ġ*": 3820,
      "Ġnational": 3821,
      "uman": 3822,
      "áĮłáīĥ": 3823,
      "áĮłáĪ¨": 3824,
      "Ġkilom": 3825,
      "Ã¼": 3826,
      "áĪįáĪĿ": 3827,
      "áĪįáĭµ": 3828,
      "lack": 3829,
      "ĠJean": 3830,
      "ĠDav": 3831,
      "Ġsay": 3832,
      "uses": 3833,
      "...": 3834,
      "Ġmulkin": 3835,
      "ĠáĭĽ": 3836,
      "áīłáī¥": 3837,
      "ĠIpinle": 3838,
      "fini": 3839,
      "áĪŃáĭµ": 3840,
      "iro": 3841,
      "ument": 3842,
      "áĪĭáĪĿ": 3843,
      "Ġmab": 3844,
      "ado": 3845,
      "ĠFil": 3846,
      "áī£áī¸áĭį": 3847,
      "ananan": 3848,
      "Ġtara": 3849,
      "Ġhars": 3850,
      "eder": 3851,
      "ĠSte": 3852,
      "áĪ¬áīµ": 3853,
      "Ġfac": 3854,
      "ĠMo": 3855,
      "ĠáĬ¨áĭļáĭ«": 3856,
      "Ġbayyana": 3857,
      "ĠUfaransa": 3858,
      "omen": 3859,
      "áĭ°áĪį": 3860,
      "áĬĲáĮĪáĪŃ": 3861,
      "áĮįáĪ«": 3862,
      "Ġáį²áį±áį»áį": 3863,
      "ĠÃ¬gbÃłjÃ¡": 3864,
      "lÃŃ": 3865,
      "ilar": 3866,
      "Ġyam": 3867,
      "ĠFor": 3868,
      "ĠÃ¬má»į": 3869,
      "ĠáĬ¨áįįáī°áĬĽ": 3870,
      "ĠParty": 3871,
      "iques": 3872,
      "Ġworld": 3873,
      "ĠPer": 3874,
      "antu": 3875,
      "áįįáĪ«": 3876,
      "ĠplÃ¡náº¹": 3877,
      "struc": 3878,
      "ĠBro": 3879,
      "ĠáĬ¥áĪŃ": 3880,
      "áī£áĪŃ": 3881,
      "berg": 3882,
      "rist": 3883,
      "ĠrÃ©s": 3884,
      "ĠáĬłáĭ²áĪµ": 3885,
      "ĠáĭĪáĪŃ": 3886,
      "acc": 3887,
      "Ġplay": 3888,
      "ords": 3889,
      "rÃ¬n": 3890,
      "ĠáĬ³áĪµ": 3891,
      "tag": 3892,
      "ansi": 3893,
      "Ġkuk": 3894,
      "Ġyenye": 3895,
      "ĠEt": 3896,
      "ashara": 3897,
      "ĠáĬĲáĮĪáĪ¥áī³áīµ": 3898,
      "Ġmanyan": 3899,
      "Ġsens": 3900,
      "ĠáĪłáĪ": 3901,
      "ĠGab": 3902,
      "Ġbien": 3903,
      "áĮĢáĪĺáĪŃáĭ«": 3904,
      "ĠáĪĮáĪİáī½": 3905,
      "iriki": 3906,
      "ĠáĬ¥áĮħ": 3907,
      "ĠJanuary": 3908,
      "áĬĲáĭį": 3909,
      "wahili": 3910,
      "kar": 3911,
      "Ġnaa": 3912,
      "Ġsym": 3913,
      "Ġmilit": 3914,
      "ĠreprÃ©s": 3915,
      "ĠJanuari": 3916,
      "cle": 3917,
      "Ġdec": 3918,
      "Ġvita": 3919,
      "ots": 3920,
      "ĠáĪĽáĪµ": 3921,
      "ĠArab": 3922,
      "Ġambayo": 3923,
      "Ġwadanda": 3924,
      "ras": 3925,
      "ĠAir": 3926,
      "ĠáĪĺáĮł": 3927,
      "Ġalip": 3928,
      "ĠRoman": 3929,
      "ÃĴ": 3930,
      "ĠáĬ©": 3931,
      "rew": 3932,
      "Ġgina": 3933,
      "ĠFar": 3934,
      "áĭİáī½áĬķ": 3935,
      "fÃł": 3936,
      "áĭĮ": 3937,
      "Ġtex": 3938,
      "Ġref": 3939,
      "Ġtradition": 3940,
      "Ġyadda": 3941,
      "isl": 3942,
      "ĠKir": 3943,
      "oyi": 3944,
      "Ġtrois": 3945,
      "stit": 3946,
      "ĠdÃŃ": 3947,
      "Ġfito": 3948,
      "ĠáĬłáįį": 3949,
      "ĠÉĹaya": 3950,
      "Ġdescri": 3951,
      "ĠUg": 3952,
      "ĠAgosti": 3953,
      "ĠáĭŃáī£áĪĭáĪį": 3954,
      "dÃł": 3955,
      "®áī½": 3956,
      "atif": 3957,
      "ually": 3958,
      "áĭ°áĭį": 3959,
      "Ġdesign": 3960,
      "ĠáĭĪáīħáīµ": 3961,
      "áĭĵáīµ": 3962,
      "attle": 3963,
      "ino": 3964,
      "ĠáĪĺáĪ°": 3965,
      "ĠáĪĿáĭµáĪŃ": 3966,
      "ĠmÃ©jÃ¬": 3967,
      "orte": 3968,
      "ombe": 3969,
      "áīłáĪĭ": 3970,
      "ĠAllah": 3971,
      "ĠáĪįáĭ©": 3972,
      "Ġserikali": 3973,
      "gÃ¹n": 3974,
      "jini": 3975,
      "ĠIS": 3976,
      "áįĪáĪ¨áĬķ": 3977,
      "Ġdonn": 3978,
      "she": 3979,
      "Ġstate": 3980,
      "ren": 3981,
      "ĠKad": 3982,
      "osa": 3983,
      "Ġarch": 3984,
      "gen": 3985,
      "ÙĬ": 3986,
      "Ġfit": 3987,
      "Ġdeath": 3988,
      "ĠBer": 3989,
      "Ġkaskazini": 3990,
      "ukar": 3991,
      "ĠpÃ©ri": 3992,
      "iment": 3993,
      "áī³áĭŃ": 3994,
      "áįįáīµ": 3995,
      "áī¶áĪµ": 3996,
      "Ġdev": 3997,
      "iction": 3998,
      "azama": 3999,
      "ĠKim": 4000,
      "ott": 4001,
      "Ġrefer": 4002,
      "áĬ¥áĪµ": 4003,
      "Ġappe": 4004,
      "zwa": 4005,
      "ĠHen": 4006,
      "áī£áĪĪ": 4007,
      "ĠáĭķáĪĪáīµ": 4008,
      "Ġsupport": 4009,
      "áº¸": 4010,
      "Ġáĭľ": 4011,
      "urop": 4012,
      "Ġval": 4013,
      "ĠorÃºká»į": 4014,
      "ĠkejÃ¬": 4015,
      "xim": 4016,
      "inc": 4017,
      "ĠáĭĻ": 4018,
      "was": 4019,
      "áĬ¨áĭļáĪħ": 4020,
      "upe": 4021,
      "áįĭáīµ": 4022,
      "áĪµáĪĪ": 4023,
      "Ìģ,": 4024,
      "Ġjag": 4025,
      "áī²áĬ«": 4026,
      "áĮ¨áĪĽáĪª": 4027,
      "Ġakwai": 4028,
      "ĠJulai": 4029,
      "rÃł": 4030,
      "Ġsouv": 4031,
      "rac": 4032,
      "Ġ1991": 4033,
      "ĠJamh": 4034,
      "Wali": 4035,
      "esh": 4036,
      "Ġsour": 4037,
      "Ġdai": 4038,
      "ĠBab": 4039,
      "agn": 4040,
      "Ġlog": 4041,
      "omme": 4042,
      "Ġany": 4043,
      "áįĪáĭį": 4044,
      "ĠÃĮtá»į": 4045,
      "awala": 4046,
      "Ġcommon": 4047,
      "áĭİáĪµ": 4048,
      "ĠSeptember": 4049,
      "Elle": 4050,
      "ky": 4051,
      "Ġmaeneo": 4052,
      "Ġ2001": 4053,
      "ĠChristi": 4054,
      "izikia": 4055,
      "Ġsuccess": 4056,
      "ĠáīłáĪŃ": 4057,
      "ĠCharles": 4058,
      "Ġdama": 4059,
      "Ġkira": 4060,
      "Ġmis": 4061,
      "orun": 4062,
      "ids": 4063,
      "áĪĭáīħ": 4064,
      "Ġmonde": 4065,
      "Ġlangues": 4066,
      "áĮ¢": 4067,
      "ĠáĬłáĭµáĪŃ": 4068,
      "Ġorgan": 4069,
      "Ġmwana": 4070,
      "ĠgbajÃº": 4071,
      "ility": 4072,
      "lection": 4073,
      "Ġlake": 4074,
      "ĠáĪĽáĭķ": 4075,
      "Ġsyn": 4076,
      "Ġgudanar": 4077,
      "70": 4078,
      "áĪ¹": 4079,
      "asu": 4080,
      "ĠSch": 4081,
      "rÃŃn": 4082,
      "Ġpersonn": 4083,
      "ĠJapan": 4084,
      "ispania": 4085,
      "Ġlin": 4086,
      "ĠlÃ©": 4087,
      "Ġkum": 4088,
      "Ġgidan": 4089,
      "idd": 4090,
      "hie": 4091,
      "áĪĽáīµ": 4092,
      "Ġáĭ«áĪµ": 4093,
      "ĠMuhammad": 4094,
      "Ġkit": 4095,
      "Ġgra": 4096,
      "ĠDis": 4097,
      "fan": 4098,
      "ĠEng": 4099,
      "ross": 4100,
      "Ġans": 4101,
      "Ġlife": 4102,
      "Sh": 4103,
      "áĬ¨áĪĪ": 4104,
      "vient": 4105,
      "ĠáīĥáĪį": 4106,
      "Ce": 4107,
      "Cette": 4108,
      "ģáĬķ": 4109,
      "Ġboth": 4110,
      "ĠMed": 4111,
      "Ġhali": 4112,
      "Ġzili": 4113,
      "ried": 4114,
      "áĭ²áĭ«": 4115,
      "fois": 4116,
      "ington": 4117,
      "áĪĭáĭĬ": 4118,
      "Ġalb": 4119,
      "Ġwhile": 4120,
      "Ġáī¥áĪİ": 4121,
      "Ġsiyasa": 4122,
      "gÃ©": 4123,
      "Ġsame": 4124,
      "Ġcaract": 4125,
      "Ġmoins": 4126,
      "ĠáĬłáĪµáī°áĭ³": 4127,
      "¹¢": 4128,
      "190": 4129,
      "áīłáĪį": 4130,
      "ĠagbÃ¨": 4131,
      "Daga": 4132,
      "ford": 4133,
      "ty": 4134,
      "áĬ¢áīµáĭ®áĮµáĭ«": 4135,
      "ices": 4136,
      "áĪĭáĬŃ": 4137,
      "ĠFizikia": 4138,
      "ĠJuni": 4139,
      "ĠnÃŃbi": 4140,
      "áĪªáĭİáī½": 4141,
      "áĪ½áĬķ": 4142,
      "ĠjÃ¡de": 4143,
      "áī«": 4144,
      "ĠOá¹£Ã¹": 4145,
      "raz": 4146,
      "odi": 4147,
      "Ġkuh": 4148,
      "Ġinflu": 4149,
      "Ġsanya": 4150,
      "Ġbr": 4151,
      "Ġfur": 4152,
      "ĠBank": 4153,
      "ago": 4154,
      "autres": 4155,
      "lÃ³gÃºn": 4156,
      "ration": 4157,
      "áī¨": 4158,
      "esa": 4159,
      "erc": 4160,
      "ĠáīµáĪĿáĪħáĪŃáīµ": 4161,
      "áĪĬáĭ«": 4162,
      "Ġmutum": 4163,
      "lá»įpá»į": 4164,
      "Ġautres": 4165,
      "ĠwÃŃpÃ©": 4166,
      "Yan": 4167,
      "alth": 4168,
      "áīłáĭļáĪħ": 4169,
      "Ġappel": 4170,
      "ĠáĬ¨áĬĲ": 4171,
      "ĠáĬłáĪ«": 4172,
      "lands": 4173,
      "uro": 4174,
      "ĠPre": 4175,
      "áĪ«áĬķ": 4176,
      "arki": 4177,
      "ojÃº": 4178,
      "káº¹": 4179,
      "áī³áĭį": 4180,
      "áīĢáĪĺ": 4181,
      "Ġáī£áĪħ": 4182,
      "AN": 4183,
      "Ġcel": 4184,
      "ands": 4185,
      "Ġville": 4186,
      "Ġáį²áį": 4187,
      "Ġáī°áĪ«": 4188,
      "Au": 4189,
      "burg": 4190,
      "gent": 4191,
      "pÃ¨": 4192,
      "ĠAare": 4193,
      "Ġáĭ¨áī³": 4194,
      "ĠMak": 4195,
      "Ġri": 4196,
      "Ġgabatar": 4197,
      "ĠTiba": 4198,
      "ctober": 4199,
      "ĠDi": 4200,
      "áĭ®áī½": 4201,
      "asihi": 4202,
      "ĠMachi": 4203,
      "ĠDecember": 4204,
      "áįĮ": 4205,
      "ĠSoci": 4206,
      "uter": 4207,
      "ague": 4208,
      "Ġbefore": 4209,
      "ofu": 4210,
      "weza": 4211,
      "Ġmfalme": 4212,
      "ĠAwards": 4213,
      "áĪ³áĪį": 4214,
      "Ġlarge": 4215,
      "ĠBel": 4216,
      "ĠáĬ¨áĭļáĪħ": 4217,
      "Ġeng": 4218,
      "áīĢáĪŃ": 4219,
      "Ġ1993": 4220,
      "ĠáĪĿáĬŃáĬķáĭ«áīµ": 4221,
      "BN": 4222,
      "for": 4223,
      "táº¹": 4224,
      "illa": 4225,
      "iru": 4226,
      "abl": 4227,
      "ĠIlÃ©": 4228,
      "áĭŃáĭĪáīµ": 4229,
      "Ã¨ne": 4230,
      "áĭŃáīµ": 4231,
      "áĭ°áĪĿ": 4232,
      "igizaji": 4233,
      "oot": 4234,
      "Ã¶": 4235,
      "ÙĨ": 4236,
      "ĠáĪĦ": 4237,
      "Ġmita": 4238,
      "Ġáĭ®áĪĲáĬķáĪµ": 4239,
      "Ġagainst": 4240,
      "ĠDem": 4241,
      "Ġstruct": 4242,
      "Ġ1998": 4243,
      "Ġayy": 4244,
      "ables": 4245,
      "imes": 4246,
      "Ġyali": 4247,
      "Ġdara": 4248,
      "Ġsm": 4249,
      "Ġkamm": 4250,
      "Ġbak": 4251,
      "Ġ(\"": 4252,
      "Ġzai": 4253,
      "ĠáĬ¨áĬłáĪ": 4254,
      "otes": 4255,
      "Ġmodern": 4256,
      "Ġtangu": 4257,
      "itz": 4258,
      "Ġmaji": 4259,
      "áīłáĪ«": 4260,
      "ĠComp": 4261,
      "ĠáĭŃáĮĪáĬĽáĪį": 4262,
      "\")": 4263,
      "90": 4264,
      "ÃĪ": 4265,
      "Ġwato": 4266,
      "ĠMtakatifu": 4267,
      "ĠáīłáĭĪ": 4268,
      "Ġderni": 4269,
      "ĠHausa": 4270,
      "ĠKaduna": 4271,
      "Ìģ.": 4272,
      "ĠáīłáĮ£áĪĿ": 4273,
      "Ġmto": 4274,
      "Ġassoci": 4275,
      "Ġáº¹ni": 4276,
      "Ġmutu": 4277,
      "áĮĬáĭľ": 4278,
      "ĠMart": 4279,
      "Ãłráº¹": 4280,
      "ĠáĭŃáī³áĭĪ": 4281,
      "ivi": 4282,
      "ĠthÃ©": 4283,
      "ws": 4284,
      "ĠAz": 4285,
      "ĠáĬłáĪĽ": 4286,
      "Ġáī¥áĪŃ": 4287,
      "ĠAlexander": 4288,
      "Ġáį¡áį¡": 4289,
      "ĠMashariki": 4290,
      "Ġmahaif": 4291,
      "Ġkammala": 4292,
      "sá»į": 4293,
      "yst": 4294,
      "zation": 4295,
      "andard": 4296,
      "Ġanim": 4297,
      "Ġkuf": 4298,
      "oseph": 4299,
      "bÃ²": 4300,
      "ĠÐ": 4301,
      "ĠAhm": 4302,
      "ĠSw": 4303,
      "ĠBal": 4304,
      "áīłáī°": 4305,
      "áĪ³áĭĬ": 4306,
      "istes": 4307,
      "Ġpeke": 4308,
      "áĪµáĬķ": 4309,
      "fuata": 4310,
      "paka": 4311,
      "amman": 4312,
      "Ġndani": 4313,
      "jia": 4314,
      "Ġmov": 4315,
      "formation": 4316,
      "uwanci": 4317,
      "ĠMei": 4318,
      "ĠDesemba": 4319,
      "78": 4320,
      "pond": 4321,
      "Ġirin": 4322,
      "Ġlori": 4323,
      "ĠEg": 4324,
      "ibiyar": 4325,
      "Ġpartir": 4326,
      "Ġsouvent": 4327,
      "gest": 4328,
      "Ġtal": 4329,
      "Ġkaribu": 4330,
      "Ġyayi": 4331,
      "eriod": 4332,
      "Ã®t": 4333,
      "Ġpermet": 4334,
      "lÃ²": 4335,
      "ted": 4336,
      "Ġli": 4337,
      "áĪ«áĪ±": 4338,
      "ĠáĬ£": 4339,
      "Ġliv": 4340,
      "ased": 4341,
      "Ġwaje": 4342,
      "ĠLo": 4343,
      "áĪ³áī¥": 4344,
      "Ġkuanzia": 4345,
      "91": 4346,
      "áĮĪáĪ©": 4347,
      "ivil": 4348,
      "Ġ1995": 4349,
      "á¹£Ã¨lÃº": 4350,
      "Ġjirgin": 4351,
      "ĠagbÃ¨gbÃ¨": 4352,
      "Ġexemple": 4353,
      "ĠáĪ¥áĪ«": 4354,
      "ĠNigerian": 4355,
      "Ġfamily": 4356,
      "wara": 4357,
      "Ġcould": 4358,
      "Ġbl": 4359,
      "ĠAth": 4360,
      "rique": 4361,
      "áĭĪáĭ°": 4362,
      "Ġ1994": 4363,
      "ĠLegas": 4364,
      "Ġbirni": 4365,
      "Ġhukumar": 4366,
      "ĠAprili": 4367,
      "pÃ¡": 4368,
      "Ġast": 4369,
      "atre": 4370,
      "Ġhann": 4371,
      "Ġtaka": 4372,
      "ĠLou": 4373,
      "ĠHa": 4374,
      "áĮĭáĪį": 4375,
      "ĠGeorge": 4376,
      "áĮĪáĬĺáĭį": 4377,
      "Ġtemps": 4378,
      "45": 4379,
      "Ġmeng": 4380,
      "ĠÃŃ": 4381,
      "anna": 4382,
      "ĠFranc": 4383,
      "ically": 4384,
      "atsina": 4385,
      "Ġgirma": 4386,
      "fiya": 4387,
      "ĠmÃŃ": 4388,
      "alitÃ©": 4389,
      "Ġdaban": 4390,
      "olly": 4391,
      "Ġjar": 4392,
      "pen": 4393,
      "Ġsake": 4394,
      "ĠáĪ±": 4395,
      "Ġcoun": 4396,
      "áī¥áīµ": 4397,
      "Ġchake": 4398,
      "ware": 4399,
      "inta": 4400,
      "ieux": 4401,
      "poque": 4402,
      "Ġmass": 4403,
      "Ġáĭ¶": 4404,
      "áĬķáī²": 4405,
      "Ġwan": 4406,
      "quent": 4407,
      "ĠáĬłáīĢ": 4408,
      "ĠáĪĺáĪłáĪ¨": 4409,
      "ĠáĪĺáĮ½áĪĲáįį": 4410,
      "áĪ«áĪī": 4411,
      "áĮ£áīµ": 4412,
      "fuat": 4413,
      "Ġhuko": 4414,
      "viron": 4415,
      "ography": 4416,
      "ĠGerman": 4417,
      "35": 4418,
      "ĠÃłmÃ¬": 4419,
      "ĠSeptemba": 4420,
      "áĭĲ": 4421,
      "ĠwaÉĹ": 4422,
      "ikana": 4423,
      "mer": 4424,
      "uch": 4425,
      "Ġsuke": 4426,
      "ĠáĬłáīµ": 4427,
      "âĢĶ": 4428,
      "ĠáĬłáĪľáĪªáĬ«": 4429,
      "ĠáĭĪáĬķáĭµ": 4430,
      "ĠáĪĪáĬł": 4431,
      "áĬĸáĪ©": 4432,
      "ĠáĮ¥áīħáĪĿ": 4433,
      "utu": 4434,
      "ows": 4435,
      "veral": 4436,
      "ression": 4437,
      "esse": 4438,
      "ĠáĪª": 4439,
      "Ġkuj": 4440,
      "áĪįáĮ£áĬķ": 4441,
      "ĠdÃ©velopp": 4442,
      "run": 4443,
      "Ġáī½": 4444,
      "Ġcro": 4445,
      "ĠAde": 4446,
      "ush": 4447,
      "ĠDel": 4448,
      "ection": 4449,
      "Ġáĭ°áĪ¨áĮĥ": 4450,
      "Ġavant": 4451,
      "nement": 4452,
      "Ġking": 4453,
      "áĪįáĪµ": 4454,
      "Ġgida": 4455,
      "Ġáĭ¨áĪħ": 4456,
      "Ġ1997": 4457,
      "ession": 4458,
      "Ġhistori": 4459,
      "dÃ³": 4460,
      "till": 4461,
      "ĠYar": 4462,
      "ĠÃģf": 4463,
      "ĠKil": 4464,
      "ĠId": 4465,
      "ĠáĬłáĭ«": 4466,
      "ension": 4467,
      "Ġ1996": 4468,
      "Ġcontinu": 4469,
      "ĠNovember": 4470,
      "rÃº": 4471,
      "âĢİ": 4472,
      "Ġcours": 4473,
      "ĠáīĭáĬķáīĭáĭİáī½": 4474,
      "score": 4475,
      "vie": 4476,
      "esha": 4477,
      "Ġng": 4478,
      "Ġled": 4479,
      "Ġkudu": 4480,
      "ĠRÃ©": 4481,
      "áĭĪáĪ°": 4482,
      "ording": 4483,
      "ities": 4484,
      "Ġmwigizaji": 4485,
      "Ġmusul": 4486,
      "Se": 4487,
      "bit": 4488,
      "sÃ¹": 4489,
      "Ġdest": 4490,
      "áįĲ": 4491,
      "Ġfour": 4492,
      "Ã¬mÃ¹": 4493,
      "ĠáĬ¥áĮįáĪŃ": 4494,
      "ĠáĪĿáĪµ": 4495,
      "Ġáĭ¨áĬ¤": 4496,
      "ĠáĪ¥áĬĲ": 4497,
      "ustri": 4498,
      "Ġyear": 4499,
      "Ġuhuru": 4500,
      "Ġuli": 4501,
      "Ġkid": 4502,
      "Ġbai": 4503,
      "Ġful": 4504,
      "áĬĵáī¸áĭį": 4505,
      "oles": 4506,
      "alif": 4507,
      "áĬ¨áīµ": 4508,
      "ĠáĪĽáĬķ": 4509,
      "áĪĬáĬŃ": 4510,
      "gn": 4511,
      "ĠCap": 4512,
      "áĪ¨áĪĿ": 4513,
      "Ã³mÃ¬n": 4514,
      "ĠOgun": 4515,
      "odes": 4516,
      "ifa": 4517,
      "áīĥáĪµ": 4518,
      "Ġ50": 4519,
      "FA": 4520,
      "ient": 4521,
      "Ġpá»į": 4522,
      "ĠGl": 4523,
      "áĪĽáĬķ": 4524,
      "Ġkutokana": 4525,
      "ories": 4526,
      "cul": 4527,
      "áĬĻ": 4528,
      "Ġfannin": 4529,
      "atis": 4530,
      "Ġinay": 4531,
      "Ġmach": 4532,
      "Ġ185": 4533,
      "Ġadd": 4534,
      "áĪŃáĪµáī¶áĪµ": 4535,
      "ĠMarch": 4536,
      "Ġgrande": 4537,
      "position": 4538,
      "ĠáĭĪáĬķáĭĿ": 4539,
      "áĪĿáĬĲáīµ": 4540,
      "Ġáīłáī³": 4541,
      "ĠÃ¬gb": 4542,
      "Ġsal": 4543,
      "áĬĸáĪµ": 4544,
      "Ġkark": 4545,
      "Ġpouv": 4546,
      "ĠAll": 4547,
      "ĠFebruari": 4548,
      "vision": 4549,
      "Ġuna": 4550,
      "ĠYun": 4551,
      "Ġdonc": 4552,
      "Ġáī°áī¥áĪİ": 4553,
      "wanda": 4554,
      "ĠRais": 4555,
      "áĭĭáīĤ": 4556,
      "Ġexamp": 4557,
      "ĠáĪįáĮĨáī½": 4558,
      "eman": 4559,
      "asara": 4560,
      "uropÃ©": 4561,
      "vo": 4562,
      "yÃ¡": 4563,
      "ĠáĭĿáĪŃáĭĿ": 4564,
      "ĠNovemba": 4565,
      "br": 4566,
      "ning": 4567,
      "ĠÎ": 4568,
      "Ġbiyar": 4569,
      "ĠPi": 4570,
      "Ã²rÃ¹n": 4571,
      "try": 4572,
      "nu": 4573,
      "Ġren": 4574,
      "ĠÃłwon": 4575,
      "áĬĵáĬķ": 4576,
      "ĠáĮŃ": 4577,
      "ĠâĢĶ": 4578,
      "hard": 4579,
      "auti": 4580,
      "Ġoper": 4581,
      "ĠBabban": 4582,
      "apon": 4583,
      "Ġorigin": 4584,
      "por": 4585,
      "tun": 4586,
      "áīŃ": 4587,
      "ĠKa": 4588,
      "ĠáĬłáįĪ": 4589,
      "Ġuntil": 4590,
      "ĠEs": 4591,
      "ĠVal": 4592,
      "Ġarea": 4593,
      "ĠÃītats": 4594,
      "Ġgen": 4595,
      "ĠIm": 4596,
      "acin": 4597,
      "ĠYa": 4598,
      "www": 4599,
      "ĠOctober": 4600,
      "ĠáĮįáī¥": 4601,
      "Ġarewa": 4602,
      "ĠFebruary": 4603,
      "Ġtyp": 4604,
      "Ġfois": 4605,
      "ĠgÃ©": 4606,
      "áĪĺáĭį": 4607,
      "áĪĭáĭį": 4608,
      "ĠDr": 4609,
      "áĭĭáĬķ": 4610,
      "roduc": 4611,
      "ĠOrodha": 4612,
      "Ġencore": 4613,
      "lymp": 4614,
      "resent": 4615,
      "ouest": 4616,
      "Ġkaramar": 4617,
      "Ġsoit": 4618,
      "ĠáĪĺáĬķáĮĪáĭµ": 4619,
      "ĠAcadem": 4620,
      "Ġmort": 4621,
      "ĠAli": 4622,
      "ĠyÃ³Ã²": 4623,
      "asiasa": 4624,
      "Ġpelu": 4625,
      "ator": 4626,
      "áĪĪáī²áĬ«": 4627,
      "Ġáĭ¨áĬ¢": 4628,
      "Ġcontre": 4629,
      "áĭĬáīµ": 4630,
      "áįĪáĪį": 4631,
      "Ġáī¥áĪĶ": 4632,
      "conom": 4633,
      "kana": 4634,
      "Ġten": 4635,
      "Ġmer": 4636,
      "Ġwilaya": 4637,
      "ĠáĮ¥áĬĵáīµ": 4638,
      "48": 4639,
      "tal": 4640,
      "omas": 4641,
      "ives": 4642,
      "áĭĪáī½": 4643,
      "Ġatta": 4644,
      "Ġ1992": 4645,
      "ĠáĮ¥áĬķ": 4646,
      "ĠJames": 4647,
      "Ġdur": 4648,
      "lev": 4649,
      "ĠKemia": 4650,
      "ĠáĪĺáĪŃ": 4651,
      "áĭĪáĪĪ": 4652,
      "áĮłáīħ": 4653,
      "Ġ40": 4654,
      "bar": 4655,
      "Ġsing": 4656,
      "áĪµáįĭ": 4657,
      "imÃ¡": 4658,
      "ĠUS": 4659,
      "ĠsÃŃláº¹": 4660,
      "Ġruwa": 4661,
      "ĠÃ²á¹£": 4662,
      "Ãªte": 4663,
      "áĬĶáī³": 4664,
      "Ġappro": 4665,
      "Ġkilomita": 4666,
      "Ġmed": 4667,
      "Ġpi": 4668,
      "Ġá¹£iá¹£áº¹": 4669,
      "Ġpekee": 4670,
      "ĠáĪ®": 4671,
      "Ġdem": 4672,
      "ayyar": 4673,
      "ĠáĪĪáĪĿ": 4674,
      "áĭĺáĮĭ": 4675,
      "Ã¤": 4676,
      "áĪŁ": 4677,
      "Ġcirc": 4678,
      "Ġsauran": 4679,
      "adio": 4680,
      "Ġmutanen": 4681,
      "ĠShugaban": 4682,
      "Ġtena": 4683,
      "Ġtype": 4684,
      "unic": 4685,
      "áĭ«áĪį": 4686,
      "Ġstud": 4687,
      "jeo": 4688,
      "Ġ1976": 4689,
      "Ġdisp": 4690,
      "ĠáĪīáīĥáĪµ": 4691,
      "Ġpolitique": 4692,
      "hor": 4693,
      "Ġaá¹£": 4694,
      "Ġlat": 4695,
      "alog": 4696,
      "ĠMont": 4697,
      "Ġáī°áĪ°": 4698,
      "Ġquel": 4699,
      "31": 4700,
      "wana": 4701,
      "áĪ¾": 4702,
      "asha": 4703,
      "quement": 4704,
      "Ã¹gbá»į": 4705,
      "Ġprocess": 4706,
      "uck": 4707,
      "Ġwakil": 4708,
      "Ġrayuwa": 4709,
      "Ġrasmi": 4710,
      "line": 4711,
      "Ġwote": 4712,
      "Ġáīłáĭ¨": 4713,
      "ĠIle": 4714,
      "ĠPrin": 4715,
      "akoso": 4716,
      "Ġáĭ¨áĪķ": 4717,
      "ĠâĢ¢": 4718,
      "áĮłáĭį": 4719,
      "Ak": 4720,
      "ided": 4721,
      "ĠEmpire": 4722,
      "áĭķáĪ«áī¥": 4723,
      "ĠreprÃ©sent": 4724,
      "Ġdid": 4725,
      "uns": 4726,
      "ĠRay": 4727,
      "Ġmaza": 4728,
      "ĠJuly": 4729,
      "gal": 4730,
      "uj": 4731,
      "unga": 4732,
      "amad": 4733,
      "ĠÃłgbÃ©": 4734,
      "endo": 4735,
      "depend": 4736,
      "Ġáĭ¨áĬłáĪľáĪªáĬ«": 4737,
      "Ġperiod": 4738,
      "Ġojo": 4739,
      "Ġown": 4740,
      "Ġáīłáĭĵ": 4741,
      "ĠPers": 4742,
      "áĮ¥áĪ®": 4743,
      "ĠáīħáĪŃ": 4744,
      "ojoibi": 4745,
      "day": 4746,
      "oo": 4747,
      "áįİáī½": 4748,
      "Ġtour": 4749,
      "ĠáĬ¥áĬķáĮĤ": 4750,
      "Ġimportant": 4751,
      "ulu": 4752,
      "âĢ¦": 4753,
      "Ġelement": 4754,
      "Ġte": 4755,
      "afu": 4756,
      "Ġáĭ¨áĪļáĪĪáĭį": 4757,
      "ĠIndia": 4758,
      "oa": 4759,
      "aria": 4760,
      "Ġcla": 4761,
      "utt": 4762,
      "ĠáĬ¨áĬ¥": 4763,
      "anth": 4764,
      "Ġcommer": 4765,
      "ÙĪ": 4766,
      "Ġâ": 4767,
      "Ġmam": 4768,
      "Ġminist": 4769,
      "áĪİáīµ": 4770,
      "ĠáĮīáĭ³": 4771,
      "ria": 4772,
      "ises": 4773,
      "aman": 4774,
      "Ġzab": 4775,
      "ĠáĭĪáĭŃ": 4776,
      "Ġasili": 4777,
      "ĠáĬŃáĪį": 4778,
      "Ġzamani": 4779,
      "ĠEthiop": 4780,
      "omon": 4781,
      "ĠgÃŃ": 4782,
      "áī°áĬķ": 4783,
      "inguis": 4784,
      "ĠApril": 4785,
      "Ã©l": 4786,
      "ament": 4787,
      "Ġinv": 4788,
      "imp": 4789,
      "ĠEast": 4790,
      "ody": 4791,
      "ĠáĬķáĮį": 4792,
      "Ġhukumomin": 4793,
      "ving": 4794,
      "win": 4795,
      "Ġáĭ¨áīµ": 4796,
      "ĠCal": 4797,
      "ĠdÃ©but": 4798,
      "ovi": 4799,
      "Ġkarni": 4800,
      "ĠnÃŃnu": 4801,
      "Ġscienti": 4802,
      "ĠAcademy": 4803,
      "yya": 4804,
      "Ġduni": 4805,
      "ĠáĮĮ": 4806,
      "ĠHer": 4807,
      "alian": 4808,
      "ĠáĬ¥áĬķáĭ²áĪħ": 4809,
      "Ġbecause": 4810,
      "Ġproduction": 4811,
      "36": 4812,
      "ken": 4813,
      "Ġyau": 4814,
      "Ġoften": 4815,
      "haa": 4816,
      "ĠáĭŃáīĢ": 4817,
      "Ġilimi": 4818,
      "ĠáīµáĬķ": 4819,
      "Ġ1967": 4820,
      "ble": 4821,
      "lejin": 4822,
      "ĠSha": 4823,
      "áī¥áĪ¨áīµ": 4824,
      "Ġsuiv": 4825,
      "ĠÃ²un": 4826,
      "ĠrÃ©fÃ©r": 4827,
      "Ġ||": 4828,
      "ĠáĪģáĪĪ": 4829,
      "attalin": 4830,
      "Ġparticuli": 4831,
      "ĠáįķáĪ¬": 4832,
      "pub": 4833,
      "sÃ¬n": 4834,
      "Ġlashe": 4835,
      "Ġogun": 4836,
      "ĠKib": 4837,
      "opo": 4838,
      "Ġ1975": 4839,
      "Ġtsarin": 4840,
      "ĠáĪķáĭĿáī¥": 4841,
      "ĠJapon": 4842,
      "ĠÃłkÃ³": 4843,
      "ĠBib": 4844,
      "Ġleurs": 4845,
      "Ġvile": 4846,
      "áĬŃáĪī": 4847,
      "Ġear": 4848,
      "Ġrema": 4849,
      "though": 4850,
      "aiss": 4851,
      "Ġáī³áĪªáĬ«áĭĬ": 4852,
      "amuziki": 4853,
      "Ġmkubwa": 4854,
      "Ġdigiri": 4855,
      "adaye": 4856,
      "Ġseveral": 4857,
      "Ġ1989": 4858,
      "ĠfranÃ§aise": 4859,
      "CO": 4860,
      "zaliwa": 4861,
      "Ġback": 4862,
      "ĠMin": 4863,
      "ĠBl": 4864,
      "ĠáĪĺáĮ¨áĪ¨áĪ»": 4865,
      "áīłáĪ©áīµ": 4866,
      "ĠlÃ©g": 4867,
      "Ġmor": 4868,
      "ĠBas": 4869,
      "áĬĲáī±": 4870,
      "Ãīt": 4871,
      "Fr": 4872,
      "mu": 4873,
      "ĠKh": 4874,
      "ĠáīłáĬĲ": 4875,
      "áĪ¨áĪ°": 4876,
      "Ġfonction": 4877,
      "ĠTazama": 4878,
      "ĠPat": 4879,
      "ĠRa": 4880,
      "Ġagbe": 4881,
      "comp": 4882,
      "ikwayo": 4883,
      "hist": 4884,
      "áĪŃáī²": 4885,
      "ĠMinist": 4886,
      "usion": 4887,
      "ĠAlf": 4888,
      "Ġcelui": 4889,
      "bes": 4890,
      "rÃ¡": 4891,
      "atan": 4892,
      "ete": 4893,
      "áĪĺáĪį": 4894,
      "Ġtous": 4895,
      "Ġactiv": 4896,
      "ĠprÃ©c": 4897,
      "ĠDavid": 4898,
      "Ġsmall": 4899,
      "xes": 4900,
      "Ġmani": 4901,
      "áĭįáĪ®áįĵ": 4902,
      "ĠRic": 4903,
      "ĠamÃ©r": 4904,
      "Ġpeu": 4905,
      "athol": 4906,
      "ĠáĭĿáĪŃáĭĿáĪŃ": 4907,
      "Ġer": 4908,
      "ishin": 4909,
      "alo": 4910,
      "ird": 4911,
      "Ġeach": 4912,
      "less": 4913,
      "Ġ1987": 4914,
      "ency": 4915,
      ")áį£": 4916,
      "¶áį": 4917,
      "ĠGro": 4918,
      "Ġaround": 4919,
      "Ġ|-": 4920,
      "Ġ1950": 4921,
      "Ġmean": 4922,
      "áĬ¨áī°áĪĽ": 4923,
      "Ġselon": 4924,
      "áĪĺáĭµ": 4925,
      "Ġ1982": 4926,
      "ĠAtlan": 4927,
      "ĠÆĺ": 4928,
      "Ġtechni": 4929,
      "kÃ¹nrin": 4930,
      "bra": 4931,
      "áī°áĭĭáĪį": 4932,
      "ukuu": 4933,
      "áĪħáĬķ": 4934,
      "Ġorder": 4935,
      "ioni": 4936,
      "Ġkwaikwayo": 4937,
      "ĠáīłáĬ©": 4938,
      "ĠáĮįáĭµáĪĿ": 4939,
      "Ġuch": 4940,
      "Ġmusamman": 4941,
      "ydro": 4942,
      "ĠgbajÃºmá»į": 4943,
      "ames": 4944,
      "ĠáĮĬ": 4945,
      "akon": 4946,
      "áīłáĬł": 4947,
      "Ġáįĭ": 4948,
      "Ġsuite": 4949,
      "ekana": 4950,
      "ĠáĪģáĬĶáī³": 4951,
      "ĠáĬłáĪĺáīµ": 4952,
      "Ġkamfanin": 4953,
      "ĠBahari": 4954,
      "ĠáĭŃáī½áĪĭáĪį": 4955,
      "onso": 4956,
      "Ġmm": 4957,
      "Ġoff": 4958,
      "á¹£u": 4959,
      "áī¤áī°": 4960,
      "Ġterme": 4961,
      "ĠsinimÃ¡": 4962,
      "pÃ²": 4963,
      "orig": 4964,
      "ĠKatsina": 4965,
      "ĠBell": 4966,
      "áĪ«áĪ²": 4967,
      "Ġá¹£áº¹": 4968,
      "áī»áī¸áĭį": 4969,
      "Ġáĭ¨áĬ¥áĪµ": 4970,
      "ĠRepublic": 4971,
      "áĮĦ": 4972,
      "Ġáī»": 4973,
      "Ġcamp": 4974,
      "itin": 4975,
      "áĬĲáĪ³": 4976,
      "ationale": 4977,
      "áĭ¨áĪĿ": 4978,
      "Ġpáº¹lu": 4979,
      "46": 4980,
      "falme": 4981,
      "ms": 4982,
      "Ä«": 4983,
      "Ġkila": 4984,
      "ĠSun": 4985,
      "adhi": 4986,
      "ĠáĬĲáĮ»": 4987,
      "ivid": 4988,
      "ourt": 4989,
      "ĠÃ©p": 4990,
      "Ġ180": 4991,
      "Ġcontin": 4992,
      "ĠfÃŃÃ¬mÃ¹": 4993,
      "ĠpadÃł": 4994,
      "However": 4995,
      "Ø±": 4996,
      "Ġkula": 4997,
      "Ġáī±": 4998,
      "ĠojÃº": 4999,
      "Ġfina": 5000,
      "ĠHot": 5001,
      "áĪģáĬķ": 5002,
      "Ġ1984": 5003,
      "Ġ1985": 5004,
      "Ġgroupe": 5005,
      "37": 5006,
      "vis": 5007,
      "ĠAct": 5008,
      "áĭ«áĭĬ": 5009,
      "ĠáĪĺáĪįáĬŃ": 5010,
      "áĪ¶áī½": 5011,
      "ĠMajalisar": 5012,
      "ollywood": 5013,
      "xt": 5014,
      "ints": 5015,
      "Ġbila": 5016,
      "entes": 5017,
      "áĪĪáĪĽ": 5018,
      "osi": 5019,
      "Ġ1983": 5020,
      "Ġ1986": 5021,
      "Ġ1979": 5022,
      "ĠáĪļáĬĴ": 5023,
      "For": 5024,
      "Ġlik": 5025,
      "ando": 5026,
      "áĮįáĬķ": 5027,
      "ĠGo": 5028,
      "oki": 5029,
      "ĠChurch": 5030,
      "ĠáįĪáĪŃ": 5031,
      "uvent": 5032,
      "wÃ¡jÃº": 5033,
      "Ġzaman": 5034,
      "Tare": 5035,
      "Ġbase": 5036,
      "Ġja": 5037,
      "oselu": 5038,
      "áĭļáīĥ": 5039,
      "ollo": 5040,
      "Ã´t": 5041,
      "Ġutawala": 5042,
      "bÃº": 5043,
      "ls": 5044,
      "pas": 5045,
      "Ġlabar": 5046,
      "ĠMis": 5047,
      "add": 5048,
      "ĠKati": 5049,
      "imm": 5050,
      "ĠPress": 5051,
      "Ġkwall": 5052,
      "Ġ31": 5053,
      "ĠáĬŃáĪŃáĪµáī²áĭ«áĬķ": 5054,
      "Ġ1988": 5055,
      "Ġrelig": 5056,
      "Ġijoba": 5057,
      "by": 5058,
      "Ġmur": 5059,
      "ipe": 5060,
      "ĠlÃ¡Ãł": 5061,
      "aifaf": 5062,
      "Ġnu": 5063,
      "Ġpap": 5064,
      "ĠGir": 5065,
      "ĠÃ¬tÃłn": 5066,
      "áĭĪáĮ£": 5067,
      "áĭĭáĬĵ": 5068,
      "Ġidadi": 5069,
      "gozi": 5070,
      "dÃ¹": 5071,
      "Ġlambar": 5072,
      "ÃłÃł": 5073,
      "Ġgouver": 5074,
      "Ġpropos": 5075,
      "ĠáĬĲáĮĪáĪ®áī½": 5076,
      "Ġjagor": 5077,
      "Ġduniani": 5078,
      "Ġseries": 5079,
      "ĠwÃ³n": 5080,
      "osh": 5081,
      "áĭ¨áĬł": 5082,
      "oft": 5083,
      "áī´áĭİáĪµ": 5084,
      "Ġhukuma": 5085,
      "ĠKiingereza": 5086,
      "Ġconstitu": 5087,
      "áĬ¸": 5088,
      "Ġáīłáĭį": 5089,
      "ulikana": 5090,
      "ĠJune": 5091,
      "insu": 5092,
      "Ġáī¢áĪĨáĬķ": 5093,
      "rÃ²yÃ¬n": 5094,
      "Hist": 5095,
      "nam": 5096,
      "Ġiko": 5097,
      "Ġdunia": 5098,
      "ĠÃłÃ¬": 5099,
      "ĠNi": 5100,
      "ĠáĭĺáĪŃ": 5101,
      "gani": 5102,
      "oung": 5103,
      "yle": 5104,
      "umma": 5105,
      "áĪ«áī¸áĭį": 5106,
      "ĠDo": 5107,
      "raft": 5108,
      "ĠáĭŃáĪĺáĪµ": 5109,
      "Ġthough": 5110,
      "off": 5111,
      "Ġkazi": 5112,
      "Ġáĭ¨áĪĽáĭŃ": 5113,
      "áĪĽáĬĸáīµ": 5114,
      "yen": 5115,
      "Ġbang": 5116,
      "Ġfather": 5117,
      "Ġ(Â«": 5118,
      "atikana": 5119,
      "angi": 5120,
      "Ġ1966": 5121,
      "ĠPeople": 5122,
      "Ġkarkashin": 5123,
      "His": 5124,
      "aik": 5125,
      "arak": 5126,
      "reg": 5127,
      "ĠMto": 5128,
      "ĠMex": 5129,
      "Ġhut": 5130,
      "Ġnau": 5131,
      "Ġáĭ«áĪħáĪį": 5132,
      "Ġexist": 5133,
      "Ġsunan": 5134,
      "ĠáĭŃáĪħáĪĿ": 5135,
      "39": 5136,
      "Ġere": 5137,
      "áĪĤ": 5138,
      "Ġnig": 5139,
      "usta": 5140,
      "ĠIr": 5141,
      "áĮĪáĭ°": 5142,
      "áĪĽáĪį": 5143,
      "Ġtre": 5144,
      "Ġbara": 5145,
      "Ġáįª": 5146,
      "Ġtrava": 5147,
      "ĠpÃ©riode": 5148,
      "Ġexample": 5149,
      "47": 5150,
      "ĠáĪ¦": 5151,
      "ĠMari": 5152,
      "Ġleo": 5153,
      "ĠFaransa": 5154,
      "ĠáĭŃáĪĨ": 5155,
      "ĠáīłáĪĻ": 5156,
      "ĠáĭµáĪŃáĮħ": 5157,
      "ĠChristian": 5158,
      "Ġset": 5159,
      "Ġsani": 5160,
      "Ġhank": 5161,
      "ourd": 5162,
      "Ġadminist": 5163,
      "ights": 5164,
      "exp": 5165,
      "ĠsystÃ¨me": 5166,
      "Ġkifo": 5167,
      "áįĶ": 5168,
      "asan": 5169,
      "irst": 5170,
      "row": 5171,
      "bÃŃláº¹": 5172,
      "ĠáĬłáĪĪáĭį": 5173,
      "joba": 5174,
      "Ġcelle": 5175,
      "Ġinternational": 5176,
      "ĠFasihi": 5177,
      "áĮĢáĪŃáĪĺáĬķ": 5178,
      "Ġmulti": 5179,
      "Láº¹": 5180,
      "ness": 5181,
      "arci": 5182,
      "Ġdh": 5183,
      "ĠáĬ¡": 5184,
      "Ġmn": 5185,
      "Ã¡Ã¬": 5186,
      "ĠáĬ¥áĬĲ": 5187,
      "áĪīáĪĿ": 5188,
      "áĬ¥áĬķáĮįáĪĬáĭĿáĬĽ": 5189,
      "aifaffun": 5190,
      "ception": 5191,
      "ĠáĪĺáĮĢáĪĺáĪŃáĭ«": 5192,
      "arkin": 5193,
      "ĠAbdul": 5194,
      "Ġiye": 5195,
      "áĮĪáĪį": 5196,
      "Ġmace": 5197,
      "ĠáĭŃáĭĺ": 5198,
      "respond": 5199,
      "Ġarr": 5200,
      "Ã´le": 5201,
      "abbar": 5202,
      "ĠHistoria": 5203,
      "DP": 5204,
      "Ġmoy": 5205,
      "Ġbisa": 5206,
      "ikukuu": 5207,
      "ĠáĪĿáĬķáĪĿ": 5208,
      "Ġ1974": 5209,
      "ĠáĪĿáĬķáĮ®áī½": 5210,
      "AC": 5211,
      "san": 5212,
      "ĠáīłáĪ½": 5213,
      "iyoyin": 5214,
      "Ġkwallon": 5215,
      "Ãªt": 5216,
      "2005": 5217,
      "ĠGeorg": 5218,
      "1892": 5219,
      "Ġkayan": 5220,
      "ĠáĪł": 5221,
      "Ġáĭ¨áī£": 5222,
      "iran": 5223,
      "ney": 5224,
      "endre": 5225,
      "aponais": 5226,
      "cÃ©": 5227,
      "áĪ·": 5228,
      "inter": 5229,
      "aru": 5230,
      "esp": 5231,
      "Ġkip": 5232,
      "áĪĺáĪ°": 5233,
      "ĠPa": 5234,
      "áĪĭáĪ´": 5235,
      "uku": 5236,
      "ĠáĪĿáĪŃ": 5237,
      "Ġáĭĭáī¢": 5238,
      "Ġnyingine": 5239,
      "bon": 5240,
      "ball": 5241,
      "lia": 5242,
      "rid": 5243,
      "Â°": 5244,
      "itect": 5245,
      "ĠKananan": 5246,
      "ĠJoseph": 5247,
      "áī£áĪĪáĭį": 5248,
      "Ġáī°áįĪ": 5249,
      "áĭ¨áĪ±": 5250,
      "ĠÃ©lect": 5251,
      "ÉĹa": 5252,
      "face": 5253,
      "ĠAustralia": 5254,
      "ox": 5255,
      "Ð°": 5256,
      "Ġur": 5257,
      "ĠáĭŃáĪ°": 5258,
      "Ġáĭ¨áĬ«": 5259,
      "Ġáĭ¨áī°áĪ°": 5260,
      "ĠáĭŃáĪħáĬķ": 5261,
      "Ġambao": 5262,
      "áĬ¥áĬķáĭ°": 5263,
      "lim": 5264,
      "Ġnada": 5265,
      "Ġbiashara": 5266,
      "ypti": 5267,
      "áĬķáĭ°": 5268,
      "ĠSci": 5269,
      "gbon": 5270,
      "áĬŃáĪŃ": 5271,
      "udes": 5272,
      "áīłáĪĪ": 5273,
      "Ġtsohon": 5274,
      "75": 5275,
      "gress": 5276,
      "las": 5277,
      "sy": 5278,
      "Ġnjia": 5279,
      "ĠinÃº": 5280,
      "ĠTari": 5281,
      "ĠáĪĺáĪĨáĬĳ": 5282,
      "ĠGod": 5283,
      "ĠOrÃŃ": 5284,
      "Ġshirin": 5285,
      "unda": 5286,
      "Ġoloselu": 5287,
      "Ġdifferent": 5288,
      "struction": 5289,
      "Ġkuhusu": 5290,
      "cter": 5291,
      "·áį": 5292,
      "ĠsÃ¡": 5293,
      "áĬķáĭ±": 5294,
      "Ġyabo": 5295,
      "ĠKudu": 5296,
      "ĠLatin": 5297,
      "cial": 5298,
      "áīłáĪĺ": 5299,
      "Ġtechn": 5300,
      "Ġphilosoph": 5301,
      "ĠSup": 5302,
      "ĠBBC": 5303,
      "áĪĭáĪĪ": 5304,
      "Ġyote": 5305,
      "Ġstat": 5306,
      "Ġimm": 5307,
      "ĠáĮ½áĪĳ": 5308,
      "ĠáĪĽáĪŃáīĨ": 5309,
      "Ġmillion": 5310,
      "Ġciki": 5311,
      "ulaire": 5312,
      "ige": 5313,
      "ĠWe": 5314,
      "ĠDola": 5315,
      "Ġvit": 5316,
      "hael": 5317,
      "ĠIbadan": 5318,
      "ĠKanisa": 5319,
      "yyun": 5320,
      "Ġnorth": 5321,
      "tice": 5322,
      "ĠBi": 5323,
      "thers": 5324,
      "ĠVol": 5325,
      "Ġnombreux": 5326,
      "ĠáĪ¥áĪŃáĭĪ": 5327,
      "Ali": 5328,
      "bÃ¬nrin": 5329,
      "gá»į": 5330,
      "anisha": 5331,
      "Ġbaba": 5332,
      "idar": 5333,
      "ĠWan": 5334,
      "ĠáĪµáĪĻ": 5335,
      "Ġ1981": 5336,
      "Ġdari": 5337,
      "Ġsite": 5338,
      "Ġgovernment": 5339,
      "ĠáĮłáĪ": 5340,
      "ĠPo": 5341,
      "ĠáĪĺáĭµ": 5342,
      "ĠáĪĺáĪª": 5343,
      "ĠRaya": 5344,
      "Ġequ": 5345,
      "áĭ³áĪŃ": 5346,
      "ĠKiswahili": 5347,
      "Ġfollowing": 5348,
      "ĠáĪłáĪ«": 5349,
      "ĠLouis": 5350,
      "ĠáĬħ": 5351,
      "ason": 5352,
      "Ġhata": 5353,
      "Ġjerin": 5354,
      "Ġrem": 5355,
      "ĠÃĢÃłráº¹": 5356,
      "Ġbegan": 5357,
      "wezi": 5358,
      "Ġlokaci": 5359,
      "Ġbased": 5360,
      "Ġem": 5361,
      "ista": 5362,
      "Ġing": 5363,
      "Ġiniti": 5364,
      "Ġvisiwa": 5365,
      "ĠInstit": 5366,
      "Ġáĭ°áĪ´": 5367,
      "ĠspÃ©": 5368,
      "Ġguerre": 5369,
      "car": 5370,
      "ĠáĪĤ": 5371,
      "á¹£i": 5372,
      "ĠáĬłáĪ³": 5373,
      "ube": 5374,
      "áī¶áī½áĬķ": 5375,
      "oute": 5376,
      "Ġprim": 5377,
      "ĠagbÃ¡": 5378,
      "ĠBenin": 5379,
      ");": 5380,
      "irs": 5381,
      "áĪĭáĪĽ": 5382,
      "Ġenti": 5383,
      "Ġeniyan": 5384,
      "Ġáĭ¨áĪ¥": 5385,
      "ĠáĪĿáĪįáĬŃ": 5386,
      "Ġsouth": 5387,
      "Åĵuv": 5388,
      "Ã³mÃ¬nÃł": 5389,
      "ID": 5390,
      "IS": 5391,
      "áĪ¡": 5392,
      "Ġchem": 5393,
      "unt": 5394,
      "ĠMah": 5395,
      "Ġword": 5396,
      "ĠRiver": 5397,
      "Ġáį¤": 5398,
      "áĪ°áĬķ": 5399,
      "áĭļáĪģ": 5400,
      "Ġá¹£ÃŃ": 5401,
      "ological": 5402,
      "sÃŃláº¹": 5403,
      "ĠKingdom": 5404,
      "Ġversion": 5405,
      "áįĪáĪ¨áĬķáĪ³áĭŃ": 5406,
      "arab": 5407,
      "Ġcri": 5408,
      "ĠÃłgbÃł": 5409,
      "Ġjaponais": 5410,
      "Ġchang": 5411,
      "áĭķáĪį": 5412,
      "ĠØ§": 5413,
      "ournal": 5414,
      "ĠEbun": 5415,
      "Har": 5416,
      "ca": 5417,
      "loy": 5418,
      "torÃŃ": 5419,
      "Ġmark": 5420,
      "Ġpwani": 5421,
      "usin": 5422,
      "ĠSat": 5423,
      "asaha": 5424,
      "Ġpeup": 5425,
      "Ġ1971": 5426,
      "Ġmajalisar": 5427,
      "Ġmulki": 5428,
      "áĪ¯": 5429,
      "ĠáĬĴ": 5430,
      "ĠáĬĸ": 5431,
      "iles": 5432,
      "ĠMu": 5433,
      "áĪĺáĮ£": 5434,
      "Ġrequ": 5435,
      "ĠáĭĪáĪ¨áĭ³": 5436,
      "ĠáĭĪáĮĪáĬķ": 5437,
      "Ġchild": 5438,
      "Ġ1965": 5439,
      "ĠáĬłáĪĪáīĥ": 5440,
      "ouvelle": 5441,
      "Ġperson": 5442,
      "ĠUganda": 5443,
      "dÃ²": 5444,
      "ĠMungu": 5445,
      "ella": 5446,
      "ĠBay": 5447,
      "áī½áĭį": 5448,
      "ects": 5449,
      "oks": 5450,
      "Ġforces": 5451,
      "oule": 5452,
      "Ġshug": 5453,
      "áĪłáĪ«": 5454,
      "Ġsince": 5455,
      "Ġcertains": 5456,
      "ering": 5457,
      "atives": 5458,
      "ĠáĮħ": 5459,
      "ules": 5460,
      "ended": 5461,
      "Ġmasana": 5462,
      "Ġ1978": 5463,
      "ĠMusulunci": 5464,
      "ES": 5465,
      "Ġgas": 5466,
      "Ġzil": 5467,
      "ĠFin": 5468,
      "Ġmawa": 5469,
      "ĠsiÃ¨": 5470,
      "Ġcorrespond": 5471,
      "Ġland": 5472,
      "Ġcoll": 5473,
      "ĠKya": 5474,
      "ĠáĬłáĪ¸": 5475,
      "áĮ¥áĪ¨": 5476,
      "áĪ®áĪµ": 5477,
      "Ã©ration": 5478,
      "ishop": 5479,
      "ĠáĪ´áīµ": 5480,
      "Ġkawaida": 5481,
      "86": 5482,
      "rÃ¡n": 5483,
      "estiv": 5484,
      "time": 5485,
      "Ġpower": 5486,
      "Ġasalin": 5487,
      "áĬ«áĪį": 5488,
      "ĠáĭķáĪĪ": 5489,
      "ĠMutane": 5490,
      "zu": 5491,
      "áĭĳ": 5492,
      "Ġdini": 5493,
      "Ġpu": 5494,
      "rian": 5495,
      "Ġkaratu": 5496,
      "publique": 5497,
      "unk": 5498,
      "Ġáĭ¨áĭĺ": 5499,
      "omes": 5500,
      "áĪ³áī¸áĭį": 5501,
      "vention": 5502,
      "Ġmbili": 5503,
      "áĮįáī¥áĮ½": 5504,
      "Ġkara": 5505,
      "ĠáĬłáĮ¥": 5506,
      "ĠPas": 5507,
      "áĮĪáī¥": 5508,
      "Ġask": 5509,
      "Ġáī³áĭĭáīĤ": 5510,
      "Ġáīłáī°áĪĪáĭŃ": 5511,
      "áĬ®áī½": 5512,
      "ĠPhilip": 5513,
      "PC": 5514,
      "TA": 5515,
      "Ã»": 5516,
      "Ġdivers": 5517,
      "ĠáĪº": 5518,
      "times": 5519,
      "ĠAj": 5520,
      "usa": 5521,
      "ĠáĬ¥áĭį": 5522,
      "áĮĪáīł": 5523,
      "Ġzote": 5524,
      "ĠFre": 5525,
      "action": 5526,
      "áĭ²áĪħ": 5527,
      "They": 5528,
      "ification": 5529,
      "01": 5530,
      "49": 5531,
      "lima": 5532,
      "áĮ¦áĪŃ": 5533,
      "Ã©tique": 5534,
      "ĠHaifaffun": 5535,
      "Ġev": 5536,
      "ĠáīłáĪĮ": 5537,
      "Ġbahari": 5538,
      "ĠáĬŃáįįáĪĭ": 5539,
      "Ġlanguages": 5540,
      "ĠEngland": 5541,
      "kÃ¹": 5542,
      "Ġess": 5543,
      "onge": 5544,
      "Ġcur": 5545,
      "ĠKongo": 5546,
      "dian": 5547,
      "áĪ©áīµ": 5548,
      "áĪ±áĪĿ": 5549,
      "ĠáĬłáĭŃáĭ°": 5550,
      "Ġresult": 5551,
      "áĪıáĪį": 5552,
      "85": 5553,
      "hab": 5554,
      "Å«": 5555,
      "Ġdevient": 5556,
      "Ġhuma": 5557,
      "Ġformer": 5558,
      "Ġphys": 5559,
      "ĠáĭŃáĪĨáĬĵáĪį": 5560,
      "32": 5561,
      "76": 5562,
      "áĬ¹": 5563,
      "Ġgiv": 5564,
      "ĠáīłáĮ¥": 5565,
      "Ġjo": 5566,
      "ĠáĬłáĭ°": 5567,
      "Ġyara": 5568,
      "arautar": 5569,
      "áĭ³áĪĿ": 5570,
      "Ġise": 5571,
      "lÃ©wÃ²": 5572,
      "Ġ1977": 5573,
      "ĠRobert": 5574,
      "origine": 5575,
      "Ita": 5576,
      "wali": 5577,
      "Ġhttp": 5578,
      "Ġrece": 5579,
      "Ġolu": 5580,
      "Ġ1969": 5581,
      "Ġmwanamuziki": 5582,
      "Ġshirya": 5583,
      "ĠwaÉĹanda": 5584,
      "ĠgÃŃga": 5585,
      "nÃ¹": 5586,
      "pha": 5587,
      "uel": 5588,
      "ĠkÃ¡": 5589,
      "ĠbÃł": 5590,
      "ĠPal": 5591,
      "áįĪáīµ": 5592,
      "Ġobs": 5593,
      "After": 5594,
      "ĠáīłáĪģ": 5595,
      "ĠrÃ©alis": 5596,
      "áĪķáĪŃ": 5597,
      "Ġmagharibi": 5598,
      "/)": 5599,
      "rer": 5600,
      "áįĳ": 5601,
      "áĪĺáī±": 5602,
      "áĬĲáĮĪ": 5603,
      "áĪ¨áī¥": 5604,
      "ĠOm": 5605,
      "okeo": 5606,
      "ĠáīĢáĮ¥": 5607,
      "aguzi": 5608,
      "Ġmasa": 5609,
      "irgin": 5610,
      "áĭµáĪ¨áĮį": 5611,
      "ĠUk": 5612,
      "áįĪáĪµ": 5613,
      "Ġ1972": 5614,
      "áĪŃáĭ«áĪĿ": 5615,
      "Ġregion": 5616,
      "Une": 5617,
      "ville": 5618,
      "ĠáĪ»": 5619,
      "ĠBlack": 5620,
      "ĠCha": 5621,
      "osai": 5622,
      "ache": 5623,
      "Ġ1973": 5624,
      "Ġ1962": 5625,
      "ĠUnion": 5626,
      "2004": 5627,
      "2006": 5628,
      "Unis": 5629,
      "áĪĿáĪħáĪŃ": 5630,
      "ĠáĬ¥áĬķáĮįáĪĬáĭĿ": 5631,
      "St": 5632,
      "bila": 5633,
      "ģáĬĳ": 5634,
      "Ġtur": 5635,
      "Ġcell": 5636,
      "Ġfaire": 5637,
      "ĠRoyal": 5638,
      "áĭ³áĪį": 5639,
      "áĮłáĪ©": 5640,
      "ĠáĬĵáīµ": 5641,
      "ĠáĬłáĮĪáĪįáĮį": 5642,
      "Ġterritoire": 5643,
      "Wh": 5644,
      "ht": 5645,
      "ĠmÃ¬ÃŃ": 5646,
      "atures": 5647,
      "Ġinst": 5648,
      "Ġstandard": 5649,
      "Ġhuo": 5650,
      "Ġinclude": 5651,
      "ĠáĬ¥áĭ¨áī°": 5652,
      "ifuata": 5653,
      "ĠáĭŃáī³áĭĪáīĥáĪį": 5654,
      "ĠáĪĺáĪłáĪ¨áīµ": 5655,
      "33": 5656,
      "sin": 5657,
      "Ġmont": 5658,
      "ĠGar": 5659,
      "Ġaliy": 5660,
      "lais": 5661,
      "lier": 5662,
      "ĠolÃ³rin": 5663,
      "Ġigba": 5664,
      "Ġhaifi": 5665,
      "Ġrubuta": 5666,
      "ĠdÃ©veloppement": 5667,
      "ĠEthiopia": 5668,
      "bol": 5669,
      "mÃº": 5670,
      "tist": 5671,
      "ĠSol": 5672,
      "ĠCoun": 5673,
      "ĠIV": 5674,
      "tage": 5675,
      "ĠHukum": 5676,
      "Ġilimin": 5677,
      "obe": 5678,
      "áĮłáĬĵ": 5679,
      "Ġmondi": 5680,
      "Ġtransl": 5681,
      "Ġhistory": 5682,
      "ĠÃ©crit": 5683,
      "ĠISBN": 5684,
      "áĬĹ": 5685,
      "itation": 5686,
      "Ġnear": 5687,
      "ĠRayayyun": 5688,
      "och": 5689,
      "ĠcÃ´": 5690,
      "Ġfer": 5691,
      "Ġintern": 5692,
      "âĢº": 5693,
      "ĠeuropÃ©": 5694,
      "ival": 5695,
      "Ġmagana": 5696,
      "Ġhalarci": 5697,
      "pp": 5698,
      "áĬĥ": 5699,
      "ubakar": 5700,
      "Ġplan": 5701,
      "esearch": 5702,
      "Ġfarkon": 5703,
      "ĠApple": 5704,
      "ĠKaskazini": 5705,
      "dÃłn": 5706,
      "Ġdoma": 5707,
      "Ġspe": 5708,
      "Ġjim": 5709,
      "ĠáĬ¥áĬĲáĭļáĪħ": 5710,
      "áĪ¨áĮĭ": 5711,
      "cep": 5712,
      "occ": 5713,
      "ijin": 5714,
      "Ġmwenye": 5715,
      "Ã©rique": 5716,
      "áįĵáĬķ": 5717,
      "ĠmÃ¬ÃŃrÃłn": 5718,
      "eau": 5719,
      "wh": 5720,
      "ĪáĪĿ": 5721,
      "isc": 5722,
      "unin": 5723,
      "idence": 5724,
      "áī£áĭĬ": 5725,
      "Ġime": 5726,
      "Ġcul": 5727,
      "Ġdel": 5728,
      "umwa": 5729,
      "áĭ°áĮį": 5730,
      "ibar": 5731,
      "ĠáĪĽáī´áĭİáĪµ": 5732,
      "ĠAnti": 5733,
      "Ġnamed": 5734,
      "gÃ¡": 5735,
      "´áį": 5736,
      "ĠáĬ¬": 5737,
      "áį²áį": 5738,
      "Ġgo": 5739,
      "abor": 5740,
      "oloj": 5741,
      "ĠWaz": 5742,
      "rain": 5743,
      "ĠáĪµáīµ": 5744,
      "Ġáĭįáĭµ": 5745,
      "ĠobÃ¬nrin": 5746,
      "ĠQue": 5747,
      "Ġsocial": 5748,
      "ĠGrand": 5749,
      "64": 5750,
      "ÙĲ": 5751,
      "Ġáĭ´": 5752,
      "Ġwill": 5753,
      "ĠDen": 5754,
      "inea": 5755,
      "ĠdÃ©m": 5756,
      "ports": 5757,
      "astern": 5758,
      "Ġfig": 5759,
      "Ġgl": 5760,
      "atiques": 5761,
      "Ġtoute": 5762,
      "ĠáĪĺáĬĲ": 5763,
      "Ġenviron": 5764,
      "uge": 5765,
      "ĠHenry": 5766,
      "ĠáĭķáĪĪáī³áīµ": 5767,
      "col": 5768,
      "lÃ¬": 5769,
      "taniya": 5770,
      "arar": 5771,
      "Ġcutar": 5772,
      "ĠNchi": 5773,
      "ĠTe": 5774,
      "ĠPres": 5775,
      "ĠáĪĺáĭĿ": 5776,
      "ston": 5777,
      "ifÃ¡": 5778,
      "amawa": 5779,
      "Ġproper": 5780,
      "Ġabs": 5781,
      "Ġtarihi": 5782,
      "89": 5783,
      "NA": 5784,
      "ĠMkoa": 5785,
      "Ġhark": 5786,
      "olf": 5787,
      "Ġá¹£Ãł": 5788,
      "Ġsix": 5789,
      "ĠKiarabu": 5790,
      "dÃºgbÃ²": 5791,
      "olojia": 5792,
      "Son": 5793,
      "bed": 5794,
      "Ġsosai": 5795,
      "Ġkisiwa": 5796,
      "Ġmic": 5797,
      "ality": 5798,
      "abo": 5799,
      "Ġáį³áį": 5800,
      "ĠÃ¬á¹£áº¹": 5801,
      "ĠEle": 5802,
      "ĠÃ©lÃ©": 5803,
      "Ġharshen": 5804,
      "Ġkin": 5805,
      "Ġpili": 5806,
      "aster": 5807,
      "ĠMov": 5808,
      "ĠBraz": 5809,
      "ĠWh": 5810,
      "ĠFI": 5811,
      "ĠHispania": 5812,
      "rait": 5813,
      "teurs": 5814,
      "Ġwithin": 5815,
      "very": 5816,
      "ards": 5817,
      "ĠipÃ²": 5818,
      "fia": 5819,
      "rÃºn": 5820,
      "zing": 5821,
      "ĠTan": 5822,
      "áĮĪáĭį": 5823,
      "ĠAlakoso": 5824,
      "Ġkasuwanci": 5825,
      "2003": 5826,
      "Ġbinc": 5827,
      "ĠáĮ¥áĬķáī³áĭĬ": 5828,
      "dáº¹": 5829,
      "ged": 5830,
      "hol": 5831,
      "hÃ¹n": 5832,
      "Ġ+": 5833,
      "Ġ),": 5834,
      "ataifa": 5835,
      "Ġunivers": 5836,
      "Ġshida": 5837,
      "Ġcomplex": 5838,
      "shir": 5839,
      "Ġitace": 5840,
      "ĠAmerica": 5841,
      "Ġagbegbe": 5842,
      "Is": 5843,
      "Ġair": 5844,
      "enia": 5845,
      "Ġmanu": 5846,
      "Ġdeven": 5847,
      "ĠáĬłáĪģáĬķ": 5848,
      "áĭ¨áī°": 5849,
      "ĠáīĢáĬĵáīµ": 5850,
      "Ġ1964": 5851,
      "Ġtaken": 5852,
      "Ġfamille": 5853,
      "ĠáĪŀáīµ": 5854,
      "Ġconsidered": 5855,
      "Ġpriv": 5856,
      "view": 5857,
      "She": 5858,
      "ii": 5859,
      "alle": 5860,
      "unis": 5861,
      "Ġomi": 5862,
      "ades": 5863,
      "áĮĪáĪª": 5864,
      "rier": 5865,
      "ĠáĭŃáĪĭáĪį": 5866,
      "Ġáĭ¨áĪĻ": 5867,
      "ÆĻa": 5868,
      "ĠYe": 5869,
      "áĭ®áĪŃ": 5870,
      "vely": 5871,
      "ĠMarejeo": 5872,
      "ether": 5873,
      "sÃ¬kÃ²": 5874,
      "sociation": 5875,
      "Ġpouvoir": 5876,
      "Tana": 5877,
      "work": 5878,
      "eric": 5879,
      "erne": 5880,
      "ately": 5881,
      "Ġfem": 5882,
      "ĠMary": 5883,
      "abin": 5884,
      "Ġlafiya": 5885,
      "ĠRom": 5886,
      "áĪĽáī½": 5887,
      "Ġabub": 5888,
      "Ġgwamnatin": 5889,
      "ĠFilm": 5890,
      "ared": 5891,
      "ĠMai": 5892,
      "ĠMoh": 5893,
      "ries": 5894,
      "Ġdue": 5895,
      "ĠáĭĵáĪĪáĪĿ": 5896,
      "ĠáīłáĬłáĬķáĭµ": 5897,
      "Ġindivid": 5898,
      "aires": 5899,
      "tient": 5900,
      "ably": 5901,
      "inga": 5902,
      "lav": 5903,
      "Ġ1961": 5904,
      "Ġ1963": 5905,
      "issance": 5906,
      "Ãªtre": 5907,
      "áĪŃáĪµáī²áĭ«": 5908,
      "ĠáįĵáĪŃáī²": 5909,
      "Ġreturn": 5910,
      "AM": 5911,
      "gor": 5912,
      "rich": 5913,
      "ĠAD": 5914,
      "omp": 5915,
      "ĠBorn": 5916,
      "Ġjou": 5917,
      "ĠIk": 5918,
      "ĠOba": 5919,
      "áĭĪáĪŃ": 5920,
      "upi": 5921,
      "Ġclaim": 5922,
      "Tarehe": 5923,
      "42": 5924,
      "kÃŃ": 5925,
      "Ġneman": 5926,
      "áįĦ": 5927,
      "ĠMakar": 5928,
      "ico": 5929,
      "áĪĽáĪŃ": 5930,
      "ĠáĭĪáĪ¨": 5931,
      "áįĪáĪĪ": 5932,
      "áĭ®áĪµ": 5933,
      "Ġavoir": 5934,
      "áĪ»áĭİáī½": 5935,
      "There": 5936,
      "Ġigb": 5937,
      "ĠKwalejin": 5938,
      "Ġbelie": 5939,
      "Ġnov": 5940,
      "Ġáīłáīµ": 5941,
      "Ġtof": 5942,
      "ĠLi": 5943,
      "áī³áī¸áĭįáĬķ": 5944,
      "ĠáĬłáĬķáĭ³": 5945,
      "Ġpossible": 5946,
      "Ġincre": 5947,
      "ĠØ§ÙĦ": 5948,
      "áĪĵ": 5949,
      "Ġmiji": 5950,
      "Ġ(;": 5951,
      "áĪĪáī¥": 5952,
      "Ġver": 5953,
      "ĠRec": 5954,
      "áĭĭáīµ": 5955,
      "ocin": 5956,
      "Ġperform": 5957,
      "73": 5958,
      "pro": 5959,
      "tiki": 5960,
      "ĠNor": 5961,
      "iongozi": 5962,
      "ĠChrist": 5963,
      "ected": 5964,
      "ĠáĪĺáĬķáĮįáĪµáīµ": 5965,
      "Ġclim": 5966,
      "ĠNijar": 5967,
      "ĠáĬłáĬ«áĪį": 5968,
      "ĠHistory": 5969,
      "Ġalbum": 5970,
      "idÃ©": 5971,
      "Ġvery": 5972,
      "ester": 5973,
      "riban": 5974,
      "ÆĻin": 5975,
      "rÃ©e": 5976,
      "oju": 5977,
      "Ġmashariki": 5978,
      "Ġcapit": 5979,
      "Ġpresent": 5980,
      "Ces": 5981,
      "áĮ¹": 5982,
      "amma": 5983,
      "ĠTV": 5984,
      "áĮįáĪį": 5985,
      "áĮįáī£": 5986,
      "ĠOpen": 5987,
      "tÃłkÃ¬": 5988,
      "aliforn": 5989,
      "Ġdhidi": 5990,
      "Tangu": 5991,
      "Ġika": 5992,
      "Ġsch": 5993,
      "Ġste": 5994,
      "Ġmes": 5995,
      "Ġfle": 5996,
      "ĠCons": 5997,
      "ĠNÃŃ": 5998,
      "ĠRuss": 5999,
      "ĠUch": 6000,
      "ĠáĬ¥áĬķáĪµ": 6001,
      "Ġáī¥áĪĪáĭį": 6002,
      "Ġáĭ°áī¡áī¥": 6003,
      "Ġ60": 6004,
      "ĠMaria": 6005,
      "áĬĵáĪįáī£áīµ": 6006,
      "áĮłáīĢáĪĿ": 6007,
      "estival": 6008,
      "Ġkis": 6009,
      "Ġkoy": 6010,
      "ĠolÃº": 6011,
      "read": 6012,
      "ĠHol": 6013,
      "ĠÆĻungiyar": 6014,
      "Ġ1945": 6015,
      "Ġidenti": 6016,
      "Ġparticular": 6017,
      "Ġáĭ¨áĬĲáīłáĪ¨áĭį": 6018,
      "Ġkadhaa": 6019,
      "amaduni": 6020,
      "Ge": 6021,
      "kal": 6022,
      "Ġtant": 6023,
      "Ġsasa": 6024,
      "Ġcount": 6025,
      "Ġyaani": 6026,
      "Ġrik": 6027,
      "áĪ«áĭį": 6028,
      "irefu": 6029,
      "áī»áĭŃáĬĵ": 6030,
      "ĠAnnabi": 6031,
      "Ġnouveau": 6032,
      "ĠáĭŃáĪĺáĪµáĪĭáĪį": 6033,
      "eur": 6034,
      "hes": 6035,
      "jÃ²": 6036,
      "Î±": 6037,
      "Ġá¹¢": 6038,
      "Ġschool": 6039,
      "enant": 6040,
      "Ġband": 6041,
      "Ġrashin": 6042,
      "umm": 6043,
      "ĠGold": 6044,
      "ĠGwamn": 6045,
      "ĠJos": 6046,
      "dire": 6047,
      "ctor": 6048,
      "Ġá¹£Ã¹gbá»į": 6049,
      "áĪ©áĬķ": 6050,
      "Ġquelques": 6051,
      "áĭ¨áĪ±áĪµ": 6052,
      "Ùı": 6053,
      "áīº": 6054,
      "uts": 6055,
      "Ã¨rent": 6056,
      "ĠPak": 6057,
      "ĠWal": 6058,
      "ĠFM": 6059,
      "ĠRed": 6060,
      "aracter": 6061,
      "áĪĮáĬŃáīµ": 6062,
      "ikip": 6063,
      "ĠáĭµáĪĿ": 6064,
      "Ġ1968": 6065,
      "Ġscience": 6066,
      "islamu": 6067,
      "ĠÃģfrÃŃkÃł": 6068,
      "ĠáĬŃáĪįáĪį": 6069,
      "ĠáįĪáĪŃáĭĸ": 6070,
      "55": 6071,
      "ram": 6072,
      "Ġiy": 6073,
      "Ġchi": 6074,
      "Ġ(),": 6075,
      "uments": 6076,
      "riv": 6077,
      "Ġthose": 6078,
      "Ġamong": 6079,
      "ĠJapani": 6080,
      "Ġgreat": 6081,
      "ĠJamhuri": 6082,
      "usiness": 6083,
      "Wannan": 6084,
      "ling": 6085,
      "Ġx": 6086,
      "áī¼": 6087,
      "Ġcult": 6088,
      "yaume": 6089,
      "Ġbayar": 6090,
      "urt": 6091,
      "Ġwao": 6092,
      "ĠOff": 6093,
      "ticle": 6094,
      "rict": 6095,
      "anzishwa": 6096,
      "anzibar": 6097,
      "ĠáĬķáĮīáĪµ": 6098,
      "gbegbe": 6099,
      "Ġzaben": 6100,
      "Apr": 6101,
      "Â²": 6102,
      "ãĥ": 6103,
      "tie": 6104,
      "ĠMap": 6105,
      "áĪįáĭ°": 6106,
      "edi": 6107,
      "Ġipin": 6108,
      "Ġosere": 6109,
      "38": 6110,
      "Ġmjini": 6111,
      "ikan": 6112,
      "ĠTech": 6113,
      "áī¥áĭĻ": 6114,
      "apá»į": 6115,
      "Ġáĭ¨áĪļáĪį": 6116,
      "ekuwa": 6117,
      "ĠMusa": 6118,
      "ĠáĪĨáĬĲáĭį": 6119,
      "ĠÃ©conom": 6120,
      "ĠMos": 6121,
      "ĠNo": 6122,
      "akini": 6123,
      "ĠRome": 6124,
      "bihi": 6125,
      "áĬ©áĪį": 6126,
      "Ġtrouve": 6127,
      "áĮłáīĥáĪĭáĭŃ": 6128,
      "ĠÃ²á¹£erÃ©": 6129,
      "xe": 6130,
      "Ġaur": 6131,
      "Ġlike": 6132,
      "ĠSer": 6133,
      "olu": 6134,
      "identi": 6135,
      "áĬĲáīłáĪŃ": 6136,
      "ĠdÃ¡ra": 6137,
      "dinin": 6138,
      "Ġmpya": 6139,
      "Ġdoc": 6140,
      "Ġlieu": 6141,
      "Ġnaf": 6142,
      "ĠLugha": 6143,
      "Ġcomb": 6144,
      "ĠAlbert": 6145,
      "Ġsaur": 6146,
      "Itokasi": 6147,
      "Ġáĭ¨áĪĿáīµ": 6148,
      "bÃłdÃłn": 6149,
      "''": 6150,
      "43": 6151,
      "=\"": 6152,
      "histoire": 6153,
      "pÃ¹": 6154,
      "ĠnÃ¬": 6155,
      "entomon": 6156,
      "round": 6157,
      "ayansi": 6158,
      "agen": 6159,
      "áī³áĭ°": 6160,
      "ÃŃnÃŃ": 6161,
      "ĠÆ´": 6162,
      "Ġcontrol": 6163,
      "isÃ©": 6164,
      "amia": 6165,
      "áĪįáīµ": 6166,
      "ĠFul": 6167,
      "ĠJac": 6168,
      "okan": 6169,
      "Ġart": 6170,
      "anyika": 6171,
      "Ġmusic": 6172,
      "ĠáĪ³áĭŃáĪĨáĬķ": 6173,
      "cil": 6174,
      "ypt": 6175,
      "ĠáĭĲ": 6176,
      "áĭ«áĭį": 6177,
      "Ġlaw": 6178,
      "ÃºsÃ¹": 6179,
      "ĠCong": 6180,
      "ĠáĬłáī£áĪį": 6181,
      "ĠáĪĺáĮ»": 6182,
      "áĪ«áĪµ": 6183,
      "Ġetc": 6184,
      "hairi": 6185,
      "ĠOlymp": 6186,
      "ired": 6187,
      "Ġhawa": 6188,
      "áī²áĬķ": 6189,
      "rice": 6190,
      "ologique": 6191,
      "Ġ1959": 6192,
      "ĠAbubakar": 6193,
      "ĠIsra": 6194,
      "Ġposition": 6195,
      "ukumbu": 6196,
      "ĠÃłgbÃ©lÃ©wÃ²": 6197,
      "Kuna": 6198,
      "kawa": 6199,
      "ĠMass": 6200,
      "ĠMiji": 6201,
      "Ġáīłáīħ": 6202,
      "ĠNuwa": 6203,
      "Ġkuu": 6204,
      "Ġadop": 6205,
      "Ġdied": 6206,
      "ĠReg": 6207,
      "Mar": 6208,
      "iÃ¨me": 6209,
      "ĠJana": 6210,
      "Ġsuff": 6211,
      "ĠáĪĽáĪħ": 6212,
      "erial": 6213,
      "Ġautre": 6214,
      "Ġ1930": 6215,
      "Ġkáº¹ta": 6216,
      "Ġlangage": 6217,
      "Ġlitta": 6218,
      "ĠLove": 6219,
      "Ð¾": 6220,
      "áī¬": 6221,
      "Ġcat": 6222,
      "ĠBattle": 6223,
      "ĠWash": 6224,
      "ĠDay": 6225,
      "ĠáĪĪáĭį": 6226,
      "áĮłáįĭ": 6227,
      "ĠAlÃ¡": 6228,
      "ĠIntern": 6229,
      "Ġáĭ¨áī°áĪĪáĭ«áĭ©": 6230,
      "Ġáī³áĪĭáīħ": 6231,
      "Ġá»Įjá»į": 6232,
      "Ġrecord": 6233,
      "Ġtsawon": 6234,
      "ÃłÃłyÃ¨": 6235,
      "99": 6236,
      "Pour": 6237,
      "uer": 6238,
      "áĮ³": 6239,
      "ĠáĬĳ": 6240,
      "ithi": 6241,
      "Ġáĭ¨áĭ°": 6242,
      "Ġgoma": 6243,
      "ĠKal": 6244,
      "ĠnÃŃtorÃŃ": 6245,
      "Ġáī°áĬĲ": 6246,
      "Ġstart": 6247,
      "ĠGuinea": 6248,
      "áĪĦáĭµ": 6249,
      "ĠprÃ©sent": 6250,
      "ĠUmoja": 6251,
      "Ġmilitary": 6252,
      "ĠáĪĽáĪµáī³áĭĪ": 6253,
      "Ġede": 6254,
      "Ġtattalin": 6255,
      "asse": 6256,
      "Ġban": 6257,
      "Ġáĭ¨áĮĪ": 6258,
      "ĠalÃłÃłyÃ¨": 6259,
      "ĠÃ¬wá»į": 6260,
      "ĠEk": 6261,
      "warar": 6262,
      "Ġpeuvent": 6263,
      "áĪĥáĬķ": 6264,
      "ĠThomas": 6265,
      "ĠáīłáĬ¥áĬķáĮįáĪĬáĭĿáĬĽ": 6266,
      "gbÃ¡yÃ©": 6267,
      "Ġprogram": 6268,
      "finition": 6269,
      "Ġlabarai": 6270,
      "Ġtofauti": 6271,
      "Manazarta": 6272,
      "Re": 6273,
      "µáį": 6274,
      "Ġnat": 6275,
      "Ġkumb": 6276,
      "ĠáĬłáĭµ": 6277,
      "Ġ2021": 6278,
      "ĠÃ¬bÃŃláº¹": 6279,
      "ĠÃ©qu": 6280,
      "áĪİáĬķ": 6281,
      "Ġ1957": 6282,
      "ĠÉĹa": 6283,
      "Ġidan": 6284,
      "Ġpremiers": 6285,
      "ĠApollo": 6286,
      "Ġkabisa": 6287,
      "Ġshirye": 6288,
      "Ġservice": 6289,
      "Wakati": 6290,
      "ĠpÃłtÃłkÃ¬": 6291,
      "Ġbakwai": 6292,
      "Ġastron": 6293,
      "hÃłn": 6294,
      "Ġdubu": 6295,
      "Ġkung": 6296,
      "Ġmik": 6297,
      "Ġdef": 6298,
      "umla": 6299,
      "ĠTer": 6300,
      "ĠGáº¹": 6301,
      "ĠJuli": 6302,
      "finai": 6303,
      "ĠIbra": 6304,
      "yÃłwÃ³": 6305,
      "88": 6306,
      "Wak": 6307,
      "Ð¸": 6308,
      "onti": 6309,
      "Ġsug": 6310,
      "Ġcy": 6311,
      "Ġbabbar": 6312,
      "ilitÃ©": 6313,
      "ĠAgba": 6314,
      "ĠMul": 6315,
      "áĪµáī±": 6316,
      "Ġtaf": 6317,
      "osp": 6318,
      "áĭ¨áĭį": 6319,
      "Ġkwam": 6320,
      "ende": 6321,
      "Ġseule": 6322,
      "ĠFrank": 6323,
      "cer": 6324,
      "hui": 6325,
      "nel": 6326,
      "ĠáĪ©": 6327,
      "Ã©ro": 6328,
      "asion": 6329,
      "ĠSin": 6330,
      "Ġáīłáĭļáĭ«": 6331,
      "ĠÃ¬f": 6332,
      "assan": 6333,
      "ĠArch": 6334,
      "And": 6335,
      "áĮłáĪį": 6336,
      "onnement": 6337,
      "ĠáĪĢáĮĪáĪŃ": 6338,
      "ĠgÃ©nÃ©ral": 6339,
      "ĠMichael": 6340,
      "Ġdeveloped": 6341,
      "ederal": 6342,
      "aissance": 6343,
      "Mji": 6344,
      "http": 6345,
      "ĠkÃ¬": 6346,
      "Ã©pend": 6347,
      "Ġfre": 6348,
      "ablished": 6349,
      "ĠPop": 6350,
      "Ġele": 6351,
      "áįįáĬĵ": 6352,
      "áīłáĪĮ": 6353,
      "eneral": 6354,
      "áĮ¥áĬķáī³áĭĬ": 6355,
      "ĠAbuja": 6356,
      "Ġkale": 6357,
      "Ġmuda": 6358,
      "Ġborn": 6359,
      "Ġhead": 6360,
      "áĪ±áĬķ": 6361,
      "Ġauthor": 6362,
      "Ġpoli": 6363,
      "Ġmwanasiasa": 6364,
      "Ġáĭ¨áī°áī£áĪĪáĭį": 6365,
      "Ġmuhimu": 6366,
      "Ġhankali": 6367,
      "ĠspÃ©ci": 6368,
      "yer": 6369,
      "ĠdÃł": 6370,
      "estion": 6371,
      "Ġcad": 6372,
      "ĠKit": 6373,
      "Ġtayi": 6374,
      "ĠáįĢ": 6375,
      "ĠáĭŃáĭĪ": 6376,
      "Ġáĭ¨áĪĮ": 6377,
      "áĬĲáīµáĬķ": 6378,
      "century": 6379,
      "Ġtarihin": 6380,
      "ocratic": 6381,
      "ĠáĭĻáĪªáĭ«": 6382,
      "ĠInstitute": 6383,
      "uz": 6384,
      "áĪŃáĪĭáĬķáĭµ": 6385,
      "Ġwurin": 6386,
      "ĠSah": 6387,
      "Ã¨de": 6388,
      "Ã¨mes": 6389,
      "ĠNord": 6390,
      "ingia": 6391,
      "Ġalong": 6392,
      "lafa": 6393,
      "obin": 6394,
      "áī¶áī¹": 6395,
      "Ġiá¹£": 6396,
      "áĪ²áĬķ": 6397,
      "2007": 6398,
      "Ġ1952": 6399,
      "Ġcentre": 6400,
      "Ġmuch": 6401,
      "ĠáĬ¥áĮħáĮį": 6402,
      "itzer": 6403,
      "Ġaina": 6404,
      "Ġstill": 6405,
      "áĪŃáĮį": 6406,
      "ĠáĮĨ": 6407,
      "ĠIgb": 6408,
      "áīłáĭį": 6409,
      "ĠFl": 6410,
      "áĬŃáĪĪ": 6411,
      "ĠEr": 6412,
      "áĭ¨áĪĺ": 6413,
      "ĠzaÉĵ": 6414,
      "ither": 6415,
      "186": 6416,
      "Ġá»ĮdÃºn": 6417,
      "Ġdiscov": 6418,
      "áī¨áĪŃ": 6419,
      "Ġayyukan": 6420,
      "Ãītat": 6421,
      "jan": 6422,
      "Î¿": 6423,
      "Ġline": 6424,
      "Ġkij": 6425,
      "áĭŃáĬĲáīµ": 6426,
      "Ġalm": 6427,
      "Ġá»įká»į": 6428,
      "ariya": 6429,
      "áĭĺáī¥": 6430,
      "ĠIsland": 6431,
      "ĠIslam": 6432,
      "Ġrepresent": 6433,
      "Ġnombreuses": 6434,
      "Ġgrec": 6435,
      "ĠWakristo": 6436,
      "sÃ³": 6437,
      "Ġtard": 6438,
      "enz": 6439,
      "Ġnorm": 6440,
      "Ġlet": 6441,
      "Ã©qu": 6442,
      "adil": 6443,
      "áĬĲáīłáĪ¨": 6444,
      "cian": 6445,
      "ĠÃ¬l": 6446,
      "áĬ¨áĪŃ": 6447,
      "Ġparfois": 6448,
      "áĬ«áī£áī¢": 6449,
      "ĠAdam": 6450,
      "Ã®le": 6451,
      "ĠMayu": 6452,
      "Ġgwamnati": 6453,
      "ĠIbrahim": 6454,
      "sÃł": 6455,
      "Ġmouv": 6456,
      "Ġcaus": 6457,
      "imba": 6458,
      "ĠWat": 6459,
      "Ġens": 6460,
      "áĪªáī³": 6461,
      "gaj": 6462,
      "Ġusing": 6463,
      "ĠáĬ«áĪį": 6464,
      "Ġmilima": 6465,
      "ĠolÃ³á¹£Ã¨lÃº": 6466,
      "Ġkimanin": 6467,
      "ĠAngel": 6468,
      "ĠAustria": 6469,
      "ĠMartin": 6470,
      "CC": 6471,
      "Pro": 6472,
      "ĠdÃº": 6473,
      "Ġdok": 6474,
      "Ġsou": 6475,
      "Ġmch": 6476,
      "Ġwo": 6477,
      "ĠBern": 6478,
      "ĠLim": 6479,
      "Ġred": 6480,
      "fique": 6481,
      "Ġ1958": 6482,
      "Ġ1940": 6483,
      "):": 6484,
      "arth": 6485,
      "Ġsor": 6486,
      "Ġnit": 6487,
      "Ġnuc": 6488,
      "Ġnasara": 6489,
      "Ġhili": 6490,
      "Ġweb": 6491,
      "áĬŃáĪŃáĪµáī²áĭ«áĬķ": 6492,
      "ĠHouse": 6493,
      "Ġkasashen": 6494,
      "Ġmathem": 6495,
      "Ġavait": 6496,
      "ĠArt": 6497,
      "Ġmilioni": 6498,
      "Ġcerta": 6499,
      "Ġkirk": 6500,
      "wÃ¹": 6501,
      "ĠAwá»įn": 6502,
      "icain": 6503,
      "Ã¨le": 6504,
      "ĠChin": 6505,
      "áĮĪáĬĽ": 6506,
      "ĠáĪĺáĪ¨áĮĥ": 6507,
      "Ġila": 6508,
      "ĠáĪĽáĮ£": 6509,
      "ditions": 6510,
      "áī²áĬŃ": 6511,
      "illed": 6512,
      "lication": 6513,
      "Ġsignific": 6514,
      "ĠTurai": 6515,
      "ĠcaractÃ©r": 6516,
      "Europe": 6517,
      "daban": 6518,
      "tum": 6519,
      "itokea": 6520,
      "urr": 6521,
      "ĠMc": 6522,
      "ĠKij": 6523,
      "ister": 6524,
      "Ġrecher": 6525,
      "ract": 6526,
      "Ġcountry": 6527,
      "pasáº¹": 6528,
      "lus": 6529,
      "wili": 6530,
      "ĠáĬłáĬĲ": 6531,
      "Ġve": 6532,
      "ĠYoh": 6533,
      "Ġcharacter": 6534,
      "áĭĺáĬķ": 6535,
      "Ã©rature": 6536,
      "2015": 6537,
      "ĠMaris": 6538,
      "Ġcourt": 6539,
      "ĠPremi": 6540,
      "Ã¡Ã¬sÃŃ": 6541,
      "41": 6542,
      "John": 6543,
      "con": 6544,
      "rÃ¹": 6545,
      "ture": 6546,
      "ĠowÃ³": 6547,
      "ilt": 6548,
      "abab": 6549,
      "ĠBest": 6550,
      "ayÃ©": 6551,
      "ĠGÃ³mÃ¬nÃł": 6552,
      "ĠFab": 6553,
      "áĪ³áī°": 6554,
      "ĠáĭŃáī»": 6555,
      "ĠáīłáĪį": 6556,
      "ĠÃ©tant": 6557,
      "áĪĪáī°áĬĽáĭį": 6558,
      "ĠRichard": 6559,
      "ĠáīłáĬ©áĪį": 6560,
      "lie": 6561,
      "mark": 6562,
      "áĬ½": 6563,
      "áĬĭáĪĭ": 6564,
      "inf": 6565,
      "áīµáĪĿ": 6566,
      "Ġbá»į": 6567,
      "áĭ«áĪµ": 6568,
      "ĠáĬ¥áĭµ": 6569,
      "ĠáĪĺáĪĪ": 6570,
      "agb": 6571,
      "ĠHigh": 6572,
      "ĠAnt": 6573,
      "ĠáĬ¥áĬķáĭ°áĪĨáĬĲ": 6574,
      "ĠapÃ¡": 6575,
      "Ã¨rement": 6576,
      "Ġdiffic": 6577,
      "ethod": 6578,
      "ĠÆ³": 6579,
      "dÃŃnlÃ³gÃºn": 6580,
      "77": 6581,
      "Ki": 6582,
      "cap": 6583,
      "Ġ$": 6584,
      "Ġ<": 6585,
      "áĬ¾": 6586,
      "Ġkur": 6587,
      "ĠÃ®": 6588,
      "ĠMy": 6589,
      "ĠCaliforn": 6590,
      "ĠIjoba": 6591,
      "Ġaliye": 6592,
      "Ġmaana": 6593,
      "áī¸áĭĭáĪį": 6594,
      "ĠChamp": 6595,
      "Ġesp": 6596,
      "Ġáĭ¨áĪĨáĬĳ": 6597,
      "ĠTrans": 6598,
      "Ġáĭ©áĬĴ": 6599,
      "Ø¨": 6600,
      "Ġlow": 6601,
      "adhim": 6602,
      "áī¥áĪĬáĬŃ": 6603,
      "ĠWatu": 6604,
      "Ġáĭ«áĪī": 6605,
      "ĠVer": 6606,
      "Ġfield": 6607,
      "Ã¢te": 6608,
      "ĠdÃ©sign": 6609,
      "hief": 6610,
      "Ġkumbukumbu": 6611,
      "AR": 6612,
      "áĬķáĮ«": 6613,
      "Ġáĭ¨áĪĭ": 6614,
      "utÃ©": 6615,
      "áīłáĬĽ": 6616,
      "áĪ«áĪĿ": 6617,
      "Ġáī°áīĭ": 6618,
      "aff": 6619,
      "ĠdÃ©cl": 6620,
      "ensi": 6621,
      "These": 6622,
      "Ġtravers": 6623,
      "áįĵáĬķáĭ«": 6624,
      "Ġsakand": 6625,
      "Ġáīłáĭ°áī¡áī¥": 6626,
      "ĠPeter": 6627,
      "56": 6628,
      "58": 6629,
      "ĠtÃ©lÃ©": 6630,
      "Ġpendant": 6631,
      "áĭ«áĭ«": 6632,
      "igo": 6633,
      "Ġils": 6634,
      "Ana": 6635,
      "áīģáĪŃ": 6636,
      "Ġvarious": 6637,
      "Ġlilikuwa": 6638,
      "Ġgiven": 6639,
      "ĠFIFA": 6640,
      "áĬ¡": 6641,
      "Ġsune": 6642,
      "alÃ¡Ã¬sÃŃ": 6643,
      "Ġfili": 6644,
      "áĪĪáĭ°": 6645,
      "ĠáĪĺáĭĭ": 6646,
      "ĠÆĻid": 6647,
      "Ġmwisho": 6648,
      "ĠáĬ«áĪĮ": 6649,
      "wards": 6650,
      "ĠÃ©taient": 6651,
      "Awon": 6652,
      "bro": 6653,
      "Ġsett": 6654,
      "Ġmirefu": 6655,
      "Ġcode": 6656,
      "Ġwaka": 6657,
      "Ġhuu": 6658,
      "Ġinform": 6659,
      "Ġindepend": 6660,
      "abijin": 6661,
      "igu": 6662,
      "Ġund": 6663,
      "ĠVict": 6664,
      "Ġshort": 6665,
      "aja": 6666,
      "ĠAfr": 6667,
      "áĭĽáĪ¬": 6668,
      "Ġrelations": 6669,
      "Ġwadda": 6670,
      "Ġoriginal": 6671,
      "Ġajili": 6672,
      "Ġnafasi": 6673,
      "Bi": 6674,
      "lov": 6675,
      "ÙĴ": 6676,
      "áĮ¼": 6677,
      "oris": 6678,
      "amani": 6679,
      "Ġ(,": 6680,
      "ĠMw": 6681,
      "áĬĲáī¶áī½": 6682,
      "ĠáĪĺáī¶": 6683,
      "ĠGa": 6684,
      "ĠDut": 6685,
      "áĮ¥áĪĿ": 6686,
      "ÆĻi": 6687,
      "áįĪáĬķ": 6688,
      "Ġwhat": 6689,
      "Ġáĭ¨áī°áĬŃáĪī": 6690,
      "áĪ©áĪĿ": 6691,
      "áī¢áīµ": 6692,
      "ĠprÃ©sident": 6693,
      "ĠIndiya": 6694,
      "ĠrÃ¨g": 6695,
      "atholic": 6696,
      "44": 6697,
      "71": 6698,
      "dic": 6699,
      "Ġnow": 6700,
      "ĠSak": 6701,
      "quer": 6702,
      "ĠáīłáĬ¨": 6703,
      "riÃ¨re": 6704,
      "Ġeven": 6705,
      "Ġremp": 6706,
      "áīĢáĪį": 6707,
      "Ġcompany": 6708,
      "ĠAss": 6709,
      "Ġ1956": 6710,
      "Ġwalio": 6711,
      "Papa": 6712,
      "esu": 6713,
      "Ġmkoa": 6714,
      "Ġcase": 6715,
      "Ġáĭ¨áįĸ": 6716,
      "ĠSing": 6717,
      "ĠRh": 6718,
      "Ġá»įba": 6719,
      "áĬłáĭŃ": 6720,
      "ankin": 6721,
      "prim": 6722,
      "ĠNiger": 6723,
      "ografia": 6724,
      "Ġwalikuwa": 6725,
      "Ġmapokeo": 6726,
      "Ġmengine": 6727,
      "ĠTanbihi": 6728,
      "darÃŃ": 6729,
      "gem": 6730,
      "Ġtá»į": 6731,
      "Ġlate": 6732,
      "Ġlett": 6733,
      "Ġcika": 6734,
      "utes": 6735,
      "áī³áī½áĬķ": 6736,
      "ogni": 6737,
      "lied": 6738,
      "Ġsucc": 6739,
      "áĪĬáĭ®áĬķ": 6740,
      "Ġhizi": 6741,
      "áĭ°áĪ¨áĮī": 6742,
      "Ġrayuwar": 6743,
      "Ġgouvernement": 6744,
      "pir": 6745,
      "vin": 6746,
      "unar": 6747,
      "ĠMs": 6748,
      "Ġtook": 6749,
      "ĠáĭŃáĮłáīĢ": 6750,
      "ĠáīłáĪ¨": 6751,
      "engo": 6752,
      "ĠáĮĪáī¥": 6753,
      "Ġmiliyan": 6754,
      "ennent": 6755,
      "ĠáĭĵáĪĺáī±": 6756,
      "ĠOlÃ³": 6757,
      "ĠTarayyar": 6758,
      "IC": 6759,
      "wun": 6760,
      "arm": 6761,
      "irÃŃ": 6762,
      "Ġjin": 6763,
      "áĭµáĪµáīµ": 6764,
      "ops": 6765,
      "á¹£Ã²": 6766,
      "áįįáĪªáĬ«": 6767,
      "Ġbaadaye": 6768,
      "arkon": 6769,
      "ticles": 6770,
      "2016": 6771,
      "áĬĳáĪµ": 6772,
      "Ġhel": 6773,
      "áĮłáĪĭ": 6774,
      "03": 6775,
      "79": 6776,
      "Awá»įn": 6777,
      "BA": 6778,
      "Nig": 6779,
      "Ðµ": 6780,
      "áĭ£": 6781,
      "Ġdyn": 6782,
      "Ġáĭ±": 6783,
      "Ġlast": 6784,
      "ĠkÃł": 6785,
      "Ġbre": 6786,
      "ĠÃłp": 6787,
      "áĪĪáĭĭáĪį": 6788,
      "ĠBy": 6789,
      "agon": 6790,
      "ĠFa": 6791,
      "ĠJi": 6792,
      "Ġegbe": 6793,
      "Ġ--": 6794,
      "áĭ¨áĬłáĪ": 6795,
      "áīħáĪµ": 6796,
      "Ġquatre": 6797,
      "aje": 6798,
      "ĠZanzibar": 6799,
      "sÃŃtÃ¬": 6800,
      "ĠsociÃ©tÃ©": 6801,
      "Ġáĭ¨áĪ°áĭį": 6802,
      "Ġdroit": 6803,
      "ootball": 6804,
      "hal": 6805,
      "jourd": 6806,
      "nÃ©": 6807,
      "Ġtab": 6808,
      "uniyar": 6809,
      "andid": 6810,
      "icha": 6811,
      "ĠWomen": 6812,
      "Ġáį«": 6813,
      "áĪªáīµ": 6814,
      "ĠáĬłáĪ°": 6815,
      "áĬ¨áĪ«": 6816,
      "ĠáīµáĪįáīħ": 6817,
      "áĬ¥áĮįáĭļáĬłáī¥áĪĶáĪŃ": 6818,
      "ĠAssociation": 6819,
      "Ġcoup": 6820,
      "ĠáĪľáīµáĪŃ": 6821,
      "fuatana": 6822,
      "mÃ²": 6823,
      "xi": 6824,
      "Ġtalla": 6825,
      "Ã©li": 6826,
      "olo": 6827,
      "ĠBrit": 6828,
      "Ġjeshi": 6829,
      "áĮĪáĬĲ": 6830,
      "ĠWá»į": 6831,
      "ĠÃ¬dÃ¡": 6832,
      "Ġmusique": 6833,
      "ĠáĪķáĭĿ": 6834,
      "Ã¢ce": 6835,
      "ĠáĪĺáĮłáĬķ": 6836,
      "ĠSociety": 6837,
      "ĠáįķáĪ¬áĭļ": 6838,
      "Acc": 6839,
      "Ġnouvelle": 6840,
      "ĠMt": 6841,
      "Ġdeg": 6842,
      "ĠáĭįáĮ¤": 6843,
      "ĠÃĮbÃłdÃłn": 6844,
      "ĠArts": 6845,
      "Ġiwe": 6846,
      "ĠáĪ¥áĪĭáĪ´": 6847,
      "embre": 6848,
      "Ġkáº¹rin": 6849,
      "Ġbuild": 6850,
      "Ġáĭŀ": 6851,
      "ĠlÃ²": 6852,
      "Ġkofin": 6853,
      "Ġhydro": 6854,
      "Ġoffic": 6855,
      "ĠCa": 6856,
      "Ã¬má»į": 6857,
      "araka": 6858,
      "áī£áĪī": 6859,
      "neo": 6860,
      "ikiwa": 6861,
      "áĪŀáīµ": 6862,
      "Ġakoko": 6863,
      "Ġsupp": 6864,
      "Ġwengine": 6865,
      "Ġzinaz": 6866,
      "Lakini": 6867,
      "Ġdim": 6868,
      "Ġkundi": 6869,
      "Ã©poque": 6870,
      "asashen": 6871,
      "ĠÃłÃł": 6872,
      "Ġanal": 6873,
      "wararr": 6874,
      "ĠlÃ¡báº¹": 6875,
      "áĭķáĭĿ": 6876,
      "áĬķáĭ³áĪŃ": 6877,
      "III": 6878,
      "Ġancient": 6879,
      "ĠáĮįáī¥áĮ½": 6880,
      "ĠáĭŃáī»áĪĭáĪį": 6881,
      "Ġ~": 6882,
      "itan": 6883,
      "ĠMer": 6884,
      "Ġhilo": 6885,
      "ribut": 6886,
      "ohann": 6887,
      "Ġ80": 6888,
      "Ġ1947": 6889,
      "Ġ1948": 6890,
      "áĬ¨áī°áĪĪáĭį": 6891,
      "Da": 6892,
      "self": 6893,
      "Ġdip": 6894,
      "ilin": 6895,
      "Ġfus": 6896,
      "áĪµáī°áĬĽ": 6897,
      "ĠKale": 6898,
      "osph": 6899,
      "ĠáĬ¨áĪĽ": 6900,
      "áĭ³áĮħ": 6901,
      "áĬłáĬķ": 6902,
      "Ġold": 6903,
      "ĠáĭµáĬķ": 6904,
      "ĠLeague": 6905,
      "Ġayáº¹": 6906,
      "Ġpublished": 6907,
      "Ġdevelopment": 6908,
      "Ġstructure": 6909,
      "ĠáĮ½áĪĳáįį": 6910,
      "ĠPakistan": 6911,
      "96": 6912,
      "Agbegbe": 6913,
      "oe": 6914,
      "Ġtatu": 6915,
      "Ġkina": 6916,
      "Ġgbe": 6917,
      "olis": 6918,
      "ĠáĪĪáī°": 6919,
      "Ġami": 6920,
      "ĠáĬ¥áĬķáĭ°áī°": 6921,
      "ĠáīłáĪĺáĪĨáĬĳ": 6922,
      "illeurs": 6923,
      "Ġprom": 6924,
      "Ġhistoria": 6925,
      "Ġviol": 6926,
      "ĠBrazil": 6927,
      "ĠÆ³an": 6928,
      "Ø¯": 6929,
      "Ġpot": 6930,
      "áĪĪáĪģ": 6931,
      "ĠPri": 6932,
      "Ġzake": 6933,
      "ĠUmar": 6934,
      "áĪ¥áī±": 6935,
      "udies": 6936,
      "ĠáĪħáĭĿáī¥": 6937,
      "Ġagric": 6938,
      "Ġkabila": 6939,
      "ĠYoruba": 6940,
      "ĠUrusi": 6941,
      "áĮİáĪŃáĮİáĪŃ": 6942,
      "Alex": 6943,
      "hara": 6944,
      "tition": 6945,
      "Ġhudu": 6946,
      "irika": 6947,
      "áī½áĪį": 6948,
      "ems": 6949,
      "Ġnipa": 6950,
      "ĠJama": 6951,
      "áĭ³áĬķáīµ": 6952,
      "pele": 6953,
      "áĬłáĪį": 6954,
      "ĠáĪµáĪĪáĭļáĪħ": 6955,
      "Ġpermett": 6956,
      "ĠYohane": 6957,
      "Vi": 6958,
      "dis": 6959,
      "kn": 6960,
      "Ġtabb": 6961,
      "Ġcivil": 6962,
      "Ġfact": 6963,
      "ÃºÃºsÃ¹": 6964,
      "Ġjour": 6965,
      "uls": 6966,
      "ĠáĬłáī£áīµ": 6967,
      "ĠHaut": 6968,
      "opa": 6969,
      "Ġanother": 6970,
      "Ġcomputer": 6971,
      "ĠIbile": 6972,
      "Ġambako": 6973,
      "Ġmfano": 6974,
      "Ġhakan": 6975,
      "áĬ³áĬķ": 6976,
      "ĠáĪĿáĬķáĮŃ": 6977,
      "Ġáĭ¨áĪĺáĮĢáĪĺáĪªáĭ«áĭį": 6978,
      "ĠBello": 6979,
      "ĠáĭµáĪŃáĮħáīµ": 6980,
      "tan": 6981,
      "áī§": 6982,
      "Ġtir": 6983,
      "ishe": 6984,
      "Ġwats": 6985,
      "Ġhuman": 6986,
      "atia": 6987,
      "abiwa": 6988,
      "imfuata": 6989,
      "ĠáĬłáĭ¨áĪŃ": 6990,
      "Ġniveau": 6991,
      "ĠWam": 6992,
      "áī£áī¥": 6993,
      "Ġáĭ¨áĬĸ": 6994,
      "ugal": 6995,
      "Ġforce": 6996,
      "aisari": 6997,
      "ĠáĬŃáĪŃáĪµáī¶áĪµ": 6998,
      "Ġmash": 6999,
      "Ġappar": 7000,
      "Ġautom": 7001,
      "Ġkusa": 7002,
      "ĠáįĬáĭ°áĪį": 7003,
      "ĠáĪ«áĪµ": 7004,
      "ĠMagharibi": 7005,
      "Ġreste": 7006,
      "ĠFrancis": 7007,
      "ghan": 7008,
      "áĮ¾": 7009,
      "Ġpal": 7010,
      "ĠKig": 7011,
      "Ã¨se": 7012,
      "Ġjimbo": 7013,
      "ĠCount": 7014,
      "Ġ1920": 7015,
      "chÃ©": 7016,
      "áĪĭáĬķ": 7017,
      "ĠáīłáĪĨ": 7018,
      "áĬ¨áī¥": 7019,
      "áĭĽáĭĿ": 7020,
      "anzisha": 7021,
      "erbaij": 7022,
      "ĠMkuu": 7023,
      "Ġsource": 7024,
      "ĠáĬłáĭŃáĭ°áĪĪáĪĿ": 7025,
      "ĠHukumar": 7026,
      "anus": 7027,
      "ĠSala": 7028,
      "ĠáīłáĪ«": 7029,
      "Ġasali": 7030,
      "cesse": 7031,
      "Ġadv": 7032,
      "ambia": 7033,
      "ĠEnugu": 7034,
      "Ġ70": 7035,
      "áĮ¡áīµ": 7036,
      "umbers": 7037,
      "coup": 7038,
      "ĠáĬłáĬķáĭ³áĬķáĭµ": 7039,
      "Ap": 7040,
      "mai": 7041,
      "tÃ¡": 7042,
      "itants": 7043,
      "Ġhand": 7044,
      "ĠShi": 7045,
      "ĠStr": 7046,
      "ĠBak": 7047,
      "Ġjá»į": 7048,
      "ĠCO": 7049,
      "ĠNd": 7050,
      "uble": 7051,
      "ĠÃ©v": 7052,
      "ovuti": 7053,
      "ojin": 7054,
      "áĬĿáĬĲáīµ": 7055,
      "ĠáīģáĮ¥": 7056,
      "Ġgeneral": 7057,
      "Ġattack": 7058,
      "34": 7059,
      "Ex": 7060,
      "met": 7061,
      "well": 7062,
      "Ġkare": 7063,
      "áĪįáĬķ": 7064,
      "ĠSovi": 7065,
      "ĠSikukuu": 7066,
      "agun": 7067,
      "áĪ«áĬ¤áĪį": 7068,
      "áīłáĪ¬": 7069,
      "áĭĿáĪĽáī½": 7070,
      "Ġkowa": 7071,
      "Ġcertain": 7072,
      "ĠáĬłáĪĿáĪĭáĬŃ": 7073,
      "gajiya": 7074,
      "98": 7075,
      "Jina": 7076,
      "uff": 7077,
      "arwa": 7078,
      "Ġmyth": 7079,
      "orph": 7080,
      "áĪŃáĬķ": 7081,
      "ĠAv": 7082,
      "áĪµáī¶": 7083,
      "Ġgaban": 7084,
      "Ġroma": 7085,
      "ĠÃłjá»į": 7086,
      "ido": 7087,
      "Ġvon": 7088,
      "ĠZe": 7089,
      "ched": 7090,
      "Ġgbá»į": 7091,
      "ĠáĬ¨áī°áĪĽáĭį": 7092,
      "Ġhuadhim": 7093,
      "ĠMusic": 7094,
      "Ġprofession": 7095,
      "ĠáīłáĪĻáĪī": 7096,
      "Ġmnamo": 7097,
      "ĠTechn": 7098,
      "rad": 7099,
      "Ġsar": 7100,
      "ĠMod": 7101,
      "quel": 7102,
      "ĠáĪĺáĪ³": 7103,
      "ĠáĪĺáĮ¥": 7104,
      "áīłáī³áĪį": 7105,
      "ĠáĬ¨áĪ°": 7106,
      "Ġread": 7107,
      "ĠtÃŃtÃŃ": 7108,
      "áĬ«áī³": 7109,
      "Ġestablished": 7110,
      "ĠáĬ¥áĬķáĭ°áĮĪáĬĵ": 7111,
      "ĠMaka": 7112,
      "Ġbirth": 7113,
      "Ġagba": 7114,
      "Ġmahali": 7115,
      "Ġabinci": 7116,
      "ĠhaÉĹa": 7117,
      "Ġmembers": 7118,
      "Ġhannu": 7119,
      "ĠDelta": 7120,
      "ĠáĪĽáĪŃáīĨáĪµ": 7121,
      "95": 7122,
      "Des": 7123,
      "Ġsáº¹": 7124,
      "Ġday": 7125,
      "Ġgwa": 7126,
      "áĭ«áĭĿ": 7127,
      "Ġep": 7128,
      "ĠáīłáĬ¢": 7129,
      "ĠShug": 7130,
      "Ġcommunes": 7131,
      "ĠÆĻidayar": 7132,
      "ĠáĬ«áĪĮáĬķáĭ³áĪŃ": 7133,
      "During": 7134,
      "utilis": 7135,
      "onia": 7136,
      "Ġkoloni": 7137,
      "Ġbikin": 7138,
      "eda": 7139,
      "ĠKasa": 7140,
      "ĠCibiyar": 7141,
      "Ġcommune": 7142,
      "áīĭáĬķáīĭ": 7143,
      "Ġ1951": 7144,
      "Ġallow": 7145,
      "áĬķáĭ³áĬķáĭµ": 7146,
      "ĠutilisÃ©": 7147,
      "áĮİáĪŃáĮİáĪŃáĭ«áĬķ": 7148,
      "vement": 7149,
      "ysi": 7150,
      "Ġcame": 7151,
      "Ġway": 7152,
      "abaki": 7153,
      "ĠáĪĺáĮ£": 7154,
      "istance": 7155,
      "kea": 7156,
      "áĪŀáĬŃ": 7157,
      "pain": 7158,
      "Ġouv": 7159,
      "onique": 7160,
      "ĠáįķáĪ®": 7161,
      "áĮ£áĪįáĭ«áĬķ": 7162,
      "Waliozaliwa": 7163,
      "ĠHotuna": 7164,
      "ĠáīłáĪ½áī³": 7165,
      "ĠMakarantar": 7166,
      "ĠNuwamba": 7167,
      "ĠáĪĽáĮ£áīĢ": 7168,
      "cel": 7169,
      "arn": 7170,
      "Ġdate": 7171,
      "ĠáĬĹ": 7172,
      "áĪįáĮħ": 7173,
      "omina": 7174,
      "Ġáī°áĬĵ": 7175,
      "stant": 7176,
      "Ġ1954": 7177,
      "embl": 7178,
      "Ã®tre": 7179,
      "ĠhaÉĹin": 7180,
      "Ġtimes": 7181,
      "ĠáĪİ": 7182,
      "áĪįáįį": 7183,
      "áī°áĬĽáĭį": 7184,
      "áĪĺáĪ«": 7185,
      "ĠLand": 7186,
      "ĠyÃłn": 7187,
      "áĪ«áĪ½": 7188,
      "Ġrele": 7189,
      "ĠUN": 7190,
      "issent": 7191,
      "áĪµáīµáĬĵ": 7192,
      "Ġibile": 7193,
      "ĠgboyÃ¨": 7194,
      "ĠMuhammadu": 7195,
      "ĠCanada": 7196,
      "ĠWashington": 7197,
      "By": 7198,
      "rest": 7199,
      "anish": 7200,
      "Ġdal": 7201,
      "orie": 7202,
      "amakon": 7203,
      "ombo": 7204,
      "ĠSil": 7205,
      "Ġáīłáįį": 7206,
      "aries": 7207,
      "ĠáĪĿáĬĵáĪįáī£áīµ": 7208,
      "Ġsepar": 7209,
      "2010": 7210,
      "2014": 7211,
      "áĮİáĬķ": 7212,
      "áĬłáĪĿ": 7213,
      "ideo": 7214,
      "idae": 7215,
      "ĠáĬłáĪĪáĪĿ": 7216,
      "Ġayant": 7217,
      "áĭ³áĬķáĭ±": 7218,
      "ĠOrÃŃláº¹": 7219,
      "Åĵuvre": 7220,
      "ifÃ¡sÃŃtÃ¬": 7221,
      "áĭ®áĪŃáĮĬ": 7222,
      "Some": 7223,
      "lles": 7224,
      "iman": 7225,
      "ĠNic": 7226,
      "âĢľ": 7227,
      "Ġrev": 7228,
      "Ġjeu": 7229,
      "áĭ´áīµ": 7230,
      "jÃ¡de": 7231,
      "Ġworks": 7232,
      "Ġretro": 7233,
      "ĠEuropean": 7234,
      "Ġwritten": 7235,
      "Ġyamma": 7236,
      "ĠBorno": 7237,
      "AprÃ¨s": 7238,
      "ĠCongress": 7239,
      "Mah": 7240,
      "comm": 7241,
      "anzi": 7242,
      "ĠAst": 7243,
      "áĪįáīģ": 7244,
      "áĪµáĪĿ": 7245,
      "Ġwid": 7246,
      "ĠKÃ¡": 7247,
      "ĠCam": 7248,
      "ĠNations": 7249,
      "ĠUt": 7250,
      "ubali": 7251,
      "Ġneed": 7252,
      "2009": 7253,
      "yota": 7254,
      "Ġáīłáī¥áĭĽáīµ": 7255,
      "Ġmanuf": 7256,
      "OS": 7257,
      "kur": 7258,
      "Ġmother": 7259,
      "lec": 7260,
      "áī½áĪģ": 7261,
      "akan": 7262,
      "Ġleft": 7263,
      "hiyar": 7264,
      "Ġáīµáĭį": 7265,
      "ĠáĪįáĭ°áīµ": 7266,
      "Ġaddition": 7267,
      "ĠwÃ¡yÃ©": 7268,
      "Ġroi": 7269,
      "Ġáĭ¨áīĢáĬķ": 7270,
      "Ġáĭ¨áĭĵáĪĪáĪĿ": 7271,
      "72": 7272,
      "hÃ¬n": 7273,
      "oud": 7274,
      "ĠtÃ¬": 7275,
      "Ġtable": 7276,
      "Ġdawo": 7277,
      "Ġjinsi": 7278,
      "Ġtaima": 7279,
      "áĮĪáīµ": 7280,
      "ĠDunia": 7281,
      "ĠÃ¬rÃ²yÃ¬n": 7282,
      "Ġáī°áĭĭ": 7283,
      "oku": 7284,
      "Ġtiti": 7285,
      "gawa": 7286,
      "áīłáĪ°": 7287,
      "áĪ¥áĪ«áīħ": 7288,
      "rick": 7289,
      "ĠArgent": 7290,
      "ĠáįĪáĪ¨áĬķ": 7291,
      "áĬªáĭ«": 7292,
      "ĠlÃ³rÃŃláº¹": 7293,
      "ĠgÃ©nÃ©ralement": 7294,
      "Ġgege": 7295,
      "Ġengine": 7296,
      "¹áį": 7297,
      "ºáį": 7298,
      "Ġaz": 7299,
      "Ġsl": 7300,
      "Ġsaf": 7301,
      "ened": 7302,
      "ĠáĪ¹": 7303,
      "irm": 7304,
      "ĠKif": 7305,
      "Ġtop": 7306,
      "ĠDon": 7307,
      "Ġeconom": 7308,
      "ĠáīłáĪķ": 7309,
      "áīłáĪī": 7310,
      "Ġkanta": 7311,
      "Ġphot": 7312,
      "jáº¹s": 7313,
      "Ġbecome": 7314,
      "Ġhimself": 7315,
      "ribution": 7316,
      "gra": 7317,
      "lif": 7318,
      "sen": 7319,
      "ying": 7320,
      "Ġfew": 7321,
      "ĠáīłáĮİáĪŃáĮİáĪŃáĭ«áĬķ": 7322,
      "Ġmaisha": 7323,
      "Ġchamp": 7324,
      "Ġstyle": 7325,
      "ĠáĭµáĬķáĮĭ": 7326,
      "Ġsound": 7327,
      "anguage": 7328,
      "Ġreconn": 7329,
      "Ġindustri": 7330,
      "ĠGreat": 7331,
      "ĠáĬłáĮĪáĪ«áīµ": 7332,
      "Ġziliz": 7333,
      "ĠInternet": 7334,
      "rank": 7335,
      "Ġage": 7336,
      "erie": 7337,
      "Ġáĭ¨áī¥": 7338,
      "Ġdecl": 7339,
      "Ġwest": 7340,
      "ĠBau": 7341,
      "chie": 7342,
      "ĠyÃł": 7343,
      "ĠFlor": 7344,
      "aliya": 7345,
      "Ġilip": 7346,
      "Ġorgani": 7347,
      "áĭĪáĪ¨": 7348,
      "fied": 7349,
      "ĠáĪįáī¥": 7350,
      "ĠconsidÃ©rÃ©": 7351,
      "ĠPoland": 7352,
      "áº¹ráº¹": 7353,
      "Ġwater": 7354,
      "Ã¬wÃ©": 7355,
      "ĠGal": 7356,
      "Ġvale": 7357,
      "Ġeyi": 7358,
      "Ġáĭ¨áĪŀ": 7359,
      "áĭĺáĪĺ": 7360,
      "Ġ36": 7361,
      "ĠKaramar": 7362,
      "----": 7363,
      "ĠWestern": 7364,
      "Ġspecies": 7365,
      "ĠáĪĽáĪµáī³áĭĪáĪ»áĭİáī½": 7366,
      "AD": 7367,
      "hali": 7368,
      "Ùĩ": 7369,
      "ĠChe": 7370,
      "áĬĲáī±áĬķ": 7371,
      "áĪ³áĬķ": 7372,
      "Ġevent": 7373,
      "Ġá»įlá»į": 7374,
      "Ġáĭ¨áĬ®": 7375,
      "áĭ«áĬķáĭ³áĬķáĭ±": 7376,
      "ĠáĬŃáįįáĪİáī½": 7377,
      "Ġáĭ¨áĪļáĭ«áĪµ": 7378,
      "Ġwatakatifu": 7379,
      "Ġtoutes": 7380,
      "Ġprogramm": 7381,
      "ĠScot": 7382,
      "Ġmeaning": 7383,
      "Ġtechniques": 7384,
      "92": 7385,
      "Ph": 7386,
      "eum": 7387,
      "oi": 7388,
      "ped": 7389,
      "uya": 7390,
      "Ġmta": 7391,
      "Ġáī¶": 7392,
      "alem": 7393,
      "Ġáĭ¨áĮ¥": 7394,
      "ĠáĮ«": 7395,
      "ĠCr": 7396,
      "chan": 7397,
      "Ġviv": 7398,
      "ĠJer": 7399,
      "Ġconte": 7400,
      "over": 7401,
      "áĭĵáĬķ": 7402,
      "Ġkawo": 7403,
      "Ġáĭ³áĪŃ": 7404,
      "Ġkimataifa": 7405,
      "Ġrawar": 7406,
      "Ġcheo": 7407,
      "Ġsymbol": 7408,
      "Ac": 7409,
      "tÃº": 7410,
      "ĠdÃ¨s": 7411,
      "Ġcandid": 7412,
      "ĠoyÃ¨": 7413,
      "ĠMiss": 7414,
      "ĠSm": 7415,
      "Ġrend": 7416,
      "ĠáĮ³": 7417,
      "ĠáĬłáī¶": 7418,
      "ĠWais": 7419,
      "Ġallem": 7420,
      "udd": 7421,
      "angwa": 7422,
      "ĠáĪĽáĪŃáĭ«áĪĿ": 7423,
      "assin": 7424,
      "áī¦áīµ": 7425,
      "ĠLaw": 7426,
      "%)": 7427,
      "sÃ¡": 7428,
      "uelle": 7429,
      "¸áį": 7430,
      "áī¾": 7431,
      "Ġnasar": 7432,
      "Ġkaf": 7433,
      "alu": 7434,
      "Ġpost": 7435,
      "Ġáĭ¨áĪĪáĭį": 7436,
      "Ġhum": 7437,
      "Ġhowever": 7438,
      "entre": 7439,
      "ĠTai": 7440,
      "ĠáĬ¨áĪģ": 7441,
      "Ġeth": 7442,
      "ources": 7443,
      "ĠAlg": 7444,
      "Ġáī¥áĭĽáīµ": 7445,
      "Ġ35": 7446,
      "Ġchaque": 7447,
      "ĠNews": 7448,
      "Ġeduc": 7449,
      "áĮĪáĪªáī±": 7450,
      "AF": 7451,
      "prÃ©": 7452,
      "Ġkill": 7453,
      "reat": 7454,
      "Ġroman": 7455,
      "áĪĪáĪĺ": 7456,
      "ĠPan": 7457,
      "gbÃ³": 7458,
      "áĪ³áĪ³áĭŃ": 7459,
      "áĬłáīµ": 7460,
      "hind": 7461,
      "Ġkusan": 7462,
      "Ġpubli": 7463,
      "ĠáĭĿáĪŃáĭ«": 7464,
      "suite": 7465,
      "Ġmuziki": 7466,
      "ergy": 7467,
      "Ġcommunic": 7468,
      "Ġlocal": 7469,
      "ĠIlimi": 7470,
      "Ġhaih": 7471,
      "Ġjamii": 7472,
      "ĠGermany": 7473,
      "Ġáī¡áĭµáĬķ": 7474,
      "Ġgargajiya": 7475,
      "Ġkawai": 7476,
      "ĠArabic": 7477,
      "ĠáĪĪáĪĿáĪ³áĪĮ": 7478,
      "Ġelements": 7479,
      "Mais": 7480,
      "Ray": 7481,
      "uit": 7482,
      "ining": 7483,
      "áĬķáĪ³áĭĬ": 7484,
      "ores": 7485,
      "rey": 7486,
      "abba": 7487,
      "ĠjÃ©": 7488,
      "ull": 7489,
      "Ġ2091": 7490,
      "ĠOlÃº": 7491,
      "Ġenf": 7492,
      "udo": 7493,
      "ĠáĭĪáĪįáĭ°": 7494,
      "ĠprÃ¨s": 7495,
      "ĠáĬ¥áĬķáĭ²áĭ«": 7496,
      "Ġintroduc": 7497,
      "07": 7498,
      "LÃ¡": 7499,
      "born": 7500,
      "nic": 7501,
      "tÃºn": 7502,
      "Ġmission": 7503,
      "yam": 7504,
      "ĠSpain": 7505,
      "Ãºpá»į": 7506,
      "chuk": 7507,
      "Ġmaa": 7508,
      "avy": 7509,
      "tÃłgÃ©": 7510,
      "Ġgwamnan": 7511,
      "ĠGroup": 7512,
      "Ġáī¢áĪĨáĬķáĪĿ": 7513,
      "TV": 7514,
      "When": 7515,
      "áĬķáĭ¶": 7516,
      "tier": 7517,
      "ĠAcc": 7518,
      "ĠintÃ©": 7519,
      "Ġinvol": 7520,
      "Ġrangi": 7521,
      "imakin": 7522,
      "ĠBre": 7523,
      "ĠTri": 7524,
      "Ġmaf": 7525,
      "Ġáĭ¨áĬ¦": 7526,
      "Ġconqu": 7527,
      "Ġcondu": 7528,
      "83": 7529,
      "87": 7530,
      "ey": 7531,
      "hudi": 7532,
      "Ġndi": 7533,
      "Ġkun": 7534,
      "itta": 7535,
      "ilishi": 7536,
      "Ġáĭ¨áĭ«": 7537,
      "ĠGra": 7538,
      "Ġorient": 7539,
      "odo": 7540,
      "Ġáĭĺáĭ´": 7541,
      "Ġcompte": 7542,
      "Ġá»Įba": 7543,
      "ĠIbn": 7544,
      "Ġsometimes": 7545,
      "Ġeffet": 7546,
      "Ġsystems": 7547,
      "Ġwenyewe": 7548,
      "historia": 7549,
      "men": 7550,
      "Ġide": 7551,
      "Ġdat": 7552,
      "Ġnde": 7553,
      "Ġnumbers": 7554,
      "Ã©v": 7555,
      "ĠpÃ¨re": 7556,
      "Ġáĭ¨áīĨ": 7557,
      "áĪµáĪĽ": 7558,
      "ikisho": 7559,
      "ĠLife": 7560,
      "ĠWilaya": 7561,
      "Ġáī°áīĥ": 7562,
      "ourg": 7563,
      "Ġonimo": 7564,
      "abawa": 7565,
      "Ġaddinin": 7566,
      "Ġibn": 7567,
      "Ġ1946": 7568,
      "Ġyanki": 7569,
      "ĠGreg": 7570,
      "ĠáĮłáīħ": 7571,
      "Ġoccup": 7572,
      "áī¥áĪ«áĭŃ": 7573,
      "Ġáĭ¨áĭįáĮŃ": 7574,
      "ĠdonnÃ©es": 7575,
      "Ġparticulier": 7576,
      "áĪĮáĬŃáīµáĪªáĬŃ": 7577,
      "Ã«": 7578,
      "Ġprac": 7579,
      "Ġbord": 7580,
      "atini": 7581,
      "quÃ©": 7582,
      "ĠÃłgbÃ¡yÃ©": 7583,
      "ulia": 7584,
      "ayen": 7585,
      "Ġtotal": 7586,
      "ĠHars": 7587,
      "cipe": 7588,
      "thur": 7589,
      "Ġproc": 7590,
      "Ġáīłáī°áĮ¨áĪĽáĪª": 7591,
      "áĪĲáįĬ": 7592,
      "Ġ1953": 7593,
      "Ġdistin": 7594,
      "Ġambapo": 7595,
      "Ġemploy": 7596,
      "áĪŃáĪ±áĪĿ": 7597,
      "Ġconcern": 7598,
      "jáº¹sÃ¡ra": 7599,
      "PP": 7600,
      "can": 7601,
      "gÃ³": 7602,
      "rol": 7603,
      "Ġsent": 7604,
      "áĪŃáī±": 7605,
      "ĠMand": 7606,
      "ĠLin": 7607,
      "ĠWata": 7608,
      "Ġáĭ¨áĪĢ": 7609,
      "ĠáĪĪáĬ¥": 7610,
      "ovu": 7611,
      "ensis": 7612,
      "áĪĻáīµ": 7613,
      "ĠáĮĪáĭ°": 7614,
      "Ġ1939": 7615,
      "Ġprovince": 7616,
      "vironnement": 7617,
      "ĠáĬĥáĭŃáĪĪ": 7618,
      "ĠáĭľáĬĵ": 7619,
      "Ġsingle": 7620,
      "Ġpolitical": 7621,
      "Lugha": 7622,
      "jÃ³": 7623,
      "rite": 7624,
      "tak": 7625,
      "áĪŃáī£": 7626,
      "ilim": 7627,
      "ĠAw": 7628,
      "ĠAwon": 7629,
      "ĠMb": 7630,
      "icin": 7631,
      "ĠSom": 7632,
      "ingu": 7633,
      "ĠáĬłáīħ": 7634,
      "ĠáĪĺáĪ¬áīµ": 7635,
      "ĠáĬ¨áĪĮ": 7636,
      "ĠOf": 7637,
      "ĠÃ¬p": 7638,
      "ĠáĭŃáĪĦ": 7639,
      "áĬ¨áĭļáĭ«": 7640,
      "lac": 7641,
      "iff": 7642,
      "Ġaure": 7643,
      "Ġáĭ¨áĪļáī³áĭĪ": 7644,
      "ĠáĮįáĭĽ": 7645,
      "Ġstar": 7646,
      "Ġwithout": 7647,
      "2011": 7648,
      "ĠáĮĪáĬķ": 7649,
      "titution": 7650,
      "Ġclos": 7651,
      "ĠDemocratic": 7652,
      "ĠKijerumani": 7653,
      "Ġayáº¹yáº¹": 7654,
      "ĠSoviet": 7655,
      "bb": 7656,
      "ono": 7657,
      "Ġtheory": 7658,
      "Ġgari": 7659,
      "ability": 7660,
      "ĠNollywood": 7661,
      "ĠáĬ¥áĬĶ": 7662,
      "ĠEli": 7663,
      "udio": 7664,
      "ĠUb": 7665,
      "Ġconserv": 7666,
      "ferences": 7667,
      "Ġká»įkÃłn": 7668,
      "Ġmtu": 7669,
      "ĠdiffÃ©rentes": 7670,
      "Ġcontinent": 7671,
      "ĠáĪĺáĮ»áĪķ": 7672,
      "According": 7673,
      "05": 7674,
      "Id": 7675,
      "New": 7676,
      "OR": 7677,
      "her": 7678,
      "kara": 7679,
      "macin": 7680,
      "||": 7681,
      "Ġbal": 7682,
      "Ġáĭ¨áĬŃ": 7683,
      "lear": 7684,
      "irun": 7685,
      "ĠSir": 7686,
      "etnam": 7687,
      "olowo": 7688,
      "áĬ«áĪĿ": 7689,
      "Ġbeau": 7690,
      "ĠrÃ©c": 7691,
      "Ġáī£áĪį": 7692,
      "Ġimani": 7693,
      "2008": 7694,
      "ector": 7695,
      "allaka": 7696,
      "ĠáĬ¥áĬķáĮįáĪĬáĭĿáĬĽ": 7697,
      "Ġschol": 7698,
      "02": 7699,
      "100": 7700,
      "eff": 7701,
      "Ġdog": 7702,
      "Ġshar": 7703,
      "ĠMpaka": 7704,
      "Ġdefe": 7705,
      "ĠCre": 7706,
      "agement": 7707,
      "áīłáīħ": 7708,
      "áĭ¨áĪļ": 7709,
      "ĠYamma": 7710,
      "áĭĺáĭį": 7711,
      "áĭĽáĬĽáĭį": 7712,
      "Ġheld": 7713,
      "essor": 7714,
      "ĠáĪµáĪĪáĪļ": 7715,
      "Ġdoit": 7716,
      "Ġpopular": 7717,
      "ĠTurk": 7718,
      "Ġkyautar": 7719,
      "ĠBiranen": 7720,
      "ĠSecond": 7721,
      "ĠSudan": 7722,
      "ĠáĪĺáĪįáĬŃáĭĵ": 7723,
      "ikipedia": 7724,
      "04": 7725,
      "pi": 7726,
      "utions": 7727,
      "xford": 7728,
      "Ġkow": 7729,
      "umiwa": 7730,
      "áĬĵáĭŃáīµ": 7731,
      "áī°áīµ": 7732,
      "áĭµáĪ¨áĪµ": 7733,
      "ĠFestival": 7734,
      "ective": 7735,
      "ĠáĬłáĪħ": 7736,
      "Ġfort": 7737,
      "ĠVirgin": 7738,
      "seau": 7739,
      "ateau": 7740,
      "Ġáĭ¨áī°áĪĺ": 7741,
      "ĠáīĢáĭ³": 7742,
      "bio": 7743,
      "2017": 7744,
      "engene": 7745,
      "prise": 7746,
      "ĠMaur": 7747,
      "anÃ§ois": 7748,
      "Ġwakifuata": 7749,
      "ĠáĪĻáĪī": 7750,
      "iddle": 7751,
      "ĠAzerbaij": 7752,
      "Ġmondiale": 7753,
      "ĠSalaam": 7754,
      "lamu": 7755,
      "pes": 7756,
      "site": 7757,
      "ĠÉĵ": 7758,
      "iled": 7759,
      "etwork": 7760,
      "ĠCas": 7761,
      "áĭµáĬĵ": 7762,
      "ĠFas": 7763,
      "ĠJar": 7764,
      "Ġarziki": 7765,
      "Ġshari": 7766,
      "ova": 7767,
      "Ġsurface": 7768,
      "Ġuishe": 7769,
      "iversitÃ©": 7770,
      "Ġ1949": 7771,
      "lemagne": 7772,
      "ĠáĬĥáĭŃáĪį": 7773,
      "ĠDisamba": 7774,
      "Ġtravail": 7775,
      "Ġhuadhimisha": 7776,
      "alus": 7777,
      "ĠpÃłÃ¡": 7778,
      "aton": 7779,
      "Ġdak": 7780,
      "Ġdefin": 7781,
      "ĠIá¹£áº¹": 7782,
      "ulf": 7783,
      "Ġtown": 7784,
      "áĬ¨áī³": 7785,
      "Ġconstruction": 7786,
      "áīłáĪ³": 7787,
      "áĬĳáĬķ": 7788,
      "áįĭáĪį": 7789,
      "erman": 7790,
      "áĭįáĬķáīµ": 7791,
      "ughter": 7792,
      "Ġtakriban": 7793,
      "NÃŃgbÃł": 7794,
      "ĠJamus": 7795,
      "ĠáĬłáĮĪáĪ®áī½": 7796,
      "Ġáī¥áĪĶáĪ«áĭĬ": 7797,
      "lish": 7798,
      "Ġdam": 7799,
      "onekana": 7800,
      "Ġmig": 7801,
      "isse": 7802,
      "ĠfÃ¬": 7803,
      "lections": 7804,
      "Ġgur": 7805,
      "ĠNap": 7806,
      "ĠáĬ¥áĮįáĭļáĬłáī¥áĪĶáĪŃ": 7807,
      "áĮĪáī¡": 7808,
      "stan": 7809,
      "áīĢáĭµáĪŀ": 7810,
      "Ġzao": 7811,
      "Ġáĭ¨áī°áįĪ": 7812,
      "tout": 7813,
      "Ġáī£áĭŃ": 7814,
      "Ġsuper": 7815,
      "ĠArewacin": 7816,
      "áĭ°áĪ¨áĮĪáĭį": 7817,
      "Ġzinabaki": 7818,
      "ÃĴun": 7819,
      "ĠáĭĪáĭŃáĬķáĪĿ": 7820,
      "ĠáīĢáĮ¥áĪİ": 7821,
      "ababisha": 7822,
      "Ġturn": 7823,
      "Ġspace": 7824,
      "ways": 7825,
      "amban": 7826,
      "ĠKin": 7827,
      "ĠKur": 7828,
      "áī¥áĬķ": 7829,
      "áīłáīĥ": 7830,
      "áĭĪáīħ": 7831,
      "áīłáĪµ": 7832,
      "ĠrÃ©p": 7833,
      "phab": 7834,
      "Ġcompar": 7835,
      "ential": 7836,
      "ĠgrÃ¢ce": 7837,
      "Ġkwenda": 7838,
      "ĠÃ²á¹£Ã¨lÃº": 7839,
      "Ġproduced": 7840,
      "ĠcrÃ©ation": 7841,
      "Ġcrew": 7842,
      "Ġphilosop": 7843,
      "74": 7844,
      "ĠpÃ¡": 7845,
      "ÃŃÃł": 7846,
      "Ġbata": 7847,
      "usalem": 7848,
      "umar": 7849,
      "áĮĪáĪ«áīµ": 7850,
      "akana": 7851,
      "áĬŃáĬķ": 7852,
      "Ġill": 7853,
      "Ġstates": 7854,
      "Ġadap": 7855,
      "Ġabáº¹": 7856,
      "áĪĪáĪĿáĪ³áĪĮ": 7857,
      "cript": 7858,
      "áĪ¸áĬĲ": 7859,
      "tained": 7860,
      "Ġndogo": 7861,
      "Ġyammacin": 7862,
      "Ġsources": 7863,
      "Ġadministr": 7864,
      "ĠPresident": 7865,
      "ĠáĪĽáĮ£áīĢáĪ»": 7866,
      "Con": 7867,
      "Ġothers": 7868,
      "iriwa": 7869,
      "ĠKaisari": 7870,
      "ĠIre": 7871,
      "ĠLy": 7872,
      "ĠJew": 7873,
      "Ġáįİ": 7874,
      "ĠáĭŃáĭ©": 7875,
      "Ġmakuu": 7876,
      "autre": 7877,
      "Ġyanayin": 7878,
      "Ġsimilar": 7879,
      "ĠBarb": 7880,
      "dÃŃnlá»į": 7881,
      "unicip": 7882,
      "Kar": 7883,
      "nÃº": 7884,
      "Ġligne": 7885,
      "áĬķáī³": 7886,
      "ĠAy": 7887,
      "ĠAri": 7888,
      "Ġgid": 7889,
      "ĠWah": 7890,
      "Ġvir": 7891,
      "ĠFound": 7892,
      "Ġkashe": 7893,
      "2013": 7894,
      "oyen": 7895,
      "ammed": 7896,
      "Ġpron": 7897,
      "Ġparticip": 7898,
      "Ġmeas": 7899,
      "wÃ²rÃ¡n": 7900,
      "Ġattemp": 7901,
      "ĠEgypt": 7902,
      "ĠFabra": 7903,
      "ctic": 7904,
      "Ġmpaka": 7905,
      "Ġáĭ¨áįĪ": 7906,
      "Ġhor": 7907,
      "ushe": 7908,
      "eter": 7909,
      "abwe": 7910,
      "ĠÃłá¹£Ãł": 7911,
      "ador": 7912,
      "aika": 7913,
      "Ġalich": 7914,
      "okoto": 7915,
      "áīħáĭ«": 7916,
      "áĬłáĬķáĭµ": 7917,
      "rÃŃwÃ¡": 7918,
      "undu": 7919,
      "ĠáĮ¥áĪ©": 7920,
      "Ġface": 7921,
      "Ġlongue": 7922,
      "Ġfilms": 7923,
      "Ġincluded": 7924,
      "Ġtaron": 7925,
      "ĠArmy": 7926,
      "ĠPortugal": 7927,
      "áĬĺáīµ": 7928,
      "Ġáī£áĪħáĪŃ": 7929,
      "Ġtalabijin": 7930,
      "500": 7931,
      "BÃŃ": 7932,
      "ĠdÃ¬": 7933,
      "Ġcare": 7934,
      "Ġcause": 7935,
      "Ġnav": 7936,
      "áĬĵáĮĪ": 7937,
      "ĠNaz": 7938,
      "áĮįáī£áĪŃ": 7939,
      "ĠJohann": 7940,
      "haji": 7941,
      "ciyar": 7942,
      "ĠáīłáĪħ": 7943,
      "ogin": 7944,
      "2018": 7945,
      "anyoyin": 7946,
      "iller": 7947,
      "ength": 7948,
      "2002": 7949,
      "Ġ1955": 7950,
      "Ġlargest": 7951,
      "Ġkabla": 7952,
      "unguza": 7953,
      "ĠCentral": 7954,
      "ĠáĬłáįįáĪªáĬ«": 7955,
      "ĠCouncil": 7956,
      "fanya": 7957,
      "vant": 7958,
      "wiwa": 7959,
      "zama": 7960,
      "Ġneno": 7961,
      "Ġpur": 7962,
      "Ġcop": 7963,
      "Ġbody": 7964,
      "ĠAS": 7965,
      "ĠSab": 7966,
      "olin": 7967,
      "ĠNg": 7968,
      "rote": 7969,
      "ĠLab": 7970,
      "ĠGi": 7971,
      "ĠGood": 7972,
      "Ġzone": 7973,
      "ĠDam": 7974,
      "Ġensuite": 7975,
      "áĪªáĪµ": 7976,
      "erson": 7977,
      "ends": 7978,
      "Ġsept": 7979,
      "Ġkarshe": 7980,
      "áĬ®áīµ": 7981,
      "ĠáīłáĪĽáĪĪáīµ": 7982,
      "alsafa": 7983,
      "Ġtakwas": 7984,
      "Ġmakabila": 7985,
      "Ne": 7986,
      "Ġdamar": 7987,
      "Ġmuk": 7988,
      "Ġmemba": 7989,
      "Ġpor": 7990,
      "organ": 7991,
      "áĪŃáī¶": 7992,
      "Ġosu": 7993,
      "irar": 7994,
      "ĠBill": 7995,
      "Ġ1918": 7996,
      "aign": 7997,
      "Ġvil": 7998,
      "Ġenc": 7999,
      "Ġeither": 8000,
      "ipo": 8001,
      "ateg": 8002,
      "Ġcho": 8003,
      "ensemble": 8004,
      "Ġusually": 8005,
      "áĭ©áĪµ": 8006,
      "ĠAdÃ©": 8007,
      "Ġmake": 8008,
      "Ġ90": 8009,
      "áĮ«áĭĪ": 8010,
      "ĠáĪ³áĭŃáĬķáĪ³áĭĬ": 8011,
      "Ġbuilt": 8012,
      "ĠáįĸáĪĪáī²áĬ«": 8013,
      "kÃ¡láº¹": 8014,
      "Ġarchitect": 8015,
      "Ġlogici": 8016,
      "ĠCalifornia": 8017,
      "áī¥áĪ«áĭŃáĪµáĮ¥": 8018,
      "81": 8019,
      "ail": 8020,
      "Ġdir": 8021,
      "Ġlist": 8022,
      "Ġlinguis": 8023,
      "ĠAba": 8024,
      "Ġfav": 8025,
      "kad": 8026,
      "qui": 8027,
      "ĠKK": 8028,
      "ĠáĬłáĭ³": 8029,
      "áĭµáĪ®": 8030,
      "Ġyal": 8031,
      "Ġeto": 8032,
      "Ġacikin": 8033,
      "Ġcommand": 8034,
      "áĬłáĪĪ": 8035,
      "Ġfilin": 8036,
      "Ġgrands": 8037,
      "Ġconstru": 8038,
      "ĠSwed": 8039,
      "ĠáĮīáĭ³áĭŃ": 8040,
      "ĠTarihi": 8041,
      "Wakristo": 8042,
      "Ġsac": 8043,
      "ĠáĪ¬": 8044,
      "uto": 8045,
      "ĠKid": 8046,
      "ĠTex": 8047,
      "Ġyoung": 8048,
      "áī³áĬķ": 8049,
      "ested": 8050,
      "anto": 8051,
      "á¹£irÃŃ": 8052,
      "termin": 8053,
      "Ġipo": 8054,
      "áīĤáīµ": 8055,
      "Ġsamo": 8056,
      "ĠáĬ¥áĬķáĭ³áĭŃ": 8057,
      "ĠáĭĽáĪ¬": 8058,
      "ĠFarans": 8059,
      "áĭ®áĪŃáĮĬáĪµ": 8060,
      "AL": 8061,
      "Mal": 8062,
      "Ġsaba": 8063,
      "wal": 8064,
      "Ġkok": 8065,
      "itude": 8066,
      "Ġru": 8067,
      "ĠCro": 8068,
      "ĠCatholic": 8069,
      "Ġleg": 8070,
      "ĠáĬ¨áĪĨáĬĲ": 8071,
      "ĠOá¹£u": 8072,
      "Ġless": 8073,
      "áĪ°áĪŃ": 8074,
      "auche": 8075,
      "ordin": 8076,
      "áĪłáĪ¨áī°": 8077,
      "Ġaká»įrin": 8078,
      "Ġcharge": 8079,
      "Ġrapport": 8080,
      "jects": 8081,
      "ĠáĪļáĬĴáĪµáīµ": 8082,
      "Ġá¹£ÃŃá¹£e": 8083,
      "Ġsauransu": 8084,
      "Ġsignificant": 8085,
      "Ag": 8086,
      "vu": 8087,
      "Ġaye": 8088,
      "Ġkaya": 8089,
      "Ġmit": 8090,
      "Ã©ra": 8091,
      "Ġcig": 8092,
      "asayansi": 8093,
      "Ġáĭ¨áįį": 8094,
      "umika": 8095,
      "Ġáīłáī£": 8096,
      "eme": 8097,
      "akh": 8098,
      "ĠWab": 8099,
      "Ġvy": 8100,
      "Ġalthough": 8101,
      "Ġá»įwá»į": 8102,
      "Ġordin": 8103,
      "obal": 8104,
      "Ġpetit": 8105,
      "áĪľáīµ": 8106,
      "áĬ®áĬĸ": 8107,
      "anuel": 8108,
      "ĠáĪļáĪĬáĭ®áĬķ": 8109,
      "Ġtuntun": 8110,
      "imbabwe": 8111,
      "ĠáīłáĪµáī°": 8112,
      "Ġpossib": 8113,
      "Ġcapitale": 8114,
      "66": 8115,
      "Duk": 8116,
      "cal": 8117,
      "itions": 8118,
      "nyÃŃ": 8119,
      "ÏĤ": 8120,
      "Ġdr": 8121,
      "eren": 8122,
      "Ġcanc": 8123,
      "Ġbran": 8124,
      "áĪµáī´": 8125,
      "ĠSult": 8126,
      "Ã¬lÃº": 8127,
      "lace": 8128,
      "kejÃ¬": 8129,
      "ĠÆĻars": 8130,
      "ĠáīłáĬ®": 8131,
      "Ġkashi": 8132,
      "Ġformed": 8133,
      "ysis": 8134,
      "ĠColumb": 8135,
      "Ġcapital": 8136,
      "ĠAngola": 8137,
      "Ġáī°áĬ¨áī³": 8138,
      "Ġorganis": 8139,
      "anthrop": 8140,
      "Ġmmoja": 8141,
      "ĠcaractÃ©ris": 8142,
      "ĠBauchi": 8143,
      "lad": 8144,
      "°áį»áį": 8145,
      "rea": 8146,
      "ututt": 8147,
      "ĠBad": 8148,
      "ĠTal": 8149,
      "áĭµáĪĺ": 8150,
      "Ġáį»áį": 8151,
      "ĠáĭŃáĮł": 8152,
      "áĬ¨áĪĭ": 8153,
      "iving": 8154,
      "ster": 8155,
      "ĠáĪµáī¥áĪµ": 8156,
      "Ġáĭ«áĪ³": 8157,
      "Ġáĭ¨áĪļáĪ°": 8158,
      "Ġáĭ¨áĪļáĮĪáĬĻ": 8159,
      "Ġáĭ°áĪ«áĪ²": 8160,
      "áĮŃáĪŃ": 8161,
      "velopment": 8162,
      "angaza": 8163,
      "ĠolÃ¹darÃŃ": 8164,
      "ĠáĮ¸áī£áĭŃ": 8165,
      "Ġnames": 8166,
      "Ġobserv": 8167,
      "Î¹": 8168,
      "Ġdata": 8169,
      "ĠsÃ©rie": 8170,
      "ases": 8171,
      "rel": 8172,
      "uriyar": 8173,
      "usse": 8174,
      "Ġleast": 8175,
      "Ġreli": 8176,
      "ĠdÃ©f": 8177,
      "gebra": 8178,
      "ĠAfghan": 8179,
      "Ġ...": 8180,
      "Ã©sÃŃ": 8181,
      "ÉĹu": 8182,
      "áĪİáĮĤ": 8183,
      "ĠáīħáĪŃáĪµ": 8184,
      "ĠáīµáĪŃáĮīáĪĿ": 8185,
      "Ġmshairi": 8186,
      "ducation": 8187,
      "Ġexpress": 8188,
      "lementi": 8189,
      "Ġbook": 8190,
      "ĠolÃ¹ká»į": 8191,
      "Ġgenerally": 8192,
      "Ġmachine": 8193,
      "Ġcurrent": 8194,
      "ĠbÃłbÃ¡": 8195,
      "ĠMovie": 8196,
      "Ku": 8197,
      "mÃ©": 8198,
      "Ġdown": 8199,
      "ĠÃº": 8200,
      "itte": 8201,
      "Ìģ-": 8202,
      "Ġrole": 8203,
      "ĠNam": 8204,
      "ĠTro": 8205,
      "ĠáĪĺáīħ": 8206,
      "ĠJack": 8207,
      "ĠOyo": 8208,
      "key": 8209,
      "undin": 8210,
      "áĮħáĪĿ": 8211,
      "Ġshekarun": 8212,
      "Ġmakubwa": 8213,
      "Ils": 8214,
      "ĠJohnson": 8215,
      "Ġcalcul": 8216,
      "ircraft": 8217,
      "Ġpataki": 8218,
      "ĠáĪĥáĭŃáĪĽáĬĸáīµ": 8219,
      "Ġabubuwan": 8220,
      "áĬĵáĭŃáīµáĭµ": 8221,
      "ray": 8222,
      "wer": 8223,
      "Ġwur": 8224,
      "umin": 8225,
      "ĠáĬ¥áĪĿáĬĲáīµ": 8226,
      "ĠáĬłáĮĭ": 8227,
      "áĪĭáīģ": 8228,
      "áĪĭáĮĬ": 8229,
      "ĠDani": 8230,
      "ĠFer": 8231,
      "Ġ2022": 8232,
      "Ġwasannin": 8233,
      "ĠáĭįáĮŃ": 8234,
      "áĪĻáĬķ": 8235,
      "tsu": 8236,
      "Ã©tÃ©s": 8237,
      "Ġfamilia": 8238,
      "ĠEdward": 8239,
      "Ġofficial": 8240,
      "ĠGabas": 8241,
      "ĠrÃ©fÃ©rences": 8242,
      "Ġchildren": 8243,
      "52": 8244,
      "53": 8245,
      "57": 8246,
      "59": 8247,
      "cs": 8248,
      "cend": 8249,
      "rans": 8250,
      "inte": 8251,
      "Ġmv": 8252,
      "alli": 8253,
      "ĠAN": 8254,
      "ĠKore": 8255,
      "Ã¨nes": 8256,
      "ĠIran": 8257,
      "áĬ«áĪŃ": 8258,
      "ĠáĪ²áīĢ": 8259,
      "ĠáĪ²áĪĨáĬĳ": 8260,
      "Ġexiste": 8261,
      "Ġsaid": 8262,
      "áī¹áĬķ": 8263,
      "ĠáĮİáĬķ": 8264,
      "ĠVietnam": 8265,
      "Ġtypes": 8266,
      "unshi": 8267,
      "ĠáĪĺáĪĨáĬĳáĬķ": 8268,
      "',": 8269,
      "fect": 8270,
      "kÃ©": 8271,
      "sur": 8272,
      "voir": 8273,
      "inois": 8274,
      "Ġdieu": 8275,
      "esis": 8276,
      "Ġsus": 8277,
      "Ġnationale": 8278,
      "Ġmwezi": 8279,
      "áĬķáĬŃ": 8280,
      "ĠAgb": 8281,
      "Ã¡Ã¡": 8282,
      "Ġrule": 8283,
      "adamu": 8284,
      "ĠKab": 8285,
      "áĪĭáĪµ": 8286,
      "ĠHal": 8287,
      "Ġreport": 8288,
      "iyoyi": 8289,
      "áĪ°áĪį": 8290,
      "obo": 8291,
      "ĠáīłáĬ¦": 8292,
      "Ġextern": 8293,
      "Ġhaving": 8294,
      "berde": 8295,
      "alisation": 8296,
      "Ġ1944": 8297,
      "ĠáĬķáĮīáĪł": 8298,
      "Ġhalafu": 8299,
      "ĠCarl": 8300,
      "Ġdescribed": 8301,
      "Ġcertaines": 8302,
      "Ġsakandare": 8303,
      "jÃ¹": 8304,
      "jets": 8305,
      "Ã£": 8306,
      "Ġliste": 8307,
      "Ã©p": 8308,
      "tir": 8309,
      "Ġoko": 8310,
      "amai": 8311,
      "Ġgod": 8312,
      "ĠCup": 8313,
      "ĠLÃ¡": 8314,
      "ĠDist": 8315,
      "ĠFirst": 8316,
      "Ġconse": 8317,
      "ĠáĭĪáī³áĭ°": 8318,
      "áīħáĬĵ": 8319,
      "áĮ£áĬķ": 8320,
      "2019": 8321,
      "2012": 8322,
      "Ġcompr": 8323,
      "illar": 8324,
      "ĠáĪ¥áįįáĪ«": 8325,
      "ĠáĪµáĪĪáĪĨáĬĲ": 8326,
      "Ġcentral": 8327,
      "1998": 8328,
      "Ġdoes": 8329,
      "ĠConf": 8330,
      "ĠkÃºrÃ²": 8331,
      "Ġinfluence": 8332,
      "ĠáĪ¦áĪµáīµ": 8333,
      "htm": 8334,
      "ĠSahara": 8335,
      "phe": 8336,
      "Ø©": 8337,
      "áĬķáĭ²": 8338,
      "ĠAla": 8339,
      "Ġáĭ¨áīħ": 8340,
      "ĠSara": 8341,
      "quelle": 8342,
      "áĪĺáĪ©": 8343,
      "aged": 8344,
      "ĠOd": 8345,
      "Ġiliyo": 8346,
      "áĬ¨áĪ¨áĪĿ": 8347,
      "Ġshow": 8348,
      "orial": 8349,
      "Ã¡nÃ¬": 8350,
      "ught": 8351,
      "titude": 8352,
      "Ġhizo": 8353,
      "Ġmagn": 8354,
      "Ġtsohuwar": 8355,
      "ĠáĪĿáĪįáĬŃáīµ": 8356,
      "gemea": 8357,
      "á¹£irÃŃá¹£i": 8358,
      "82": 8359,
      "</": 8360,
      "cles": 8361,
      "ãĤ": 8362,
      "aron": 8363,
      "Ġtel": 8364,
      "ĠsÃ¬n": 8365,
      "Ġlam": 8366,
      "Ġox": 8367,
      "ently": 8368,
      "ols": 8369,
      "ĠBoy": 8370,
      "Ġjiki": 8371,
      "hah": 8372,
      "ĠHung": 8373,
      "ario": 8374,
      "Ġarg": 8375,
      "ĠáĮįáĬķáĬĻ": 8376,
      "Ġcontemp": 8377,
      "à¤ķ": 8378,
      "Ġtelevision": 8379,
      "Ġtitre": 8380,
      "Ġhannun": 8381,
      "Ġsuggest": 8382,
      "lafazi": 8383,
      "áī¨áĪŃáĪ²": 8384,
      "mÃªme": 8385,
      "oint": 8386,
      "Ġsil": 8387,
      "Ġkansa": 8388,
      "Ġgi": 8389,
      "Ġran": 8390,
      "imal": 8391,
      "agit": 8392,
      "áī£áī³": 8393,
      "istry": 8394,
      "áĬ«áĬ¨áĪĪ": 8395,
      "aces": 8396,
      "áĪĨáĬĸ": 8397,
      "cture": 8398,
      "áĮĭáīµ": 8399,
      "ensive": 8400,
      "ĠáĭµáĪį": 8401,
      "áĮĢáīµ": 8402,
      "Ġdiff": 8403,
      "Ġiyaka": 8404,
      "---": 8405,
      "ĠÃ®les": 8406,
      "Na": 8407,
      "OL": 8408,
      "Up": 8409,
      "bÃ³": 8410,
      "rale": 8411,
      "temp": 8412,
      "zani": 8413,
      "Ïģ": 8414,
      "áĮª": 8415,
      "Ã©lÃ¨": 8416,
      "tig": 8417,
      "Ġciv": 8418,
      "Ġfive": 8419,
      "áĪµáĭ«": 8420,
      "utan": 8421,
      "ĠCamb": 8422,
      "áĬŃáĪ²": 8423,
      "áĭĪáĭŃáĪĿ": 8424,
      "upart": 8425,
      "Ġbegin": 8426,
      "Ġáĭĺáįĭ": 8427,
      "áīĥáĪ´": 8428,
      "ously": 8429,
      "Ġsurv": 8430,
      "illage": 8431,
      "áĬłáĪµ": 8432,
      "Ġambazo": 8433,
      "hamia": 8434,
      "Ġchef": 8435,
      "ĠáĭĺáĪĺáĬĵáĭĬ": 8436,
      "Ġraison": 8437,
      "ĠáĭŃáīĢáĪ«áĪī": 8438,
      "ĠAlfred": 8439,
      "Ġipinle": 8440,
      "mas": 8441,
      "Ġoun": 8442,
      "ĠAM": 8443,
      "Ġhome": 8444,
      "ĠSea": 8445,
      "Ġindi": 8446,
      "Ġrah": 8447,
      "Ġjur": 8448,
      "ĠCat": 8449,
      "Ġtouj": 8450,
      "okuta": 8451,
      "áīĢáĪ¨": 8452,
      "ĠáĪµáĪŀáī½": 8453,
      "Ġplupart": 8454,
      "áīłáīµáĬķ": 8455,
      "Ġ500": 8456,
      "Ġ1942": 8457,
      "ĠindÃ©pend": 8458,
      "ĠolÃ³rÃŃ": 8459,
      "Ġlarg": 8460,
      "encont": 8461,
      "Ġdukkan": 8462,
      "Ġmots": 8463,
      "ĠKamusi": 8464,
      "Ġbrother": 8465,
      "adarwa": 8466,
      "ĠCompany": 8467,
      "Ġmouvement": 8468,
      "áīħáĪµáīĥáĪ´": 8469,
      "Ġtoujours": 8470,
      "no": 8471,
      "rons": 8472,
      "ÑĢ": 8473,
      "Ġ).": 8474,
      "Ġliter": 8475,
      "áĬķáĮİ": 8476,
      "tile": 8477,
      "andika": 8478,
      "Ġgovern": 8479,
      "Ġress": 8480,
      "Ġlaquelle": 8481,
      "ĠBul": 8482,
      "ĠCivil": 8483,
      "ĠWaf": 8484,
      "ĠáĬ¨áĭĪ": 8485,
      "Ġevery": 8486,
      "arian": 8487,
      "áīĢáĮ¥": 8488,
      "ĠAnamb": 8489,
      "Ġ400": 8490,
      "2000": 8491,
      "Ġáīłáī°áĪĪ": 8492,
      "Ġhaifar": 8493,
      "Ġpoints": 8494,
      "1997": 8495,
      "Ġeffect": 8496,
      "ĠKanada": 8497,
      "Ġáĭ«áĪĪáĭįáĬķ": 8498,
      "Ġkudancin": 8499,
      "Ġnufin": 8500,
      "Ġlina": 8501,
      "ĠMark": 8502,
      "Ġhivi": 8503,
      "áĪĿáī¥": 8504,
      "ĠSar": 8505,
      "Ġradi": 8506,
      "quare": 8507,
      "adiyya": 8508,
      "áĭ°áĬķ": 8509,
      "áĮĪáĪ«": 8510,
      "ĠGeneral": 8511,
      "Ġaltern": 8512,
      "ĠHab": 8513,
      "ĠHai": 8514,
      "ĠáĪĿáĭķáĪ«áī¥": 8515,
      "Ġconne": 8516,
      "Ġcombin": 8517,
      "áĭ²áĭ®": 8518,
      "ĠáīµáĪŃ": 8519,
      "ĠáīµáĪĿáĪħáĪŃ": 8520,
      "ĠInter": 8521,
      "Ġkutumia": 8522,
      "Ġwatumwa": 8523,
      "kÃ³so": 8524,
      "Ġtransm": 8525,
      "Ġhistor": 8526,
      "Ġkuliko": 8527,
      "Ġgirm": 8528,
      "Ġanglais": 8529,
      "ĠáĪĺáĪ°áĪ¨áīµ": 8530,
      "áĪµáĪĪáĭļáĪħ": 8531,
      "ĠÃłÃ¬sÃłn": 8532,
      "ĠWaislamu": 8533,
      "get": 8534,
      "wÃłÃ¡": 8535,
      "Ġemb": 8536,
      "Ġafin": 8537,
      "Ġbat": 8538,
      "áĪĿáįĴ": 8539,
      "elo": 8540,
      "iken": 8541,
      "Ġright": 8542,
      "ĠChi": 8543,
      "Ġtafi": 8544,
      "Ġtourn": 8545,
      "ĠDok": 8546,
      "ĠDep": 8547,
      "Ġvia": 8548,
      "áĪĽáĪ½": 8549,
      "Ġáĭ¨áĪ®": 8550,
      "Ġseul": 8551,
      "annÃ©e": 8552,
      "Ġarri": 8553,
      "azine": 8554,
      "ĠÉĹin": 8555,
      "ronic": 8556,
      "ĠhuÉĹu": 8557,
      "ĠáĬĲáĮĪáĪł": 8558,
      "ĠfaÃ§": 8559,
      "Ġsaman": 8560,
      "Ġchez": 8561,
      "Ġpropri": 8562,
      "Ġprix": 8563,
      "ĠSpanish": 8564,
      "Ġarmy": 8565,
      "ĠPierre": 8566,
      "arufu": 8567,
      "wari": 8568,
      "erve": 8569,
      "Ġbes": 8570,
      "Ġhus": 8571,
      "Ġhayo": 8572,
      "Ġgun": 8573,
      "Ġnahiyar": 8574,
      "Ġris": 8575,
      "adun": 8576,
      "ĠKol": 8577,
      "Ġjumla": 8578,
      "ulus": 8579,
      "ĠLaf": 8580,
      "ĠGall": 8581,
      "ĠHam": 8582,
      "otun": 8583,
      "Ġáĭ¨áĪ´": 8584,
      "lahi": 8585,
      "áĪ°áīµ": 8586,
      "ĠYan": 8587,
      "ĠAlb": 8588,
      "ĠAmani": 8589,
      "áĬ¥áĬĲáĭļáĪħ": 8590,
      "ĠÃ²kÃ¨": 8591,
      "Â»)": 8592,
      "Ġprend": 8593,
      "olewa": 8594,
      "ominira": 8595,
      "each": 8596,
      "ĠirÃº": 8597,
      "ĠBurtaniya": 8598,
      "Ġáī°áĪ«áĪ«": 8599,
      "ridge": 8600,
      "Ġharkokin": 8601,
      "ilimia": 8602,
      "68": 8603,
      "93": 8604,
      "dess": 8605,
      "Ġpin": 8606,
      "Ġhij": 8607,
      "Ã¡lÃŃ": 8608,
      "emo": 8609,
      "ĠGasar": 8610,
      "ĠJon": 8611,
      "arib": 8612,
      "Ġconcept": 8613,
      "Ġparts": 8614,
      "Ġhaya": 8615,
      "ĠáĬŃáĪŃáĪµáī²áĭ«": 8616,
      "Ang": 8617,
      "ĠáĮĭáĪ«": 8618,
      "Ġ1943": 8619,
      "Ġ1937": 8620,
      "tagne": 8621,
      "Ġmengi": 8622,
      "Ġdurant": 8623,
      "Ġaskofu": 8624,
      "Iá¹£áº¹": 8625,
      "VID": 8626,
      "Ð½": 8627,
      "Ġ×": 8628,
      "Ġmise": 8629,
      "Ġáĭ¨áĪĪáĪĿ": 8630,
      "andis": 8631,
      "Ġgauche": 8632,
      "Ġinstr": 8633,
      "ikh": 8634,
      "ĠrÃ´le": 8635,
      "iaf": 8636,
      "ĠCin": 8637,
      "Ã¬yÃłn": 8638,
      "ĠTang": 8639,
      "idia": 8640,
      "ĠLu": 8641,
      "ĠWag": 8642,
      "ciya": 8643,
      "Ġáį©": 8644,
      "ĠáĭŃáĭŀ": 8645,
      "ĠÃĮlÃº": 8646,
      "Ġcomplet": 8647,
      "ĠáĮĪáĮ½": 8648,
      "enegal": 8649,
      "ĠÉĹari": 8650,
      "áĪķáįĪáīµ": 8651,
      "enna": 8652,
      "Ġrecogni": 8653,
      "Ġsabon": 8654,
      "Ġregard": 8655,
      "emaji": 8656,
      "Ġservices": 8657,
      "ĠáįĪáĪŃáĭĸáĬķ": 8658,
      "UN": 8659,
      "mond": 8660,
      "now": 8661,
      "shi": 8662,
      "onie": 8663,
      "ĠáĬĽ": 8664,
      "Ġbank": 8665,
      "atory": 8666,
      "ĠMwaka": 8667,
      "ĠÃłÃ¡": 8668,
      "ĠTor": 8669,
      "áĭ°áĪµ": 8670,
      "ĠLar": 8671,
      "Ġalit": 8672,
      "Ġord": 8673,
      "áĭ³áĭµ": 8674,
      "ĠáĪµáĪĭ": 8675,
      "ĠáĭįáĪĢ": 8676,
      "jejen": 8677,
      "Ġfunction": 8678,
      "ĠáĭķáĪĪáī°": 8679,
      "ĠáįįáĪ¬": 8680,
      "Ġloi": 8681,
      "áĬ¥áĬķáĭ²": 8682,
      "Ġdernier": 8683,
      "ĠamÃ©ricain": 8684,
      "ĠMisri": 8685,
      "ĠsuccÃ¨s": 8686,
      "Babban": 8687,
      "Jihar": 8688,
      "uy": 8689,
      "á¹¢": 8690,
      "onin": 8691,
      "enu": 8692,
      "aland": 8693,
      "itaire": 8694,
      "Ġáĭ¨áĬ¨": 8695,
      "ĠSokoto": 8696,
      "ĠÃłjáº¹sÃ¡ra": 8697,
      "ĠNotes": 8698,
      "Ġ1914": 8699,
      "igar": 8700,
      "ĠLos": 8701,
      "oshi": 8702,
      "Ġala": 8703,
      "ĠRes": 8704,
      "alib": 8705,
      "Ġáĭ¨áĪ±": 8706,
      "Ġori": 8707,
      "áĭĿáĪĿ": 8708,
      "ĬáĭľáĪĿ": 8709,
      "áĮłáĪĪ": 8710,
      "Ġforms": 8711,
      "ussian": 8712,
      "áĬķáĮĮ": 8713,
      "áī¥áĪŃáĪĥ": 8714,
      "Ġprincipalement": 8715,
      "ĠáĬłáĪīáīµ": 8716,
      "06": 8717,
      "ny": 8718,
      "sÃ¡n": 8719,
      "áĬ£": 8720,
      "Ġcibiyar": 8721,
      "Ġfais": 8722,
      "uruki": 8723,
      "Ġhuwa": 8724,
      "Ġwrote": 8725,
      "enta": 8726,
      "icine": 8727,
      "ĠServ": 8728,
      "áĪĺáĬĵ": 8729,
      "áīłáĬĭáĪĭ": 8730,
      "ĠOxford": 8731,
      "anique": 8732,
      "áĬ«áĬ¤áĪį": 8733,
      "ĠáĪįáĮģ": 8734,
      "Ġaccept": 8735,
      "áĬĽáĭįáĪĿ": 8736,
      "alism": 8737,
      "Ġáī¢áĭ«": 8738,
      "ĠespÃ¨": 8739,
      "Ġgabas": 8740,
      "ĠBook": 8741,
      "Ġstrong": 8742,
      "ĠKejÃ¬": 8743,
      "Ġmention": 8744,
      "ĠmaniÃ¨re": 8745,
      "gorith": 8746,
      "Ġtabbatar": 8747,
      "97": 8748,
      "IA": 8749,
      "Nchi": 8750,
      "rage": 8751,
      "test": 8752,
      "uan": 8753,
      "via": 8754,
      "wing": 8755,
      "ÉĻ": 8756,
      "Ġtest": 8757,
      "Ġmallaka": 8758,
      "isan": 8759,
      "rement": 8760,
      "Ġáĭ¨áīł": 8761,
      "Ġáĭ¨áĮĭ": 8762,
      "oms": 8763,
      "imá»į": 8764,
      "ĠCy": 8765,
      "ĠCont": 8766,
      "Ġzo": 8767,
      "ĠOne": 8768,
      "ĠáĭŃáĪĺ": 8769,
      "eck": 8770,
      "Ġaujourd": 8771,
      "ĠYesu": 8772,
      "ĠáĭįáĪĥ": 8773,
      "ĠáīłáĪĺáĪĨáĬķ": 8774,
      "áĪ²áĭ«": 8775,
      "ĠDevelopment": 8776,
      "Ġsakamakon": 8777,
      "\").": 8778,
      "Hivyo": 8779,
      "ae": 8780,
      "cus": 8781,
      "grÃ©": 8782,
      "zung": 8783,
      "inin": 8784,
      "Ġcoule": 8785,
      "Ġinformation": 8786,
      "Ġradio": 8787,
      "ĠTele": 8788,
      "ĠPap": 8789,
      "ĠáĪĺáĮį": 8790,
      "ĠáĬ¨áĪĿ": 8791,
      "Ġáī°áĮĪ": 8792,
      "Ġáĭ«áĭĺ": 8793,
      "Ġprogress": 8794,
      "acy": 8795,
      "áĮłáīµ": 8796,
      "Ġzaune": 8797,
      "ĠáīłáĬ¤": 8798,
      "field": 8799,
      "ÃŃnÃº": 8800,
      "Ġáī£áĪķáĪŃ": 8801,
      "Ġdial": 8802,
      "Ġáĭ¨áĬłáĭ¨áĪŃ": 8803,
      "áīĤáĭ«": 8804,
      "ĠolÃ³gun": 8805,
      "Ġroyaume": 8806,
      "yria": 8807,
      "ĠHausawa": 8808,
      "ĠdiffÃ©rents": 8809,
      "ĠappelÃ©": 8810,
      "ĠScience": 8811,
      "ĠÃ©lÃ©ments": 8812,
      "Ġcountries": 8813,
      "Ġnatural": 8814,
      "Ġastronom": 8815,
      "áī¨áĪŃáĪ²áī²": 8816,
      "mÃ¡": 8817,
      "ĠlÃł": 8818,
      "Ġmall": 8819,
      "Ġmole": 8820,
      "Ġáīª": 8821,
      "Ġcry": 8822,
      "itÃ¬": 8823,
      "Ġround": 8824,
      "Ġtot": 8825,
      "agas": 8826,
      "ĠHindi": 8827,
      "alie": 8828,
      "áįįáĬķ": 8829,
      "ĠáĪĪáĪļ": 8830,
      "see": 8831,
      "Ġrelati": 8832,
      "Ġyanayi": 8833,
      "áĬŀáī¹": 8834,
      "Ġikan": 8835,
      "Ġrapid": 8836,
      "Ġnouvel": 8837,
      "stead": 8838,
      "ĠDenmark": 8839,
      "IN": 8840,
      "kh": 8841,
      "mir": 8842,
      "ÏĦ": 8843,
      "Ġtek": 8844,
      "Ġkilled": 8845,
      "Ġple": 8846,
      "ĠAle": 8847,
      "ĠfrÃ©": 8848,
      "irobi": 8849,
      "etry": 8850,
      "Ġrencont": 8851,
      "abeth": 8852,
      "áĭ«áĪľ": 8853,
      "idai": 8854,
      "ĠLuc": 8855,
      "âĢ¹": 8856,
      "Ġzane": 8857,
      "ĠFederal": 8858,
      "ĠEarth": 8859,
      "ĠUp": 8860,
      "Ġsimp": 8861,
      "Ġfounded": 8862,
      "ĠWilliams": 8863,
      "ĠAthens": 8864,
      "ĠRÃ©publique": 8865,
      "Ġfulani": 8866,
      "Ġgenre": 8867,
      "Ġnigba": 8868,
      "wÃ¹já»į": 8869,
      "Ġdipl": 8870,
      "side": 8871,
      "wÃº": 8872,
      "enga": 8873,
      "wat": 8874,
      "Ġlight": 8875,
      "Ġbid": 8876,
      "iche": 8877,
      "ĠBon": 8878,
      "ĠáĮĥ": 8879,
      "Ġtaifa": 8880,
      "ĠáĬłáĭĭ": 8881,
      "ĠRen": 8882,
      "Ġáī°áĮ½": 8883,
      "ĠáīłáĪĭ": 8884,
      "ĠYuni": 8885,
      "Ġard": 8886,
      "ured": 8887,
      "ĠáĪ²áĪį": 8888,
      "ĠbÃŃbÃŃ": 8889,
      "athan": 8890,
      "Ġtáº¹lif": 8891,
      "Ġcreated": 8892,
      "ĠáĪĿáĬķáĮĬáĭľáĪĿ": 8893,
      "Ġmakao": 8894,
      "Ġsayensi": 8895,
      "ĠáĬłáĪ«áīµ": 8896,
      "ĠBiblia": 8897,
      "EC": 8898,
      "Orodha": 8899,
      "lines": 8900,
      "oya": 8901,
      "ror": 8902,
      "Ġtaba": 8903,
      "ĠáīĦ": 8904,
      "itter": 8905,
      "Ġbuk": 8906,
      "eds": 8907,
      "Ġinap": 8908,
      "ĠKwam": 8909,
      "Ġjournal": 8910,
      "áĭŃáĪģ": 8911,
      "ĠIf": 8912,
      "ĠIsa": 8913,
      "ĠLitt": 8914,
      "Ġvic": 8915,
      "Ġá»įgá»į": 8916,
      "Ġasp": 8917,
      "áĪīáĬķ": 8918,
      "okacin": 8919,
      "áī¡áĬķ": 8920,
      "ĠZimbabwe": 8921,
      "Ġ''": 8922,
      "ĠdÃ©couver": 8923,
      "Ġkyau": 8924,
      "cycl": 8925,
      "Ġproblem": 8926,
      "ĠÃ¬dÃŃje": 8927,
      "áĬ¨áī°áĪĽáĭį": 8928,
      "ĠáĪłáĪ«áĭĬáīµ": 8929,
      "Ġoluilu": 8930,
      "Ġwatsa": 8931,
      "ĠArgentina": 8932,
      "ĠÃºn": 8933,
      "51": 8934,
      "Tari": 8935,
      "uver": 8936,
      "Äĵ": 8937,
      "Ġmember": 8938,
      "Ġbrit": 8939,
      "amare": 8940,
      "Ġhana": 8941,
      "Ġresearch": 8942,
      "chang": 8943,
      "ĠPÃ³": 8944,
      "áī¥áĬĽ": 8945,
      "áīłáĬłáĪ": 8946,
      "Ġey": 8947,
      "Ġáī°áĬŃáĪį": 8948,
      "ĠdÃ©jÃł": 8949,
      "Ġceux": 8950,
      "ĠItaly": 8951,
      "icho": 8952,
      "ellow": 8953,
      "Ġacid": 8954,
      "Ġshafi": 8955,
      "ĠAgusta": 8956,
      "ĠáĬłáĪįáī°": 8957,
      "ĠProf": 8958,
      "ĠCommon": 8959,
      "Ġjiho": 8960,
      "Ġdocument": 8961,
      "ĠáĪĺáĮ»áĪķáįįáīµ": 8962,
      "84": 8963,
      "Hasa": 8964,
      "rup": 8965,
      "Ġtels": 8966,
      "áĬķáī¥": 8967,
      "Ġom": 8968,
      "Ġfont": 8969,
      "Ġáĭ¨áįĬ": 8970,
      "urer": 8971,
      "Ġrun": 8972,
      "Ġrike": 8973,
      "ĠÃłdÃºgbÃ²": 8974,
      "ager": 8975,
      "ĠGovernment": 8976,
      "Ġalik": 8977,
      "rap": 8978,
      "áĪªáīĥ": 8979,
      "ĠáĭĪáĮ¥": 8980,
      "liance": 8981,
      "Ġkufuatana": 8982,
      "ĠáĪ°áĬĲ": 8983,
      "ishaji": 8984,
      "ĠáĪĬáīĥ": 8985,
      "moire": 8986,
      "ituo": 8987,
      "center": 8988,
      "ĠáīĨáĭŃ": 8989,
      "áĬķáĮīáĪ¥": 8990,
      "áĪįáĪµáįįáĬĵ": 8991,
      "Ġáįªáį»áį": 8992,
      "ĠQueen": 8993,
      "ĠdÃºrÃ³": 8994,
      "ĠFoundation": 8995,
      "áĪĨáĬĸáĪĿ": 8996,
      "54": 8997,
      "gon": 8998,
      "kk": 8999,
      "nd": 9000,
      "áĬķáīĢ": 9001,
      "ĠBag": 9002,
      "Ġ1917": 9003,
      "change": 9004,
      "ĠFÃ¡": 9005,
      "áĪªáĬ®áī½": 9006,
      "ĠáĭŃáīĨ": 9007,
      "ender": 9008,
      "ÉĹin": 9009,
      "Ġaccess": 9010,
      "lande": 9011,
      "ĠmÃ©th": 9012,
      "oney": 9013,
      "Ġ1936": 9014,
      "Ġkiasi": 9015,
      "Ġtrop": 9016,
      "Ġ1922": 9017,
      "Ġ1929": 9018,
      "ĠÃ¬dÃŃlÃ©": 9019,
      "Ġappear": 9020,
      "Waliofariki": 9021,
      "ĠmÃŃrÃłn": 9022,
      "ĠáĮĮáī³": 9023,
      "ĠKibantu": 9024,
      "ĠáĮĬáĭ®áĪŃáĮĬáĪµ": 9025,
      "Ġmathematic": 9026,
      "ĠAnambra": 9027,
      "::": 9028,
      "AT": 9029,
      "Si": 9030,
      "ean": 9031,
      "kiri": 9032,
      "Ø³": 9033,
      "Ġmethod": 9034,
      "ised": 9035,
      "áĪĪáīĢ": 9036,
      "ĠCla": 9037,
      "ĠáĬĲáĮ¥": 9038,
      "ĠHel": 9039,
      "áĪĽáĭįáĭ«áĬķ": 9040,
      "ĠáįĮ": 9041,
      "Ġá»įpá»į": 9042,
      "team": 9043,
      "áī¸áĭī": 9044,
      "Ġquar": 9045,
      "ÉĹi": 9046,
      "Ġfiimu": 9047,
      "áīģáīµ": 9048,
      "anced": 9049,
      "ĠáĪĬáīĢ": 9050,
      "ĠáĬłáĪĺáī³áīµ": 9051,
      "icial": 9052,
      "áī·áĬķ": 9053,
      "Ġsimple": 9054,
      "áĭŀáī½": 9055,
      "tifs": 9056,
      "ĠáĭŃáĮĪáĬĽáĪī": 9057,
      "ĠAtlantiki": 9058,
      "ĠRecords": 9059,
      "ĠKifaransa": 9060,
      "To": 9061,
      "Ġ!": 9062,
      "ĠÙ": 9063,
      "Ġdashi": 9064,
      "Ġlatin": 9065,
      "Ġpup": 9066,
      "ilway": 9067,
      "ĠAbi": 9068,
      "ators": 9069,
      "áĪĺáĮ¥": 9070,
      "áĪ¨áĪŃ": 9071,
      "ĠáīłáĪĢ": 9072,
      "áĬ«áĪĦ": 9073,
      "áĪĬáĬķ": 9074,
      "áĬķáĮįáĪį": 9075,
      "ologue": 9076,
      "ĠáĮĪáĭ¥": 9077,
      "ĠÂ»)": 9078,
      "Ġappara": 9079,
      "duzi": 9080,
      "ablement": 9081,
      "ĠáĪĺáĬķáĮįáĪ¥áī³áīµ": 9082,
      "shen": 9083,
      "1999": 9084,
      "Ġopen": 9085,
      "ĠPhil": 9086,
      "Ġwadannan": 9087,
      "ĠBened": 9088,
      "Ġáĭ¨áīĢáĭµáĪŀ": 9089,
      "yyuka": 9090,
      "ĠÃ©conomique": 9091,
      "Ġbeaucoup": 9092,
      "If": 9093,
      "Ġfadin": 9094,
      "Ġyakin": 9095,
      "ĠMet": 9096,
      "ĠMala": 9097,
      "ichi": 9098,
      "ĠPark": 9099,
      "ĠDin": 9100,
      "Ġva": 9101,
      "Ġvip": 9102,
      "Ġvoc": 9103,
      "ĠFe": 9104,
      "ogi": 9105,
      "endera": 9106,
      "ĠYou": 9107,
      "Ġsex": 9108,
      "áĬĴáĪįáĬŃ": 9109,
      "engwa": 9110,
      "áįĬáĭ«": 9111,
      "Ġconsist": 9112,
      "Ġakiwa": 9113,
      "Ġfils": 9114,
      "ĠIslands": 9115,
      "Ġmoderne": 9116,
      "uvu": 9117,
      "Ġindic": 9118,
      "Ġestim": 9119,
      "Ġáĭ¨áĪļáĮĪáĬĿáīłáīµ": 9120,
      "áĭŃáĪħáĪĿ": 9121,
      "Ġfitar": 9122,
      "Ġyaliy": 9123,
      "Ġbangaren": 9124,
      "ĠFulani": 9125,
      "ĠCOVID": 9126,
      "US": 9127,
      "nelle": 9128,
      "tres": 9129,
      "yte": 9130,
      "ĠáĬĥ": 9131,
      "Ġkub": 9132,
      "Ġmale": 9133,
      "Ġcet": 9134,
      "ĠMali": 9135,
      "ĠSim": 9136,
      "ĠáĬ¥áĬ©áĪį": 9137,
      "ĠáĬłáĭĺ": 9138,
      "ĠJáº¹": 9139,
      "ĠáįĴ": 9140,
      "cts": 9141,
      "Ġhaut": 9142,
      "ĠÃ²bÃŃ": 9143,
      "rican": 9144,
      "ĠáĪĨáĬĳ": 9145,
      "ampuni": 9146,
      "Ġáĭķáĭµ": 9147,
      "Ġyanke": 9148,
      "Ġ1925": 9149,
      "ĠáīłáĬłáĪģáĬĳ": 9150,
      "Ġoppos": 9151,
      "Americ": 9152,
      "Ġcontinued": 9153,
      "Qu": 9154,
      "bÃ¬": 9155,
      "áįı": 9156,
      "ĠáīĤ": 9157,
      "Ġhom": 9158,
      "Ġwhe": 9159,
      "Ã¨te": 9160,
      "Ã¨ge": 9161,
      "ĠCross": 9162,
      "rodu": 9163,
      "áĬĲáĮį": 9164,
      "ĠáĬ¨áī£": 9165,
      "ĠÃ¬bÃ¡": 9166,
      "ĠElect": 9167,
      "Ġáī°áĮ«": 9168,
      "Ġáĭ¨áĪģ": 9169,
      "opp": 9170,
      "ĠÃ©poque": 9171,
      "ĠâĢ¹": 9172,
      "Ġchama": 9173,
      "Ġule": 9174,
      "ĠáīłáĪĺáī£áĪį": 9175,
      "ependant": 9176,
      "Ã©nÃ©": 9177,
      "Ġ1941": 9178,
      "atsayin": 9179,
      "Ġshahar": 9180,
      "Ġoccident": 9181,
      "Ġconnu": 9182,
      "ĠWatakatifu": 9183,
      ")áį¢": 9184,
      "Kuma": 9185,
      "RS": 9186,
      "des": 9187,
      "ium": 9188,
      "ares": 9189,
      "Ġdit": 9190,
      "Ġtandis": 9191,
      "Ġsera": 9192,
      "enus": 9193,
      "Ġáĭ¨áĮĢáĪŃáĪĺáĬķ": 9194,
      "ĠPul": 9195,
      "Ġyáº¹": 9196,
      "ĠDuke": 9197,
      "ĠáĬ¨áĮį": 9198,
      "ĠRadio": 9199,
      "áĪĽáī¸áĭį": 9200,
      "ĠáīłáĪŀ": 9201,
      "Ġthird": 9202,
      "áĭ¨áĪ©": 9203,
      "ĠáĬ¥áĬķáīħáĪµáīĥáĪ´": 9204,
      "ĠdÃ©fin": 9205,
      "Ġáī¥áĪĶáĪŃ": 9206,
      "ĠItalian": 9207,
      "ĠáĬŃáĪĪáī¥": 9208,
      "ĠáĮĪáī¥áĪ¨": 9209,
      "Ġphysi": 9210,
      "Ġgramm": 9211,
      "Ġ1933": 9212,
      "áĭ°áĪŃáĮį": 9213,
      "Ġgroups": 9214,
      "Ġcorps": 9215,
      "ĠCommun": 9216,
      "Ġgrandes": 9217,
      "Ġáĭ¨áī°áī£áĪĪ": 9218,
      "ĠáĬłáīĢáįį": 9219,
      "While": 9220,
      "ĠMohammed": 9221,
      "temps": 9222,
      "Ã¡lÃŃÃł": 9223,
      ".-": 9224,
      "non": 9225,
      "áĭ·": 9226,
      "Ġsanar": 9227,
      "Ġkib": 9228,
      "ĠMel": 9229,
      "ĠSyst": 9230,
      "ĠáĬ¥áĪĿ": 9231,
      "Ġalk": 9232,
      "Ġthus": 9233,
      "obs": 9234,
      "Ġáĭ¨áĪļáĪ°áĪ«": 9235,
      "ĠáĪĽáĬħ": 9236,
      "ĠVI": 9237,
      "Ġpeti": 9238,
      "ĠArist": 9239,
      "áĭ±áīµ": 9240,
      "Ġacqu": 9241,
      "2001": 9242,
      "Ġmeji": 9243,
      "Ġáĭ¨áĬĲáĮĪ": 9244,
      "Ġáĭ¨áĬĲáīłáĪ©áīµ": 9245,
      "ĠUsman": 9246,
      "Ġáĭ¨áĭĵáĪĺáī±": 9247,
      "Ġinganta": 9248,
      "html": 9249,
      "63": 9250,
      "ota": 9251,
      "Ġhard": 9252,
      "Ġrock": 9253,
      "Ã¨rÃ¨": 9254,
      "ĠáĬłáĬĵ": 9255,
      "ĠáĬłáĮł": 9256,
      "Ġnipasáº¹": 9257,
      "ĠáĪĺáĬ®": 9258,
      "ĠáĪĺáĪ£": 9259,
      "ĠáĬ¨áĮ¥": 9260,
      "Ġvilles": 9261,
      "ĠHad": 9262,
      "anie": 9263,
      "ĠÃ¬yÃ¡": 9264,
      "áĬ¨áĬĵ": 9265,
      "Ġartist": 9266,
      "Ġfronti": 9267,
      "Ġkuzaliwa": 9268,
      "ĠáĪĬáĭ«": 9269,
      "ĠáĬĲáĮĪáĪ¥áīµ": 9270,
      "áĮĬáĭ«": 9271,
      "ĠrÃ©gions": 9272,
      "ĠprÃ©sente": 9273,
      "Ġsiyasan": 9274,
      "ĠdÃŃáº¹": 9275,
      "áĮĬáĭľáĭį": 9276,
      "ĠáīµáĬķáĪ½": 9277,
      "oftware": 9278,
      "ĠáĪºáĪħ": 9279,
      "ĠáĬłáĮĪáĪįáĮįáĪİáīµ": 9280,
      "Be": 9281,
      "Maj": 9282,
      "One": 9283,
      "bor": 9284,
      "cun": 9285,
      "kiya": 9286,
      "naire": 9287,
      "pia": 9288,
      "van": 9289,
      "yÃ¬ÃŃ": 9290,
      "ĠÅ": 9291,
      "Ġant": 9292,
      "ÃŃrÃŃkÃł": 9293,
      "ĠSav": 9294,
      "Ġrad": 9295,
      "ĠKÃ²": 9296,
      "áĬĵáĮĪáĪŃ": 9297,
      "áĭŃáĪį": 9298,
      "ĠGer": 9299,
      "Ġzabe": 9300,
      "ĠáĬ¨áĪµ": 9301,
      "áĪ³áĪ°": 9302,
      "Ġconditions": 9303,
      "ĠáĪµáĬķ": 9304,
      "Ġáĭ«áĪĭáī¸áĭį": 9305,
      "Ġkuv": 9306,
      "áĪ¥áĪ«": 9307,
      "Ġmarried": 9308,
      "ĠGuerre": 9309,
      "cription": 9310,
      "pecially": 9311,
      "ĠáīĥáĪĭáīµ": 9312,
      "ubuce": 9313,
      "ĠUsw": 9314,
      "Ġrespons": 9315,
      "ĠMarie": 9316,
      "shiryen": 9317,
      "ĠJacques": 9318,
      "With": 9319,
      "rand": 9320,
      "Ġmambo": 9321,
      "iland": 9322,
      "ĠhÃłn": 9323,
      "Ġganin": 9324,
      "edy": 9325,
      "ĠSarkin": 9326,
      "ĠKu": 9327,
      "ĠKon": 9328,
      "imar": 9329,
      "embe": 9330,
      "aking": 9331,
      "Ġzar": 9332,
      "Ġvik": 9333,
      "ĠFal": 9334,
      "ĠRound": 9335,
      "ĠÃ¬gbÃ©": 9336,
      "ĠVita": 9337,
      "Ġcher": 9338,
      "ĠáĬłáĪµáįĪ": 9339,
      "ĠáĮĢáĪŃáĪĺáĬķ": 9340,
      "Ġhalf": 9341,
      "Ġáī°áĪĺáĪ³áĪ³áĭŃ": 9342,
      "ĠáĬłáī£áĪĭáīµ": 9343,
      "Ġáĭ¨áĪĨáĬĲáĭį": 9344,
      "ĠnÃ©cess": 9345,
      "ĠBerlin": 9346,
      "Ġreferred": 9347,
      "ĠPremier": 9348,
      "ĠAfrilu": 9349,
      "áĬ®áĬĸáĪļ": 9350,
      "vaux": 9351,
      "west": 9352,
      "Ġliss": 9353,
      "alitÃ©s": 9354,
      "ĠMji": 9355,
      "áĪįáĮĭ": 9356,
      "ĠSur": 9357,
      "Ġrana": 9358,
      "Ġruk": 9359,
      "Ġjust": 9360,
      "ĠáĬłáĮį": 9361,
      "Ġleyin": 9362,
      "ĠJina": 9363,
      "Ġeux": 9364,
      "Ġgave": 9365,
      "iwaju": 9366,
      "Ġolud": 9367,
      "issement": 9368,
      "ĠgbÃ¡": 9369,
      "lications": 9370,
      "Ġ1931": 9371,
      "ĠannÃ©e": 9372,
      "ĠáĪĪáĪĽáĪµ": 9373,
      "áī£áī¢áĪİáĬķ": 9374,
      "Ġtsakiyar": 9375,
      "Ġdirection": 9376,
      "ĠAlexand": 9377,
      "Ġreceived": 9378,
      "ĠJanairu": 9379,
      "Ġensemble": 9380,
      "ĠDutch": 9381,
      "berdeen": 9382,
      "Ainsi": 9383,
      "ĠtÃªte": 9384,
      "Ġsoj": 9385,
      "Ġsoja": 9386,
      "áĮİáī½": 9387,
      "ored": 9388,
      "ĠAkin": 9389,
      "ĠMen": 9390,
      "Ġrá»į": 9391,
      "Ġrange": 9392,
      "ĠáĬ¥áĪ«áĪ±": 9393,
      "ĠDiv": 9394,
      "Ġáĭ¨áĬ¡": 9395,
      "ĠáĭĵáĭŃáĬĲáīµ": 9396,
      "Ġsein": 9397,
      "seed": 9398,
      "Ġchurch": 9399,
      "assa": 9400,
      "ĠChuo": 9401,
      "Ġkananan": 9402,
      "ĠadarÃŃ": 9403,
      "Ġmaking": 9404,
      "Ġáĭ¨áĬłáĭįáĪ®áįĵ": 9405,
      "Ġupon": 9406,
      "ĠáĮĢáĪĺáĪ¨": 9407,
      "wÃ²sÃłn": 9408,
      "ĠsupÃ©rie": 9409,
      "ĠáĬłáĪĿáī£": 9410,
      "Ġulikuwa": 9411,
      "Ġrespec": 9412,
      "ĠáĬŃáįįáĪĭáĮĪáĪŃ": 9413,
      "Ġnasarar": 9414,
      "American": 9415,
      "GB": 9416,
      "Hak": 9417,
      "Ol": 9418,
      "Pope": 9419,
      "bal": 9420,
      "eurs": 9421,
      "rary": 9422,
      "Ġkiongozi": 9423,
      "Ġáĭ¨áĪ«áĪ±": 9424,
      "ĠMoyen": 9425,
      "ĠSenegal": 9426,
      "ĠáīłáĬ«": 9427,
      "áĬĲáĬĽ": 9428,
      "Ġalgebra": 9429,
      "Ġconcent": 9430,
      "áĭ³áĪª": 9431,
      "Ġprojet": 9432,
      "ĠáĮįáĭµ": 9433,
      "Ġexcl": 9434,
      "Ġapa": 9435,
      "fika": 9436,
      "¢áīµáĭ®áĮµáĭ«áĬķ": 9437,
      "Ġtsara": 9438,
      "ĠAsiya": 9439,
      "Ġformation": 9440,
      "Ġmilieu": 9441,
      "wamna": 9442,
      "Ġ1928": 9443,
      "Union": 9444,
      "jenga": 9445,
      "yá»įkÃł": 9446,
      "ĠáĪĺáĪįáĬ©": 9447,
      "Ġáī°áĬ¨áī³áĭŃ": 9448,
      "ĠPaulo": 9449,
      "Ġtext": 9450,
      "ĠamÃ©rica": 9451,
      "Ġmultip": 9452,
      "Ġáĭ°áĪ´áīµ": 9453,
      "Ġrecherche": 9454,
      "ace": 9455,
      "bres": 9456,
      "far": 9457,
      "máº¹": 9458,
      "ĠlÃŃ": 9459,
      "Ġmess": 9460,
      "Ġmois": 9461,
      "áĪŃáĬĵ": 9462,
      "Ġhalin": 9463,
      "anding": 9464,
      "Ġwu": 9465,
      "Ġruwan": 9466,
      "ĠáĮĦ": 9467,
      "áĬĲáĪ£": 9468,
      "áĪĭáĪĭ": 9469,
      "áĬŃáĪŃáĪµáī¶áĪµ": 9470,
      "ĠEdo": 9471,
      "Ġáī°áĭ°áĪŃ": 9472,
      "ĠáĪĿáĪħ": 9473,
      "ĠáĪµáĭ«áĪľ": 9474,
[...]
